// This is a TensorFlow Lite model file that has been converted into a C data
// array using the convert_tflite_to_c_source() tool.

#if( USE_SWMEM == 1)
__attribute__((section(".SwMem_data")))
#elif( USE_EXTMEM == 1)
__attribute__((section(".ExtMem_data")))
#endif
const unsigned char vnr_model_data[] __attribute__((aligned(4))) = {
    0x20, 0x00, 0x00, 0x00, 0x54, 0x46, 0x4c, 0x33, 0x00, 0x00, 0x00, 0x00, 0x14,
    0x00, 0x20, 0x00, 0x04, 0x00, 0x08, 0x00, 0x0c, 0x00, 0x10, 0x00, 0x14, 0x00,
    0x00, 0x00, 0x18, 0x00, 0x1c, 0x00, 0x14, 0x00, 0x00, 0x00, 0x03, 0x00, 0x00,
    0x00, 0x6c, 0x00, 0x00, 0x00, 0x60, 0x00, 0x00, 0x00, 0x5c, 0x01, 0x00, 0x00,
    0x0c, 0x00, 0x00, 0x00, 0x04, 0x01, 0x00, 0x00, 0x6c, 0x00, 0x00, 0x00, 0x12,
    0x00, 0x00, 0x00, 0x08, 0x34, 0x00, 0x00, 0x04, 0x34, 0x00, 0x00, 0x90, 0x32,
    0x00, 0x00, 0x48, 0x22, 0x00, 0x00, 0x0c, 0x21, 0x00, 0x00, 0xd0, 0x10, 0x00,
    0x00, 0x14, 0x10, 0x00, 0x00, 0xd8, 0x08, 0x00, 0x00, 0x8c, 0x08, 0x00, 0x00,
    0xe4, 0x33, 0x00, 0x00, 0xe0, 0x33, 0x00, 0x00, 0xa0, 0x05, 0x00, 0x00, 0xd8,
    0x33, 0x00, 0x00, 0xf8, 0x03, 0x00, 0x00, 0xd0, 0x33, 0x00, 0x00, 0xcc, 0x33,
    0x00, 0x00, 0xc8, 0x33, 0x00, 0x00, 0xe8, 0x00, 0x00, 0x00, 0x01, 0x00, 0x00,
    0x00, 0x20, 0x01, 0x00, 0x00, 0x04, 0x00, 0x00, 0x00, 0xc8, 0x07, 0x00, 0x00,
    0x58, 0x03, 0x00, 0x00, 0x7c, 0x02, 0x00, 0x00, 0xc0, 0x01, 0x00, 0x00, 0x01,
    0x00, 0x00, 0x00, 0x10, 0x00, 0x00, 0x00, 0x0c, 0x00, 0x14, 0x00, 0x10, 0x00,
    0x0c, 0x00, 0x08, 0x00, 0x04, 0x00, 0x0c, 0x00, 0x00, 0x00, 0x10, 0x00, 0x00,
    0x00, 0x14, 0x00, 0x00, 0x00, 0x24, 0x00, 0x00, 0x00, 0x28, 0x00, 0x00, 0x00,
    0x00, 0x00, 0x00, 0x00, 0x00, 0x00, 0x00, 0x00, 0x0f, 0x00, 0x00, 0x00, 0x73,
    0x65, 0x72, 0x76, 0x69, 0x6e, 0x67, 0x5f, 0x64, 0x65, 0x66, 0x61, 0x75, 0x6c,
    0x74, 0x00, 0x01, 0x00, 0x00, 0x00, 0x14, 0x00, 0x00, 0x00, 0x01, 0x00, 0x00,
    0x00, 0x30, 0x00, 0x00, 0x00, 0x08, 0x00, 0x0c, 0x00, 0x08, 0x00, 0x04, 0x00,
    0x08, 0x00, 0x00, 0x00, 0x0f, 0x00, 0x00, 0x00, 0x04, 0x00, 0x00, 0x00, 0x12,
    0x00, 0x00, 0x00, 0x71, 0x75, 0x61, 0x6e, 0x74, 0x5f, 0x61, 0x63, 0x74, 0x69,
    0x76, 0x61, 0x74, 0x69, 0x6f, 0x6e, 0x5f, 0x38, 0x00, 0x00, 0x52, 0xce, 0xff,
    0xff, 0x04, 0x00, 0x00, 0x00, 0x07, 0x00, 0x00, 0x00, 0x69, 0x6e, 0x70, 0x75,
    0x74, 0x5f, 0x33, 0x00, 0x01, 0x00, 0x00, 0x00, 0x0c, 0x00, 0x00, 0x00, 0x08,
    0x00, 0x0c, 0x00, 0x04, 0x00, 0x08, 0x00, 0x08, 0x00, 0x00, 0x00, 0x08, 0x00,
    0x00, 0x00, 0x11, 0x00, 0x00, 0x00, 0x13, 0x00, 0x00, 0x00, 0x6d, 0x69, 0x6e,
    0x5f, 0x72, 0x75, 0x6e, 0x74, 0x69, 0x6d, 0x65, 0x5f, 0x76, 0x65, 0x72, 0x73,
    0x69, 0x6f, 0x6e, 0x00, 0x9a, 0xce, 0xff, 0xff, 0x04, 0x00, 0x00, 0x00, 0x10,
    0x00, 0x00, 0x00, 0x31, 0x2e, 0x31, 0x34, 0x2e, 0x30, 0x00, 0x00, 0x00, 0x00,
    0x00, 0x00, 0x00, 0x00, 0x00, 0x00, 0x0f, 0x00, 0x00, 0x00, 0x4d, 0x4c, 0x49,
    0x52, 0x20, 0x43, 0x6f, 0x6e, 0x76, 0x65, 0x72, 0x74, 0x65, 0x64, 0x2e, 0x00,
    0x00, 0x00, 0x0e, 0x00, 0x18, 0x00, 0x04, 0x00, 0x08, 0x00, 0x0c, 0x00, 0x10,
    0x00, 0x14, 0x00, 0x0e, 0x00, 0x00, 0x00, 0x4c, 0x00, 0x00, 0x00, 0x40, 0x00,
    0x00, 0x00, 0x34, 0x00, 0x00, 0x00, 0x14, 0x00, 0x00, 0x00, 0x04, 0x00, 0x00,
    0x00, 0x04, 0x00, 0x00, 0x00, 0x6d, 0x61, 0x69, 0x6e, 0x00, 0x00, 0x00, 0x00,
    0x06, 0x00, 0x00, 0x00, 0xc0, 0x05, 0x00, 0x00, 0x8c, 0x04, 0x00, 0x00, 0x10,
    0x03, 0x00, 0x00, 0xb8, 0x01, 0x00, 0x00, 0x10, 0x01, 0x00, 0x00, 0x58, 0x00,
    0x00, 0x00, 0x01, 0x00, 0x00, 0x00, 0x0f, 0x00, 0x00, 0x00, 0x01, 0x00, 0x00,
    0x00, 0x00, 0x00, 0x00, 0x00, 0x10, 0x00, 0x00, 0x00, 0xb4, 0x31, 0x00, 0x00,
    0x70, 0x31, 0x00, 0x00, 0x98, 0x30, 0x00, 0x00, 0x5c, 0x20, 0x00, 0x00, 0x20,
    0x1f, 0x00, 0x00, 0xe4, 0x0e, 0x00, 0x00, 0x28, 0x0e, 0x00, 0x00, 0xec, 0x06,
    0x00, 0x00, 0x60, 0x06, 0x00, 0x00, 0xf4, 0x04, 0x00, 0x00, 0xf4, 0x03, 0x00,
    0x00, 0x74, 0x03, 0x00, 0x00, 0x68, 0x02, 0x00, 0x00, 0xcc, 0x01, 0x00, 0x00,
    0xf0, 0x00, 0x00, 0x00, 0x34, 0x00, 0x00, 0x00, 0x56, 0xff, 0xff, 0xff, 0x03,
    0x00, 0x00, 0x00, 0x10, 0x00, 0x00, 0x00, 0x04, 0x00, 0x00, 0x00, 0x01, 0x00,
    0x00, 0x00, 0x0f, 0x00, 0x00, 0x00, 0x01, 0x00, 0x00, 0x00, 0x0e, 0x00, 0x00,
    0x00, 0x7c, 0xfe, 0xff, 0xff, 0x0e, 0x00, 0x00, 0x00, 0x00, 0x00, 0x00, 0x0e,
    0x02, 0x00, 0x00, 0x00, 0xd0, 0xce, 0xff, 0xff, 0x00, 0x00, 0x00, 0x09, 0x40,
    0x00, 0x00, 0x00, 0x10, 0x00, 0x00, 0x00, 0x18, 0x00, 0x00, 0x00, 0x40, 0x00,
    0x00, 0x00, 0x04, 0x00, 0x00, 0x00, 0x02, 0x00, 0x00, 0x00, 0xff, 0xff, 0xff,
    0xff, 0x01, 0x00, 0x00, 0x00, 0x19, 0x00, 0x00, 0x00, 0x53, 0x74, 0x61, 0x74,
    0x65, 0x66, 0x75, 0x6c, 0x50, 0x61, 0x72, 0x74, 0x69, 0x74, 0x69, 0x6f, 0x6e,
    0x65, 0x64, 0x43, 0x61, 0x6c, 0x6c, 0x3a, 0x30, 0x00, 0x00, 0x00, 0x02, 0x00,
    0x00, 0x00, 0x01, 0x00, 0x00, 0x00, 0x01, 0x00, 0x00, 0x00, 0xac, 0xce, 0xff,
    0xff, 0x18, 0x00, 0x00, 0x00, 0x04, 0x00, 0x00, 0x00, 0x01, 0x00, 0x00, 0x00,
    0x80, 0xff, 0xff, 0xff, 0xff, 0xff, 0xff, 0xff, 0x00, 0x00, 0x00, 0x00, 0x01,
    0x00, 0x00, 0x00, 0x00, 0x00, 0x80, 0x3b, 0x00, 0x00, 0x0a, 0x00, 0x10, 0x00,
    0x04, 0x00, 0x08, 0x00, 0x0c, 0x00, 0x0a, 0x00, 0x00, 0x00, 0x02, 0x00, 0x00,
    0x00, 0x10, 0x00, 0x00, 0x00, 0x04, 0x00, 0x00, 0x00, 0x01, 0x00, 0x00, 0x00,
    0x0e, 0x00, 0x00, 0x00, 0x02, 0x00, 0x00, 0x00, 0x0d, 0x00, 0x00, 0x00, 0x07,
    0x00, 0x00, 0x00, 0x34, 0xff, 0xff, 0xff, 0x16, 0x00, 0x00, 0x00, 0x00, 0x00,
    0x00, 0x16, 0x01, 0x00, 0x00, 0x00, 0x88, 0xcf, 0xff, 0xff, 0x00, 0x00, 0x00,
    0x09, 0x28, 0x00, 0x00, 0x00, 0x0f, 0x00, 0x00, 0x00, 0x18, 0x00, 0x00, 0x00,
    0x28, 0x00, 0x00, 0x00, 0x04, 0x00, 0x00, 0x00, 0x02, 0x00, 0x00, 0x00, 0xff,
    0xff, 0xff, 0xff, 0x01, 0x00, 0x00, 0x00, 0x01, 0x00, 0x00, 0x00, 0x44, 0x00,
    0x00, 0x00, 0x02, 0x00, 0x00, 0x00, 0x01, 0x00, 0x00, 0x00, 0x01, 0x00, 0x00,
    0x00, 0x4c, 0xcf, 0xff, 0xff, 0x18, 0x00, 0x00, 0x00, 0x04, 0x00, 0x00, 0x00,
    0x01, 0x00, 0x00, 0x00, 0xe5, 0xff, 0xff, 0xff, 0xff, 0xff, 0xff, 0xff, 0x00,
    0x00, 0x00, 0x00, 0x01, 0x00, 0x00, 0x00, 0x20, 0xaa, 0x7f, 0x3d, 0x00, 0x00,
    0x0e, 0x00, 0x1a, 0x00, 0x08, 0x00, 0x0c, 0x00, 0x10, 0x00, 0x07, 0x00, 0x14,
    0x00, 0x0e, 0x00, 0x00, 0x00, 0x00, 0x00, 0x00, 0x01, 0x01, 0x00, 0x00, 0x00,
    0x30, 0x00, 0x00, 0x00, 0x24, 0x00, 0x00, 0x00, 0x10, 0x00, 0x00, 0x00, 0x00,
    0x00, 0x0a, 0x00, 0x10, 0x00, 0x0f, 0x00, 0x04, 0x00, 0x08, 0x00, 0x0a, 0x00,
    0x00, 0x00, 0x01, 0x00, 0x00, 0x00, 0x01, 0x00, 0x00, 0x00, 0x00, 0x00, 0x00,
    0x01, 0x01, 0x00, 0x00, 0x00, 0x0d, 0x00, 0x00, 0x00, 0x03, 0x00, 0x00, 0x00,
    0x0b, 0x00, 0x00, 0x00, 0x0c, 0x00, 0x00, 0x00, 0x0a, 0x00, 0x00, 0x00, 0x0c,
    0x00, 0x10, 0x00, 0x0b, 0x00, 0x00, 0x00, 0x0c, 0x00, 0x04, 0x00, 0x0c, 0x00,
    0x00, 0x00, 0x03, 0x00, 0x00, 0x00, 0x00, 0x00, 0x00, 0x03, 0x03, 0x00, 0x00,
    0x00, 0x60, 0xd0, 0xff, 0xff, 0x00, 0x00, 0x00, 0x09, 0x30, 0x00, 0x00, 0x00,
    0x0e, 0x00, 0x00, 0x00, 0x20, 0x00, 0x00, 0x00, 0x38, 0x00, 0x00, 0x00, 0x04,
    0x00, 0x00, 0x00, 0x04, 0x00, 0x00, 0x00, 0xff, 0xff, 0xff, 0xff, 0x01, 0x00,
    0x00, 0x00, 0x01, 0x00, 0x00, 0x00, 0x01, 0x00, 0x00, 0x00, 0x01, 0x00, 0x00,
    0x00, 0x43, 0x00, 0x00, 0x00, 0x04, 0x00, 0x00, 0x00, 0x01, 0x00, 0x00, 0x00,
    0x01, 0x00, 0x00, 0x00, 0x01, 0x00, 0x00, 0x00, 0x01, 0x00, 0x00, 0x00, 0x34,
    0xd0, 0xff, 0xff, 0x14, 0x00, 0x00, 0x00, 0x04, 0x00, 0x00, 0x00, 0x01, 0x00,
    0x00, 0x00, 0xe5, 0xff, 0xff, 0xff, 0xff, 0xff, 0xff, 0xff, 0x01, 0x00, 0x00,
    0x00, 0x20, 0xaa, 0x7f, 0x3d, 0x9a, 0xd1, 0xff, 0xff, 0x04, 0x00, 0x00, 0x00,
    0x20, 0x00, 0x00, 0x00, 0xaa, 0x49, 0x24, 0x8e, 0x3b, 0x52, 0x8c, 0x29, 0x91,
    0x16, 0x2a, 0x34, 0x1a, 0x23, 0x32, 0x1e, 0x7c, 0x27, 0x1d, 0x92, 0x33, 0x1c,
    0x25, 0x81, 0x9b, 0x25, 0x98, 0x2c, 0x34, 0xa5, 0x1a, 0x32, 0x32, 0xd1, 0xff,
    0xff, 0x00, 0x00, 0x00, 0x09, 0x18, 0x00, 0x00, 0x00, 0x0d, 0x00, 0x00, 0x00,
    0x08, 0x00, 0x00, 0x00, 0x20, 0x00, 0x00, 0x00, 0x01, 0x00, 0x00, 0x00, 0x42,
    0x00, 0x00, 0x00, 0x04, 0x00, 0x00, 0x00, 0x01, 0x00, 0x00, 0x00, 0x01, 0x00,
    0x00, 0x00, 0x01, 0x00, 0x00, 0x00, 0x20, 0x00, 0x00, 0x00, 0xb4, 0xd0, 0xff,
    0xff, 0x14, 0x00, 0x00, 0x00, 0x04, 0x00, 0x00, 0x00, 0x01, 0x00, 0x00, 0x00,
    0x00, 0x00, 0x00, 0x00, 0x00, 0x00, 0x00, 0x00, 0x01, 0x00, 0x00, 0x00, 0xa4,
    0xff, 0x19, 0x3a, 0x68, 0xfd, 0xff, 0xff, 0xa0, 0x00, 0x00, 0x00, 0x94, 0x00,
    0x00, 0x00, 0x04, 0x00, 0x00, 0x00, 0x87, 0x00, 0x00, 0x00, 0x6b, 0x74, 0x00,
    0x6d, 0x70, 0x00, 0x08, 0x80, 0x00, 0x00, 0x00, 0x80, 0x00, 0x00, 0x00, 0x00,
    0x61, 0x67, 0x67, 0x70, 0x00, 0x18, 0x00, 0x08, 0x00, 0x00, 0x00, 0x00, 0x00,
    0x00, 0x00, 0x00, 0x00, 0x00, 0x03, 0x00, 0x00, 0x00, 0x00, 0x00, 0x00, 0x00,
    0x00, 0x00, 0x00, 0x00, 0x00, 0x6f, 0x74, 0x70, 0x00, 0x08, 0x20, 0x00, 0x00,
    0x00, 0x04, 0x00, 0xfb, 0xff, 0x00, 0x73, 0x63, 0x72, 0x61, 0x74, 0x63, 0x68,
    0x00, 0x61, 0x6b, 0x70, 0x00, 0x20, 0x00, 0x00, 0x00, 0x00, 0x01, 0x00, 0x00,
    0x00, 0x00, 0x00, 0x00, 0x00, 0x01, 0x00, 0x00, 0x00, 0x02, 0x00, 0x00, 0x00,
    0x00, 0x00, 0x00, 0x00, 0x00, 0x00, 0x00, 0x00, 0x20, 0x00, 0x00, 0x00, 0x00,
    0x01, 0x22, 0x14, 0x06, 0x5f, 0x2b, 0x71, 0x6f, 0x44, 0x37, 0x06, 0x01, 0x06,
    0x62, 0x0d, 0x00, 0x74, 0x48, 0x00, 0x14, 0x28, 0x04, 0x14, 0x14, 0x04, 0x0c,
    0x24, 0x01, 0x00, 0x01, 0x00, 0x00, 0x00, 0x0b, 0x00, 0x00, 0x00, 0x03, 0x00,
    0x00, 0x00, 0x09, 0x00, 0x00, 0x00, 0x02, 0x00, 0x00, 0x00, 0x01, 0x00, 0x00,
    0x00, 0x00, 0xd2, 0xff, 0xff, 0x00, 0x00, 0x00, 0x09, 0x30, 0x00, 0x00, 0x00,
    0x0c, 0x00, 0x00, 0x00, 0x20, 0x00, 0x00, 0x00, 0x38, 0x00, 0x00, 0x00, 0x04,
    0x00, 0x00, 0x00, 0x04, 0x00, 0x00, 0x00, 0xff, 0xff, 0xff, 0xff, 0x01, 0x00,
    0x00, 0x00, 0x01, 0x00, 0x00, 0x00, 0x20, 0x00, 0x00, 0x00, 0x01, 0x00, 0x00,
    0x00, 0x41, 0x00, 0x00, 0x00, 0x04, 0x00, 0x00, 0x00, 0x01, 0x00, 0x00, 0x00,
    0x01, 0x00, 0x00, 0x00, 0x01, 0x00, 0x00, 0x00, 0x20, 0x00, 0x00, 0x00, 0xd4,
    0xd1, 0xff, 0xff, 0x14, 0x00, 0x00, 0x00, 0x04, 0x00, 0x00, 0x00, 0x01, 0x00,
    0x00, 0x00, 0x80, 0xff, 0xff, 0xff, 0xff, 0xff, 0xff, 0xff, 0x01, 0x00, 0x00,
    0x00, 0x41, 0x77, 0xfa, 0x3d, 0x3a, 0xd3, 0xff, 0xff, 0x04, 0x00, 0x00, 0x00,
    0x04, 0x00, 0x00, 0x00, 0xf0, 0xe4, 0xff, 0xff, 0xb6, 0xd2, 0xff, 0xff, 0x00,
    0x00, 0x00, 0x02, 0x18, 0x00, 0x00, 0x00, 0x0b, 0x00, 0x00, 0x00, 0x08, 0x00,
    0x00, 0x00, 0x14, 0x00, 0x00, 0x00, 0x01, 0x00, 0x00, 0x00, 0x39, 0x00, 0x00,
    0x00, 0x01, 0x00, 0x00, 0x00, 0x01, 0x00, 0x00, 0x00, 0x2c, 0xd2, 0xff, 0xff,
    0x14, 0x00, 0x00, 0x00, 0x04, 0x00, 0x00, 0x00, 0x01, 0x00, 0x00, 0x00, 0x00,
    0x00, 0x00, 0x00, 0x00, 0x00, 0x00, 0x00, 0x01, 0x00, 0x00, 0x00, 0x64, 0xab,
    0x96, 0x38, 0xe0, 0xfe, 0xff, 0xff, 0xa0, 0x00, 0x00, 0x00, 0x94, 0x00, 0x00,
    0x00, 0x04, 0x00, 0x00, 0x00, 0x87, 0x00, 0x00, 0x00, 0x6b, 0x74, 0x00, 0x6d,
    0x70, 0x00, 0x08, 0x60, 0x00, 0x00, 0x00, 0x20, 0x00, 0x00, 0x00, 0x00, 0x61,
    0x67, 0x67, 0x70, 0x00, 0x18, 0x00, 0x04, 0x00, 0x00, 0x00, 0x00, 0x00, 0x00,
    0x01, 0x00, 0x00, 0x00, 0x00, 0x00, 0x00, 0x00, 0x00, 0x00, 0x00, 0x00, 0x20,
    0x00, 0x00, 0x00, 0x00, 0x6f, 0x74, 0x70, 0x00, 0x08, 0x40, 0x00, 0x00, 0x00,
    0x04, 0x00, 0xfa, 0xff, 0x00, 0x73, 0x63, 0x72, 0x61, 0x74, 0x63, 0x68, 0x00,
    0x61, 0x6b, 0x70, 0x00, 0x20, 0x00, 0x00, 0x00, 0x00, 0x01, 0x00, 0x00, 0x00,
    0x00, 0x00, 0x00, 0x00, 0x02, 0x00, 0x00, 0x00, 0x04, 0x00, 0x00, 0x00, 0x00,
    0x00, 0x00, 0x00, 0x00, 0x00, 0x00, 0x00, 0x40, 0x00, 0x00, 0x00, 0x00, 0x01,
    0x22, 0x14, 0x06, 0x5f, 0x2b, 0x71, 0x6f, 0x44, 0x37, 0x06, 0x01, 0x06, 0x62,
    0x0d, 0x00, 0x74, 0x48, 0x00, 0x14, 0x28, 0x04, 0x14, 0x14, 0x04, 0x0c, 0x24,
    0x01, 0x00, 0x01, 0x00, 0x00, 0x00, 0x09, 0x00, 0x00, 0x00, 0x03, 0x00, 0x00,
    0x00, 0x08, 0x00, 0x00, 0x00, 0x04, 0x00, 0x00, 0x00, 0x03, 0x00, 0x00, 0x00,
    0x78, 0xd3, 0xff, 0xff, 0x00, 0x00, 0x00, 0x09, 0x30, 0x00, 0x00, 0x00, 0x0a,
    0x00, 0x00, 0x00, 0x20, 0x00, 0x00, 0x00, 0x38, 0x00, 0x00, 0x00, 0x04, 0x00,
    0x00, 0x00, 0x04, 0x00, 0x00, 0x00, 0xff, 0xff, 0xff, 0xff, 0x01, 0x00, 0x00,
    0x00, 0x02, 0x00, 0x00, 0x00, 0x40, 0x00, 0x00, 0x00, 0x01, 0x00, 0x00, 0x00,
    0x38, 0x00, 0x00, 0x00, 0x04, 0x00, 0x00, 0x00, 0x01, 0x00, 0x00, 0x00, 0x01,
    0x00, 0x00, 0x00, 0x02, 0x00, 0x00, 0x00, 0x40, 0x00, 0x00, 0x00, 0x4c, 0xd3,
    0xff, 0xff, 0x14, 0x00, 0x00, 0x00, 0x04, 0x00, 0x00, 0x00, 0x01, 0x00, 0x00,
    0x00, 0x80, 0xff, 0xff, 0xff, 0xff, 0xff, 0xff, 0xff, 0x01, 0x00, 0x00, 0x00,
    0xac, 0xcf, 0xe5, 0x3d, 0x10, 0x00, 0x10, 0x00, 0x00, 0x00, 0x04, 0x00, 0x08,
    0x00, 0x00, 0x00, 0x00, 0x00, 0x0c, 0x00, 0x10, 0x00, 0x00, 0x00, 0xa8, 0x00,
    0x00, 0x00, 0x9c, 0x00, 0x00, 0x00, 0x04, 0x00, 0x00, 0x00, 0x8f, 0x00, 0x00,
    0x00, 0x6b, 0x74, 0x00, 0x6d, 0x70, 0x00, 0x20, 0x60, 0x00, 0x00, 0x00, 0x18,
    0x00, 0x00, 0x00, 0x00, 0x00, 0x00, 0x00, 0x01, 0x00, 0x00, 0x00, 0x00, 0x00,
    0x00, 0x00, 0x08, 0x00, 0x00, 0x00, 0xf8, 0xff, 0xff, 0xff, 0x30, 0x00, 0x00,
    0x00, 0x00, 0x61, 0x67, 0x67, 0x70, 0x00, 0x08, 0x20, 0x00, 0x00, 0x00, 0x30,
    0x00, 0x00, 0x00, 0x00, 0x6f, 0x74, 0x70, 0x00, 0x08, 0x20, 0x00, 0x00, 0x00,
    0x04, 0x00, 0xfc, 0xff, 0x00, 0x73, 0x63, 0x72, 0x61, 0x74, 0x63, 0x68, 0x00,
    0x61, 0x6b, 0x70, 0x00, 0x20, 0x00, 0x00, 0x00, 0x00, 0x01, 0x00, 0x00, 0x00,
    0x00, 0x00, 0x00, 0x00, 0x03, 0x00, 0x00, 0x00, 0x02, 0x00, 0x00, 0x00, 0x00,
    0x00, 0x00, 0x00, 0x00, 0x00, 0x00, 0x00, 0x20, 0x00, 0x00, 0x00, 0x00, 0x01,
    0x22, 0x14, 0x06, 0x4f, 0x2b, 0x79, 0x77, 0x44, 0x37, 0x06, 0x01, 0x06, 0x52,
    0x0d, 0x01, 0x7c, 0x48, 0x60, 0x14, 0x28, 0x04, 0x14, 0x14, 0x04, 0x0c, 0x24,
    0x01, 0x00, 0x01, 0x00, 0x00, 0x00, 0x08, 0x00, 0x00, 0x00, 0x03, 0x00, 0x00,
    0x00, 0x00, 0x00, 0x00, 0x00, 0x06, 0x00, 0x00, 0x00, 0x05, 0x00, 0x00, 0x00,
    0x0c, 0x00, 0x10, 0x00, 0x0f, 0x00, 0x08, 0x00, 0x00, 0x00, 0x04, 0x00, 0x0c,
    0x00, 0x00, 0x00, 0x20, 0x00, 0x00, 0x00, 0x08, 0x00, 0x00, 0x00, 0x00, 0x00,
    0x00, 0x20, 0x0c, 0x00, 0x00, 0x00, 0x58, 0x43, 0x5f, 0x63, 0x6f, 0x6e, 0x76,
    0x32, 0x64, 0x5f, 0x76, 0x32, 0x00, 0x00, 0x00, 0x00, 0xe0, 0xd4, 0xff, 0xff,
    0x00, 0x00, 0x00, 0x09, 0x30, 0x00, 0x00, 0x00, 0x09, 0x00, 0x00, 0x00, 0x20,
    0x00, 0x00, 0x00, 0x38, 0x00, 0x00, 0x00, 0x04, 0x00, 0x00, 0x00, 0x04, 0x00,
    0x00, 0x00, 0xff, 0xff, 0xff, 0xff, 0x01, 0x00, 0x00, 0x00, 0x03, 0x00, 0x00,
    0x00, 0x20, 0x00, 0x00, 0x00, 0x01, 0x00, 0x00, 0x00, 0x37, 0x00, 0x00, 0x00,
    0x04, 0x00, 0x00, 0x00, 0x01, 0x00, 0x00, 0x00, 0x01, 0x00, 0x00, 0x00, 0x03,
    0x00, 0x00, 0x00, 0x20, 0x00, 0x00, 0x00, 0xb4, 0xd4, 0xff, 0xff, 0x14, 0x00,
    0x00, 0x00, 0x04, 0x00, 0x00, 0x00, 0x01, 0x00, 0x00, 0x00, 0x80, 0xff, 0xff,
    0xff, 0xff, 0xff, 0xff, 0xff, 0x01, 0x00, 0x00, 0x00, 0x33, 0x27, 0xf5, 0x3d,
    0x1a, 0xd6, 0xff, 0xff, 0x04, 0x00, 0x00, 0x00, 0x10, 0x00, 0x00, 0x00, 0xff,
    0xff, 0xff, 0xff, 0xff, 0xff, 0xff, 0xff, 0x01, 0x00, 0x00, 0x00, 0x00, 0x00,
    0x00, 0x00, 0xa2, 0xd5, 0xff, 0xff, 0x00, 0x00, 0x00, 0x04, 0x18, 0x00, 0x00,
    0x00, 0x08, 0x00, 0x00, 0x00, 0x08, 0x00, 0x00, 0x00, 0x14, 0x00, 0x00, 0x00,
    0x01, 0x00, 0x00, 0x00, 0x36, 0x00, 0x00, 0x00, 0x01, 0x00, 0x00, 0x00, 0x02,
    0x00, 0x00, 0x00, 0xec, 0xd4, 0xff, 0xff, 0x62, 0xd6, 0xff, 0xff, 0x04, 0x00,
    0x00, 0x00, 0x00, 0x07, 0x00, 0x00, 0x60, 0xa9, 0x4e, 0xd5, 0xec, 0x16, 0x29,
    0x1a, 0xe9, 0xf1, 0x21, 0xf2, 0xf2, 0xf6, 0x2f, 0x68, 0x53, 0x46, 0x2f, 0x28,
    0x2e, 0x05, 0xc2, 0xa9, 0x4d, 0x81, 0x37, 0xba, 0xd0, 0xde, 0x08, 0x13, 0x48,
    0xe1, 0xda, 0xf6, 0x08, 0x18, 0x21, 0x08, 0x08, 0x3f, 0x57, 0x13, 0xd8, 0x81,
    0x97, 0x18, 0xeb, 0xbe, 0x0c, 0xfe, 0x05, 0xd8, 0xd7, 0x0a, 0x0f, 0xbc, 0xdd,
    0x00, 0xde, 0xde, 0xd2, 0xda, 0xcd, 0x7b, 0x7c, 0xcc, 0xff, 0x77, 0x32, 0x99,
    0xc0, 0x2f, 0x2b, 0x20, 0xf5, 0xda, 0x99, 0x7f, 0x3c, 0x64, 0x9c, 0xb0, 0xd8,
    0x49, 0x1d, 0x70, 0xe1, 0x36, 0x9b, 0xa3, 0x7d, 0x9e, 0x44, 0x74, 0x02, 0xf0,
    0x14, 0x12, 0x68, 0x57, 0x27, 0x11, 0xfc, 0x39, 0x7f, 0x49, 0x24, 0x3f, 0x02,
    0xfd, 0x0b, 0x1b, 0x34, 0xc7, 0xb8, 0xc4, 0x00, 0xf2, 0x07, 0xd3, 0xf6, 0xe1,
    0x07, 0xff, 0xcb, 0xc7, 0x64, 0xb0, 0x73, 0xe9, 0x9d, 0x4e, 0xe8, 0x42, 0x68,
    0x5b, 0xbc, 0x7f, 0xcb, 0x4a, 0x34, 0x4f, 0x58, 0xcf, 0xf2, 0xb2, 0xef, 0xbb,
    0xf3, 0xde, 0xfa, 0x14, 0xe5, 0x1e, 0xde, 0x21, 0x1b, 0x4c, 0x45, 0x85, 0xcf,
    0xd8, 0xdb, 0xe7, 0xce, 0xc0, 0xd6, 0xc7, 0xc7, 0xfb, 0xf7, 0xc8, 0xfe, 0x2a,
    0x5a, 0x20, 0x15, 0xcb, 0x60, 0x41, 0x01, 0x7f, 0x68, 0xab, 0xeb, 0x0d, 0xe6,
    0x05, 0xe3, 0xff, 0xda, 0xfc, 0x18, 0xe2, 0xec, 0xad, 0x05, 0x19, 0x11, 0xeb,
    0x0e, 0x2f, 0x22, 0xf1, 0x26, 0x1a, 0x1c, 0xf8, 0x50, 0x10, 0xfd, 0xe1, 0x0b,
    0x03, 0xc4, 0xcb, 0xd7, 0xb8, 0xd0, 0x81, 0xf9, 0x07, 0xd5, 0xfb, 0xc0, 0xc4,
    0xf1, 0xd9, 0xed, 0xfd, 0xf5, 0xea, 0x5a, 0x19, 0xbc, 0x81, 0xd0, 0x0c, 0xda,
    0x6a, 0xf7, 0x12, 0x0b, 0x37, 0x1d, 0xb6, 0xf0, 0x34, 0x08, 0x09, 0x2f, 0x47,
    0x1d, 0xef, 0xca, 0x40, 0x3c, 0x28, 0x0c, 0xe6, 0x81, 0x90, 0x06, 0xfd, 0x27,
    0x08, 0xe0, 0xc4, 0x2a, 0x48, 0xef, 0xd2, 0x38, 0x3c, 0x00, 0xeb, 0x0b, 0x03,
    0xcb, 0x25, 0x2a, 0x3e, 0x20, 0xe0, 0x9c, 0xbd, 0x31, 0x81, 0xeb, 0xb1, 0xc2,
    0xa3, 0xdd, 0xed, 0xe7, 0xe1, 0xce, 0xd9, 0xf9, 0x1b, 0xf9, 0x25, 0xf6, 0xf2,
    0xd4, 0xd1, 0x38, 0x2a, 0x14, 0x2e, 0x49, 0xd7, 0x30, 0xf7, 0xfd, 0xf7, 0x09,
    0x11, 0xd2, 0x00, 0xef, 0xd0, 0x09, 0xf1, 0xd0, 0xe7, 0xc3, 0xd5, 0xe0, 0x81,
    0x90, 0xfd, 0xc6, 0xdc, 0x01, 0xdc, 0xe5, 0xcf, 0xd0, 0xc1, 0xf9, 0x08, 0x13,
    0x13, 0x05, 0xc9, 0x2b, 0x77, 0x30, 0x20, 0xfa, 0x0c, 0xe8, 0xe6, 0xfb, 0x3a,
    0xd7, 0xde, 0xc2, 0x81, 0xc2, 0x58, 0x5a, 0xe7, 0x18, 0xf1, 0xb1, 0xfc, 0xf3,
    0x19, 0x29, 0x15, 0x0f, 0xe9, 0x2d, 0x0c, 0x01, 0x01, 0x32, 0x60, 0x23, 0x07,
    0xa4, 0xb7, 0xd9, 0xb5, 0xc8, 0x3c, 0x4a, 0xed, 0xce, 0x2a, 0x0c, 0xe5, 0xc1,
    0x33, 0x1b, 0xb2, 0xed, 0xc0, 0x59, 0x26, 0xfe, 0xfa, 0x2c, 0xe1, 0x81, 0x0d,
    0xef, 0x16, 0x26, 0x31, 0x2f, 0x00, 0xff, 0x7f, 0x0c, 0x23, 0xfe, 0x15, 0x18,
    0x15, 0x02, 0x04, 0x03, 0x0b, 0x02, 0x09, 0xcd, 0xde, 0xed, 0xf9, 0x04, 0x26,
    0x01, 0x06, 0xf5, 0xf5, 0xd2, 0xf3, 0xbb, 0xab, 0xb1, 0xac, 0xd2, 0xd7, 0xe5,
    0x2a, 0x7f, 0x50, 0x30, 0xf4, 0xf7, 0x01, 0xc6, 0xae, 0xf2, 0x03, 0x04, 0xee,
    0x3e, 0xee, 0xea, 0x18, 0xf0, 0xea, 0xce, 0xd5, 0x18, 0xfc, 0xce, 0x31, 0x6d,
    0x25, 0x1d, 0xef, 0xc7, 0xf0, 0x39, 0x7f, 0xbb, 0xf4, 0x7d, 0x73, 0xcd, 0x6b,
    0xfb, 0xfd, 0xe2, 0xa3, 0x67, 0x26, 0x5f, 0x8f, 0x45, 0x68, 0xe7, 0xe8, 0x6e,
    0x74, 0x90, 0xa4, 0x00, 0x15, 0xf8, 0x11, 0x65, 0x3e, 0x01, 0xb2, 0x10, 0x08,
    0xf3, 0xeb, 0xba, 0xea, 0x0c, 0xeb, 0xfe, 0x24, 0xec, 0x03, 0xe7, 0xc7, 0xc3,
    0xbb, 0xf6, 0xf6, 0x34, 0x1b, 0x1e, 0xea, 0xc2, 0x18, 0x1b, 0xf8, 0x36, 0x22,
    0x37, 0x06, 0x03, 0x52, 0x38, 0xe1, 0xb9, 0x4e, 0xf3, 0x5e, 0x3d, 0x2f, 0x65,
    0xe2, 0x30, 0x63, 0x56, 0x65, 0x9f, 0x83, 0xba, 0x07, 0x20, 0x16, 0xe7, 0xd4,
    0xed, 0xae, 0xc6, 0xe9, 0x16, 0xf0, 0xfd, 0xdb, 0x1e, 0x0b, 0xfd, 0xfa, 0x2b,
    0xcd, 0xb9, 0x34, 0xe3, 0xa1, 0x7b, 0x08, 0x5b, 0x1b, 0x73, 0x00, 0x43, 0x52,
    0xba, 0xdb, 0xda, 0x25, 0xf1, 0x0d, 0xf6, 0xef, 0x46, 0x1f, 0x13, 0xd5, 0x6a,
    0x0e, 0xec, 0x42, 0x10, 0xf0, 0x44, 0x35, 0x30, 0xde, 0x11, 0x2f, 0x2d, 0xec,
    0x1d, 0xc9, 0xc9, 0xb6, 0x01, 0x23, 0xdd, 0x27, 0x4b, 0x63, 0xe5, 0x8e, 0xbd,
    0xfa, 0x2b, 0x3a, 0x15, 0xd7, 0xf6, 0x04, 0xee, 0xbf, 0xfc, 0x13, 0x24, 0xe5,
    0xda, 0xdc, 0x45, 0x49, 0xe3, 0xcb, 0x01, 0x20, 0x1f, 0xfa, 0x23, 0xef, 0x08,
    0x02, 0xfc, 0x01, 0x21, 0xf7, 0xeb, 0x1e, 0xd6, 0x01, 0xff, 0x01, 0x2b, 0xe0,
    0xfd, 0x2e, 0x3b, 0x4e, 0x01, 0xe5, 0x16, 0x18, 0x3c, 0x3e, 0x79, 0x22, 0x34,
    0x33, 0x1a, 0xf0, 0x0c, 0x03, 0xb5, 0x88, 0xd1, 0x67, 0x6b, 0x02, 0x2a, 0x13,
    0xf1, 0x00, 0x18, 0xec, 0xf3, 0xd6, 0x25, 0xd4, 0xe2, 0x24, 0xd5, 0xbd, 0xae,
    0x64, 0x08, 0xc1, 0x1b, 0xe5, 0x13, 0x64, 0x28, 0x3d, 0x06, 0xc9, 0xf1, 0xec,
    0xd9, 0xf9, 0x0d, 0x03, 0xd0, 0xf0, 0x22, 0x24, 0x31, 0x1c, 0x0b, 0x36, 0x01,
    0xfa, 0xe9, 0xb7, 0x09, 0x1b, 0x0b, 0x07, 0x2d, 0x0e, 0x03, 0x19, 0x18, 0xf6,
    0xd9, 0xb7, 0x24, 0x11, 0xe0, 0x2b, 0x23, 0xf7, 0x69, 0xff, 0xf2, 0x67, 0x6d,
    0x57, 0x26, 0x44, 0x9d, 0x08, 0x41, 0xfb, 0xca, 0x56, 0xa9, 0x01, 0xc3, 0x0e,
    0xf3, 0x0a, 0xf8, 0x19, 0x30, 0x0f, 0xe4, 0x30, 0x2b, 0x28, 0x13, 0x30, 0x2d,
    0xf8, 0xea, 0xd8, 0x39, 0x28, 0xd8, 0x7f, 0xc8, 0x27, 0xcd, 0x1c, 0x1e, 0x15,
    0x0c, 0xd9, 0xf2, 0x10, 0x13, 0xb4, 0xdb, 0xa6, 0xe5, 0x1c, 0x21, 0x36, 0x31,
    0x09, 0x0e, 0x1d, 0x12, 0xe9, 0x02, 0xe8, 0xf1, 0xfe, 0x2d, 0x10, 0xf5, 0xe9,
    0xf2, 0x09, 0x05, 0xdf, 0xd5, 0xc9, 0x7b, 0x22, 0x95, 0x0e, 0xe9, 0x61, 0x26,
    0x96, 0xfa, 0x07, 0x25, 0x81, 0x60, 0x56, 0xe5, 0x02, 0x57, 0xdb, 0x9b, 0xbb,
    0x52, 0x5a, 0xa0, 0xac, 0x68, 0x70, 0x6b, 0x99, 0x7f, 0x06, 0x57, 0x16, 0x4d,
    0x7c, 0xab, 0xde, 0xe5, 0x21, 0x20, 0xa5, 0xb0, 0xa5, 0x7d, 0xdf, 0x68, 0x0e,
    0x12, 0x29, 0xb0, 0x70, 0x3d, 0x3f, 0x78, 0x35, 0xdd, 0x1a, 0x70, 0x32, 0xf5,
    0x15, 0xcf, 0x50, 0x6f, 0xb1, 0xd0, 0x13, 0x8c, 0x0e, 0xb2, 0x90, 0xfa, 0xf0,
    0xe8, 0xe6, 0x03, 0xc8, 0xff, 0x60, 0xdd, 0xdd, 0x19, 0x07, 0x26, 0x3b, 0x15,
    0xfa, 0xaa, 0xd1, 0x0b, 0x50, 0xeb, 0x7f, 0x0c, 0xd2, 0x27, 0x15, 0xcb, 0x52,
    0x22, 0xe2, 0x07, 0x9b, 0x91, 0x48, 0x13, 0x1e, 0x6f, 0x8f, 0x67, 0x88, 0xcb,
    0x3e, 0x2c, 0x75, 0x5c, 0x02, 0x5d, 0x50, 0x37, 0xad, 0xba, 0x2d, 0xf7, 0x7c,
    0x21, 0xd1, 0x66, 0x7d, 0x0c, 0x41, 0x5d, 0xd5, 0x1f, 0x16, 0xc5, 0xf9, 0x63,
    0x6a, 0xf0, 0x9d, 0xa1, 0x25, 0xbe, 0xca, 0xd3, 0xe5, 0x0b, 0x33, 0xc5, 0x08,
    0x07, 0x35, 0x0f, 0x15, 0x76, 0xde, 0x47, 0x47, 0xca, 0x00, 0xee, 0xfb, 0xc0,
    0x81, 0xde, 0xca, 0xb8, 0xcf, 0xff, 0x4f, 0x12, 0x24, 0xe3, 0x31, 0x50, 0x3a,
    0xff, 0xe0, 0x0c, 0x36, 0x0c, 0x0e, 0xf2, 0xeb, 0x3a, 0x61, 0x1b, 0x95, 0xe4,
    0xe3, 0xe3, 0xdf, 0x0a, 0xfa, 0xfc, 0x2c, 0x3e, 0x1f, 0x06, 0x4f, 0x56, 0x45,
    0x15, 0xb2, 0x81, 0x96, 0x08, 0xef, 0x2a, 0x26, 0xee, 0xfb, 0xf8, 0xbd, 0x22,
    0x18, 0x0b, 0x08, 0xfb, 0x58, 0x3d, 0x19, 0x2f, 0x56, 0xf0, 0xbd, 0xc7, 0xec,
    0x4c, 0xe2, 0x43, 0x11, 0x4e, 0x2e, 0x21, 0x28, 0xf8, 0xc0, 0x66, 0x0e, 0x4a,
    0x4c, 0x7b, 0xa3, 0xfa, 0x57, 0x2f, 0x6a, 0xef, 0xff, 0xba, 0x28, 0x7f, 0xb2,
    0x24, 0x03, 0x9f, 0xfe, 0x57, 0xf3, 0xdd, 0x28, 0x49, 0xfc, 0xf0, 0x1a, 0xc4,
    0x0c, 0x51, 0xd5, 0xab, 0x19, 0x58, 0x9f, 0x09, 0xbf, 0x30, 0xba, 0xe8, 0x4e,
    0xb1, 0xf3, 0x32, 0x08, 0xed, 0x1b, 0x46, 0x24, 0xe6, 0xd7, 0xf6, 0x46, 0x3f,
    0x4c, 0x42, 0x69, 0x6d, 0xe3, 0x1c, 0x0d, 0x06, 0xbb, 0xbf, 0x0d, 0xe4, 0xc2,
    0xa1, 0xb6, 0x3e, 0x29, 0x3a, 0x12, 0x0f, 0xb3, 0x0f, 0x11, 0x7f, 0x05, 0x0b,
    0x70, 0x4f, 0xa8, 0x1b, 0x2e, 0x73, 0x06, 0x14, 0xde, 0x4b, 0x0c, 0x7f, 0xaa,
    0x10, 0x3c, 0x55, 0xc6, 0x13, 0xf6, 0x52, 0x76, 0x36, 0xad, 0x29, 0x37, 0x2e,
    0x65, 0x57, 0x64, 0xab, 0xef, 0x2c, 0xe4, 0xfd, 0x4d, 0x0b, 0xe1, 0xba, 0x30,
    0x2c, 0xec, 0xea, 0xf1, 0x3a, 0x15, 0xe1, 0xcb, 0x1d, 0xdf, 0xaa, 0x07, 0x8b,
    0xf3, 0x2f, 0x1b, 0x1b, 0xa4, 0xeb, 0x2e, 0x06, 0xba, 0x81, 0x1e, 0x65, 0x25,
    0x00, 0x02, 0xec, 0x08, 0x1e, 0x30, 0x19, 0x30, 0x3a, 0x01, 0xd7, 0xf7, 0x3f,
    0x38, 0x13, 0x39, 0x36, 0x0d, 0x21, 0x0a, 0x1d, 0x21, 0x0e, 0xf3, 0xef, 0xe3,
    0x02, 0xf6, 0xe7, 0x13, 0xef, 0xdd, 0x28, 0xd1, 0x93, 0x06, 0x7f, 0xfd, 0x06,
    0x20, 0x9d, 0x43, 0xb3, 0x71, 0x58, 0x3b, 0x4f, 0x33, 0x7c, 0x5b, 0x61, 0xb5,
    0xf9, 0x30, 0x09, 0xda, 0x44, 0x65, 0x48, 0x6b, 0xab, 0x33, 0xe3, 0xc5, 0xf2,
    0x12, 0x03, 0xe0, 0xe0, 0xd1, 0x05, 0x04, 0xd7, 0xe0, 0xbf, 0xb1, 0xf1, 0xd8,
    0x10, 0x0c, 0x25, 0x53, 0x7e, 0x7f, 0x2f, 0x2e, 0x15, 0x40, 0xfc, 0xd9, 0x15,
    0xfc, 0x10, 0x0f, 0x06, 0xf3, 0xe0, 0x81, 0x73, 0x27, 0x6b, 0xfe, 0x48, 0x64,
    0x46, 0x0b, 0xef, 0x43, 0x63, 0x7f, 0x72, 0xe0, 0xa7, 0x21, 0x7f, 0x4f, 0xa7,
    0x46, 0x58, 0x33, 0x46, 0x04, 0x33, 0xe6, 0x11, 0x68, 0xd6, 0xdf, 0x19, 0xf8,
    0xee, 0xff, 0x3c, 0x73, 0xee, 0xfc, 0x0a, 0xef, 0x1c, 0x14, 0x11, 0x00, 0xaf,
    0xd2, 0x06, 0x6c, 0x26, 0xc4, 0xab, 0x16, 0x13, 0x53, 0xba, 0xef, 0x7f, 0xf4,
    0x0d, 0xc9, 0xe6, 0x00, 0x1d, 0x51, 0x51, 0xb0, 0xe4, 0x29, 0xcc, 0x81, 0xa1,
    0xde, 0xf9, 0xd7, 0xc8, 0x08, 0x2c, 0x60, 0xd6, 0x51, 0x24, 0xfc, 0x04, 0x1b,
    0x1d, 0x33, 0xd5, 0xd4, 0xf0, 0xf0, 0x1c, 0xfc, 0x07, 0xcb, 0x51, 0x34, 0xe5,
    0xa1, 0x9d, 0xd6, 0x1f, 0xde, 0x1f, 0x0e, 0x1c, 0x07, 0xf2, 0xe5, 0xf5, 0xfa,
    0x28, 0x41, 0x22, 0x45, 0x4c, 0x60, 0xe0, 0xe3, 0xbf, 0x0c, 0xee, 0xf7, 0x08,
    0x4d, 0x1a, 0xee, 0x33, 0x1a, 0xc4, 0x22, 0x48, 0xff, 0x81, 0x45, 0x4f, 0xb4,
    0x09, 0xbd, 0x38, 0xb0, 0xdd, 0x34, 0x03, 0x28, 0x51, 0x23, 0x30, 0xde, 0x11,
    0x3b, 0x2f, 0xb5, 0xff, 0xa3, 0xf9, 0xfc, 0x4a, 0xff, 0x38, 0x75, 0x5f, 0xcb,
    0xed, 0xf0, 0xff, 0x57, 0x3e, 0xd0, 0xfe, 0x1e, 0x08, 0x6a, 0xb1, 0x01, 0xf5,
    0x08, 0x30, 0x35, 0xdf, 0xee, 0x5f, 0x03, 0xdc, 0x0c, 0xce, 0x0d, 0x71, 0x53,
    0x01, 0xb0, 0xdc, 0xb7, 0x81, 0x9e, 0xde, 0xf5, 0xfe, 0x07, 0xf7, 0xbd, 0xec,
    0xea, 0xe1, 0xe0, 0x0e, 0xf3, 0x13, 0xd4, 0x1f, 0xc3, 0x30, 0x02, 0x1a, 0xc7,
    0x23, 0x1e, 0xbf, 0x23, 0x00, 0x44, 0xcb, 0x25, 0x00, 0x00, 0x00, 0x00, 0x00,
    0x00, 0x00, 0x00, 0x00, 0x00, 0x00, 0x00, 0x00, 0x00, 0x00, 0x00, 0x00, 0x00,
    0x00, 0x00, 0x00, 0x00, 0x00, 0x00, 0x00, 0x00, 0x00, 0x00, 0x00, 0x00, 0x00,
    0x00, 0x00, 0x00, 0x00, 0x00, 0x00, 0x00, 0x00, 0x00, 0x00, 0x00, 0x00, 0x00,
    0x00, 0x00, 0x00, 0x00, 0x00, 0x00, 0x00, 0x00, 0x00, 0x00, 0x00, 0x00, 0x00,
    0x00, 0x00, 0x00, 0x00, 0x00, 0x00, 0x00, 0x00, 0x00, 0x00, 0x00, 0x00, 0x00,
    0x00, 0x00, 0x00, 0x00, 0x00, 0x00, 0x00, 0x00, 0x00, 0x00, 0x00, 0x00, 0x00,
    0x00, 0x00, 0x00, 0x00, 0x00, 0x00, 0x00, 0x00, 0x00, 0x00, 0x00, 0x00, 0x00,
    0x00, 0x00, 0x00, 0x00, 0x00, 0x00, 0x00, 0x00, 0x00, 0x00, 0x00, 0x00, 0x00,
    0x00, 0x00, 0x00, 0x00, 0x00, 0x00, 0x00, 0x00, 0x00, 0x00, 0x00, 0x00, 0x00,
    0x00, 0x00, 0x00, 0x00, 0x00, 0x00, 0x00, 0x00, 0x00, 0x00, 0x00, 0x00, 0x00,
    0x00, 0x00, 0x00, 0x00, 0x00, 0x00, 0x00, 0x00, 0x00, 0x00, 0x00, 0x00, 0x00,
    0x00, 0x00, 0x00, 0x00, 0x00, 0x00, 0x00, 0x00, 0x00, 0x00, 0x00, 0x00, 0x00,
    0x00, 0x00, 0x00, 0x00, 0x00, 0x00, 0x00, 0x00, 0x00, 0x00, 0x00, 0x00, 0x00,
    0x00, 0x00, 0x00, 0x00, 0x00, 0x00, 0x00, 0x00, 0x00, 0x00, 0x00, 0x00, 0x00,
    0x00, 0x00, 0x00, 0x00, 0x00, 0x00, 0x00, 0x00, 0x00, 0x00, 0x00, 0x00, 0x00,
    0x00, 0x00, 0x00, 0x00, 0x00, 0x00, 0x00, 0x00, 0x00, 0x00, 0x00, 0x00, 0x00,
    0x00, 0x00, 0x00, 0x00, 0x00, 0x00, 0x00, 0x00, 0x00, 0x00, 0x00, 0x00, 0x00,
    0x00, 0x00, 0x00, 0x00, 0x00, 0x00, 0x00, 0x00, 0x00, 0x00, 0x00, 0x00, 0x00,
    0x00, 0x00, 0x00, 0x00, 0x00, 0x00, 0x00, 0x00, 0x00, 0x00, 0x00, 0x00, 0x00,
    0x00, 0x00, 0x00, 0x00, 0xda, 0xdc, 0xff, 0xff, 0x00, 0x00, 0x00, 0x09, 0x18,
    0x00, 0x00, 0x00, 0x07, 0x00, 0x00, 0x00, 0x08, 0x00, 0x00, 0x00, 0x14, 0x00,
    0x00, 0x00, 0x01, 0x00, 0x00, 0x00, 0x35, 0x00, 0x00, 0x00, 0x01, 0x00, 0x00,
    0x00, 0x00, 0x07, 0x00, 0x00, 0x24, 0xdc, 0xff, 0xff, 0x9a, 0xdd, 0xff, 0xff,
    0x04, 0x00, 0x00, 0x00, 0x80, 0x00, 0x00, 0x00, 0xcb, 0x19, 0x5a, 0x59, 0x29,
    0x70, 0x23, 0x40, 0x29, 0x54, 0x82, 0x4a, 0x81, 0x52, 0xd1, 0x5d, 0x41, 0x4c,
    0x59, 0x5e, 0x85, 0x46, 0xa5, 0x19, 0x0f, 0x5a, 0xbd, 0x18, 0x91, 0x59, 0xb2,
    0x46, 0x93, 0xe9, 0x7a, 0xf2, 0xf6, 0x02, 0x29, 0xff, 0xf1, 0xf5, 0x24, 0xfa,
    0x4e, 0x03, 0xea, 0xf8, 0xbd, 0xfd, 0xb6, 0xff, 0xcd, 0xfa, 0xbf, 0xed, 0xfe,
    0xf3, 0xef, 0xed, 0x88, 0xfb, 0x4a, 0xf9, 0xde, 0x19, 0x3e, 0x5a, 0xe7, 0x4a,
    0xda, 0x1a, 0x10, 0x2e, 0x1f, 0x47, 0x86, 0x1c, 0xd0, 0x4e, 0x1d, 0x56, 0x62,
    0x38, 0x73, 0x18, 0x18, 0x4e, 0xa1, 0x1b, 0xa9, 0x16, 0xa3, 0x74, 0x53, 0x69,
    0x3b, 0xed, 0xa2, 0xfd, 0x78, 0xf6, 0x77, 0xe7, 0xa2, 0xe9, 0x0e, 0xf6, 0x34,
    0xea, 0x78, 0xeb, 0x91, 0xfc, 0x4e, 0xf4, 0x4e, 0xef, 0xfe, 0xfb, 0x4b, 0xe9,
    0x03, 0xeb, 0xbb, 0xe2, 0x1a, 0xf8, 0x92, 0xdd, 0xff, 0xff, 0x00, 0x00, 0x00,
    0x07, 0x18, 0x00, 0x00, 0x00, 0x06, 0x00, 0x00, 0x00, 0x08, 0x00, 0x00, 0x00,
    0x14, 0x00, 0x00, 0x00, 0x01, 0x00, 0x00, 0x00, 0x34, 0x00, 0x00, 0x00, 0x01,
    0x00, 0x00, 0x00, 0x40, 0x00, 0x00, 0x00, 0xdc, 0xdc, 0xff, 0xff, 0x52, 0xde,
    0xff, 0xff, 0x04, 0x00, 0x00, 0x00, 0x00, 0x10, 0x00, 0x00, 0xf3, 0x1c, 0x0e,
    0xe6, 0x1f, 0x0f, 0xec, 0x2e, 0xed, 0xe3, 0xd0, 0x0c, 0x13, 0xeb, 0xf9, 0xb8,
    0xf1, 0x01, 0x10, 0xfc, 0x0d, 0x4f, 0xee, 0x18, 0x81, 0xf4, 0x0e, 0xfa, 0xfe,
    0x08, 0x9e, 0x26, 0x05, 0x4f, 0xdc, 0xae, 0x2a, 0x00, 0xc6, 0x03, 0xc1, 0xea,
    0xb1, 0x0c, 0x36, 0xf1, 0xf0, 0xe4, 0xf6, 0xf7, 0x1f, 0x15, 0xdd, 0x2a, 0xe8,
    0x32, 0xe1, 0x28, 0x11, 0xf3, 0xe5, 0xf3, 0xef, 0x0b, 0x17, 0xfe, 0x0c, 0x2a,
    0x03, 0x48, 0x06, 0xd6, 0xf0, 0x01, 0x18, 0x0a, 0x89, 0x06, 0x3b, 0x81, 0xed,
    0xb3, 0x47, 0x07, 0xe9, 0x25, 0x01, 0x1c, 0x19, 0x12, 0xf5, 0x1b, 0xea, 0xef,
    0x22, 0xd5, 0x11, 0xa5, 0xfa, 0x3f, 0x18, 0xef, 0x69, 0x2e, 0x23, 0xfc, 0x4b,
    0xff, 0x81, 0x1c, 0xf8, 0xd8, 0x14, 0xee, 0xa6, 0xfb, 0xe9, 0xcd, 0x07, 0x9d,
    0x2b, 0xe5, 0x0d, 0x47, 0x1f, 0xee, 0x07, 0x01, 0x0f, 0x9f, 0xf6, 0x0b, 0xf6,
    0x34, 0x37, 0x87, 0x14, 0xe5, 0x3e, 0xf1, 0x81, 0xfb, 0xbb, 0xb7, 0x06, 0x02,
    0x10, 0xf0, 0x00, 0x0b, 0x00, 0xb2, 0xfb, 0xb3, 0x16, 0x2f, 0x0e, 0x0e, 0xec,
    0xea, 0xfa, 0x19, 0xe6, 0x1e, 0x31, 0x07, 0xfd, 0x13, 0xf8, 0x10, 0x24, 0xf3,
    0x44, 0xfd, 0xff, 0x06, 0xfc, 0xf4, 0x03, 0xf1, 0x18, 0xf0, 0x0e, 0xd1, 0x0c,
    0xd0, 0x03, 0xfb, 0xf1, 0x08, 0x14, 0xf7, 0xfe, 0xe1, 0x45, 0x26, 0xc0, 0x0a,
    0x3a, 0xdc, 0x04, 0x0c, 0x27, 0xef, 0xdb, 0xef, 0x04, 0xf8, 0xf4, 0xf0, 0xfa,
    0x0d, 0xd4, 0x9a, 0xee, 0xb5, 0xf9, 0xda, 0x11, 0xf1, 0xee, 0xf7, 0x20, 0xf6,
    0x11, 0x9b, 0xf2, 0xfe, 0x05, 0x58, 0x16, 0x9c, 0xf2, 0x3d, 0xab, 0xfe, 0xd7,
    0x14, 0x1f, 0x9b, 0x04, 0xce, 0x06, 0xf9, 0x1f, 0xe6, 0x1a, 0xf4, 0xe5, 0xcd,
    0xf2, 0x10, 0x0f, 0xf2, 0x92, 0x81, 0xf6, 0xff, 0x02, 0x08, 0xc9, 0xac, 0xe5,
    0xee, 0xae, 0x2f, 0x4b, 0x07, 0x08, 0x12, 0x04, 0x25, 0xfd, 0x33, 0x81, 0x00,
    0x1c, 0x2a, 0x02, 0xc9, 0x22, 0xd7, 0x06, 0x24, 0x03, 0x0e, 0x09, 0xc3, 0xf0,
    0x01, 0xe2, 0x14, 0xd1, 0xdf, 0x98, 0xcf, 0x09, 0xf8, 0x2e, 0x03, 0x09, 0xf0,
    0xe9, 0x0f, 0xf1, 0xff, 0xd1, 0x08, 0x1d, 0x0f, 0xf7, 0x03, 0xf2, 0xd4, 0x09,
    0x1d, 0x03, 0x01, 0x28, 0xbc, 0xfd, 0xef, 0x04, 0xe2, 0xe1, 0x22, 0x0b, 0xd6,
    0x0b, 0x2b, 0xf1, 0x15, 0xf4, 0x01, 0x0c, 0x16, 0xfa, 0x12, 0x2b, 0x07, 0xcc,
    0xe9, 0xe6, 0xfd, 0x11, 0xe4, 0x12, 0x07, 0x06, 0xf7, 0x2e, 0xfd, 0xf8, 0xf3,
    0x21, 0x12, 0x12, 0xf7, 0x0b, 0x1b, 0xef, 0x0f, 0xf7, 0xf4, 0x02, 0xf1, 0xb0,
    0xd8, 0xed, 0x15, 0xf2, 0x04, 0x08, 0x03, 0x04, 0x12, 0xf0, 0xfd, 0x10, 0xff,
    0x10, 0x05, 0x09, 0xa8, 0x00, 0xfb, 0x0a, 0x0e, 0xfc, 0xf3, 0x01, 0x01, 0xfd,
    0xff, 0xfe, 0x1b, 0xf1, 0xeb, 0xf4, 0x02, 0xfb, 0xfd, 0x07, 0x17, 0xfa, 0xf5,
    0x14, 0xfd, 0x12, 0xf6, 0x0d, 0xef, 0x12, 0xf8, 0xc5, 0xff, 0xf8, 0x0d, 0xc6,
    0xf8, 0x0c, 0x0a, 0x16, 0xdc, 0xd3, 0x12, 0x1a, 0x00, 0x0b, 0x0a, 0x10, 0x1b,
    0xf1, 0xe9, 0xe9, 0xf0, 0x25, 0x18, 0xfc, 0x08, 0x08, 0x05, 0xfc, 0xe4, 0x0b,
    0x10, 0xec, 0x3b, 0xfe, 0x00, 0xf8, 0x04, 0x9b, 0xf7, 0x0c, 0xf9, 0xce, 0x1b,
    0x0d, 0x00, 0xf9, 0x00, 0x22, 0x88, 0xfd, 0xee, 0x81, 0x05, 0xf9, 0x13, 0xf8,
    0x00, 0xe7, 0x0d, 0xf6, 0xde, 0xf8, 0x04, 0x1b, 0x18, 0x01, 0xfd, 0xee, 0x0b,
    0x10, 0xcb, 0x04, 0x15, 0xf3, 0x0e, 0xba, 0x08, 0x1d, 0x02, 0xe1, 0x26, 0xf6,
    0x32, 0xfe, 0x04, 0x04, 0x05, 0xf5, 0x04, 0x17, 0x12, 0xfd, 0x12, 0x03, 0xf6,
    0x03, 0x1a, 0x0d, 0xf2, 0x11, 0x18, 0x14, 0x06, 0xf5, 0x12, 0x26, 0x05, 0x0d,
    0xea, 0xeb, 0xeb, 0x0e, 0xc2, 0x11, 0xe2, 0xd7, 0xfe, 0xe8, 0x17, 0xea, 0x13,
    0xe4, 0xf4, 0x06, 0x03, 0xf4, 0xf5, 0xe7, 0x12, 0xf0, 0xb4, 0x3a, 0x42, 0xc1,
    0x02, 0x36, 0x07, 0x12, 0x1a, 0x53, 0xe9, 0xd1, 0xf9, 0x1f, 0x1e, 0x12, 0xf9,
    0xf1, 0xfa, 0xff, 0xa8, 0x13, 0x81, 0x0b, 0xdc, 0xf0, 0x08, 0xfb, 0xe9, 0x42,
    0x03, 0xf2, 0x11, 0xe2, 0x0d, 0xb5, 0xcd, 0xff, 0x19, 0xd7, 0xf6, 0x11, 0xfe,
    0x25, 0xfe, 0xa1, 0xfe, 0xf6, 0x1c, 0xc0, 0xf5, 0x17, 0xc8, 0xfb, 0x90, 0x33,
    0xf1, 0x06, 0xf1, 0xf1, 0xf1, 0xf6, 0x2a, 0x10, 0x49, 0xd1, 0x90, 0xe8, 0x25,
    0xb0, 0xdd, 0xed, 0xf9, 0xca, 0xfb, 0x36, 0x14, 0x0c, 0x20, 0x09, 0xd0, 0x27,
    0xe9, 0x05, 0x39, 0x11, 0x5e, 0xdf, 0x0e, 0xf3, 0xfe, 0x15, 0xeb, 0x36, 0xff,
    0x13, 0x47, 0x98, 0x06, 0xda, 0xda, 0xdd, 0x46, 0xe7, 0x0a, 0x1a, 0x12, 0x1a,
    0x0c, 0x15, 0xce, 0xf0, 0xc4, 0xfa, 0xef, 0xe6, 0x38, 0x04, 0x1e, 0x1d, 0x26,
    0x0f, 0xc2, 0x01, 0x06, 0x71, 0xcb, 0x10, 0xf8, 0xf6, 0xf0, 0x81, 0x13, 0xfb,
    0x17, 0xfb, 0xe4, 0xf1, 0x0c, 0xe4, 0x0b, 0xfa, 0x31, 0xfa, 0x14, 0x08, 0xfb,
    0x0d, 0xd5, 0xfc, 0x2b, 0xcc, 0x23, 0xf8, 0xdf, 0x00, 0x0c, 0x09, 0xfe, 0x15,
    0x23, 0x81, 0xe0, 0x36, 0x0d, 0xe1, 0x1f, 0x0e, 0x08, 0xf2, 0x04, 0xe6, 0xf2,
    0xf9, 0xee, 0xf1, 0xed, 0xd4, 0x11, 0x0d, 0x53, 0x00, 0x32, 0x0b, 0x3a, 0x0e,
    0x39, 0x15, 0x14, 0xc4, 0xf4, 0xf5, 0x3b, 0x2f, 0xfb, 0x46, 0x58, 0x17, 0x36,
    0xcc, 0x0e, 0x10, 0xfa, 0x01, 0x16, 0xf4, 0xc2, 0x17, 0xa1, 0x08, 0x18, 0xfb,
    0x0f, 0x04, 0xe3, 0xf6, 0x1a, 0x04, 0x08, 0xec, 0x0d, 0x2b, 0xc0, 0x09, 0xfa,
    0xea, 0xd7, 0xcc, 0x03, 0x06, 0x0a, 0x16, 0xc2, 0xda, 0x05, 0xf9, 0x08, 0x16,
    0xfe, 0xf8, 0xfb, 0x01, 0xf7, 0xef, 0xf3, 0x07, 0x10, 0xde, 0x09, 0x0c, 0xef,
    0x0f, 0x08, 0xec, 0x42, 0x09, 0x11, 0xaf, 0x1c, 0xe3, 0xef, 0xb4, 0xe6, 0xfe,
    0x07, 0x7f, 0x0b, 0xf9, 0x00, 0xb5, 0xfb, 0xff, 0xee, 0xf9, 0xff, 0x0c, 0x23,
    0x10, 0x01, 0xd9, 0xeb, 0x06, 0x00, 0x0e, 0x01, 0x21, 0xce, 0xdf, 0x34, 0xdc,
    0x1d, 0x45, 0xf5, 0x17, 0x4c, 0x07, 0x20, 0x34, 0x03, 0x38, 0x01, 0xed, 0xed,
    0x18, 0x0e, 0x27, 0x11, 0x1c, 0x37, 0x13, 0x33, 0xe0, 0x30, 0xf8, 0xe5, 0x24,
    0x0a, 0x7f, 0x0f, 0x01, 0xeb, 0xfb, 0x0e, 0xff, 0xeb, 0xef, 0xfe, 0xf4, 0x00,
    0xb7, 0xf3, 0xf8, 0x04, 0xdc, 0xe2, 0x0d, 0x05, 0xe8, 0xf3, 0x18, 0xe3, 0x05,
    0x03, 0xe5, 0xf5, 0xf5, 0xf7, 0x03, 0x16, 0xbf, 0x81, 0x21, 0xf8, 0xfe, 0x03,
    0xfc, 0xf7, 0xe9, 0x02, 0xf7, 0xf5, 0xf9, 0x0e, 0xfc, 0xfa, 0xf3, 0xed, 0xfe,
    0xf3, 0xf6, 0x1d, 0xf6, 0xfa, 0xef, 0x0a, 0xee, 0xec, 0xe2, 0xf9, 0x1a, 0x1d,
    0x81, 0xec, 0xf5, 0x07, 0x9c, 0x13, 0x17, 0x21, 0x20, 0x81, 0xf4, 0x2f, 0xeb,
    0xfb, 0x24, 0xfe, 0xe9, 0x15, 0xfd, 0xf6, 0x01, 0xf7, 0x00, 0x09, 0xf2, 0xff,
    0xc9, 0xcc, 0xfa, 0xe3, 0x07, 0xfb, 0xde, 0x12, 0xfd, 0x16, 0xe5, 0xf2, 0xbd,
    0x10, 0x0e, 0xe7, 0xba, 0x20, 0xf5, 0x0c, 0x04, 0x09, 0x13, 0xfb, 0x01, 0xe5,
    0x96, 0x09, 0xfd, 0x17, 0xf8, 0xe9, 0xb7, 0xff, 0xfd, 0xe9, 0x08, 0x09, 0x13,
    0x1b, 0xff, 0xfb, 0x0c, 0x04, 0x04, 0x04, 0xf6, 0xf7, 0x11, 0xf4, 0xf8, 0xf8,
    0xe0, 0x09, 0x03, 0xd7, 0x03, 0xcd, 0x0b, 0xf1, 0x00, 0xfc, 0xfa, 0x0c, 0xd8,
    0xf6, 0x07, 0xf6, 0x02, 0xf6, 0x81, 0xd8, 0xe7, 0xcd, 0xda, 0x13, 0xaa, 0xf1,
    0xb0, 0xf4, 0x1a, 0x15, 0xaf, 0xed, 0xec, 0x11, 0x31, 0x32, 0xfb, 0xf6, 0x29,
    0x17, 0xf5, 0x22, 0x15, 0x67, 0xe4, 0x42, 0x01, 0xf1, 0x13, 0x07, 0xf8, 0xf5,
    0x06, 0x0a, 0x31, 0x08, 0x0d, 0xbf, 0x0c, 0xce, 0xe8, 0x15, 0x21, 0xea, 0xfc,
    0x01, 0x12, 0x1c, 0xed, 0xc0, 0xe6, 0x16, 0xfa, 0x56, 0xf2, 0xbc, 0x14, 0xef,
    0x17, 0x26, 0xf8, 0x02, 0x59, 0xe2, 0x03, 0xef, 0x0a, 0x81, 0x04, 0x0b, 0x19,
    0xdf, 0xf4, 0xce, 0x90, 0x0c, 0xe9, 0xf8, 0xf7, 0xf1, 0x0f, 0x05, 0x36, 0xf1,
    0x07, 0x96, 0x13, 0xe8, 0x0b, 0x17, 0x0a, 0x10, 0xf9, 0x03, 0xfb, 0x29, 0xf7,
    0xf6, 0x09, 0x24, 0xd1, 0x23, 0x07, 0xc8, 0x09, 0xf7, 0xba, 0xea, 0x21, 0xf3,
    0xf2, 0x04, 0x1b, 0xcd, 0xf9, 0x0f, 0x1c, 0x02, 0x0e, 0x17, 0xdb, 0x3b, 0x19,
    0xdb, 0x05, 0x1b, 0xa8, 0x37, 0xfb, 0xbd, 0x1f, 0xe5, 0x05, 0xcf, 0x0c, 0x0b,
    0xe8, 0xec, 0xe7, 0xfc, 0xec, 0xea, 0xe4, 0xfc, 0x0d, 0xde, 0x1a, 0xf8, 0x14,
    0xa7, 0x0b, 0xe2, 0x36, 0x32, 0xe3, 0x06, 0xf1, 0x18, 0x26, 0x13, 0xf4, 0xef,
    0x1e, 0x05, 0xed, 0xec, 0xef, 0x09, 0xed, 0x1a, 0x14, 0xf5, 0xdd, 0x05, 0xfb,
    0x00, 0xfa, 0xf7, 0xd4, 0x03, 0xfa, 0x81, 0xfb, 0x2c, 0xfe, 0x07, 0x06, 0xda,
    0xf3, 0x09, 0x2e, 0xd5, 0x08, 0xfd, 0xdf, 0x10, 0xe1, 0x44, 0xa9, 0x04, 0xfd,
    0x51, 0xd5, 0xf8, 0x1d, 0x1e, 0x41, 0xe6, 0xfc, 0x0d, 0x1a, 0x0c, 0x20, 0xed,
    0xe8, 0xf5, 0xd7, 0x02, 0xe5, 0x24, 0xfc, 0x14, 0x81, 0x0f, 0x05, 0x43, 0x39,
    0x1b, 0x63, 0x3b, 0x60, 0x5d, 0x4b, 0xfd, 0x6f, 0x1c, 0xc0, 0xf0, 0xa6, 0x4c,
    0x16, 0x22, 0x81, 0x0b, 0xed, 0xc2, 0xda, 0x34, 0xe6, 0xbc, 0x04, 0xde, 0xf1,
    0xf7, 0x1f, 0xd8, 0xe7, 0xa8, 0xf3, 0x05, 0xd2, 0x93, 0xf9, 0xf0, 0x25, 0x48,
    0xf1, 0xff, 0x05, 0x1b, 0x99, 0x10, 0x12, 0x32, 0xad, 0x0b, 0xdd, 0xce, 0xfa,
    0xad, 0x03, 0xaa, 0xfe, 0xf3, 0x14, 0x04, 0xd9, 0x48, 0x02, 0x1e, 0xde, 0x0c,
    0x03, 0xf5, 0xf4, 0x01, 0x47, 0x38, 0x1d, 0x02, 0xc6, 0x08, 0x2a, 0xe8, 0xf3,
    0x0c, 0x4e, 0x05, 0x03, 0xd9, 0xf1, 0x25, 0x1a, 0xed, 0x19, 0xa7, 0xfd, 0x0a,
    0x38, 0xf1, 0xeb, 0x03, 0xdc, 0x51, 0xf2, 0xf6, 0x1e, 0x31, 0xf7, 0x12, 0xad,
    0x1f, 0x84, 0x06, 0x30, 0x0d, 0x14, 0x1f, 0x4f, 0xe6, 0xe1, 0x11, 0x1c, 0x81,
    0x2c, 0xf3, 0x09, 0xb2, 0xed, 0xf3, 0xfb, 0x55, 0x0d, 0xea, 0xda, 0x1e, 0xeb,
    0xef, 0x27, 0x18, 0x13, 0xc4, 0x2f, 0x0e, 0x1c, 0xfe, 0x13, 0xfe, 0x0b, 0xe6,
    0x81, 0x09, 0xf6, 0x01, 0x09, 0xc2, 0x19, 0xf0, 0x08, 0xec, 0x05, 0xf7, 0x03,
    0xe0, 0xf3, 0xb2, 0x00, 0x04, 0xdd, 0x0d, 0x2b, 0xa9, 0x2f, 0x05, 0xc8, 0x0a,
    0xd6, 0x1d, 0x15, 0x2b, 0xe7, 0x15, 0xf7, 0xf4, 0x37, 0x81, 0x21, 0xdc, 0x0b,
    0xd9, 0xfc, 0x3b, 0x23, 0xf3, 0x52, 0xf1, 0x0c, 0xe1, 0x97, 0xa5, 0xed, 0xed,
    0x56, 0xf2, 0xe4, 0x09, 0x0b, 0x12, 0xef, 0xff, 0x2c, 0x81, 0xef, 0x09, 0x0d,
    0x11, 0x42, 0x3f, 0xf0, 0x15, 0x15, 0xee, 0xec, 0xd4, 0xf0, 0x0a, 0x2b, 0xef,
    0x00, 0xcc, 0x16, 0x09, 0xb5, 0xdc, 0x14, 0x25, 0x37, 0x1c, 0x24, 0xf2, 0x2c,
    0xfe, 0x18, 0x0b, 0xf7, 0xda, 0x16, 0x0a, 0x1d, 0x09, 0x11, 0x07, 0xfd, 0x2f,
    0x0d, 0xfc, 0xee, 0xef, 0x0d, 0x0d, 0xf3, 0x81, 0xf0, 0xd2, 0x1a, 0x10, 0x2d,
    0x30, 0x08, 0x1d, 0x0b, 0xef, 0x11, 0xf6, 0x35, 0xc6, 0xfe, 0xfc, 0x17, 0xe5,
    0xca, 0xd6, 0x0d, 0xde, 0x03, 0x08, 0x1a, 0xf6, 0xef, 0x14, 0xe5, 0x3e, 0x17,
    0x3a, 0x33, 0xe4, 0x53, 0xd3, 0x4c, 0x1e, 0xe0, 0xdd, 0x2f, 0xe9, 0x22, 0xec,
    0xde, 0xdd, 0xe9, 0x16, 0xf0, 0xf8, 0xef, 0xd2, 0xf8, 0x81, 0x19, 0xc6, 0xec,
    0x0d, 0x10, 0x00, 0xee, 0x0a, 0x05, 0x12, 0xec, 0xea, 0x81, 0xdf, 0xe4, 0x9d,
    0x20, 0x03, 0xdb, 0xf7, 0xbf, 0x0f, 0x0b, 0xfd, 0x16, 0xce, 0x05, 0x07, 0x08,
    0x53, 0xee, 0xd1, 0x3f, 0xef, 0x16, 0x0b, 0x1c, 0x0e, 0x6f, 0x07, 0xfd, 0x30,
    0x14, 0xb9, 0x18, 0xf0, 0x04, 0x22, 0xf8, 0xc6, 0x04, 0x0b, 0xfc, 0xef, 0x0d,
    0xee, 0x10, 0xf0, 0xdd, 0xf3, 0x09, 0xbd, 0xff, 0xf9, 0xee, 0xe8, 0x08, 0xf7,
    0xf8, 0x04, 0xf4, 0xf1, 0xf6, 0x16, 0xd5, 0x28, 0xfe, 0x10, 0xfb, 0x4f, 0x15,
    0x0a, 0x81, 0x12, 0x44, 0xef, 0xee, 0x12, 0xf6, 0xa7, 0x0e, 0xe7, 0x25, 0xed,
    0xf7, 0xdd, 0x8d, 0x09, 0xf9, 0xe4, 0xde, 0xe4, 0xd3, 0x37, 0x14, 0x23, 0x99,
    0xf2, 0xcb, 0xef, 0x1b, 0x13, 0xf1, 0x03, 0xf7, 0x09, 0xd3, 0x1c, 0x5d, 0x12,
    0xf4, 0x26, 0xd4, 0xf9, 0x37, 0x7f, 0x05, 0x06, 0xf4, 0x24, 0xe5, 0x07, 0xee,
    0x0f, 0xcc, 0xfb, 0xfd, 0xe5, 0xfe, 0xfa, 0x16, 0xf5, 0xf7, 0xfd, 0xf3, 0x10,
    0x28, 0xf9, 0xf4, 0x09, 0xff, 0xeb, 0xfb, 0xe6, 0xd3, 0x02, 0xfe, 0x98, 0xfc,
    0x07, 0x1f, 0xd6, 0xf5, 0xfa, 0xfd, 0x09, 0x39, 0xfb, 0xf2, 0xd6, 0xcb, 0x21,
    0xcf, 0x27, 0xd0, 0x20, 0xa0, 0x30, 0xa9, 0xf7, 0x51, 0x05, 0xf7, 0xde, 0xfb,
    0xfb, 0xfe, 0xf3, 0xdc, 0x30, 0xeb, 0xea, 0xb5, 0x1f, 0xef, 0x48, 0x0e, 0xea,
    0xf2, 0x41, 0x0a, 0xc5, 0xcc, 0xfa, 0xc1, 0xc8, 0xb7, 0xa4, 0xb3, 0xfe, 0x94,
    0x1e, 0x55, 0x22, 0x51, 0xc2, 0xf9, 0xdb, 0x33, 0xdf, 0x08, 0x4b, 0x07, 0xd8,
    0x15, 0x47, 0x03, 0x0a, 0x06, 0xf3, 0x3f, 0x1b, 0x13, 0xe6, 0x27, 0x0b, 0xf1,
    0x41, 0x1c, 0xda, 0xef, 0x12, 0x02, 0xf8, 0xa6, 0xf9, 0xe5, 0x8b, 0x07, 0xc8,
    0x32, 0xf7, 0xed, 0x1c, 0x06, 0x81, 0xee, 0x20, 0xf7, 0xfd, 0x11, 0x01, 0xc6,
    0x83, 0x04, 0xfe, 0xdc, 0xc7, 0xca, 0x0d, 0x18, 0x38, 0x2c, 0x81, 0xd1, 0x06,
    0xc1, 0x0f, 0xfb, 0x09, 0xe9, 0x09, 0xdd, 0xee, 0x15, 0xfd, 0x00, 0x15, 0x02,
    0x13, 0xf7, 0xc0, 0x01, 0xee, 0x34, 0xfd, 0x02, 0xd6, 0x1e, 0x26, 0xb7, 0xb9,
    0x2e, 0x09, 0xb7, 0x04, 0xe7, 0xf6, 0xf9, 0x15, 0x39, 0x2e, 0xfb, 0xfe, 0x64,
    0x1a, 0xf8, 0xf8, 0x1d, 0x99, 0xfe, 0xdb, 0xff, 0xb2, 0xf9, 0xf4, 0x4e, 0x33,
    0x0b, 0x13, 0x0d, 0xf3, 0xec, 0x0a, 0xfb, 0xd9, 0xb4, 0x18, 0xf0, 0x0d, 0xed,
    0xf4, 0x12, 0x2d, 0x12, 0x2e, 0xa2, 0xfd, 0xfa, 0x2d, 0x13, 0x15, 0xfa, 0x27,
    0xff, 0x14, 0x14, 0x02, 0xd5, 0x97, 0xe8, 0x09, 0xfc, 0xef, 0xfd, 0x1d, 0xf1,
    0xcf, 0x14, 0xd8, 0xe4, 0x24, 0xd9, 0x13, 0x28, 0x11, 0xf9, 0x05, 0x39, 0xdf,
    0xcf, 0xd2, 0xf1, 0xde, 0x2e, 0x37, 0x0b, 0x17, 0x05, 0xf8, 0xf7, 0x13, 0x03,
    0xd7, 0xec, 0xbb, 0xd0, 0xed, 0x2a, 0xf6, 0xcd, 0x21, 0x29, 0x08, 0x1e, 0x18,
    0x4f, 0xc8, 0x0c, 0x2d, 0x35, 0xec, 0x29, 0x24, 0xeb, 0x11, 0x28, 0xd3, 0x16,
    0xa8, 0x05, 0xf3, 0x64, 0xf7, 0x09, 0x30, 0xe7, 0xf3, 0x4f, 0x1e, 0xe0, 0xe8,
    0xcd, 0xe0, 0xb8, 0x03, 0xd3, 0xf8, 0xc9, 0xee, 0x04, 0x29, 0xfe, 0xf7, 0x07,
    0x00, 0x0c, 0x0c, 0x08, 0xcd, 0x14, 0x11, 0xf5, 0x11, 0x81, 0xe6, 0xf7, 0x8f,
    0xf8, 0xe4, 0x5b, 0x24, 0xf6, 0xfe, 0x03, 0x32, 0x39, 0xea, 0x1e, 0x10, 0x13,
    0x1a, 0xe5, 0x10, 0x0c, 0xe9, 0xbd, 0x02, 0xe4, 0xf9, 0xda, 0x01, 0xee, 0xc9,
    0xe6, 0xea, 0x31, 0x25, 0xf5, 0x20, 0x10, 0xec, 0xe9, 0xef, 0x1b, 0x34, 0xe3,
    0xb9, 0xeb, 0xf2, 0x0d, 0x07, 0xe7, 0xe8, 0x01, 0xf8, 0xd6, 0x09, 0x0b, 0x81,
    0x0d, 0xdb, 0x19, 0xfa, 0xfe, 0x21, 0x0d, 0x0d, 0xf9, 0x0b, 0x17, 0xf9, 0x19,
    0x28, 0x22, 0x19, 0xdd, 0x1b, 0xf2, 0x15, 0xab, 0xf8, 0x0e, 0x07, 0x32, 0x17,
    0x05, 0xd8, 0x38, 0xed, 0x2a, 0x7f, 0x05, 0xf6, 0xaf, 0x0d, 0xfa, 0xf0, 0x04,
    0x07, 0x29, 0x21, 0xf8, 0xe4, 0x2c, 0x9f, 0xa9, 0xe5, 0x0a, 0xe7, 0xf2, 0xc5,
    0xee, 0xef, 0xe5, 0xf1, 0xf6, 0xf8, 0x04, 0xec, 0x15, 0xf3, 0x29, 0xd4, 0x07,
    0xd2, 0xdc, 0x38, 0xf1, 0x17, 0xfd, 0x02, 0x3a, 0x04, 0x10, 0x26, 0xf6, 0xc1,
    0xb4, 0xf0, 0xc7, 0xf0, 0x09, 0x22, 0x1d, 0xf6, 0xed, 0xf5, 0xc6, 0x19, 0xef,
    0xe9, 0xa4, 0xef, 0x0f, 0x02, 0x0e, 0xfc, 0x17, 0xe6, 0xec, 0x2a, 0x0f, 0xf2,
    0xb5, 0xf4, 0xf2, 0xd3, 0x0b, 0x03, 0x81, 0x0b, 0xed, 0xfb, 0xfc, 0xb3, 0x11,
    0xf5, 0xe3, 0x00, 0x20, 0x01, 0x00, 0xf0, 0x01, 0xf6, 0xde, 0x06, 0xed, 0xf3,
    0x04, 0x0e, 0xfc, 0x0a, 0x0c, 0xf1, 0xdf, 0x20, 0x1e, 0x27, 0x0f, 0xef, 0x45,
    0x32, 0xe9, 0xf8, 0x81, 0xd3, 0x0f, 0xef, 0xd5, 0xf0, 0x97, 0x02, 0x19, 0xea,
    0x33, 0xe6, 0xdb, 0x3f, 0x05, 0x33, 0xcb, 0xf2, 0xf5, 0xad, 0x0a, 0xdf, 0x5f,
    0x87, 0xe9, 0x10, 0xd2, 0x81, 0xf6, 0xd7, 0xe0, 0xdc, 0x09, 0x1b, 0x82, 0xe5,
    0x31, 0xeb, 0xc0, 0xec, 0xee, 0xe1, 0xca, 0xf0, 0xff, 0xfe, 0xf1, 0x27, 0x13,
    0x1f, 0xf5, 0x00, 0xf1, 0x10, 0x0a, 0x18, 0xef, 0x17, 0xf0, 0x31, 0xcb, 0x48,
    0x12, 0xe5, 0x91, 0xd3, 0x06, 0x05, 0xe7, 0xff, 0x81, 0xf9, 0x1d, 0x47, 0xcd,
    0xf1, 0xfc, 0x28, 0x01, 0x5a, 0xc4, 0x3b, 0xe8, 0xf9, 0x07, 0x11, 0xff, 0xd6,
    0xf0, 0xf5, 0xfe, 0x01, 0x23, 0xf4, 0xfd, 0xe9, 0x03, 0x2c, 0xd3, 0x01, 0xf4,
    0x08, 0x23, 0x35, 0x10, 0xe9, 0x00, 0xfd, 0x08, 0xdc, 0x0a, 0x04, 0x27, 0xdf,
    0xfd, 0x0e, 0xfc, 0xfe, 0xef, 0xfd, 0x08, 0x04, 0x1c, 0xee, 0x24, 0xae, 0xce,
    0x04, 0x1f, 0xd2, 0xd9, 0x0b, 0x6a, 0xea, 0x64, 0x10, 0x00, 0xbc, 0x07, 0xfa,
    0xf7, 0x15, 0x12, 0xeb, 0xd2, 0xfe, 0xeb, 0x81, 0x0b, 0xeb, 0xc8, 0xd6, 0x03,
    0x36, 0xf2, 0x2c, 0x0c, 0x00, 0xb6, 0xda, 0x1b, 0xc6, 0x14, 0xed, 0x06, 0x1e,
    0xef, 0x63, 0xef, 0xe0, 0xe4, 0xf1, 0xcf, 0xd2, 0x15, 0xe3, 0xf5, 0xc9, 0x21,
    0x4d, 0xf2, 0x23, 0x81, 0xb5, 0x08, 0x20, 0x06, 0x17, 0x02, 0xfd, 0xef, 0xee,
    0xfa, 0x63, 0x60, 0x05, 0xdb, 0x01, 0xf9, 0x3f, 0x06, 0xb5, 0x56, 0x07, 0x0e,
    0x01, 0x12, 0x17, 0xed, 0x22, 0xfb, 0xab, 0xec, 0x05, 0xc9, 0x1b, 0xf6, 0x1c,
    0xa3, 0x9a, 0xcf, 0x1c, 0x06, 0x1b, 0x52, 0x2a, 0xb2, 0xea, 0xd8, 0x05, 0x34,
    0x11, 0xf7, 0xf7, 0xdf, 0xfd, 0x1c, 0x33, 0xfa, 0x16, 0x8a, 0xce, 0x08, 0x81,
    0x16, 0x0e, 0xcc, 0x37, 0xf1, 0x2b, 0x12, 0x23, 0x31, 0xa0, 0xef, 0x2b, 0xff,
    0xfa, 0x3d, 0xfa, 0x2e, 0xf9, 0x0d, 0x10, 0xf5, 0x19, 0x01, 0xf3, 0xf3, 0x24,
    0xff, 0x0d, 0xf9, 0x12, 0x0e, 0xd8, 0xf8, 0x05, 0x02, 0xf1, 0x12, 0xa9, 0x07,
    0x3a, 0x00, 0x0f, 0xea, 0x3f, 0xcc, 0x2d, 0x26, 0xec, 0x05, 0x05, 0x9d, 0xdd,
    0x10, 0xf3, 0x24, 0x0e, 0x06, 0xd2, 0xfe, 0xf9, 0x09, 0x07, 0xe9, 0x0f, 0x0b,
    0x02, 0x1d, 0xd0, 0xfa, 0x1b, 0x06, 0xa7, 0xaf, 0xcb, 0x0c, 0x05, 0xde, 0x00,
    0xd9, 0x0a, 0x81, 0x0c, 0xbc, 0xf4, 0xfc, 0x0d, 0xae, 0x0c, 0x0a, 0xee, 0x0a,
    0x0a, 0xcc, 0x0a, 0xf1, 0x1e, 0x12, 0xfa, 0x0a, 0xe3, 0xfe, 0x04, 0xe6, 0xf8,
    0xf2, 0x03, 0xf9, 0xdd, 0xea, 0xe0, 0xc8, 0xfa, 0x16, 0xfe, 0xe1, 0x0e, 0x01,
    0xe0, 0x0e, 0x0a, 0xf2, 0xe2, 0x02, 0x34, 0xc7, 0x23, 0xfe, 0xfc, 0x06, 0x05,
    0x02, 0xfc, 0x11, 0xf4, 0x0e, 0xe7, 0xe4, 0xef, 0xff, 0xbb, 0x06, 0xc4, 0x94,
    0xff, 0xcb, 0x01, 0xef, 0x05, 0x18, 0xf1, 0xf5, 0xf1, 0xd9, 0xa2, 0x03, 0xea,
    0xea, 0xe0, 0x1b, 0x25, 0x15, 0xf2, 0x6f, 0xe5, 0xef, 0xf6, 0x08, 0x81, 0xc8,
    0xda, 0x1b, 0xc8, 0xf1, 0x82, 0x14, 0xeb, 0x01, 0xf3, 0xc3, 0x00, 0xed, 0xde,
    0x15, 0xed, 0xfc, 0xf1, 0x05, 0xdb, 0x25, 0x2a, 0xf1, 0x21, 0xfa, 0xf2, 0x2e,
    0x11, 0x0a, 0x2b, 0xff, 0xdb, 0xec, 0xf1, 0xed, 0xc5, 0x2e, 0x00, 0x3d, 0xff,
    0xc1, 0xf6, 0x9f, 0x0e, 0x09, 0xe3, 0xbf, 0xef, 0x14, 0xf0, 0x10, 0x34, 0xe3,
    0xc7, 0x0a, 0x28, 0x0c, 0x00, 0x81, 0xce, 0xf6, 0xdb, 0x08, 0x04, 0xe9, 0x06,
    0x00, 0xf3, 0x30, 0xe1, 0x22, 0xf6, 0xfd, 0xef, 0x17, 0xfd, 0x07, 0x07, 0xf1,
    0xfb, 0xf6, 0x0a, 0xf9, 0x14, 0xb5, 0x25, 0xf3, 0xc1, 0x07, 0x07, 0xd7, 0xe8,
    0x08, 0x0e, 0x24, 0xe5, 0x35, 0x0b, 0x4a, 0x3f, 0x33, 0x15, 0x22, 0xd7, 0xbb,
    0xe8, 0xde, 0x25, 0x22, 0xf1, 0x0f, 0x03, 0xc6, 0xee, 0xeb, 0xd4, 0x11, 0x2d,
    0xe2, 0x4b, 0xed, 0x1a, 0x63, 0xdd, 0x09, 0x28, 0x37, 0xca, 0xea, 0xba, 0x25,
    0x11, 0xc4, 0x04, 0xd4, 0xfe, 0xa3, 0xfe, 0xee, 0xf8, 0xf9, 0x20, 0xb6, 0x06,
    0x23, 0xf4, 0x11, 0xfe, 0x18, 0xe2, 0x16, 0x27, 0x13, 0xf0, 0xea, 0x0e, 0xed,
    0xf3, 0xf5, 0x32, 0xfc, 0x2d, 0xff, 0x00, 0xd7, 0xc8, 0x0c, 0x16, 0xb2, 0x00,
    0xa6, 0x0d, 0x0e, 0x28, 0xe9, 0xe4, 0xfa, 0xd3, 0x14, 0x0b, 0x21, 0xe7, 0x07,
    0x15, 0xe8, 0x0c, 0xa0, 0xec, 0xf2, 0xff, 0xeb, 0xe9, 0xfc, 0x02, 0xdc, 0xf5,
    0x01, 0xcf, 0x03, 0x04, 0xc7, 0xf3, 0xdb, 0x81, 0xfd, 0x12, 0x2c, 0xf1, 0xe9,
    0x00, 0x12, 0xfd, 0xdd, 0x2f, 0xfe, 0x00, 0xef, 0xf3, 0xc4, 0x59, 0x09, 0x18,
    0x0c, 0x3f, 0x00, 0x2a, 0x40, 0xec, 0xcb, 0xe1, 0x3b, 0x1b, 0xce, 0x01, 0xf1,
    0x14, 0xf6, 0x1a, 0xcd, 0x0b, 0xe5, 0xf1, 0xf8, 0x0f, 0x08, 0xfd, 0xee, 0x41,
    0x11, 0x06, 0xce, 0xca, 0x1d, 0xe3, 0x42, 0x43, 0x33, 0x18, 0xdb, 0x20, 0x1a,
    0x09, 0x19, 0xee, 0xf2, 0x08, 0x0e, 0x03, 0x00, 0xfe, 0x0d, 0x08, 0x08, 0x07,
    0x08, 0x0a, 0xeb, 0x04, 0xfe, 0xd8, 0x1a, 0x1c, 0xeb, 0x08, 0x14, 0x06, 0xe5,
    0xeb, 0xfb, 0x02, 0xf2, 0xf8, 0xf5, 0xd2, 0xfa, 0x01, 0xe8, 0xf2, 0x00, 0x36,
    0xf7, 0xcf, 0x3f, 0xed, 0x21, 0x00, 0xf5, 0x01, 0x20, 0x08, 0xf2, 0xbf, 0x0f,
    0x09, 0x81, 0x41, 0x16, 0x14, 0x2b, 0xcb, 0xf3, 0xf5, 0x21, 0xd0, 0x0d, 0x19,
    0xd7, 0xf9, 0xdc, 0xf0, 0x14, 0xfc, 0x02, 0xd4, 0xb7, 0x07, 0x1a, 0x34, 0xfc,
    0xf8, 0xb1, 0xe6, 0x03, 0x82, 0x03, 0x03, 0x0e, 0x0f, 0x01, 0xb0, 0x0b, 0xd7,
    0x81, 0xaf, 0xf9, 0xab, 0xe7, 0x0f, 0xdf, 0x06, 0xf1, 0x08, 0xdb, 0x04, 0x0a,
    0x0e, 0xe8, 0x08, 0x12, 0xe0, 0xfb, 0xa6, 0xef, 0xe7, 0x10, 0xfc, 0x0d, 0x03,
    0xd4, 0xf9, 0x0a, 0xf5, 0xb9, 0x13, 0x13, 0xc5, 0xe8, 0x09, 0x25, 0x0e, 0xd7,
    0xed, 0x22, 0x0a, 0x81, 0x26, 0x03, 0x12, 0x2d, 0xf2, 0x11, 0xe2, 0x18, 0x0b,
    0x07, 0x20, 0xfa, 0x2d, 0xf7, 0x13, 0xeb, 0xf5, 0xfa, 0x12, 0xf0, 0x02, 0x1c,
    0x12, 0xf5, 0x9d, 0x1a, 0xfa, 0xff, 0x0c, 0x4a, 0xf6, 0xfc, 0xfd, 0x04, 0xd4,
    0xc2, 0x0d, 0x04, 0xfa, 0xf0, 0x1c, 0xcf, 0x04, 0xf4, 0xed, 0xfa, 0x11, 0xfa,
    0xc4, 0x07, 0xd7, 0xca, 0xfd, 0x17, 0x94, 0x9c, 0xc2, 0x07, 0x3e, 0xe5, 0xee,
    0xfc, 0xec, 0xd0, 0x05, 0x10, 0xd2, 0x30, 0x14, 0x24, 0x28, 0xf2, 0xb6, 0x20,
    0xbb, 0x0c, 0x08, 0xdb, 0x17, 0xc4, 0x0b, 0xf8, 0x0d, 0x05, 0x12, 0xec, 0xfa,
    0x06, 0x0d, 0xf7, 0xf1, 0x0f, 0x06, 0xcf, 0xf8, 0x0a, 0xe1, 0xfb, 0x12, 0xf4,
    0xff, 0xf6, 0xf2, 0xf9, 0x9f, 0x04, 0xfd, 0xf4, 0xec, 0xfd, 0x06, 0xd8, 0xe0,
    0x0a, 0xe9, 0x01, 0xd8, 0xf5, 0x16, 0x06, 0xde, 0xf9, 0xe5, 0xfe, 0x0a, 0xfe,
    0x0d, 0x0d, 0xf8, 0x0e, 0xf8, 0x27, 0x10, 0xf8, 0xcf, 0x0c, 0xf9, 0xed, 0xe1,
    0x03, 0x07, 0xf7, 0x0c, 0xf2, 0x27, 0x07, 0x06, 0x13, 0xd8, 0x90, 0xc4, 0xc8,
    0xdd, 0x99, 0xad, 0xe9, 0xf6, 0xd5, 0xe4, 0xfd, 0xf7, 0xc6, 0xa6, 0xe5, 0xd0,
    0x02, 0x99, 0x08, 0xc2, 0xcf, 0xf1, 0xd1, 0xde, 0x33, 0xd6, 0xce, 0xc8, 0xf2,
    0x0c, 0xd5, 0xc6, 0x06, 0x20, 0x1a, 0xe5, 0xbc, 0x2c, 0x10, 0xef, 0xd2, 0xeb,
    0x81, 0xf6, 0x12, 0x1a, 0x26, 0x06, 0x12, 0x16, 0x0d, 0xc9, 0xe2, 0xdf, 0xec,
    0x25, 0xf0, 0x05, 0xf7, 0x29, 0xeb, 0xda, 0x1c, 0xf5, 0x22, 0xe6, 0xfa, 0x0a,
    0x10, 0xfa, 0x81, 0xd6, 0xf0, 0x21, 0xe2, 0x0e, 0xf1, 0xd9, 0x13, 0x25, 0xfa,
    0x1a, 0x2a, 0x20, 0xbd, 0x00, 0x37, 0x16, 0xe0, 0x16, 0x8e, 0xe1, 0xfb, 0xbf,
    0xf2, 0xfb, 0x0f, 0x10, 0xe1, 0x8e, 0xf4, 0x00, 0xf9, 0x04, 0x02, 0xf4, 0x30,
    0x0f, 0x09, 0xdf, 0xfb, 0x08, 0x05, 0x0c, 0xf4, 0x16, 0x06, 0x08, 0xfb, 0x07,
    0xf8, 0xfd, 0xb7, 0xfe, 0x12, 0x06, 0xec, 0xf8, 0xbd, 0xcf, 0xf1, 0xda, 0xfe,
    0xe3, 0x30, 0xe9, 0xeb, 0x10, 0xc0, 0xf5, 0xff, 0xe3, 0xda, 0x02, 0x0a, 0xe6,
    0xf4, 0x1a, 0x1c, 0xf4, 0xe2, 0x16, 0xeb, 0x09, 0xad, 0xcc, 0x1c, 0xe2, 0x36,
    0x2d, 0x12, 0x34, 0xc5, 0x7e, 0x09, 0x2f, 0xf7, 0x1c, 0x11, 0x22, 0x19, 0x0e,
    0xe7, 0xb9, 0x15, 0x11, 0xef, 0x27, 0xed, 0x06, 0x0a, 0x14, 0xfd, 0xc0, 0xe9,
    0x07, 0x4c, 0x7f, 0xef, 0x28, 0xe1, 0xd3, 0x09, 0x19, 0x81, 0x26, 0xb3, 0xea,
    0xc3, 0xf5, 0x10, 0xfb, 0x50, 0x0a, 0xfb, 0x28, 0xaa, 0x12, 0xea, 0x05, 0x13,
    0x0a, 0xbe, 0xd8, 0x07, 0xc1, 0x11, 0xf8, 0xf2, 0xfd, 0x22, 0xa7, 0xe6, 0x9b,
    0xba, 0xfc, 0x00, 0xa1, 0xeb, 0xfd, 0xb8, 0xbd, 0xf5, 0x2e, 0xec, 0xd0, 0x16,
    0xc3, 0xca, 0xdf, 0xfe, 0xc9, 0xdc, 0xca, 0xa2, 0x81, 0x09, 0xb2, 0xf1, 0x31,
    0xf5, 0xd4, 0x2b, 0x2e, 0x9f, 0xf4, 0x3c, 0x6d, 0x7f, 0x56, 0x53, 0xcf, 0x6b,
    0xf2, 0xa5, 0xe6, 0x64, 0xaa, 0x11, 0xa1, 0xe2, 0xe7, 0x2e, 0x15, 0x1d, 0x20,
    0x65, 0x7b, 0x1d, 0x37, 0x23, 0x19, 0x2d, 0xcc, 0x01, 0xf4, 0xac, 0xf3, 0x1d,
    0x0c, 0x27, 0x09, 0xd8, 0x01, 0xfc, 0xf1, 0x22, 0x00, 0x02, 0xef, 0x0e, 0xe1,
    0x0a, 0x0d, 0x07, 0x15, 0x0e, 0xed, 0x8b, 0xf1, 0x02, 0xff, 0x12, 0x08, 0xca,
    0xd2, 0x13, 0x05, 0x27, 0x38, 0x06, 0x32, 0x16, 0x09, 0xa8, 0xca, 0xfb, 0xfa,
    0xa0, 0x02, 0xf4, 0x07, 0xf9, 0x38, 0xdf, 0xfa, 0xf4, 0xe6, 0x0a, 0x39, 0xef,
    0xef, 0xef, 0x1f, 0x11, 0x03, 0x56, 0xea, 0xfe, 0xd2, 0x14, 0xff, 0x34, 0xbe,
    0x47, 0x9a, 0x02, 0x33, 0x1b, 0x07, 0x0c, 0x12, 0x3e, 0x4e, 0x01, 0x21, 0xec,
    0x10, 0xeb, 0xd0, 0xf5, 0xbb, 0x29, 0x8a, 0xf5, 0xee, 0xfa, 0x12, 0x06, 0xbb,
    0x19, 0x3f, 0xcc, 0x27, 0x52, 0xcc, 0xc9, 0xd8, 0x24, 0xc9, 0xad, 0xeb, 0xe2,
    0xf1, 0x90, 0xdc, 0x0c, 0xcc, 0x7c, 0xe8, 0x15, 0x8c, 0x15, 0x0e, 0xcf, 0xc7,
    0x0d, 0xea, 0x07, 0x14, 0xac, 0xfb, 0x0a, 0x27, 0x4a, 0x16, 0xfa, 0xf2, 0x38,
    0x4c, 0xf1, 0xc7, 0x2a, 0x0e, 0x2a, 0x05, 0x38, 0x0c, 0xf8, 0x7f, 0xbd, 0xfa,
    0xe3, 0xfc, 0x14, 0x4b, 0xcf, 0x45, 0x1a, 0xd6, 0xff, 0xe0, 0x22, 0x00, 0xf8,
    0xdc, 0xea, 0xf5, 0xd6, 0x81, 0x01, 0xf9, 0x0a, 0x19, 0xdb, 0x0b, 0x26, 0xf4,
    0x01, 0x0b, 0x03, 0x28, 0x0f, 0x02, 0x06, 0xc6, 0x03, 0xee, 0x0e, 0xf1, 0x00,
    0x08, 0x0c, 0xf8, 0x0c, 0x1a, 0xf8, 0xd2, 0x18, 0xc8, 0x36, 0x21, 0x15, 0xf9,
    0xb9, 0x47, 0xfc, 0xff, 0x0c, 0xf9, 0x0c, 0x12, 0xf2, 0xf1, 0xe9, 0xfd, 0xe2,
    0x02, 0xf4, 0xde, 0xfe, 0x81, 0xf4, 0x0e, 0xfc, 0x0c, 0x14, 0xc8, 0x11, 0xb0,
    0xe2, 0x46, 0xa2, 0x12, 0xc7, 0xfb, 0x03, 0xa0, 0x15, 0x34, 0x23, 0xe3, 0xc7,
    0x12, 0x36, 0xcc, 0xe0, 0x1f, 0x41, 0xd4, 0x4a, 0xc6, 0xf8, 0xdb, 0xfe, 0x81,
    0xb5, 0x49, 0xc2, 0x39, 0xf6, 0x0e, 0xf4, 0xd9, 0xff, 0xee, 0x0a, 0xf8, 0xcf,
    0x2a, 0x2b, 0xf4, 0xe5, 0xf2, 0xba, 0xb5, 0xed, 0x2c, 0x0c, 0xeb, 0x1e, 0x1a,
    0xff, 0xed, 0xa0, 0xfc, 0xfb, 0xf2, 0x06, 0x0a, 0x20, 0x1a, 0xfd, 0xf6, 0xda,
    0x08, 0x0e, 0xb5, 0x03, 0x94, 0xed, 0x13, 0xbe, 0xfa, 0x01, 0xe3, 0xf0, 0xce,
    0x2a, 0xdb, 0xc8, 0xd9, 0xf9, 0xfa, 0xee, 0xfa, 0xe9, 0x07, 0x20, 0xee, 0x24,
    0x1c, 0x0a, 0xd7, 0xf6, 0x81, 0xfc, 0x19, 0x23, 0xcf, 0xeb, 0xef, 0xea, 0x22,
    0x1a, 0x00, 0xc5, 0xf5, 0x1d, 0x17, 0xf4, 0x0a, 0x0b, 0xfd, 0x10, 0xf9, 0xf2,
    0x12, 0x19, 0xb9, 0xfb, 0xfa, 0x07, 0x0c, 0xcc, 0x04, 0xdf, 0x26, 0xda, 0x07,
    0x10, 0x1a, 0x1a, 0xfc, 0x09, 0xdb, 0x23, 0xf5, 0x0c, 0xfd, 0xdd, 0xed, 0x0b,
    0xfd, 0x2f, 0x09, 0x2b, 0x04, 0x15, 0xf0, 0x12, 0xfb, 0xe0, 0x02, 0xde, 0xe8,
    0x81, 0x22, 0x17, 0x8b, 0xf3, 0x2a, 0xa6, 0xdb, 0xd2, 0x0d, 0xd9, 0x8e, 0x4e,
    0x1e, 0x05, 0xf4, 0xe0, 0xce, 0xe5, 0xbc, 0xdc, 0xef, 0xc6, 0xd4, 0xef, 0x18,
    0xc1, 0x12, 0xe5, 0xb5, 0x18, 0x05, 0xcc, 0xfa, 0xfe, 0xab, 0x07, 0xd1, 0xd4,
    0xff, 0x25, 0xd7, 0xce, 0x0f, 0xfd, 0xf6, 0x11, 0x03, 0x16, 0x1e, 0x03, 0x0e,
    0x16, 0xfa, 0x1c, 0xcb, 0x05, 0x29, 0x19, 0xd6, 0x07, 0xe0, 0x11, 0x09, 0x16,
    0x0a, 0xcd, 0xc7, 0x9c, 0x97, 0xa6, 0xc5, 0xfd, 0xf1, 0xd4, 0x0f, 0xc3, 0x02,
    0x34, 0x20, 0xa3, 0xfc, 0x27, 0x05, 0x07, 0xd7, 0xf9, 0x34, 0xf5, 0xd9, 0x9b,
    0x04, 0xd3, 0x8e, 0x1b, 0x22, 0xcf, 0xce, 0xdd, 0xdf, 0xe2, 0x2a, 0xf7, 0x02,
    0xa0, 0xc3, 0xe0, 0x0c, 0xf1, 0x1c, 0x21, 0xf4, 0xdd, 0x49, 0x09, 0x9a, 0x25,
    0xde, 0x05, 0x41, 0x13, 0xb5, 0xc3, 0x92, 0xe8, 0x27, 0xe4, 0xda, 0x2b, 0xa7,
    0x06, 0xe4, 0xa3, 0xec, 0x05, 0x07, 0x39, 0x0d, 0xd2, 0x0a, 0xc9, 0x0a, 0xe0,
    0xee, 0x10, 0xd0, 0x09, 0xf1, 0x43, 0xfc, 0x10, 0x3a, 0xee, 0xb4, 0x81, 0xed,
    0xf0, 0xd5, 0xf1, 0xf1, 0xf9, 0xe4, 0xe7, 0xec, 0xdf, 0xc8, 0x1b, 0xa5, 0xe4,
    0x0d, 0x68, 0x2b, 0x13, 0x12, 0x61, 0xf5, 0xf3, 0x10, 0x0f, 0xb1, 0x1c, 0xe5,
    0x22, 0x2a, 0xfc, 0xaf, 0x0f, 0x1a, 0x0d, 0xe2, 0x08, 0xf8, 0x7f, 0x0e, 0x01,
    0xf1, 0xd6, 0xd6, 0xf3, 0x02, 0xfd, 0x01, 0xf9, 0x81, 0xda, 0xff, 0xe1, 0xeb,
    0x18, 0x17, 0xea, 0xd4, 0x0b, 0xed, 0x0d, 0x18, 0x04, 0x45, 0xfe, 0x16, 0x09,
    0xdf, 0x04, 0xf0, 0xdc, 0x23, 0x1f, 0x09, 0xf6, 0x0b, 0x0d, 0xf2, 0x1a, 0xe9,
    0x0c, 0x0c, 0xb1, 0xef, 0xfb, 0xe5, 0xc5, 0xfc, 0xfd, 0x13, 0x4c, 0x16, 0xf6,
    0xb6, 0xe6, 0x26, 0xf5, 0x1b, 0x12, 0xfc, 0x0e, 0x11, 0x81, 0xb3, 0xca, 0xed,
    0xff, 0xff, 0x00, 0x00, 0x00, 0x09, 0x18, 0x00, 0x00, 0x00, 0x05, 0x00, 0x00,
    0x00, 0x08, 0x00, 0x00, 0x00, 0x14, 0x00, 0x00, 0x00, 0x01, 0x00, 0x00, 0x00,
    0x33, 0x00, 0x00, 0x00, 0x01, 0x00, 0x00, 0x00, 0x00, 0x10, 0x00, 0x00, 0x14,
    0xed, 0xff, 0xff, 0x8a, 0xee, 0xff, 0xff, 0x04, 0x00, 0x00, 0x00, 0x00, 0x01,
    0x00, 0x00, 0x24, 0x33, 0x8f, 0x42, 0x5f, 0x2d, 0x08, 0x17, 0xa4, 0x23, 0x2c,
    0x15, 0x9c, 0x2a, 0xef, 0x28, 0x68, 0x1c, 0xc4, 0x1f, 0xc6, 0x2c, 0xf8, 0x20,
    0x63, 0x1a, 0x25, 0x20, 0x45, 0x21, 0x28, 0x24, 0xf4, 0xf6, 0x92, 0xe9, 0xea,
    0xf8, 0x32, 0xfb, 0x58, 0xf4, 0x03, 0x05, 0x6d, 0xf5, 0xb0, 0xf8, 0xc6, 0xf8,
    0x29, 0xfb, 0x5f, 0xfd, 0xcc, 0xf7, 0xcb, 0xfd, 0xaf, 0xf7, 0x3f, 0xfa, 0xbc,
    0xf8, 0xa9, 0x1b, 0xf5, 0x23, 0xc3, 0x1c, 0x70, 0x16, 0x12, 0x28, 0x92, 0x1a,
    0x08, 0x1d, 0x12, 0x1a, 0xd0, 0x12, 0x92, 0x16, 0xbf, 0x3d, 0xe3, 0x19, 0x18,
    0x1b, 0x3f, 0x2b, 0xe8, 0x20, 0x4f, 0x1c, 0x8f, 0xfb, 0x1d, 0xfc, 0x91, 0xfd,
    0x0d, 0xfd, 0x43, 0xf9, 0x40, 0xfd, 0x83, 0xfc, 0x15, 0xf2, 0x09, 0xff, 0x16,
    0xfb, 0x98, 0xf1, 0x34, 0xfd, 0x90, 0xf9, 0xf5, 0xf2, 0x1d, 0xfd, 0x19, 0xfc,
    0xfe, 0x2a, 0xfd, 0x1f, 0x51, 0x2a, 0x05, 0x1b, 0x72, 0x1d, 0x63, 0x12, 0x12,
    0x1a, 0x1c, 0x2b, 0x0c, 0x19, 0xb0, 0x21, 0x68, 0x14, 0x56, 0x28, 0x1d, 0x25,
    0xdd, 0x1e, 0xc1, 0x1b, 0x15, 0x33, 0x07, 0xef, 0x6c, 0xfc, 0x6d, 0xf4, 0xee,
    0xf5, 0x78, 0xfe, 0xea, 0xfd, 0x26, 0xfb, 0x51, 0xf7, 0x9b, 0xf8, 0xfe, 0xf2,
    0xcf, 0xfd, 0xdf, 0xf3, 0x62, 0xf0, 0x3c, 0xf2, 0xa3, 0xfc, 0x57, 0xf3, 0xaf,
    0x19, 0x7b, 0x20, 0x5f, 0x1c, 0xcf, 0x28, 0x9a, 0x11, 0x77, 0x0a, 0x9f, 0x25,
    0xd3, 0x15, 0x2a, 0x18, 0x8e, 0x35, 0x99, 0x0e, 0x0b, 0x23, 0x2a, 0x0a, 0x20,
    0x31, 0xec, 0x38, 0x3b, 0x17, 0xee, 0xf4, 0x37, 0xf8, 0xc3, 0x00, 0x69, 0xf0,
    0xcb, 0xff, 0xbf, 0xf3, 0xae, 0xf5, 0x59, 0xfb, 0x2c, 0xf8, 0x4f, 0xf2, 0x63,
    0xf9, 0x25, 0xf6, 0x49, 0xf6, 0x2e, 0xf6, 0x45, 0xf1, 0x2d, 0xfe, 0x02, 0xef,
    0xff, 0xff, 0x00, 0x00, 0x00, 0x07, 0x18, 0x00, 0x00, 0x00, 0x04, 0x00, 0x00,
    0x00, 0x08, 0x00, 0x00, 0x00, 0x14, 0x00, 0x00, 0x00, 0x01, 0x00, 0x00, 0x00,
    0x32, 0x00, 0x00, 0x00, 0x01, 0x00, 0x00, 0x00, 0x80, 0x00, 0x00, 0x00, 0x4c,
    0xee, 0xff, 0xff, 0xc2, 0xef, 0xff, 0xff, 0x04, 0x00, 0x00, 0x00, 0x00, 0x10,
    0x00, 0x00, 0x19, 0xc9, 0x16, 0xa9, 0xf9, 0x04, 0xf2, 0x0f, 0xf4, 0xf7, 0x19,
    0xda, 0x1b, 0xe8, 0xec, 0x0c, 0x08, 0x06, 0x0f, 0xfe, 0x0b, 0x11, 0xfb, 0xfb,
    0x00, 0xf3, 0xf9, 0xe9, 0x16, 0xfc, 0x25, 0x19, 0x0f, 0xee, 0x13, 0xec, 0xfe,
    0xf8, 0xfe, 0xe4, 0xe4, 0xfe, 0xf1, 0xbb, 0x35, 0xff, 0x21, 0x1e, 0x0b, 0x18,
    0x05, 0xf6, 0x0a, 0x13, 0x18, 0xf8, 0x10, 0xf9, 0x13, 0xf1, 0xf7, 0x11, 0x0b,
    0x1c, 0x14, 0xf3, 0x1d, 0xbf, 0xd4, 0xfb, 0xf0, 0xf7, 0xe1, 0x02, 0x00, 0xe3,
    0x1a, 0xe7, 0x27, 0x21, 0xf4, 0xf9, 0x03, 0xfb, 0xfd, 0xf8, 0x0d, 0xeb, 0x1b,
    0xfa, 0x12, 0xf8, 0x1f, 0x0a, 0xfc, 0x44, 0x1d, 0xe5, 0x15, 0xcb, 0xf8, 0xf6,
    0xf6, 0x10, 0xe7, 0xf6, 0xe7, 0x27, 0xe4, 0xce, 0x09, 0x0c, 0x00, 0x2c, 0x1c,
    0xc5, 0xf0, 0xf3, 0xfb, 0xeb, 0x09, 0x13, 0x1e, 0x09, 0x17, 0xfe, 0x0b, 0xef,
    0x15, 0xcd, 0xf5, 0xb9, 0x03, 0xf8, 0xfa, 0xe1, 0xf5, 0xce, 0x0b, 0xff, 0xfe,
    0xf2, 0xf4, 0x04, 0xd4, 0x25, 0x17, 0xd9, 0xfa, 0xd6, 0x04, 0xf4, 0x0d, 0x1b,
    0x1d, 0x0e, 0xfd, 0xdd, 0x10, 0xfe, 0x1d, 0xbb, 0x0f, 0xc9, 0x06, 0x0e, 0x07,
    0xef, 0xc8, 0x0b, 0x0f, 0xf2, 0xe3, 0xfa, 0x02, 0x06, 0xe5, 0x3a, 0x23, 0xdd,
    0x02, 0x06, 0xff, 0xe0, 0xee, 0x18, 0x16, 0xf7, 0x0c, 0xe5, 0x13, 0x0c, 0x14,
    0xc9, 0x1e, 0xd7, 0xfe, 0xe6, 0xfd, 0x02, 0xf4, 0x09, 0x08, 0xe1, 0x0b, 0xf9,
    0x07, 0x18, 0xf6, 0x12, 0x16, 0x02, 0x16, 0xe3, 0x0c, 0xee, 0xff, 0x08, 0x19,
    0x00, 0x13, 0xfe, 0x08, 0x1f, 0x0f, 0x20, 0xec, 0x97, 0xf8, 0x43, 0x1b, 0xe7,
    0x02, 0xdc, 0xc5, 0xe5, 0xf6, 0x05, 0xc8, 0xfe, 0x12, 0xc5, 0xf4, 0xfe, 0xd2,
    0x25, 0xd7, 0x1a, 0x02, 0xf5, 0xbb, 0x0b, 0xea, 0x11, 0xfd, 0xd0, 0x0e, 0xea,
    0x22, 0xde, 0xf2, 0xf3, 0x0b, 0x04, 0xd3, 0xef, 0x0c, 0xbf, 0x34, 0xeb, 0x26,
    0x0f, 0xfe, 0x25, 0x0c, 0xf2, 0x10, 0x03, 0xfb, 0xeb, 0x10, 0xf9, 0x11, 0xf9,
    0x13, 0x0d, 0xf9, 0x21, 0x16, 0x2d, 0xd8, 0x37, 0xed, 0xfe, 0x16, 0x0b, 0x06,
    0xec, 0xfc, 0x2a, 0xf4, 0x0b, 0xcf, 0xef, 0xd6, 0xd6, 0xc7, 0x10, 0xf6, 0xe2,
    0x01, 0xfa, 0x04, 0xec, 0x26, 0x17, 0x0a, 0x09, 0xec, 0xe3, 0xfd, 0xbe, 0xfe,
    0xe7, 0x00, 0x04, 0xca, 0x21, 0x07, 0xe3, 0xde, 0xbe, 0x2b, 0xfe, 0xf7, 0x0a,
    0xf6, 0xee, 0x2c, 0xe8, 0xdf, 0xfb, 0xf1, 0xf6, 0x37, 0xdb, 0x22, 0xe9, 0xf0,
    0x20, 0xff, 0x2e, 0x16, 0xc8, 0x04, 0x0e, 0xed, 0xf2, 0x00, 0xf2, 0xcb, 0xf9,
    0x06, 0xdf, 0x0d, 0x12, 0x15, 0x07, 0xfc, 0x29, 0x19, 0xdc, 0xf3, 0x15, 0x0e,
    0xda, 0x3b, 0xfd, 0x24, 0xd6, 0x14, 0x0a, 0x32, 0x0b, 0x14, 0x22, 0xdc, 0x1f,
    0x0e, 0x37, 0x1e, 0xce, 0x03, 0xe9, 0xcc, 0x07, 0xe3, 0x0a, 0x9b, 0x08, 0x11,
    0xbe, 0xe7, 0x06, 0xdc, 0x28, 0xdb, 0x13, 0xf9, 0xef, 0xc1, 0x13, 0xfc, 0x0c,
    0xf2, 0xc9, 0xef, 0xc2, 0xed, 0xb2, 0x05, 0x03, 0x04, 0xf8, 0xb5, 0xfe, 0x0f,
    0xb7, 0x0b, 0xe0, 0x19, 0x05, 0xe7, 0xd0, 0x25, 0xe9, 0x1c, 0xe0, 0x1a, 0x10,
    0x0e, 0x08, 0xc4, 0xf6, 0xf0, 0x04, 0xf4, 0x10, 0xfd, 0xed, 0xd3, 0xbf, 0xd2,
    0xe0, 0x19, 0xd3, 0xe6, 0x08, 0xef, 0xf2, 0x04, 0xf5, 0x1c, 0x37, 0xfb, 0x88,
    0xfd, 0x04, 0x18, 0xf7, 0x0d, 0xe7, 0x16, 0x9a, 0x1a, 0xcb, 0xac, 0x27, 0xda,
    0x17, 0xea, 0x01, 0x08, 0x45, 0xf5, 0xec, 0x0f, 0x05, 0x1e, 0xf7, 0xfe, 0x11,
    0xe7, 0x24, 0xec, 0xed, 0xf4, 0xf9, 0xba, 0x15, 0x02, 0xf3, 0xec, 0x10, 0xdc,
    0xec, 0x06, 0x0c, 0x0c, 0x0c, 0xf9, 0xe8, 0xfd, 0x07, 0xff, 0x2a, 0xf5, 0x05,
    0xff, 0x15, 0x04, 0x0d, 0x0d, 0x03, 0xf0, 0xea, 0x0d, 0x08, 0xf6, 0x21, 0x11,
    0x37, 0x16, 0x04, 0xe8, 0xd0, 0xef, 0x24, 0xf5, 0x11, 0x0d, 0xf4, 0x0b, 0x19,
    0x10, 0x02, 0xfe, 0xf6, 0x16, 0x12, 0x05, 0x1b, 0x1a, 0x0e, 0xe9, 0xfd, 0xf5,
    0xe0, 0x00, 0x11, 0x1a, 0x11, 0xf6, 0xc9, 0x16, 0xf4, 0xf9, 0x0b, 0xe0, 0xed,
    0xe7, 0xf8, 0x02, 0x0f, 0x11, 0x1a, 0x19, 0x20, 0xa2, 0x01, 0xf8, 0xef, 0x00,
    0x44, 0x1b, 0xfb, 0x14, 0x20, 0xe7, 0xdf, 0x17, 0x0f, 0x03, 0x19, 0xfb, 0x0e,
    0x0f, 0x0c, 0xfc, 0xf4, 0xf0, 0x17, 0x02, 0x0e, 0x08, 0xfe, 0x0d, 0x05, 0x45,
    0x05, 0xfa, 0x03, 0xfb, 0xf9, 0x10, 0x08, 0xff, 0x2b, 0xfa, 0x00, 0xe3, 0x0e,
    0x12, 0x04, 0xfd, 0x06, 0xec, 0x55, 0x2b, 0xf9, 0xfe, 0xfe, 0xfe, 0x1a, 0x0c,
    0x19, 0x08, 0xd3, 0xdf, 0x0f, 0x1e, 0x12, 0x08, 0x17, 0x26, 0x0f, 0xf6, 0x28,
    0xf9, 0x09, 0xf7, 0xed, 0xf6, 0x1b, 0x08, 0x3e, 0x3d, 0x3b, 0xf1, 0x37, 0x0c,
    0x0b, 0xe8, 0xf5, 0xc7, 0x0a, 0x07, 0x06, 0xfc, 0xea, 0xda, 0x05, 0x42, 0xfb,
    0xf3, 0xfd, 0x0b, 0x18, 0x18, 0xea, 0xfb, 0x17, 0xfe, 0xf2, 0xf0, 0xfa, 0x21,
    0xfa, 0x37, 0xbe, 0x27, 0x21, 0xfc, 0x04, 0xfd, 0x1b, 0xde, 0x06, 0xdf, 0x18,
    0xfe, 0xf1, 0xf4, 0x09, 0x06, 0x08, 0xfc, 0x08, 0x18, 0xfd, 0x18, 0x1e, 0x0e,
    0xf9, 0x06, 0x0d, 0xed, 0xf4, 0x01, 0x08, 0x20, 0x07, 0x26, 0x20, 0x17, 0xec,
    0xea, 0x0a, 0xe0, 0x07, 0xe0, 0x0d, 0x0c, 0x16, 0xea, 0x2f, 0xde, 0x11, 0xb2,
    0xe6, 0xf0, 0x29, 0xe4, 0xe5, 0xe2, 0x16, 0xf0, 0xfc, 0x11, 0x1c, 0x08, 0xee,
    0xed, 0xb2, 0xc0, 0x21, 0xe6, 0x0c, 0xc0, 0xac, 0x08, 0xd6, 0xf9, 0xfc, 0xf7,
    0x18, 0x2e, 0xe7, 0x2b, 0xf3, 0xf4, 0x13, 0x17, 0x04, 0x07, 0x12, 0x0f, 0xfd,
    0x05, 0xf2, 0xf6, 0xf3, 0xee, 0xfe, 0x13, 0x2d, 0xf2, 0x25, 0x18, 0xf8, 0xd4,
    0x14, 0xe2, 0x03, 0xd3, 0x01, 0x05, 0xf6, 0x05, 0x12, 0xec, 0x02, 0xfb, 0xfa,
    0xeb, 0xac, 0xde, 0x0a, 0xf8, 0xee, 0xe9, 0x00, 0xf1, 0x02, 0x19, 0xee, 0xfc,
    0xf6, 0xe2, 0xfa, 0x16, 0xef, 0xb4, 0x05, 0x1f, 0xdd, 0xe7, 0xfe, 0x0a, 0xfb,
    0x09, 0xf5, 0x01, 0x0c, 0xcc, 0xfd, 0x21, 0x08, 0xe3, 0xf6, 0x38, 0xdb, 0x01,
    0xb1, 0xfe, 0xd7, 0x08, 0x04, 0x14, 0x21, 0x04, 0xf7, 0xf8, 0x08, 0xbd, 0x24,
    0xf9, 0xcc, 0x0b, 0x15, 0xfc, 0xf9, 0x14, 0xf6, 0xfe, 0x05, 0xdb, 0x00, 0x0a,
    0xfd, 0x19, 0xdf, 0x36, 0x20, 0xfb, 0xf4, 0xf7, 0x01, 0x19, 0x08, 0x11, 0xe2,
    0xff, 0x3b, 0xfd, 0x0a, 0xce, 0x0a, 0xfc, 0x2c, 0xe0, 0x13, 0x00, 0xc0, 0xf6,
    0xf9, 0xf1, 0xf3, 0xc1, 0xdd, 0xf1, 0x05, 0xf3, 0xea, 0xe0, 0x12, 0x05, 0xce,
    0x18, 0x16, 0xfa, 0xe4, 0xee, 0xcf, 0xce, 0xe6, 0xfc, 0xef, 0xd5, 0xd7, 0x21,
    0xdd, 0x1e, 0x02, 0xf8, 0x00, 0x15, 0xf6, 0x42, 0x0e, 0xdd, 0x1c, 0x19, 0xff,
    0xd4, 0xf2, 0x29, 0xd1, 0x15, 0x06, 0x11, 0x10, 0x0d, 0x2d, 0x2b, 0xed, 0x18,
    0x25, 0x09, 0x11, 0xf8, 0x0e, 0xee, 0x0a, 0xda, 0x10, 0x06, 0xfc, 0xef, 0xff,
    0xf2, 0xd5, 0xc6, 0x05, 0x08, 0x07, 0xf2, 0x33, 0x28, 0xec, 0x0f, 0xf9, 0xde,
    0x00, 0x14, 0xdd, 0x1e, 0xfe, 0x21, 0x1b, 0x0b, 0x03, 0xf0, 0x38, 0xd8, 0xf9,
    0xe8, 0xfc, 0xfd, 0x0c, 0x10, 0x09, 0xfd, 0xff, 0x1d, 0xf3, 0x02, 0xd6, 0xfb,
    0xf3, 0xf9, 0xd2, 0x08, 0xf5, 0xdd, 0x07, 0xf8, 0xdd, 0xfb, 0xf7, 0xf4, 0xe1,
    0xf7, 0xfb, 0x09, 0xef, 0x21, 0xf6, 0xf7, 0xf6, 0x10, 0xea, 0x1f, 0xef, 0x0d,
    0xb9, 0x0e, 0x89, 0x11, 0x12, 0x07, 0x11, 0xe7, 0x09, 0x0f, 0xe8, 0xf5, 0xf5,
    0xf7, 0x11, 0xcb, 0x10, 0x25, 0xf6, 0xf5, 0xc2, 0x14, 0xf9, 0x21, 0x15, 0xdb,
    0x27, 0x1e, 0xfb, 0x0b, 0x17, 0x18, 0xe8, 0x09, 0xc9, 0xe4, 0x1a, 0xf0, 0x1e,
    0xc5, 0x13, 0x13, 0xee, 0x06, 0x0a, 0x95, 0xf1, 0xf1, 0x13, 0xf6, 0xec, 0x04,
    0xdc, 0x02, 0xf3, 0x14, 0x18, 0x1f, 0x19, 0x22, 0x0a, 0x1c, 0xfd, 0x1b, 0xed,
    0x19, 0xb1, 0xec, 0x15, 0xf3, 0x03, 0xf5, 0x0c, 0x14, 0xe7, 0x01, 0x00, 0xf9,
    0x0d, 0xf8, 0x0a, 0x18, 0xf7, 0x18, 0xf5, 0x13, 0xd4, 0x0b, 0x1b, 0x26, 0x10,
    0x0e, 0x15, 0x19, 0x27, 0x1f, 0xb7, 0x1e, 0xea, 0xe9, 0x1c, 0xf0, 0xd6, 0xbd,
    0xff, 0x0c, 0x39, 0xf9, 0xe3, 0x0e, 0x0d, 0x1b, 0x1e, 0xe9, 0xf2, 0x1d, 0x24,
    0x19, 0xf2, 0xfc, 0x07, 0x0f, 0xf9, 0x0c, 0x0d, 0x07, 0x0a, 0x1a, 0xde, 0x07,
    0xcd, 0xf5, 0x0d, 0x04, 0xda, 0x9a, 0xe3, 0x03, 0x45, 0x92, 0xee, 0x03, 0x24,
    0x28, 0x4a, 0xf5, 0x0a, 0x0b, 0x25, 0x01, 0xf9, 0xfb, 0x09, 0x1b, 0xf6, 0x19,
    0x19, 0x0a, 0x1d, 0x1a, 0xd5, 0x04, 0xd7, 0xff, 0x12, 0xff, 0xf5, 0xe9, 0x2a,
    0xfa, 0xfa, 0x1c, 0xf4, 0x13, 0x0a, 0x13, 0xf6, 0x19, 0xee, 0xfb, 0x02, 0x11,
    0xf7, 0x15, 0x14, 0x0b, 0x15, 0xf7, 0x03, 0x1d, 0xfe, 0x0c, 0xde, 0x1d, 0xb1,
    0xeb, 0x2c, 0xf9, 0x05, 0xe9, 0x06, 0x00, 0xd6, 0x0b, 0xf6, 0x16, 0x09, 0xec,
    0xf9, 0x19, 0xf0, 0x08, 0x09, 0x17, 0xe6, 0x0f, 0x07, 0x0d, 0x04, 0x12, 0x18,
    0x1e, 0x14, 0x03, 0x03, 0xe5, 0xd4, 0xf0, 0x0d, 0x20, 0xe1, 0xf7, 0xd6, 0xe0,
    0xc5, 0x12, 0x04, 0xb1, 0xd8, 0x26, 0xd4, 0x13, 0x0d, 0xeb, 0x1e, 0xfb, 0x1d,
    0xeb, 0xe8, 0xaa, 0xf5, 0xf2, 0xe6, 0xe7, 0xf1, 0x1e, 0xee, 0xfd, 0xbb, 0xe9,
    0x16, 0xf9, 0x07, 0xd4, 0x19, 0x11, 0xcb, 0xfd, 0x00, 0x06, 0x0c, 0xff, 0x03,
    0xff, 0xf3, 0x12, 0xff, 0x16, 0xef, 0x04, 0x19, 0x22, 0x10, 0x11, 0xf7, 0x20,
    0xf5, 0x16, 0x1a, 0xc6, 0x59, 0x16, 0xc1, 0x29, 0xe0, 0x29, 0xc1, 0xf0, 0x0b,
    0xe9, 0x0e, 0xdb, 0xef, 0xee, 0xa6, 0xef, 0x0c, 0xe7, 0xef, 0xf1, 0xf4, 0xe2,
    0xf1, 0x1a, 0xf8, 0xe5, 0xfc, 0xfd, 0xde, 0xff, 0xd8, 0x1c, 0x95, 0xe3, 0xf6,
    0xed, 0xed, 0xe7, 0x01, 0x29, 0x9c, 0x28, 0x0e, 0xec, 0xf2, 0xe7, 0x0c, 0x2c,
    0x01, 0x0c, 0xe5, 0x28, 0xf4, 0xf7, 0x0d, 0xef, 0x09, 0x15, 0x0f, 0x3d, 0xdf,
    0x1f, 0xdb, 0x18, 0xe7, 0xe4, 0x22, 0xfb, 0xcd, 0xd9, 0x21, 0x21, 0xd9, 0xff,
    0x14, 0xf4, 0x02, 0x0b, 0xf4, 0x2f, 0xf5, 0x05, 0xc9, 0x0a, 0xf1, 0x05, 0x0b,
    0xca, 0xfd, 0x0d, 0x17, 0x10, 0x21, 0x10, 0x24, 0xe6, 0x32, 0x26, 0x15, 0x16,
    0xe2, 0x25, 0xb1, 0xee, 0x0e, 0xed, 0x0d, 0xb4, 0xe5, 0x20, 0xd6, 0x03, 0x16,
    0xe2, 0x21, 0xdd, 0x12, 0xf5, 0xda, 0xd1, 0xfe, 0xf4, 0xd7, 0x02, 0xc3, 0x05,
    0xe8, 0x01, 0x9c, 0xea, 0x0d, 0x17, 0xad, 0xf2, 0xf3, 0xfd, 0xc7, 0x09, 0x10,
    0x14, 0x1b, 0xe3, 0x28, 0x1f, 0x12, 0x03, 0x09, 0x12, 0xd3, 0x05, 0x19, 0xf4,
    0xf3, 0x17, 0x14, 0x3f, 0x0f, 0x07, 0xd5, 0xf4, 0xcb, 0xd4, 0x10, 0x25, 0x2c,
    0xfb, 0xef, 0xe4, 0x01, 0x21, 0xf7, 0xfa, 0x0e, 0xea, 0x05, 0xfd, 0x03, 0x30,
    0x10, 0x0e, 0xf7, 0xe8, 0xea, 0x12, 0xfa, 0xb1, 0x25, 0x0a, 0xe5, 0xe9, 0xb2,
    0xf2, 0x4a, 0x27, 0xcc, 0x23, 0xf4, 0x11, 0xc8, 0xe3, 0x2f, 0xf0, 0x1c, 0x00,
    0x06, 0xe9, 0xca, 0xd4, 0x09, 0xda, 0xf2, 0xf5, 0x03, 0xe9, 0xf7, 0x19, 0xfa,
    0xfa, 0xfd, 0x06, 0xd7, 0x09, 0x23, 0xec, 0xf0, 0x0b, 0x01, 0xf3, 0x2a, 0x13,
    0x02, 0xf8, 0x0c, 0xdf, 0xef, 0xed, 0x20, 0x2f, 0x17, 0xfb, 0x1c, 0x0e, 0xfc,
    0x2e, 0xd7, 0x00, 0x07, 0xef, 0x06, 0xf6, 0xe1, 0xdb, 0x1f, 0x1b, 0x15, 0xfe,
    0xfe, 0x0e, 0xf8, 0x1a, 0x22, 0x08, 0x04, 0x1a, 0x07, 0xed, 0x13, 0xeb, 0x12,
    0x20, 0x10, 0x1b, 0xbf, 0xfb, 0x15, 0xe1, 0xf4, 0x15, 0xb3, 0xda, 0xff, 0xf5,
    0xe0, 0xdc, 0x0e, 0x19, 0x0b, 0x82, 0xfb, 0x12, 0x0c, 0xfa, 0x18, 0x06, 0xf7,
    0x06, 0xe3, 0xf7, 0xf6, 0xfc, 0x0d, 0x1e, 0x0a, 0x02, 0x32, 0x08, 0x10, 0x16,
    0xbe, 0x0e, 0x01, 0xee, 0xfe, 0x00, 0x23, 0xda, 0xff, 0x22, 0x04, 0xc7, 0x03,
    0x15, 0x38, 0x0c, 0xc5, 0x1f, 0x0c, 0xfe, 0x04, 0x0b, 0xf7, 0xe9, 0xfe, 0xf5,
    0xee, 0x03, 0x37, 0x0b, 0xf9, 0x05, 0x04, 0xec, 0x1c, 0xc6, 0xfc, 0xfb, 0x06,
    0xc5, 0xf2, 0x11, 0x11, 0xf1, 0x04, 0xf4, 0x0e, 0xf0, 0xea, 0x09, 0x17, 0x10,
    0x17, 0xe9, 0x04, 0xf7, 0xe2, 0xf7, 0x9b, 0x0b, 0x21, 0xed, 0x0b, 0xcd, 0x0f,
    0xea, 0x26, 0x02, 0x13, 0x03, 0x30, 0xfa, 0x0f, 0x11, 0x0c, 0xed, 0x16, 0x19,
    0x02, 0x02, 0xe3, 0x1c, 0x28, 0x10, 0x09, 0xef, 0x05, 0xda, 0x14, 0xe2, 0x0a,
    0xf2, 0x20, 0x01, 0x0d, 0xfa, 0x05, 0xe2, 0x12, 0xe6, 0xf8, 0x11, 0xf6, 0xec,
    0x2e, 0x1f, 0x0d, 0xbb, 0x08, 0xfc, 0x08, 0x02, 0x1b, 0x0e, 0x03, 0x10, 0xf5,
    0xf2, 0xe1, 0xf4, 0x22, 0x0e, 0x25, 0x02, 0x23, 0x08, 0x0e, 0xfc, 0xf5, 0x17,
    0x17, 0xd2, 0xf9, 0x0c, 0x0d, 0xea, 0x20, 0xad, 0x09, 0xc3, 0xec, 0xe7, 0x0b,
    0xec, 0xf7, 0xff, 0x1e, 0x08, 0xe7, 0x2b, 0x26, 0x0c, 0x9e, 0xea, 0xb6, 0xd6,
    0xe8, 0xed, 0xfa, 0xc9, 0xbf, 0xf3, 0xe3, 0xd8, 0x01, 0x08, 0x07, 0x0b, 0xdf,
    0x1c, 0x22, 0xf6, 0x0b, 0x05, 0x0e, 0x0a, 0x34, 0x11, 0x0b, 0x09, 0x16, 0xf1,
    0xfe, 0xfb, 0x0f, 0x21, 0x13, 0x13, 0xcd, 0x0c, 0x00, 0xf0, 0xf4, 0x0f, 0x1b,
    0xe5, 0x06, 0xfa, 0x36, 0xf6, 0x1c, 0xfb, 0x09, 0xf7, 0xfb, 0xdd, 0xda, 0xfd,
    0xfe, 0x07, 0xe3, 0xf4, 0xe8, 0xd2, 0x1e, 0x06, 0x05, 0xe4, 0x0a, 0xbf, 0x0e,
    0xe6, 0x10, 0x34, 0x2d, 0x08, 0xe5, 0x35, 0xe4, 0xef, 0xed, 0x0d, 0x0d, 0x22,
    0xfd, 0x29, 0x2d, 0x1e, 0xfd, 0xd3, 0x1c, 0xd9, 0xcf, 0xe4, 0xf6, 0xfd, 0x0d,
    0xf7, 0xfe, 0xf6, 0x10, 0x35, 0x2d, 0xf1, 0x13, 0xb5, 0xe2, 0x2d, 0xea, 0xde,
    0x21, 0x0c, 0x16, 0xff, 0xe6, 0x3b, 0x16, 0xe5, 0x02, 0x2a, 0x29, 0xf0, 0x22,
    0xf0, 0x14, 0xf1, 0xfd, 0xeb, 0x1d, 0xe3, 0x0d, 0x05, 0x07, 0x0d, 0x19, 0xfa,
    0xf3, 0xaf, 0x03, 0x0e, 0xf4, 0xd4, 0x15, 0x13, 0xd5, 0x01, 0x0b, 0xcc, 0xf8,
    0xd3, 0xd8, 0xdb, 0x03, 0xd4, 0xe3, 0xe9, 0x08, 0xfd, 0xd8, 0x22, 0x1b, 0xf7,
    0xdd, 0xe2, 0xcd, 0xc2, 0xd0, 0xfc, 0x0e, 0x26, 0xea, 0x13, 0xdd, 0x1c, 0xf3,
    0x0d, 0x0e, 0x08, 0xf4, 0xe1, 0xfb, 0x13, 0xfe, 0xed, 0xf8, 0xfe, 0x24, 0xec,
    0x0c, 0xff, 0x14, 0xd8, 0xd3, 0xfc, 0xb1, 0xf9, 0x1b, 0x1e, 0x3d, 0xe7, 0x0b,
    0xd1, 0x00, 0xd5, 0x1e, 0xf5, 0xfb, 0xf0, 0x1f, 0xed, 0x28, 0xff, 0x24, 0xe2,
    0xbe, 0x1c, 0xf4, 0x01, 0xea, 0xe9, 0xab, 0x1a, 0x08, 0xf2, 0x96, 0xed, 0xef,
    0x39, 0x11, 0x27, 0x2b, 0x1b, 0x07, 0xf6, 0xe5, 0xc5, 0x0f, 0xce, 0xdc, 0xff,
    0x20, 0xfe, 0xfb, 0xfd, 0xf7, 0xfa, 0xfc, 0xec, 0xd0, 0xfe, 0xf9, 0x02, 0xd4,
    0xfc, 0xf8, 0xe5, 0x16, 0x0e, 0x08, 0x0f, 0xfa, 0xe4, 0xe0, 0xf8, 0x00, 0xfb,
    0x21, 0x0a, 0x0a, 0x3c, 0x06, 0xf7, 0xe8, 0x08, 0xf6, 0xc7, 0x0f, 0x08, 0xa5,
    0xe5, 0xfb, 0xf0, 0xfe, 0x01, 0x13, 0x10, 0xe7, 0xe5, 0xe7, 0x36, 0x26, 0xd6,
    0xf4, 0xe9, 0xea, 0xc6, 0xd2, 0xd5, 0xd8, 0x21, 0xf7, 0x18, 0xdf, 0x0e, 0x1d,
    0x3d, 0xc9, 0x22, 0xe1, 0x11, 0xd5, 0x00, 0x01, 0x06, 0x1b, 0xe1, 0xf0, 0xf7,
    0xd1, 0x2e, 0xe0, 0xe8, 0x08, 0x02, 0x1a, 0x05, 0xf3, 0xff, 0x03, 0x10, 0xf4,
    0x01, 0x02, 0x04, 0xf7, 0x17, 0xeb, 0xfe, 0x39, 0xbd, 0x19, 0x09, 0x29, 0x23,
    0xfd, 0x0d, 0xdc, 0x06, 0x02, 0xe0, 0x1a, 0xe1, 0x13, 0xd7, 0xf2, 0xdf, 0xe1,
    0xe5, 0x0c, 0xf2, 0x0b, 0x06, 0x14, 0xe0, 0x00, 0xf8, 0x15, 0x0c, 0x0b, 0xf8,
    0xe4, 0x11, 0xec, 0xfd, 0xb1, 0xe9, 0xfc, 0xff, 0xef, 0xca, 0xf9, 0x0f, 0xc0,
    0x1b, 0xdc, 0x13, 0x0d, 0x03, 0x0c, 0x0f, 0x01, 0x28, 0x0f, 0x1b, 0xf5, 0x17,
    0x18, 0xef, 0xfb, 0x06, 0xf8, 0x1b, 0x1f, 0x15, 0xb6, 0xf7, 0xc5, 0x0c, 0x0b,
    0xf4, 0x04, 0xd8, 0xf3, 0x13, 0xcc, 0x16, 0x15, 0xe4, 0x02, 0xda, 0x2e, 0x28,
    0xf0, 0x11, 0xe1, 0x0e, 0xf3, 0x14, 0x0e, 0xea, 0xf7, 0x0a, 0x06, 0x1f, 0xf0,
    0xf5, 0x38, 0x08, 0x18, 0x07, 0x0c, 0x0a, 0xd3, 0x07, 0x05, 0xea, 0x2f, 0xd6,
    0x23, 0xe6, 0xf2, 0xec, 0xce, 0xf1, 0x17, 0xef, 0x14, 0x0f, 0x0b, 0xec, 0x04,
    0x06, 0x08, 0x0c, 0x1c, 0xeb, 0xe6, 0x18, 0xc8, 0x14, 0xce, 0xf7, 0xed, 0xdf,
    0x1a, 0xeb, 0x11, 0x0f, 0xe7, 0x08, 0xfa, 0xd2, 0x04, 0xf9, 0x17, 0x0d, 0xf5,
    0x0e, 0xe6, 0x08, 0xd9, 0x1e, 0x19, 0xfc, 0x04, 0x0c, 0x06, 0x1e, 0xf0, 0xed,
    0x26, 0xfa, 0x3d, 0x0b, 0x14, 0x14, 0xc1, 0x01, 0xd2, 0xcb, 0xe2, 0xc4, 0x16,
    0xce, 0xe0, 0xfc, 0xca, 0xfc, 0x0d, 0xda, 0x1c, 0xf1, 0x16, 0xce, 0x01, 0xd2,
    0x0a, 0xf0, 0x3c, 0xf2, 0xc9, 0xe6, 0x3b, 0xd4, 0x38, 0x21, 0xcf, 0x1f, 0xb8,
    0x83, 0xfb, 0xf5, 0xd2, 0xd9, 0x06, 0xda, 0xdc, 0xe5, 0xf5, 0x98, 0x06, 0x01,
    0xe8, 0x02, 0x11, 0xce, 0xe7, 0x2a, 0x13, 0x1a, 0xfc, 0x11, 0xe7, 0x10, 0xce,
    0x16, 0xd5, 0x07, 0x07, 0xfa, 0x0e, 0xcf, 0x00, 0x00, 0xce, 0x2c, 0xf2, 0x1c,
    0x0d, 0x04, 0x06, 0xfd, 0xeb, 0x1a, 0xfc, 0x17, 0xed, 0x07, 0x14, 0x16, 0xe8,
    0x01, 0x05, 0x01, 0x28, 0x13, 0xd8, 0x14, 0xca, 0xf8, 0xf8, 0xf1, 0x1a, 0xe1,
    0x04, 0x07, 0xd4, 0x1e, 0xf0, 0xef, 0x19, 0xe9, 0x15, 0x0f, 0xf5, 0x08, 0xe5,
    0x10, 0xe8, 0x12, 0x04, 0x1f, 0xf7, 0x18, 0xf2, 0x0a, 0x20, 0x18, 0xc7, 0x15,
    0xc0, 0xe7, 0xff, 0xef, 0xfd, 0xea, 0xf7, 0x0d, 0x07, 0xc4, 0x0a, 0x07, 0x09,
    0xce, 0xfb, 0x28, 0xd3, 0x15, 0xe1, 0x1b, 0x09, 0x19, 0x29, 0x05, 0xf4, 0x0f,
    0x01, 0x2c, 0x01, 0xe0, 0x1a, 0xfc, 0x46, 0x1a, 0xe7, 0x14, 0xe8, 0x0e, 0xde,
    0xfb, 0xec, 0xdf, 0xfb, 0xe4, 0xf2, 0x16, 0xf3, 0xf1, 0x12, 0xff, 0xd9, 0x07,
    0xe6, 0xd2, 0xfa, 0x03, 0x0d, 0x12, 0x0c, 0xf5, 0xe3, 0x11, 0xcd, 0x1a, 0xc5,
    0x02, 0xfa, 0xfc, 0x04, 0xf3, 0xfe, 0xff, 0xdc, 0x0e, 0xf2, 0x14, 0x06, 0xf1,
    0x08, 0x1c, 0xef, 0x1d, 0x08, 0x16, 0xf6, 0x06, 0xee, 0x0f, 0xfd, 0x01, 0x0c,
    0x3b, 0xff, 0x0f, 0xdb, 0x01, 0xb4, 0xe8, 0x05, 0x07, 0xf6, 0xca, 0xf7, 0x10,
    0xe5, 0xad, 0xf4, 0x26, 0x14, 0xe5, 0x05, 0xef, 0xf3, 0x04, 0xee, 0x03, 0xd8,
    0xfc, 0x1a, 0x15, 0x06, 0x0b, 0xfa, 0xfa, 0x2b, 0xd6, 0xba, 0xfe, 0xf2, 0x1f,
    0xcc, 0x04, 0x22, 0x00, 0xb1, 0xa6, 0x29, 0xf6, 0xc1, 0x28, 0x11, 0xf4, 0x16,
    0x32, 0xfd, 0x15, 0xda, 0x29, 0xd3, 0xc0, 0xe8, 0xc3, 0xcb, 0x29, 0xc6, 0x0e,
    0x1d, 0x29, 0x12, 0xdf, 0xe5, 0xf2, 0xf9, 0x16, 0xd8, 0xff, 0xf8, 0x18, 0x02,
    0xf1, 0xf3, 0x1b, 0x06, 0x2d, 0xbb, 0x0b, 0x18, 0x06, 0x00, 0x11, 0x1c, 0x04,
    0xfe, 0xee, 0x01, 0x05, 0xee, 0x05, 0x0d, 0x11, 0x10, 0xfe, 0x1a, 0x04, 0x15,
    0x13, 0x1c, 0x14, 0xe8, 0x1c, 0xfb, 0xfb, 0xf4, 0x08, 0x05, 0x04, 0x15, 0xf8,
    0x05, 0x10, 0xed, 0xc9, 0x0a, 0xdf, 0xfe, 0xd0, 0x16, 0x04, 0xf0, 0xed, 0x0f,
    0xd8, 0x00, 0x05, 0xf2, 0xf6, 0x23, 0xc2, 0xee, 0xee, 0x00, 0xde, 0xf5, 0x0f,
    0x0c, 0xe5, 0xfd, 0xff, 0x08, 0xdb, 0xdb, 0xdd, 0xfe, 0xf9, 0xde, 0x25, 0xf7,
    0x1f, 0xf7, 0x0b, 0xed, 0x00, 0xff, 0x1c, 0x1d, 0xf2, 0xff, 0x11, 0x04, 0x0c,
    0x1f, 0x00, 0xf6, 0x22, 0x12, 0x04, 0xee, 0x15, 0x0b, 0x0a, 0x0e, 0xdc, 0xf9,
    0x07, 0xf8, 0xfb, 0xef, 0xd5, 0x33, 0xe7, 0xef, 0xf4, 0x26, 0x13, 0x11, 0xfa,
    0x07, 0x14, 0xf6, 0x20, 0x0a, 0xf8, 0x24, 0x0d, 0x0c, 0xfa, 0xea, 0xfb, 0xfa,
    0x10, 0xec, 0x34, 0x34, 0x10, 0x3b, 0xe6, 0xfb, 0x07, 0xd4, 0xed, 0x18, 0xe7,
    0xf9, 0x0d, 0xb3, 0xd8, 0x10, 0xfa, 0x10, 0x18, 0xed, 0xe8, 0x11, 0xe0, 0xde,
    0xee, 0xfa, 0xf2, 0xf3, 0x15, 0x05, 0xf3, 0xf0, 0xf9, 0xf6, 0xdb, 0x06, 0xe9,
    0xf5, 0x21, 0xea, 0x14, 0x00, 0xfa, 0xe1, 0xf8, 0xef, 0x09, 0xf3, 0x0c, 0x25,
    0x12, 0x08, 0x04, 0xf8, 0x10, 0x18, 0xf5, 0x31, 0x1f, 0x0a, 0xfe, 0xf7, 0x19,
    0x1f, 0x21, 0x20, 0xf8, 0x2a, 0x0e, 0xf4, 0xee, 0xd3, 0xec, 0x2c, 0xf8, 0xfe,
    0x04, 0x9f, 0xa1, 0x15, 0xe5, 0x0c, 0xff, 0xe0, 0xd5, 0x0f, 0xef, 0xd3, 0xef,
    0xee, 0xcd, 0xdb, 0x04, 0x0b, 0xf4, 0xd8, 0xf7, 0xf2, 0xd0, 0xc5, 0xe1, 0xf3,
    0xc4, 0xe4, 0x2d, 0xeb, 0x1e, 0xd8, 0x0d, 0xfa, 0x05, 0x02, 0xfe, 0x00, 0xe3,
    0xf0, 0x10, 0xc6, 0xc8, 0x09, 0xf3, 0xf7, 0xee, 0x00, 0xd8, 0x03, 0xf8, 0x02,
    0xf7, 0x10, 0xe5, 0x18, 0xdc, 0x07, 0xef, 0xf9, 0x1c, 0xe1, 0x0b, 0xfc, 0x07,
    0xed, 0xdf, 0xf6, 0xfd, 0x08, 0xdf, 0x18, 0x1b, 0x0c, 0x0b, 0xfb, 0x1c, 0x10,
    0x0f, 0x01, 0xf7, 0xfe, 0xfb, 0x11, 0x18, 0x0c, 0x06, 0x45, 0x17, 0xf5, 0xd3,
    0x12, 0xe9, 0xf5, 0xd6, 0x14, 0xef, 0xe8, 0xfc, 0x0d, 0x12, 0x14, 0xf5, 0xfb,
    0x09, 0x03, 0x17, 0x1e, 0x0f, 0xe1, 0x11, 0x0e, 0xec, 0x00, 0x06, 0x16, 0x20,
    0x40, 0x18, 0x15, 0x12, 0x04, 0xdb, 0x00, 0xd7, 0x08, 0xd3, 0x16, 0xfc, 0xd6,
    0xd4, 0x08, 0x0e, 0x26, 0xf0, 0x12, 0x00, 0x10, 0x0c, 0xfc, 0x22, 0x13, 0x17,
    0x01, 0xee, 0x19, 0x13, 0x06, 0xf6, 0xdc, 0x02, 0x16, 0x1f, 0x04, 0xd3, 0xe2,
    0xed, 0xfe, 0x03, 0xf9, 0x02, 0xec, 0xe4, 0x0a, 0xfe, 0xfd, 0x0e, 0xfd, 0xfb,
    0xee, 0xf5, 0x0c, 0xfd, 0xd9, 0x01, 0xfd, 0xf9, 0x10, 0xe6, 0xee, 0xfe, 0x09,
    0x04, 0xf9, 0xc8, 0xe8, 0x07, 0xf0, 0x1f, 0xcb, 0x0a, 0xea, 0x0a, 0xff, 0x12,
    0xfa, 0x0f, 0x13, 0xe3, 0x1b, 0x13, 0x08, 0x0e, 0x1f, 0x0a, 0x08, 0x16, 0xfd,
    0xee, 0xfe, 0x02, 0x06, 0x0f, 0x27, 0x18, 0x22, 0x1d, 0xf9, 0xe6, 0x06, 0xf9,
    0x1f, 0xf6, 0x06, 0x01, 0x0b, 0x18, 0x1e, 0x2d, 0x03, 0xe7, 0x08, 0x0f, 0xff,
    0x11, 0x06, 0x20, 0x10, 0x08, 0x06, 0xf0, 0x0b, 0x02, 0x07, 0x27, 0x14, 0x1b,
    0xd6, 0xfa, 0x0d, 0xd4, 0x26, 0xe2, 0x1b, 0xcb, 0xe8, 0x08, 0x03, 0xd6, 0xfd,
    0x3b, 0x00, 0xcd, 0x27, 0x27, 0x02, 0xff, 0x0f, 0xc0, 0xfd, 0xf4, 0xfc, 0x12,
    0xfe, 0x28, 0x10, 0xfd, 0xb3, 0xd7, 0x31, 0x30, 0xfa, 0x0c, 0xaa, 0x01, 0x0b,
    0x1b, 0x0f, 0x09, 0x27, 0x10, 0x12, 0xfe, 0x0a, 0x0a, 0xcd, 0xdc, 0x39, 0xe0,
    0xff, 0x07, 0xf0, 0x27, 0xe0, 0x1a, 0x0c, 0xdd, 0x02, 0xd8, 0x1f, 0xc1, 0xf5,
    0xe9, 0x0a, 0x0d, 0x1c, 0xfc, 0x22, 0xc4, 0xfa, 0xf5, 0x19, 0x0f, 0x14, 0x1c,
    0xec, 0x0a, 0xc4, 0xfb, 0x03, 0xf8, 0x0b, 0xe3, 0x1e, 0x0e, 0xe8, 0x04, 0xc2,
    0x02, 0x13, 0xf2, 0xee, 0x0a, 0xf5, 0x06, 0xfc, 0x03, 0xfc, 0x0a, 0x17, 0x25,
    0x21, 0x09, 0x01, 0x25, 0x1c, 0xd8, 0x1d, 0xf0, 0x38, 0x16, 0xf8, 0x02, 0xe8,
    0x17, 0xed, 0xe8, 0x1c, 0xfa, 0x12, 0xf5, 0xf9, 0xf6, 0xfa, 0xf3, 0x10, 0xfd,
    0x16, 0xfc, 0x1f, 0xf6, 0xef, 0x0b, 0xf5, 0xf5, 0xfa, 0xf9, 0xd5, 0x03, 0xe6,
    0xfb, 0x81, 0xf1, 0x1a, 0xfa, 0x17, 0x01, 0xfa, 0x05, 0xfd, 0xff, 0xe5, 0xb3,
    0x0b, 0xca, 0x04, 0x0b, 0xf7, 0xec, 0xb6, 0xf8, 0xe6, 0x0e, 0x10, 0x13, 0x25,
    0x12, 0xff, 0x02, 0x18, 0x0b, 0xdb, 0x14, 0x9c, 0xe7, 0x08, 0xf7, 0xfd, 0xdd,
    0xdf, 0xf7, 0xbf, 0x06, 0xd9, 0x13, 0x01, 0x15, 0x0e, 0x28, 0xe3, 0x1b, 0x01,
    0x0a, 0x04, 0x22, 0x04, 0xec, 0x1b, 0xfc, 0x0f, 0x28, 0x02, 0xf3, 0x27, 0xf0,
    0x42, 0x1f, 0xe1, 0x00, 0xdd, 0x03, 0xcb, 0xec, 0x1e, 0xfd, 0x1b, 0xed, 0xf4,
    0xe1, 0xe5, 0xfb, 0x04, 0xe2, 0x10, 0x06, 0xed, 0xe8, 0xf2, 0x12, 0x08, 0xec,
    0xf6, 0xfd, 0xc3, 0x12, 0xd9, 0x20, 0x9f, 0xed, 0x29, 0xfd, 0xf5, 0xfc, 0xf3,
    0x07, 0xf0, 0xe3, 0xf7, 0x14, 0x15, 0x25, 0x15, 0x1a, 0xe2, 0x12, 0x0f, 0x09,
    0xe7, 0xef, 0x04, 0x31, 0x0d, 0x09, 0x11, 0x01, 0x22, 0xf5, 0x4e, 0x12, 0x2c,
    0xde, 0x01, 0x16, 0xdd, 0x1f, 0xda, 0xcf, 0x3b, 0xd0, 0x0e, 0xcf, 0x0c, 0x10,
    0xdb, 0x15, 0x19, 0xee, 0x1e, 0xe6, 0x11, 0xf5, 0xeb, 0xfd, 0x02, 0xfe, 0xf0,
    0x04, 0xbd, 0xf6, 0x91, 0xe7, 0x20, 0x23, 0x08, 0x17, 0xf2, 0x01, 0xfb, 0xec,
    0x2a, 0xf7, 0x06, 0x09, 0x09, 0xdd, 0x02, 0xd9, 0x07, 0xfa, 0x19, 0x00, 0x0a,
    0xe4, 0x02, 0x06, 0xfc, 0x05, 0xf8, 0x03, 0xe7, 0x22, 0xd9, 0x04, 0xb6, 0xda,
    0xfb, 0xf0, 0x00, 0xe2, 0x11, 0x10, 0xe2, 0x0f, 0xe4, 0x06, 0x0d, 0xf0, 0x0e,
    0x02, 0xf7, 0x08, 0x03, 0x0b, 0xe9, 0xfc, 0x06, 0x21, 0x0e, 0x18, 0x18, 0x2a,
    0x0d, 0x0a, 0xe1, 0x18, 0xb1, 0xf0, 0x17, 0x05, 0xe6, 0xd7, 0x12, 0x06, 0xec,
    0xf2, 0xfc, 0x12, 0x07, 0x0d, 0x01, 0xf8, 0xf3, 0x06, 0x23, 0x06, 0xe5, 0x0a,
    0x07, 0x19, 0x0e, 0x14, 0x07, 0x16, 0x1c, 0x0d, 0xd2, 0x14, 0xbe, 0x03, 0x18,
    0xf8, 0xd1, 0x09, 0x15, 0xf0, 0xf9, 0x13, 0x05, 0x13, 0x01, 0x01, 0x02, 0x12,
    0xfa, 0x19, 0xf0, 0xf1, 0xfe, 0x01, 0xed, 0xf1, 0x18, 0x15, 0x2d, 0x12, 0x1f,
    0xc7, 0x25, 0x00, 0x36, 0xf2, 0xd2, 0x06, 0xfc, 0x13, 0xcb, 0xfb, 0x36, 0x00,
    0x13, 0xed, 0x18, 0xed, 0xf3, 0xe3, 0x02, 0xf9, 0xf0, 0x0e, 0x33, 0xe1, 0xfd,
    0x19, 0x01, 0x05, 0xeb, 0x09, 0xe3, 0x0e, 0xb7, 0x18, 0x9a, 0x03, 0x28, 0xf0,
    0x19, 0xf0, 0x07, 0x0b, 0xdb, 0xff, 0xf0, 0x27, 0x0a, 0xcf, 0x0c, 0x1f, 0xf7,
    0xfe, 0xce, 0x03, 0xec, 0xfb, 0x0e, 0x9e, 0x09, 0x18, 0x11, 0xf6, 0x2d, 0x20,
    0x04, 0x1a, 0xc8, 0xfb, 0x06, 0x09, 0xe9, 0x04, 0x11, 0xfa, 0xf3, 0x13, 0xf8,
    0x03, 0x19, 0x1a, 0x02, 0x0f, 0xfa, 0x1c, 0x0f, 0xfa, 0xe8, 0x0c, 0x0d, 0x1a,
    0xfc, 0x1b, 0x12, 0x1d, 0x27, 0xeb, 0xef, 0x17, 0xc4, 0xf8, 0x15, 0xf7, 0x03,
    0xdf, 0xfb, 0xfa, 0x17, 0xab, 0xf3, 0x09, 0x04, 0x04, 0x33, 0xfc, 0x05, 0x10,
    0x15, 0xe8, 0xf6, 0xd5, 0x0a, 0x1c, 0xf1, 0xf9, 0xef, 0x03, 0x06, 0x02, 0x1f,
    0xe5, 0xed, 0x08, 0x14, 0xdf, 0xc1, 0x15, 0x1a, 0xe9, 0x05, 0xf3, 0xed, 0xed,
    0xf7, 0xf2, 0x0e, 0x1d, 0xb4, 0xfc, 0xfd, 0xd8, 0xfe, 0xea, 0x1d, 0xa9, 0xfb,
    0xfd, 0x03, 0xe9, 0xfe, 0x29, 0x14, 0xe6, 0xf5, 0x13, 0xfa, 0x16, 0x36, 0x08,
    0x0a, 0x00, 0x0a, 0xe7, 0x06, 0xeb, 0x06, 0x19, 0x11, 0x15, 0x0f, 0x15, 0xf9,
    0xcd, 0x03, 0x06, 0x1b, 0xed, 0xf3, 0x10, 0xfd, 0xeb, 0x2a, 0xe7, 0xed, 0xff,
    0xf0, 0xeb, 0xff, 0x08, 0xdc, 0xf8, 0xfb, 0x12, 0xf0, 0x0d, 0xfe, 0x19, 0xbd,
    0xfc, 0x01, 0xd3, 0xe0, 0xf9, 0x09, 0xe3, 0xff, 0x17, 0xff, 0x3d, 0x06, 0x08,
    0xf8, 0xe0, 0xca, 0x12, 0x1b, 0xc4, 0xfd, 0xfa, 0xfb, 0x00, 0x2a, 0xfe, 0xf0,
    0x0f, 0xf9, 0xd7, 0xf8, 0xf8, 0x0d, 0x1b, 0x21, 0xf0, 0xfc, 0x19, 0x10, 0x11,
    0xdb, 0xe9, 0x05, 0xef, 0x27, 0x12, 0xd9, 0xd8, 0x29, 0x45, 0x1f, 0xdb, 0x0c,
    0x13, 0x0b, 0x0b, 0x0c, 0x0f, 0x16, 0x12, 0x1f, 0xe6, 0xf2, 0x02, 0x0d, 0xe6,
    0xed, 0x28, 0x22, 0x0a, 0x11, 0xf2, 0x00, 0x0a, 0x0f, 0xf5, 0x2b, 0x08, 0x20,
    0xf9, 0x2b, 0xe7, 0xf1, 0x00, 0xdc, 0xe7, 0xf5, 0xf9, 0xf8, 0xfd, 0xf9, 0xfc,
    0xec, 0x07, 0x14, 0x17, 0xfc, 0xeb, 0xfd, 0xbe, 0xfa, 0x0b, 0xfb, 0x2f, 0x15,
    0x07, 0x00, 0x3a, 0xde, 0x12, 0xe4, 0x08, 0xe4, 0x4c, 0xfc, 0xec, 0x04, 0x15,
    0x29, 0x02, 0x08, 0x17, 0x01, 0xfa, 0x0d, 0xf0, 0x08, 0xf8, 0x04, 0x08, 0xcb,
    0xeb, 0x18, 0x26, 0x05, 0xf1, 0xfb, 0xfd, 0xfe, 0xe4, 0x05, 0x01, 0xea, 0xed,
    0x13, 0xeb, 0xef, 0x0e, 0x97, 0xd9, 0x15, 0xfb, 0xbc, 0xfd, 0xec, 0xf8, 0xdc,
    0x19, 0x20, 0x0e, 0xe3, 0xfa, 0xef, 0xe6, 0xd9, 0x03, 0x02, 0x11, 0xe1, 0x29,
    0x0c, 0x22, 0x05, 0x08, 0xc0, 0x13, 0xe7, 0x10, 0xf3, 0xfb, 0x03, 0xfb, 0xe0,
    0xf7, 0xf9, 0xfe, 0xf5, 0x11, 0x02, 0xe5, 0x0f, 0x04, 0xfe, 0x02, 0x02, 0xfc,
    0xf0, 0xfc, 0x03, 0x08, 0x17, 0x0a, 0x1a, 0x10, 0x0e, 0x02, 0xe8, 0xdf, 0xc9,
    0x36, 0x1f, 0x03, 0xea, 0x02, 0xfb, 0x10, 0x35, 0x05, 0x0c, 0x02, 0x0a, 0xe1,
    0xed, 0xf8, 0x18, 0x10, 0x13, 0x29, 0x0d, 0x0e, 0x07, 0x03, 0xf3, 0xfc, 0x0a,
    0xf0, 0xf0, 0x14, 0x1f, 0xf5, 0x23, 0x28, 0x0f, 0xeb, 0x0e, 0xf5, 0x0e, 0x0b,
    0x10, 0x17, 0x29, 0xf7, 0xfd, 0xf0, 0xf5, 0xf2, 0x07, 0x10, 0xe2, 0x0a, 0x09,
    0x12, 0x01, 0xcf, 0x01, 0x17, 0x1f, 0xd0, 0xfd, 0x0c, 0x30, 0xff, 0x20, 0x0c,
    0xf8, 0xc2, 0x0e, 0xf9, 0x0e, 0xf8, 0xe2, 0xf9, 0x05, 0xf4, 0x03, 0x00, 0xe2,
    0xf8, 0x16, 0x22, 0xea, 0x21, 0x14, 0x0c, 0xfa, 0xfe, 0xe3, 0xf3, 0x1f, 0xfb,
    0x18, 0xfc, 0x1e, 0xa7, 0x27, 0xf8, 0xfb, 0x0d, 0xf8, 0xe5, 0xf5, 0x04, 0x10,
    0x10, 0xda, 0xf7, 0xf7, 0x0e, 0x0f, 0x20, 0x0e, 0x14, 0x0c, 0xe2, 0xf7, 0xf6,
    0xfc, 0x28, 0x1c, 0xf8, 0xdc, 0x33, 0xff, 0xf5, 0xee, 0xe6, 0xd4, 0x27, 0x10,
    0xee, 0xea, 0x03, 0x09, 0xe8, 0x21, 0x0b, 0x08, 0xf4, 0x05, 0xed, 0xf2, 0xf7,
    0x25, 0x1f, 0x1c, 0xfe, 0x3a, 0x11, 0x11, 0xdb, 0xe8, 0xf2, 0x12, 0xe2, 0x0f,
    0xfd, 0xff, 0xe8, 0x25, 0xfc, 0x1d, 0xe5, 0x16, 0x06, 0x0d, 0xfd, 0x18, 0x06,
    0x29, 0x06, 0xfd, 0xeb, 0xed, 0xf5, 0x0f, 0x10, 0x0c, 0x04, 0x23, 0x14, 0xfa,
    0xd6, 0xe8, 0xe7, 0x0c, 0xe1, 0x11, 0xfe, 0x25, 0xe8, 0x32, 0xc5, 0x0d, 0xd3,
    0xff, 0xf9, 0x08, 0xea, 0x2b, 0x13, 0xff, 0xfc, 0xf3, 0xee, 0xea, 0xd8, 0xf2,
    0x09, 0x33, 0x25, 0x46, 0x07, 0xf7, 0xbf, 0xc1, 0xf0, 0x13, 0xe2, 0x17, 0x0e,
    0xff, 0xdc, 0x24, 0x3a, 0xff, 0xff, 0xff, 0x00, 0x00, 0x00, 0x09, 0x18, 0x00,
    0x00, 0x00, 0x03, 0x00, 0x00, 0x00, 0x08, 0x00, 0x00, 0x00, 0x18, 0x00, 0x00,
    0x00, 0x01, 0x00, 0x00, 0x00, 0x31, 0x00, 0x00, 0x00, 0x01, 0x00, 0x00, 0x00,
    0x00, 0x10, 0x00, 0x00, 0x04, 0x00, 0x06, 0x00, 0x04, 0x00, 0x00, 0x00, 0x00,
    0x00, 0x06, 0x00, 0x08, 0x00, 0x04, 0x00, 0x06, 0x00, 0x00, 0x00, 0x04, 0x00,
    0x00, 0x00, 0x80, 0x00, 0x00, 0x00, 0x4e, 0x51, 0x4e, 0x51, 0x4e, 0x51, 0x4e,
    0x51, 0x4e, 0x51, 0x4e, 0x51, 0x4e, 0x51, 0x4e, 0x51, 0x4e, 0x51, 0x4e, 0x51,
    0x4e, 0x51, 0x4e, 0x51, 0x4e, 0x51, 0x4e, 0x51, 0x4e, 0x51, 0x4e, 0x51, 0x05,
    0xe1, 0x31, 0xdb, 0x0d, 0xf0, 0xc6, 0xc4, 0x6a, 0xff, 0x63, 0xea, 0xec, 0xd7,
    0xc3, 0x0c, 0x85, 0xb0, 0x28, 0x0d, 0xb4, 0x04, 0x96, 0xfd, 0xd8, 0x01, 0x0e,
    0x07, 0x84, 0xfc, 0xc3, 0x00, 0x4e, 0x51, 0x4e, 0x51, 0x4e, 0x51, 0x4e, 0x51,
    0x4e, 0x51, 0x4e, 0x51, 0x4e, 0x51, 0x4e, 0x51, 0x4e, 0x51, 0x4e, 0x51, 0x4e,
    0x51, 0x4e, 0x51, 0x4e, 0x51, 0x4e, 0x51, 0x4e, 0x51, 0x4e, 0x51, 0x72, 0xe6,
    0x36, 0x03, 0xf8, 0x07, 0x35, 0xeb, 0x46, 0xfb, 0xe3, 0x05, 0x60, 0x0b, 0x36,
    0xd6, 0x2c, 0xca, 0x2d, 0x03, 0x9d, 0xe6, 0x7c, 0x03, 0xbc, 0xf5, 0x90, 0xe0,
    0x75, 0x06, 0x6b, 0xdf, 0x00, 0x00, 0x0e, 0x00, 0x18, 0x00, 0x08, 0x00, 0x07,
    0x00, 0x0c, 0x00, 0x10, 0x00, 0x14, 0x00, 0x0e, 0x00, 0x00, 0x00, 0x00, 0x00,
    0x00, 0x07, 0x18, 0x00, 0x00, 0x00, 0x02, 0x00, 0x00, 0x00, 0x08, 0x00, 0x00,
    0x00, 0x14, 0x00, 0x00, 0x00, 0x01, 0x00, 0x00, 0x00, 0x30, 0x00, 0x00, 0x00,
    0x01, 0x00, 0x00, 0x00, 0x40, 0x00, 0x00, 0x00, 0x58, 0xff, 0xff, 0xff, 0x14,
    0x00, 0x1c, 0x00, 0x08, 0x00, 0x07, 0x00, 0x0c, 0x00, 0x10, 0x00, 0x14, 0x00,
    0x00, 0x00, 0x00, 0x00, 0x18, 0x00, 0x14, 0x00, 0x00, 0x00, 0x00, 0x00, 0x00,
    0x09, 0x48, 0x00, 0x00, 0x00, 0x01, 0x00, 0x00, 0x00, 0x20, 0x00, 0x00, 0x00,
    0x5c, 0x00, 0x00, 0x00, 0x04, 0x00, 0x00, 0x00, 0x04, 0x00, 0x00, 0x00, 0xff,
    0xff, 0xff, 0xff, 0x01, 0x00, 0x00, 0x00, 0x04, 0x00, 0x00, 0x00, 0x18, 0x00,
    0x00, 0x00, 0x19, 0x00, 0x00, 0x00, 0x73, 0x65, 0x72, 0x76, 0x69, 0x6e, 0x67,
    0x5f, 0x64, 0x65, 0x66, 0x61, 0x75, 0x6c, 0x74, 0x5f, 0x69, 0x6e, 0x70, 0x75,
    0x74, 0x5f, 0x33, 0x3a, 0x30, 0x00, 0x00, 0x00, 0x04, 0x00, 0x00, 0x00, 0x01,
    0x00, 0x00, 0x00, 0x01, 0x00, 0x00, 0x00, 0x04, 0x00, 0x00, 0x00, 0x18, 0x00,
    0x00, 0x00, 0x0c, 0x00, 0x0c, 0x00, 0x00, 0x00, 0x00, 0x00, 0x04, 0x00, 0x08,
    0x00, 0x0c, 0x00, 0x00, 0x00, 0x14, 0x00, 0x00, 0x00, 0x04, 0x00, 0x00, 0x00,
    0x01, 0x00, 0x00, 0x00, 0x7f, 0x00, 0x00, 0x00, 0x00, 0x00, 0x00, 0x00, 0x01,
    0x00, 0x00, 0x00, 0xe7, 0x8d, 0xcb, 0x3d, 0x04, 0x00, 0x04, 0x00, 0x04, 0x00,
    0x00, 0x00,
};

const int vnr_model_data_len = 13392;