// This is a TensorFlow Lite model file that has been converted into a C data
// array using the convert_tflite_to_c_source() tool.

#if( USE_SWMEM == 1)
__attribute__((section(".SwMem_data")))
#elif( USE_EXTMEM == 1)
__attribute__((section(".ExtMem_data")))
#endif
const unsigned char vnr_model_data[] __attribute__((aligned(4))) = {
    0x20, 0x00, 0x00, 0x00, 0x54, 0x46, 0x4c, 0x33, 0x00, 0x00, 0x00, 0x00, 0x14,
    0x00, 0x20, 0x00, 0x04, 0x00, 0x08, 0x00, 0x0c, 0x00, 0x10, 0x00, 0x14, 0x00,
    0x00, 0x00, 0x18, 0x00, 0x1c, 0x00, 0x14, 0x00, 0x00, 0x00, 0x03, 0x00, 0x00,
    0x00, 0x6c, 0x00, 0x00, 0x00, 0x60, 0x00, 0x00, 0x00, 0x5c, 0x01, 0x00, 0x00,
    0x0c, 0x00, 0x00, 0x00, 0x04, 0x01, 0x00, 0x00, 0x6c, 0x00, 0x00, 0x00, 0x12,
    0x00, 0x00, 0x00, 0x00, 0x35, 0x00, 0x00, 0xfc, 0x34, 0x00, 0x00, 0x88, 0x33,
    0x00, 0x00, 0x40, 0x23, 0x00, 0x00, 0x04, 0x22, 0x00, 0x00, 0xc8, 0x11, 0x00,
    0x00, 0x0c, 0x11, 0x00, 0x00, 0xd0, 0x08, 0x00, 0x00, 0x84, 0x08, 0x00, 0x00,
    0xdc, 0x34, 0x00, 0x00, 0xd8, 0x34, 0x00, 0x00, 0xa0, 0x05, 0x00, 0x00, 0xd0,
    0x34, 0x00, 0x00, 0xf8, 0x03, 0x00, 0x00, 0xc8, 0x34, 0x00, 0x00, 0xc4, 0x34,
    0x00, 0x00, 0xc0, 0x34, 0x00, 0x00, 0xe8, 0x00, 0x00, 0x00, 0x01, 0x00, 0x00,
    0x00, 0x20, 0x01, 0x00, 0x00, 0x04, 0x00, 0x00, 0x00, 0xc0, 0x07, 0x00, 0x00,
    0x58, 0x03, 0x00, 0x00, 0x7c, 0x02, 0x00, 0x00, 0xc0, 0x01, 0x00, 0x00, 0x01,
    0x00, 0x00, 0x00, 0x10, 0x00, 0x00, 0x00, 0x0c, 0x00, 0x14, 0x00, 0x10, 0x00,
    0x0c, 0x00, 0x08, 0x00, 0x04, 0x00, 0x0c, 0x00, 0x00, 0x00, 0x10, 0x00, 0x00,
    0x00, 0x14, 0x00, 0x00, 0x00, 0x24, 0x00, 0x00, 0x00, 0x28, 0x00, 0x00, 0x00,
    0x00, 0x00, 0x00, 0x00, 0x00, 0x00, 0x00, 0x00, 0x0f, 0x00, 0x00, 0x00, 0x73,
    0x65, 0x72, 0x76, 0x69, 0x6e, 0x67, 0x5f, 0x64, 0x65, 0x66, 0x61, 0x75, 0x6c,
    0x74, 0x00, 0x01, 0x00, 0x00, 0x00, 0x14, 0x00, 0x00, 0x00, 0x01, 0x00, 0x00,
    0x00, 0x30, 0x00, 0x00, 0x00, 0x08, 0x00, 0x0c, 0x00, 0x08, 0x00, 0x04, 0x00,
    0x08, 0x00, 0x00, 0x00, 0x0f, 0x00, 0x00, 0x00, 0x04, 0x00, 0x00, 0x00, 0x13,
    0x00, 0x00, 0x00, 0x71, 0x75, 0x61, 0x6e, 0x74, 0x5f, 0x61, 0x63, 0x74, 0x69,
    0x76, 0x61, 0x74, 0x69, 0x6f, 0x6e, 0x5f, 0x31, 0x34, 0x00, 0x5a, 0xcd, 0xff,
    0xff, 0x04, 0x00, 0x00, 0x00, 0x07, 0x00, 0x00, 0x00, 0x69, 0x6e, 0x70, 0x75,
    0x74, 0x5f, 0x35, 0x00, 0x01, 0x00, 0x00, 0x00, 0x0c, 0x00, 0x00, 0x00, 0x08,
    0x00, 0x0c, 0x00, 0x04, 0x00, 0x08, 0x00, 0x08, 0x00, 0x00, 0x00, 0x08, 0x00,
    0x00, 0x00, 0x11, 0x00, 0x00, 0x00, 0x13, 0x00, 0x00, 0x00, 0x6d, 0x69, 0x6e,
    0x5f, 0x72, 0x75, 0x6e, 0x74, 0x69, 0x6d, 0x65, 0x5f, 0x76, 0x65, 0x72, 0x73,
    0x69, 0x6f, 0x6e, 0x00, 0xa2, 0xcd, 0xff, 0xff, 0x04, 0x00, 0x00, 0x00, 0x10,
    0x00, 0x00, 0x00, 0x31, 0x2e, 0x31, 0x34, 0x2e, 0x30, 0x00, 0x00, 0x00, 0x00,
    0x00, 0x00, 0x00, 0x00, 0x00, 0x00, 0x0f, 0x00, 0x00, 0x00, 0x4d, 0x4c, 0x49,
    0x52, 0x20, 0x43, 0x6f, 0x6e, 0x76, 0x65, 0x72, 0x74, 0x65, 0x64, 0x2e, 0x00,
    0x00, 0x00, 0x0e, 0x00, 0x18, 0x00, 0x04, 0x00, 0x08, 0x00, 0x0c, 0x00, 0x10,
    0x00, 0x14, 0x00, 0x0e, 0x00, 0x00, 0x00, 0x4c, 0x00, 0x00, 0x00, 0x40, 0x00,
    0x00, 0x00, 0x34, 0x00, 0x00, 0x00, 0x14, 0x00, 0x00, 0x00, 0x04, 0x00, 0x00,
    0x00, 0x04, 0x00, 0x00, 0x00, 0x6d, 0x61, 0x69, 0x6e, 0x00, 0x00, 0x00, 0x00,
    0x06, 0x00, 0x00, 0x00, 0xc0, 0x05, 0x00, 0x00, 0x8c, 0x04, 0x00, 0x00, 0x10,
    0x03, 0x00, 0x00, 0xb8, 0x01, 0x00, 0x00, 0x10, 0x01, 0x00, 0x00, 0x58, 0x00,
    0x00, 0x00, 0x01, 0x00, 0x00, 0x00, 0x0f, 0x00, 0x00, 0x00, 0x01, 0x00, 0x00,
    0x00, 0x00, 0x00, 0x00, 0x00, 0x10, 0x00, 0x00, 0x00, 0xac, 0x32, 0x00, 0x00,
    0x68, 0x32, 0x00, 0x00, 0x90, 0x31, 0x00, 0x00, 0x54, 0x21, 0x00, 0x00, 0x18,
    0x20, 0x00, 0x00, 0xdc, 0x0f, 0x00, 0x00, 0x20, 0x0f, 0x00, 0x00, 0xe4, 0x06,
    0x00, 0x00, 0x58, 0x06, 0x00, 0x00, 0xf4, 0x04, 0x00, 0x00, 0xf4, 0x03, 0x00,
    0x00, 0x74, 0x03, 0x00, 0x00, 0x68, 0x02, 0x00, 0x00, 0xcc, 0x01, 0x00, 0x00,
    0xf0, 0x00, 0x00, 0x00, 0x34, 0x00, 0x00, 0x00, 0x56, 0xff, 0xff, 0xff, 0x03,
    0x00, 0x00, 0x00, 0x10, 0x00, 0x00, 0x00, 0x04, 0x00, 0x00, 0x00, 0x01, 0x00,
    0x00, 0x00, 0x0f, 0x00, 0x00, 0x00, 0x01, 0x00, 0x00, 0x00, 0x0e, 0x00, 0x00,
    0x00, 0x7c, 0xfe, 0xff, 0xff, 0x0e, 0x00, 0x00, 0x00, 0x00, 0x00, 0x00, 0x0e,
    0x02, 0x00, 0x00, 0x00, 0xd8, 0xcd, 0xff, 0xff, 0x00, 0x00, 0x00, 0x09, 0x40,
    0x00, 0x00, 0x00, 0x10, 0x00, 0x00, 0x00, 0x18, 0x00, 0x00, 0x00, 0x40, 0x00,
    0x00, 0x00, 0x04, 0x00, 0x00, 0x00, 0x02, 0x00, 0x00, 0x00, 0xff, 0xff, 0xff,
    0xff, 0x01, 0x00, 0x00, 0x00, 0x19, 0x00, 0x00, 0x00, 0x53, 0x74, 0x61, 0x74,
    0x65, 0x66, 0x75, 0x6c, 0x50, 0x61, 0x72, 0x74, 0x69, 0x74, 0x69, 0x6f, 0x6e,
    0x65, 0x64, 0x43, 0x61, 0x6c, 0x6c, 0x3a, 0x30, 0x00, 0x00, 0x00, 0x02, 0x00,
    0x00, 0x00, 0x01, 0x00, 0x00, 0x00, 0x01, 0x00, 0x00, 0x00, 0xb4, 0xcd, 0xff,
    0xff, 0x18, 0x00, 0x00, 0x00, 0x04, 0x00, 0x00, 0x00, 0x01, 0x00, 0x00, 0x00,
    0x80, 0xff, 0xff, 0xff, 0xff, 0xff, 0xff, 0xff, 0x00, 0x00, 0x00, 0x00, 0x01,
    0x00, 0x00, 0x00, 0x00, 0x00, 0x80, 0x3b, 0x00, 0x00, 0x0a, 0x00, 0x10, 0x00,
    0x04, 0x00, 0x08, 0x00, 0x0c, 0x00, 0x0a, 0x00, 0x00, 0x00, 0x02, 0x00, 0x00,
    0x00, 0x10, 0x00, 0x00, 0x00, 0x04, 0x00, 0x00, 0x00, 0x01, 0x00, 0x00, 0x00,
    0x0e, 0x00, 0x00, 0x00, 0x02, 0x00, 0x00, 0x00, 0x0d, 0x00, 0x00, 0x00, 0x07,
    0x00, 0x00, 0x00, 0x34, 0xff, 0xff, 0xff, 0x16, 0x00, 0x00, 0x00, 0x00, 0x00,
    0x00, 0x16, 0x01, 0x00, 0x00, 0x00, 0x90, 0xce, 0xff, 0xff, 0x00, 0x00, 0x00,
    0x09, 0x28, 0x00, 0x00, 0x00, 0x0f, 0x00, 0x00, 0x00, 0x18, 0x00, 0x00, 0x00,
    0x28, 0x00, 0x00, 0x00, 0x04, 0x00, 0x00, 0x00, 0x02, 0x00, 0x00, 0x00, 0xff,
    0xff, 0xff, 0xff, 0x01, 0x00, 0x00, 0x00, 0x01, 0x00, 0x00, 0x00, 0x44, 0x00,
    0x00, 0x00, 0x02, 0x00, 0x00, 0x00, 0x01, 0x00, 0x00, 0x00, 0x01, 0x00, 0x00,
    0x00, 0x54, 0xce, 0xff, 0xff, 0x18, 0x00, 0x00, 0x00, 0x04, 0x00, 0x00, 0x00,
    0x01, 0x00, 0x00, 0x00, 0xeb, 0xff, 0xff, 0xff, 0xff, 0xff, 0xff, 0xff, 0x00,
    0x00, 0x00, 0x00, 0x01, 0x00, 0x00, 0x00, 0xcf, 0xba, 0x72, 0x3d, 0x00, 0x00,
    0x0e, 0x00, 0x1a, 0x00, 0x08, 0x00, 0x0c, 0x00, 0x10, 0x00, 0x07, 0x00, 0x14,
    0x00, 0x0e, 0x00, 0x00, 0x00, 0x00, 0x00, 0x00, 0x01, 0x01, 0x00, 0x00, 0x00,
    0x30, 0x00, 0x00, 0x00, 0x24, 0x00, 0x00, 0x00, 0x10, 0x00, 0x00, 0x00, 0x00,
    0x00, 0x0a, 0x00, 0x10, 0x00, 0x0f, 0x00, 0x04, 0x00, 0x08, 0x00, 0x0a, 0x00,
    0x00, 0x00, 0x01, 0x00, 0x00, 0x00, 0x01, 0x00, 0x00, 0x00, 0x00, 0x00, 0x00,
    0x01, 0x01, 0x00, 0x00, 0x00, 0x0d, 0x00, 0x00, 0x00, 0x03, 0x00, 0x00, 0x00,
    0x0b, 0x00, 0x00, 0x00, 0x0c, 0x00, 0x00, 0x00, 0x0a, 0x00, 0x00, 0x00, 0x0c,
    0x00, 0x10, 0x00, 0x0b, 0x00, 0x00, 0x00, 0x0c, 0x00, 0x04, 0x00, 0x0c, 0x00,
    0x00, 0x00, 0x03, 0x00, 0x00, 0x00, 0x00, 0x00, 0x00, 0x03, 0x03, 0x00, 0x00,
    0x00, 0x68, 0xcf, 0xff, 0xff, 0x00, 0x00, 0x00, 0x09, 0x30, 0x00, 0x00, 0x00,
    0x0e, 0x00, 0x00, 0x00, 0x20, 0x00, 0x00, 0x00, 0x38, 0x00, 0x00, 0x00, 0x04,
    0x00, 0x00, 0x00, 0x04, 0x00, 0x00, 0x00, 0xff, 0xff, 0xff, 0xff, 0x01, 0x00,
    0x00, 0x00, 0x01, 0x00, 0x00, 0x00, 0x01, 0x00, 0x00, 0x00, 0x01, 0x00, 0x00,
    0x00, 0x43, 0x00, 0x00, 0x00, 0x04, 0x00, 0x00, 0x00, 0x01, 0x00, 0x00, 0x00,
    0x01, 0x00, 0x00, 0x00, 0x01, 0x00, 0x00, 0x00, 0x01, 0x00, 0x00, 0x00, 0x3c,
    0xcf, 0xff, 0xff, 0x14, 0x00, 0x00, 0x00, 0x04, 0x00, 0x00, 0x00, 0x01, 0x00,
    0x00, 0x00, 0xeb, 0xff, 0xff, 0xff, 0xff, 0xff, 0xff, 0xff, 0x01, 0x00, 0x00,
    0x00, 0xcf, 0xba, 0x72, 0x3d, 0xa2, 0xd0, 0xff, 0xff, 0x04, 0x00, 0x00, 0x00,
    0x20, 0x00, 0x00, 0x00, 0xe7, 0xe2, 0x81, 0xde, 0x11, 0xe8, 0x13, 0xdc, 0x0e,
    0xe5, 0xc8, 0xeb, 0xeb, 0x0d, 0x0c, 0x17, 0x95, 0x10, 0xe8, 0xdc, 0x9a, 0xf3,
    0x0e, 0x0e, 0xe7, 0x13, 0x10, 0xda, 0xe9, 0x12, 0xe4, 0xee, 0x3a, 0xd0, 0xff,
    0xff, 0x00, 0x00, 0x00, 0x09, 0x18, 0x00, 0x00, 0x00, 0x0d, 0x00, 0x00, 0x00,
    0x08, 0x00, 0x00, 0x00, 0x20, 0x00, 0x00, 0x00, 0x01, 0x00, 0x00, 0x00, 0x42,
    0x00, 0x00, 0x00, 0x04, 0x00, 0x00, 0x00, 0x01, 0x00, 0x00, 0x00, 0x01, 0x00,
    0x00, 0x00, 0x01, 0x00, 0x00, 0x00, 0x20, 0x00, 0x00, 0x00, 0xbc, 0xcf, 0xff,
    0xff, 0x14, 0x00, 0x00, 0x00, 0x04, 0x00, 0x00, 0x00, 0x01, 0x00, 0x00, 0x00,
    0x00, 0x00, 0x00, 0x00, 0x00, 0x00, 0x00, 0x00, 0x01, 0x00, 0x00, 0x00, 0x11,
    0x78, 0xc4, 0x3a, 0x68, 0xfd, 0xff, 0xff, 0xa0, 0x00, 0x00, 0x00, 0x94, 0x00,
    0x00, 0x00, 0x04, 0x00, 0x00, 0x00, 0x87, 0x00, 0x00, 0x00, 0x6b, 0x74, 0x00,
    0x6d, 0x70, 0x00, 0x08, 0x80, 0x00, 0x00, 0x00, 0x80, 0x00, 0x00, 0x00, 0x00,
    0x61, 0x67, 0x67, 0x70, 0x00, 0x18, 0x00, 0x08, 0x00, 0x00, 0x00, 0x00, 0x00,
    0x00, 0x00, 0x00, 0x00, 0x00, 0x03, 0x00, 0x00, 0x00, 0x00, 0x00, 0x00, 0x00,
    0x00, 0x00, 0x00, 0x00, 0x00, 0x6f, 0x74, 0x70, 0x00, 0x08, 0x20, 0x00, 0x00,
    0x00, 0x03, 0x00, 0xfb, 0xff, 0x00, 0x73, 0x63, 0x72, 0x61, 0x74, 0x63, 0x68,
    0x00, 0x61, 0x6b, 0x70, 0x00, 0x20, 0x00, 0x00, 0x00, 0x00, 0x01, 0x00, 0x00,
    0x00, 0x00, 0x00, 0x00, 0x00, 0x01, 0x00, 0x00, 0x00, 0x02, 0x00, 0x00, 0x00,
    0x00, 0x00, 0x00, 0x00, 0x00, 0x00, 0x00, 0x00, 0x20, 0x00, 0x00, 0x00, 0x00,
    0x01, 0x22, 0x14, 0x06, 0x5f, 0x2b, 0x71, 0x6f, 0x44, 0x37, 0x06, 0x01, 0x06,
    0x62, 0x0d, 0x00, 0x74, 0x48, 0x00, 0x14, 0x28, 0x04, 0x14, 0x14, 0x04, 0x0c,
    0x24, 0x01, 0x00, 0x01, 0x00, 0x00, 0x00, 0x0b, 0x00, 0x00, 0x00, 0x03, 0x00,
    0x00, 0x00, 0x09, 0x00, 0x00, 0x00, 0x02, 0x00, 0x00, 0x00, 0x01, 0x00, 0x00,
    0x00, 0x08, 0xd1, 0xff, 0xff, 0x00, 0x00, 0x00, 0x09, 0x30, 0x00, 0x00, 0x00,
    0x0c, 0x00, 0x00, 0x00, 0x20, 0x00, 0x00, 0x00, 0x38, 0x00, 0x00, 0x00, 0x04,
    0x00, 0x00, 0x00, 0x04, 0x00, 0x00, 0x00, 0xff, 0xff, 0xff, 0xff, 0x01, 0x00,
    0x00, 0x00, 0x01, 0x00, 0x00, 0x00, 0x20, 0x00, 0x00, 0x00, 0x01, 0x00, 0x00,
    0x00, 0x41, 0x00, 0x00, 0x00, 0x04, 0x00, 0x00, 0x00, 0x01, 0x00, 0x00, 0x00,
    0x01, 0x00, 0x00, 0x00, 0x01, 0x00, 0x00, 0x00, 0x20, 0x00, 0x00, 0x00, 0xdc,
    0xd0, 0xff, 0xff, 0x14, 0x00, 0x00, 0x00, 0x04, 0x00, 0x00, 0x00, 0x01, 0x00,
    0x00, 0x00, 0x80, 0xff, 0xff, 0xff, 0xff, 0xff, 0xff, 0xff, 0x01, 0x00, 0x00,
    0x00, 0xa8, 0x49, 0x27, 0x3e, 0x42, 0xd2, 0xff, 0xff, 0x04, 0x00, 0x00, 0x00,
    0x04, 0x00, 0x00, 0x00, 0x1f, 0x02, 0x00, 0x00, 0xbe, 0xd1, 0xff, 0xff, 0x00,
    0x00, 0x00, 0x02, 0x18, 0x00, 0x00, 0x00, 0x0b, 0x00, 0x00, 0x00, 0x08, 0x00,
    0x00, 0x00, 0x14, 0x00, 0x00, 0x00, 0x01, 0x00, 0x00, 0x00, 0x39, 0x00, 0x00,
    0x00, 0x01, 0x00, 0x00, 0x00, 0x01, 0x00, 0x00, 0x00, 0x34, 0xd1, 0xff, 0xff,
    0x14, 0x00, 0x00, 0x00, 0x04, 0x00, 0x00, 0x00, 0x01, 0x00, 0x00, 0x00, 0x00,
    0x00, 0x00, 0x00, 0x00, 0x00, 0x00, 0x00, 0x01, 0x00, 0x00, 0x00, 0xda, 0x62,
    0x80, 0x39, 0xe0, 0xfe, 0xff, 0xff, 0xa0, 0x00, 0x00, 0x00, 0x94, 0x00, 0x00,
    0x00, 0x04, 0x00, 0x00, 0x00, 0x87, 0x00, 0x00, 0x00, 0x6b, 0x74, 0x00, 0x6d,
    0x70, 0x00, 0x08, 0x60, 0x00, 0x00, 0x00, 0x20, 0x00, 0x00, 0x00, 0x00, 0x61,
    0x67, 0x67, 0x70, 0x00, 0x18, 0x00, 0x04, 0x00, 0x00, 0x00, 0x00, 0x00, 0x00,
    0x01, 0x00, 0x00, 0x00, 0x00, 0x00, 0x00, 0x00, 0x00, 0x00, 0x00, 0x00, 0x20,
    0x00, 0x00, 0x00, 0x00, 0x6f, 0x74, 0x70, 0x00, 0x08, 0x40, 0x00, 0x00, 0x00,
    0x03, 0x00, 0xfa, 0xff, 0x00, 0x73, 0x63, 0x72, 0x61, 0x74, 0x63, 0x68, 0x00,
    0x61, 0x6b, 0x70, 0x00, 0x20, 0x00, 0x00, 0x00, 0x00, 0x01, 0x00, 0x00, 0x00,
    0x00, 0x00, 0x00, 0x00, 0x02, 0x00, 0x00, 0x00, 0x04, 0x00, 0x00, 0x00, 0x00,
    0x00, 0x00, 0x00, 0x00, 0x00, 0x00, 0x00, 0x40, 0x00, 0x00, 0x00, 0x00, 0x01,
    0x22, 0x14, 0x06, 0x5f, 0x2b, 0x71, 0x6f, 0x44, 0x37, 0x06, 0x01, 0x06, 0x62,
    0x0d, 0x00, 0x74, 0x48, 0x00, 0x14, 0x28, 0x04, 0x14, 0x14, 0x04, 0x0c, 0x24,
    0x01, 0x00, 0x01, 0x00, 0x00, 0x00, 0x09, 0x00, 0x00, 0x00, 0x03, 0x00, 0x00,
    0x00, 0x08, 0x00, 0x00, 0x00, 0x04, 0x00, 0x00, 0x00, 0x03, 0x00, 0x00, 0x00,
    0x80, 0xd2, 0xff, 0xff, 0x00, 0x00, 0x00, 0x09, 0x30, 0x00, 0x00, 0x00, 0x0a,
    0x00, 0x00, 0x00, 0x20, 0x00, 0x00, 0x00, 0x38, 0x00, 0x00, 0x00, 0x04, 0x00,
    0x00, 0x00, 0x04, 0x00, 0x00, 0x00, 0xff, 0xff, 0xff, 0xff, 0x01, 0x00, 0x00,
    0x00, 0x02, 0x00, 0x00, 0x00, 0x40, 0x00, 0x00, 0x00, 0x01, 0x00, 0x00, 0x00,
    0x38, 0x00, 0x00, 0x00, 0x04, 0x00, 0x00, 0x00, 0x01, 0x00, 0x00, 0x00, 0x01,
    0x00, 0x00, 0x00, 0x02, 0x00, 0x00, 0x00, 0x40, 0x00, 0x00, 0x00, 0x54, 0xd2,
    0xff, 0xff, 0x14, 0x00, 0x00, 0x00, 0x04, 0x00, 0x00, 0x00, 0x01, 0x00, 0x00,
    0x00, 0x80, 0xff, 0xff, 0xff, 0xff, 0xff, 0xff, 0xff, 0x01, 0x00, 0x00, 0x00,
    0x30, 0x5c, 0xfd, 0x3d, 0x10, 0x00, 0x10, 0x00, 0x00, 0x00, 0x04, 0x00, 0x08,
    0x00, 0x00, 0x00, 0x00, 0x00, 0x0c, 0x00, 0x10, 0x00, 0x00, 0x00, 0xa0, 0x00,
    0x00, 0x00, 0x94, 0x00, 0x00, 0x00, 0x04, 0x00, 0x00, 0x00, 0x87, 0x00, 0x00,
    0x00, 0x6b, 0x74, 0x00, 0x6d, 0x70, 0x00, 0x08, 0x80, 0x00, 0x00, 0x00, 0x20,
    0x00, 0x00, 0x00, 0x00, 0x61, 0x67, 0x67, 0x70, 0x00, 0x18, 0x00, 0x04, 0x00,
    0x00, 0x00, 0x00, 0x00, 0x00, 0x01, 0x00, 0x00, 0x00, 0x00, 0x00, 0x00, 0x00,
    0x00, 0x00, 0x00, 0x00, 0x40, 0x00, 0x00, 0x00, 0x00, 0x6f, 0x74, 0x70, 0x00,
    0x08, 0x20, 0x00, 0x00, 0x00, 0x04, 0x00, 0xfc, 0xff, 0x00, 0x73, 0x63, 0x72,
    0x61, 0x74, 0x63, 0x68, 0x00, 0x61, 0x6b, 0x70, 0x00, 0x20, 0x00, 0x00, 0x00,
    0x00, 0x01, 0x00, 0x00, 0x00, 0x00, 0x00, 0x00, 0x00, 0x03, 0x00, 0x00, 0x00,
    0x02, 0x00, 0x00, 0x00, 0x00, 0x00, 0x00, 0x00, 0x00, 0x00, 0x00, 0x00, 0x20,
    0x00, 0x00, 0x00, 0x00, 0x01, 0x22, 0x14, 0x06, 0x5f, 0x2b, 0x71, 0x6f, 0x44,
    0x37, 0x06, 0x01, 0x06, 0x62, 0x0d, 0x00, 0x74, 0x48, 0x00, 0x14, 0x28, 0x04,
    0x14, 0x14, 0x04, 0x0c, 0x24, 0x01, 0x00, 0x01, 0x00, 0x00, 0x00, 0x08, 0x00,
    0x00, 0x00, 0x03, 0x00, 0x00, 0x00, 0x00, 0x00, 0x00, 0x00, 0x06, 0x00, 0x00,
    0x00, 0x05, 0x00, 0x00, 0x00, 0x0c, 0x00, 0x10, 0x00, 0x0f, 0x00, 0x08, 0x00,
    0x00, 0x00, 0x04, 0x00, 0x0c, 0x00, 0x00, 0x00, 0x20, 0x00, 0x00, 0x00, 0x08,
    0x00, 0x00, 0x00, 0x00, 0x00, 0x00, 0x20, 0x0c, 0x00, 0x00, 0x00, 0x58, 0x43,
    0x5f, 0x63, 0x6f, 0x6e, 0x76, 0x32, 0x64, 0x5f, 0x76, 0x32, 0x00, 0x00, 0x00,
    0x00, 0xe0, 0xd3, 0xff, 0xff, 0x00, 0x00, 0x00, 0x09, 0x30, 0x00, 0x00, 0x00,
    0x09, 0x00, 0x00, 0x00, 0x20, 0x00, 0x00, 0x00, 0x38, 0x00, 0x00, 0x00, 0x04,
    0x00, 0x00, 0x00, 0x04, 0x00, 0x00, 0x00, 0xff, 0xff, 0xff, 0xff, 0x01, 0x00,
    0x00, 0x00, 0x03, 0x00, 0x00, 0x00, 0x20, 0x00, 0x00, 0x00, 0x01, 0x00, 0x00,
    0x00, 0x37, 0x00, 0x00, 0x00, 0x04, 0x00, 0x00, 0x00, 0x01, 0x00, 0x00, 0x00,
    0x01, 0x00, 0x00, 0x00, 0x03, 0x00, 0x00, 0x00, 0x20, 0x00, 0x00, 0x00, 0xb4,
    0xd3, 0xff, 0xff, 0x14, 0x00, 0x00, 0x00, 0x04, 0x00, 0x00, 0x00, 0x01, 0x00,
    0x00, 0x00, 0x80, 0xff, 0xff, 0xff, 0xff, 0xff, 0xff, 0xff, 0x01, 0x00, 0x00,
    0x00, 0x53, 0x21, 0x45, 0x3e, 0x1a, 0xd5, 0xff, 0xff, 0x04, 0x00, 0x00, 0x00,
    0x10, 0x00, 0x00, 0x00, 0xff, 0xff, 0xff, 0xff, 0xff, 0xff, 0xff, 0xff, 0x01,
    0x00, 0x00, 0x00, 0x00, 0x00, 0x00, 0x00, 0xa2, 0xd4, 0xff, 0xff, 0x00, 0x00,
    0x00, 0x04, 0x18, 0x00, 0x00, 0x00, 0x08, 0x00, 0x00, 0x00, 0x08, 0x00, 0x00,
    0x00, 0x14, 0x00, 0x00, 0x00, 0x01, 0x00, 0x00, 0x00, 0x36, 0x00, 0x00, 0x00,
    0x01, 0x00, 0x00, 0x00, 0x02, 0x00, 0x00, 0x00, 0xec, 0xd3, 0xff, 0xff, 0x62,
    0xd5, 0xff, 0xff, 0x04, 0x00, 0x00, 0x00, 0x00, 0x08, 0x00, 0x00, 0xbf, 0xee,
    0x7f, 0x0f, 0x26, 0x7f, 0xad, 0x14, 0x2e, 0x75, 0xd7, 0xcd, 0xef, 0xa8, 0x1c,
    0x62, 0x1c, 0x3e, 0x19, 0xa6, 0x41, 0xe7, 0xdf, 0xd4, 0x64, 0x59, 0x08, 0x28,
    0xb9, 0x03, 0x57, 0x20, 0x12, 0x76, 0xcf, 0x43, 0xd7, 0xe6, 0x4c, 0x1f, 0xb5,
    0x6f, 0x3f, 0x17, 0xab, 0x7b, 0x83, 0xd0, 0x20, 0x07, 0x4e, 0x2f, 0x26, 0x41,
    0x90, 0x60, 0x84, 0xdc, 0x7e, 0xb5, 0x7f, 0x0f, 0x72, 0x19, 0x38, 0xac, 0x18,
    0x07, 0x36, 0xf2, 0x26, 0x67, 0x07, 0x0a, 0x11, 0xcf, 0xc0, 0xa4, 0xa4, 0x2f,
    0x58, 0x7c, 0x49, 0x03, 0x1c, 0x24, 0xfe, 0x9f, 0x15, 0xee, 0x07, 0x14, 0xeb,
    0xcb, 0x1b, 0x21, 0x73, 0x4a, 0xe7, 0xf0, 0x00, 0x22, 0x03, 0x1e, 0xbf, 0xf4,
    0xfa, 0x25, 0x28, 0x2a, 0x32, 0x18, 0x00, 0x3d, 0xf9, 0xfe, 0x4f, 0x12, 0xf6,
    0xfb, 0x08, 0x0f, 0xdf, 0xcc, 0xd8, 0xea, 0xe0, 0xe8, 0x7f, 0x36, 0x73, 0x70,
    0x2b, 0xe2, 0xd4, 0x35, 0x30, 0x06, 0x01, 0x0c, 0xd3, 0x02, 0x60, 0x62, 0x12,
    0x46, 0xad, 0xc6, 0xc7, 0x3b, 0x30, 0x43, 0x5b, 0xbc, 0x44, 0xd5, 0xe4, 0x73,
    0x78, 0x35, 0xd1, 0x22, 0x72, 0x0e, 0x46, 0x42, 0xda, 0xef, 0xf1, 0xb2, 0x9f,
    0xc4, 0x45, 0x11, 0xe9, 0x32, 0xa3, 0xd2, 0x34, 0x3d, 0xfb, 0xc0, 0x9c, 0xba,
    0xca, 0x53, 0x41, 0x54, 0x12, 0x71, 0x43, 0x66, 0xc6, 0x30, 0x0a, 0x00, 0x33,
    0xd2, 0xf1, 0x4a, 0x7f, 0x39, 0x94, 0xf9, 0x68, 0x2e, 0x27, 0x3e, 0xee, 0x47,
    0x72, 0xec, 0xa3, 0x51, 0x92, 0xb0, 0x24, 0x76, 0x5a, 0x35, 0xf9, 0xec, 0xc0,
    0x75, 0xfa, 0x54, 0x39, 0x0a, 0x2b, 0x20, 0x25, 0x08, 0xc7, 0x19, 0xd1, 0x0c,
    0x33, 0x22, 0xfd, 0xcf, 0x54, 0x40, 0x0a, 0x49, 0x13, 0xd9, 0x17, 0xe3, 0xff,
    0x36, 0xc3, 0x4f, 0x00, 0xc6, 0x0e, 0x59, 0xcb, 0x30, 0x7f, 0x5f, 0x28, 0x33,
    0xf8, 0x05, 0x0a, 0x01, 0x0d, 0x12, 0xe7, 0xe7, 0x01, 0xf8, 0x06, 0x0a, 0xf5,
    0x00, 0xf2, 0xe0, 0xde, 0xe6, 0xf2, 0xd9, 0xd6, 0x05, 0x07, 0xfc, 0xf4, 0x03,
    0xdb, 0xdf, 0xe9, 0xe6, 0x7a, 0xd5, 0xed, 0x56, 0x70, 0xc9, 0xdb, 0x7f, 0x99,
    0xe5, 0xe1, 0x4f, 0x8f, 0x23, 0x7b, 0x75, 0x8e, 0x9c, 0x5e, 0x5e, 0x6c, 0xc8,
    0x04, 0xe4, 0xe7, 0xdf, 0x24, 0x13, 0xab, 0x5b, 0x43, 0x01, 0x60, 0x31, 0xef,
    0x11, 0xaf, 0xa5, 0xeb, 0x64, 0xa9, 0x66, 0x35, 0xc1, 0x7f, 0xd0, 0xbe, 0xeb,
    0x54, 0xba, 0xc5, 0x62, 0xc8, 0x39, 0x2b, 0x3a, 0xb7, 0x4a, 0x68, 0xbf, 0xfa,
    0xf1, 0xd0, 0x47, 0xd4, 0x07, 0x04, 0xfb, 0x04, 0x13, 0x2a, 0x39, 0x2c, 0xdf,
    0x96, 0x81, 0x8e, 0xdd, 0x09, 0x1f, 0x4e, 0x30, 0x1a, 0xeb, 0x13, 0xee, 0x0c,
    0x04, 0xe7, 0x33, 0xfe, 0x18, 0xdc, 0xda, 0xf2, 0xd3, 0xb3, 0xaa, 0x85, 0xda,
    0x11, 0x12, 0x9e, 0xa8, 0xb0, 0x00, 0x2f, 0xe1, 0x3f, 0x18, 0xd9, 0x0c, 0xf2,
    0xe9, 0x15, 0x22, 0x22, 0x16, 0x43, 0x46, 0x4b, 0x5c, 0x29, 0x7f, 0xd1, 0x32,
    0xe8, 0x9d, 0xbf, 0xb5, 0xb5, 0xb4, 0xd3, 0xc1, 0xed, 0xf2, 0x05, 0x08, 0x01,
    0xeb, 0xe4, 0xf2, 0x0a, 0x25, 0x16, 0x04, 0x09, 0x12, 0xf9, 0x32, 0x20, 0x20,
    0x53, 0x1b, 0xf3, 0x0c, 0xbc, 0x6d, 0xd4, 0x34, 0x2f, 0xf4, 0x0f, 0x69, 0xea,
    0x09, 0x5a, 0xba, 0x20, 0x78, 0x44, 0x46, 0x65, 0x30, 0x73, 0x58, 0xc3, 0xfb,
    0x05, 0x19, 0xc3, 0xef, 0x0e, 0xcc, 0xfa, 0xcb, 0x3b, 0xbe, 0x1e, 0x91, 0xfc,
    0x0c, 0x98, 0x2d, 0xcd, 0xf1, 0x03, 0xdb, 0xda, 0x00, 0x0d, 0x09, 0x20, 0x10,
    0x16, 0x33, 0x4a, 0xe2, 0xba, 0x13, 0x1b, 0xd1, 0x0f, 0x2e, 0x38, 0x4c, 0x3d,
    0xef, 0xc9, 0x24, 0x1f, 0x76, 0xeb, 0x26, 0x53, 0x38, 0xfe, 0x4c, 0xa8, 0x43,
    0x69, 0xb8, 0xbd, 0x33, 0x48, 0xe9, 0xba, 0xde, 0x47, 0x26, 0xf1, 0x3c, 0xbb,
    0x97, 0x0f, 0xb2, 0x5f, 0x1e, 0xa0, 0x34, 0xfd, 0x56, 0x32, 0x68, 0x01, 0x00,
    0x14, 0xe9, 0x22, 0xc0, 0x32, 0x47, 0x6e, 0x2f, 0x93, 0xdc, 0x3a, 0x30, 0x9e,
    0x88, 0x8c, 0x38, 0xc7, 0x8e, 0xfb, 0x5e, 0x0b, 0x25, 0x2e, 0x27, 0x36, 0x78,
    0xf9, 0x35, 0x22, 0x9e, 0xff, 0xe9, 0x3f, 0xe1, 0x0c, 0x02, 0xe1, 0xee, 0x07,
    0xdb, 0x99, 0x81, 0x87, 0xf1, 0x6c, 0x6f, 0x57, 0x07, 0x1e, 0x09, 0xe1, 0xa1,
    0x28, 0x23, 0xf3, 0xd3, 0xbb, 0xe5, 0x28, 0xf9, 0x7f, 0x43, 0xfe, 0x15, 0xf5,
    0x09, 0xda, 0xb6, 0x9f, 0xe4, 0xdb, 0x14, 0x21, 0xe7, 0x2e, 0xb1, 0xe7, 0x09,
    0xf7, 0xf4, 0x2c, 0xf0, 0xdf, 0x04, 0xea, 0x0c, 0xec, 0x0f, 0xfc, 0xf2, 0xd3,
    0xd5, 0xbb, 0x17, 0x5d, 0xcf, 0x72, 0xd2, 0x30, 0xf0, 0x45, 0x55, 0xb8, 0x45,
    0xf2, 0x12, 0x52, 0xe5, 0xe0, 0xd4, 0xf4, 0xc0, 0xed, 0xb8, 0x30, 0x2f, 0xaa,
    0x02, 0x46, 0x1d, 0x1c, 0x66, 0x10, 0xdb, 0x31, 0x19, 0x14, 0x52, 0xab, 0x78,
    0xd7, 0x7c, 0xb4, 0x9c, 0x53, 0xbc, 0x76, 0xe6, 0x67, 0x26, 0xdc, 0x9a, 0x6e,
    0x58, 0xd3, 0xda, 0x60, 0x62, 0x7f, 0xc1, 0xef, 0x31, 0x76, 0xd3, 0xdf, 0x6d,
    0x3d, 0x1a, 0x04, 0xe9, 0x99, 0x0d, 0xbf, 0x1a, 0x5c, 0xe1, 0x0c, 0x4e, 0xd6,
    0x54, 0x20, 0x10, 0x72, 0x49, 0xf3, 0xf9, 0xfc, 0x48, 0x44, 0x97, 0x5a, 0x13,
    0x1d, 0xcd, 0x1a, 0x59, 0x6c, 0x69, 0xb6, 0xde, 0xf1, 0x5b, 0xff, 0xee, 0x7f,
    0x79, 0x21, 0x52, 0x48, 0xc9, 0xc0, 0xab, 0xbc, 0x60, 0x07, 0xec, 0x26, 0xfc,
    0xe0, 0x0c, 0xd4, 0x31, 0xdd, 0x3d, 0xb6, 0x18, 0x72, 0x45, 0x3c, 0x0f, 0xd4,
    0xf8, 0x2a, 0x30, 0x21, 0xf0, 0xe1, 0xec, 0xe8, 0xf1, 0xf3, 0xf2, 0xdf, 0xeb,
    0xe6, 0x00, 0xfa, 0xef, 0xfa, 0x13, 0x0e, 0x09, 0xeb, 0x11, 0x13, 0x04, 0x0b,
    0x13, 0x1c, 0x28, 0x0d, 0x25, 0x46, 0x3b, 0x96, 0xf0, 0xf7, 0xdb, 0x3f, 0xed,
    0xe4, 0xf7, 0x0c, 0xcc, 0x1c, 0x2b, 0xce, 0x60, 0x22, 0x05, 0x3f, 0xc2, 0x3f,
    0x78, 0xcd, 0x0d, 0x41, 0xb3, 0xef, 0x2f, 0x28, 0x49, 0x6a, 0x03, 0x06, 0x2d,
    0xbf, 0xae, 0x28, 0x4c, 0x5e, 0x5f, 0x0a, 0xfa, 0xd0, 0x3d, 0xaf, 0x14, 0xfb,
    0x79, 0x61, 0xfd, 0x22, 0x5e, 0x22, 0x1b, 0x2e, 0x76, 0xae, 0x22, 0x78, 0xd3,
    0x5b, 0x40, 0x79, 0xc3, 0xfb, 0x01, 0xea, 0x5c, 0xda, 0x21, 0x19, 0x0c, 0x00,
    0xff, 0x42, 0x3f, 0x4d, 0xf6, 0xc9, 0xa7, 0xa5, 0xde, 0xff, 0x0c, 0x21, 0x2f,
    0x0a, 0xc9, 0xfd, 0xf8, 0x0b, 0xf2, 0xc8, 0xf6, 0x18, 0x2b, 0x3d, 0xfa, 0x12,
    0xe8, 0xcd, 0xe2, 0xa0, 0xe0, 0xe8, 0x0f, 0xcf, 0xa9, 0xb3, 0xe7, 0x2d, 0x47,
    0x20, 0xf7, 0x19, 0xdb, 0x36, 0x10, 0x16, 0x6c, 0x5c, 0x14, 0x12, 0x32, 0x5a,
    0x61, 0xcc, 0x7f, 0xbf, 0x1f, 0xc2, 0x8b, 0xb0, 0x95, 0xa9, 0x81, 0xa8, 0xca,
    0xd4, 0xf5, 0xf4, 0x12, 0xf1, 0xf4, 0xe6, 0x0e, 0xed, 0x40, 0x33, 0xdc, 0xf6,
    0x21, 0x14, 0x4f, 0x5d, 0xfa, 0x40, 0x25, 0xd5, 0xfb, 0x6f, 0x50, 0x0f, 0x37,
    0xd4, 0x48, 0x56, 0xc6, 0x51, 0x49, 0x5f, 0x42, 0xc6, 0x4f, 0x59, 0x2e, 0x65,
    0xf0, 0xd2, 0xf5, 0x1a, 0xfe, 0x7f, 0x31, 0xdb, 0xfa, 0xc0, 0xcc, 0x06, 0x35,
    0xff, 0x47, 0x33, 0xa4, 0x1b, 0x23, 0xcc, 0x24, 0xb5, 0x02, 0x24, 0x15, 0xf0,
    0x0f, 0x21, 0x13, 0x07, 0x1d, 0x1b, 0x1f, 0x32, 0xa0, 0x81, 0xcf, 0x1f, 0xa9,
    0xf4, 0xec, 0xf1, 0x0c, 0x15, 0xf2, 0xdd, 0x03, 0x49, 0x8b, 0x13, 0xf1, 0xee,
    0xed, 0xf3, 0xed, 0x08, 0xec, 0xeb, 0x08, 0x0f, 0x10, 0xfb, 0x1f, 0x02, 0xd0,
    0xb1, 0xd9, 0x1a, 0x31, 0xe8, 0xb8, 0x26, 0xf2, 0x00, 0x03, 0xc1, 0xdb, 0x25,
    0x19, 0xde, 0xe3, 0xfe, 0xda, 0x09, 0x6b, 0x8c, 0xdc, 0x5a, 0x31, 0x55, 0x08,
    0x7c, 0x1e, 0xcd, 0x18, 0xbd, 0x61, 0xaf, 0xc2, 0xee, 0xd3, 0x69, 0xe9, 0x29,
    0x2a, 0x43, 0xcb, 0xc0, 0xa0, 0xbf, 0x5f, 0xeb, 0xfa, 0x28, 0xe5, 0x29, 0xc6,
    0x12, 0x1b, 0x1c, 0x2d, 0x27, 0x10, 0x0b, 0x34, 0x3a, 0x3f, 0x2d, 0x2d, 0x45,
    0x28, 0x36, 0x7a, 0x69, 0x7f, 0x40, 0x60, 0xff, 0xd2, 0xce, 0xff, 0xf6, 0xe0,
    0xe7, 0x61, 0xd2, 0x7f, 0xa1, 0x50, 0x08, 0x4d, 0x16, 0xff, 0xeb, 0xc1, 0xb1,
    0xe6, 0x21, 0x33, 0x0c, 0xb7, 0xf8, 0x41, 0x28, 0xc1, 0x00, 0x2c, 0xef, 0xec,
    0xff, 0x0c, 0xc3, 0x2b, 0x1a, 0xe4, 0xec, 0xf2, 0x36, 0xc0, 0x51, 0xfc, 0x60,
    0x73, 0x17, 0x26, 0xff, 0xfd, 0x58, 0x7c, 0x3c, 0xf8, 0xc1, 0xe2, 0xf9, 0xd5,
    0x81, 0xa1, 0xef, 0x23, 0xf7, 0x18, 0xe2, 0xfd, 0xdb, 0x24, 0x1d, 0xd3, 0x61,
    0xe5, 0x28, 0xba, 0x00, 0x0c, 0xd4, 0xda, 0xcf, 0x01, 0xcd, 0x0a, 0xef, 0x12,
    0x02, 0x1b, 0x18, 0x02, 0x0b, 0x26, 0x35, 0x40, 0x0a, 0x0b, 0x1a, 0x17, 0x10,
    0x1d, 0x0c, 0x1d, 0xe5, 0x81, 0x51, 0x7b, 0x6f, 0x45, 0x52, 0x6f, 0xee, 0x54,
    0x0c, 0xe4, 0xd4, 0xd4, 0x22, 0xed, 0xab, 0x61, 0xdf, 0xea, 0x4c, 0xea, 0xf2,
    0x5d, 0xf1, 0xea, 0xb2, 0xb4, 0x6c, 0x22, 0x62, 0xb0, 0xa9, 0xb8, 0xda, 0xe3,
    0xfa, 0x1b, 0x39, 0xe5, 0x2b, 0xae, 0x8d, 0x81, 0xc1, 0xbf, 0xde, 0xf6, 0x1a,
    0x19, 0x19, 0xef, 0x18, 0x22, 0x27, 0xd2, 0xdf, 0x23, 0x16, 0x43, 0x04, 0xe1,
    0xd8, 0x1e, 0x20, 0xfb, 0xa3, 0x14, 0x53, 0x5a, 0x71, 0x21, 0xc9, 0x76, 0x64,
    0x03, 0xa5, 0xfe, 0x20, 0x61, 0xc8, 0x23, 0xf7, 0x18, 0xde, 0xd6, 0xaf, 0xa5,
    0xaf, 0x06, 0xfb, 0x7a, 0x7b, 0x75, 0x70, 0xf1, 0xae, 0x31, 0xff, 0xda, 0xa8,
    0xad, 0xf3, 0x7f, 0xe7, 0xd8, 0xdb, 0x19, 0xe6, 0x1f, 0x28, 0x8b, 0x59, 0xb0,
    0x2a, 0x0d, 0xe7, 0x79, 0x4d, 0xe9, 0x60, 0x67, 0x5d, 0x11, 0x63, 0xc2, 0x43,
    0xf0, 0xb5, 0x76, 0x18, 0x70, 0xac, 0x03, 0x29, 0x5f, 0xcf, 0xcb, 0x09, 0xc0,
    0xe0, 0xc9, 0xbd, 0x76, 0xdd, 0xf3, 0x0b, 0x4c, 0x03, 0x4d, 0x47, 0x50, 0xff,
    0xfe, 0x97, 0xbc, 0x55, 0x34, 0x99, 0x6b, 0xbb, 0x52, 0x1f, 0xd3, 0xec, 0xa9,
    0xbf, 0x8f, 0xbb, 0xbb, 0xf9, 0x0d, 0xcb, 0xba, 0x81, 0x82, 0xd7, 0xb7, 0xba,
    0xe3, 0x0c, 0xde, 0xd9, 0xe7, 0xf0, 0x02, 0xbb, 0xf4, 0xdc, 0x2e, 0x24, 0x0f,
    0xec, 0xcc, 0xc8, 0x71, 0x36, 0x44, 0x98, 0xc2, 0x45, 0x6a, 0xc6, 0xe9, 0xcb,
    0x8a, 0x7e, 0x3e, 0x33, 0xdb, 0xb8, 0x28, 0xe3, 0x7f, 0x53, 0xf9, 0xcf, 0xb7,
    0x30, 0x49, 0x7b, 0x2c, 0xdf, 0x3a, 0xf4, 0xe8, 0x7f, 0xb5, 0xdb, 0xd8, 0xd8,
    0xe2, 0xfe, 0x05, 0xb4, 0xe6, 0xda, 0xc9, 0xd2, 0xf1, 0xf9, 0x06, 0x11, 0xc6,
    0xc8, 0xf5, 0x05, 0xf0, 0x26, 0x20, 0x23, 0x0d, 0x35, 0x5a, 0x1a, 0x1e, 0x20,
    0x23, 0xd6, 0x11, 0x01, 0x05, 0xf9, 0x81, 0xd1, 0xfb, 0x2a, 0x21, 0x0c, 0x20,
    0x19, 0x11, 0x27, 0x31, 0x31, 0x09, 0xe7, 0x1a, 0x46, 0x2b, 0xf5, 0x02, 0x04,
    0xa4, 0xde, 0xec, 0xf6, 0xf9, 0x07, 0xfd, 0x42, 0x91, 0xf9, 0x3d, 0x09, 0x25,
    0xe1, 0xc0, 0x30, 0x0a, 0x3d, 0xfc, 0x02, 0x2d, 0x2c, 0xe4, 0xee, 0x13, 0xdf,
    0x01, 0xf3, 0x5a, 0x40, 0x03, 0x1e, 0x21, 0xf0, 0x23, 0xb8, 0xb3, 0xaf, 0x04,
    0x50, 0x81, 0x18, 0xfe, 0xee, 0xf0, 0x0c, 0x08, 0x03, 0xf7, 0xea, 0xf1, 0x1c,
    0x2a, 0x1d, 0x2a, 0x18, 0xe2, 0xb5, 0xea, 0x2d, 0x43, 0xf9, 0xdb, 0x39, 0xed,
    0x11, 0x1b, 0xd6, 0xe2, 0x1b, 0x33, 0x3e, 0xb7, 0xb4, 0xcd, 0x34, 0x58, 0x4a,
    0x54, 0x50, 0xa9, 0x5f, 0xfd, 0x05, 0x7f, 0xd4, 0x9f, 0x39, 0x7e, 0x64, 0x6a,
    0xfd, 0xb5, 0x4f, 0x5d, 0x45, 0xb8, 0xa4, 0x60, 0xb7, 0x51, 0x38, 0x3a, 0xfc,
    0xf2, 0x28, 0xed, 0x1e, 0xc9, 0x12, 0xf7, 0xfe, 0x06, 0xdf, 0xd2, 0xc7, 0xad,
    0xef, 0xd7, 0xc8, 0x9a, 0xb4, 0xe4, 0xb7, 0x99, 0x98, 0xb3, 0xb6, 0xf3, 0xee,
    0xb6, 0xe5, 0x22, 0x28, 0xe8, 0xe2, 0x3f, 0xc0, 0x54, 0x88, 0x3b, 0xe7, 0x41,
    0x03, 0x01, 0xe5, 0xf8, 0xd6, 0x0e, 0x52, 0x60, 0x13, 0xca, 0xc9, 0x1f, 0x0a,
    0xc8, 0x02, 0x09, 0xe6, 0xeb, 0x20, 0xf4, 0xb7, 0xfe, 0x32, 0x06, 0xeb, 0xe3,
    0x0c, 0xbb, 0x2f, 0xfa, 0x4b, 0x5b, 0xfd, 0x0f, 0xdb, 0x03, 0x2e, 0x57, 0x33,
    0xd7, 0xb1, 0xf3, 0x0a, 0xfe, 0xc3, 0xbe, 0x2d, 0x13, 0x07, 0xd8, 0x09, 0x0d,
    0x00, 0x29, 0xf5, 0xb7, 0x20, 0xf1, 0xe4, 0xde, 0x04, 0xf0, 0xbb, 0xe4, 0xe2,
    0xf6, 0xd7, 0xdd, 0xb5, 0x10, 0x17, 0x21, 0x31, 0x24, 0x11, 0x67, 0x3d, 0x51,
    0x17, 0x10, 0x2a, 0x29, 0x32, 0x2f, 0x10, 0x12, 0xd3, 0x96, 0x1c, 0x0a, 0xe9,
    0x3f, 0x1d, 0x26, 0x7e, 0x79, 0x0f, 0x09, 0x14, 0x74, 0x75, 0x61, 0x1c, 0x77,
    0x24, 0x30, 0x2f, 0xab, 0x79, 0x56, 0xbf, 0xee, 0x09, 0xe5, 0x7f, 0x45, 0x5c,
    0x50, 0x34, 0x62, 0xc5, 0x2d, 0x46, 0x64, 0x6b, 0x6d, 0x6a, 0x0f, 0xc9, 0xbd,
    0x09, 0xff, 0xe0, 0xfb, 0x19, 0x2f, 0x1e, 0x1a, 0x07, 0x2d, 0x23, 0xd3, 0xfc,
    0x0b, 0x03, 0xee, 0xbc, 0xee, 0xe3, 0x07, 0x06, 0xde, 0x20, 0x6d, 0xbe, 0xba,
    0x1d, 0x28, 0x65, 0x0c, 0xe2, 0xc9, 0x60, 0xa2, 0x00, 0x3e, 0x65, 0xd2, 0x23,
    0x64, 0x6b, 0xd8, 0xb8, 0x7f, 0x44, 0x6b, 0x9c, 0x7c, 0x21, 0xf9, 0x06, 0x9e,
    0x6d, 0xbd, 0x37, 0x2b, 0xea, 0x2c, 0xc2, 0x70, 0x53, 0x03, 0x6b, 0xe2, 0x62,
    0x77, 0x6e, 0x8b, 0xcf, 0x37, 0x99, 0xfb, 0xd3, 0xf0, 0xdc, 0x68, 0x60, 0x94,
    0xe8, 0x4b, 0xf8, 0x0f, 0xe6, 0x4f, 0xbb, 0x3c, 0x0d, 0xc7, 0x77, 0x61, 0x54,
    0xb1, 0x68, 0xc3, 0x42, 0xe3, 0xfd, 0x9d, 0x12, 0x44, 0x0e, 0x73, 0x4e, 0x5b,
    0x7f, 0x69, 0xb1, 0x13, 0x72, 0xd9, 0xcb, 0xca, 0xd3, 0x5f, 0xa1, 0x62, 0x72,
    0x4d, 0x3d, 0x17, 0x4d, 0x19, 0x10, 0x04, 0x01, 0x48, 0x5e, 0x60, 0x35, 0x3b,
    0x22, 0x24, 0x2c, 0x4a, 0x42, 0x5b, 0x10, 0x04, 0x10, 0x3e, 0x1d, 0x43, 0xe3,
    0xef, 0xda, 0x47, 0x10, 0xd9, 0xda, 0xe6, 0x63, 0xa1, 0x6a, 0xa5, 0x2b, 0xea,
    0xd0, 0x16, 0x3f, 0x76, 0xc3, 0xba, 0x41, 0x50, 0x6b, 0x69, 0x09, 0xf9, 0x77,
    0x19, 0x35, 0x9d, 0x2e, 0x76, 0xd3, 0x67, 0x1a, 0xa4, 0x01, 0xeb, 0xc7, 0x17,
    0x6f, 0xcd, 0xfe, 0xe5, 0xe1, 0xcf, 0xe5, 0x0b, 0xcf, 0xe8, 0x18, 0xda, 0x08,
    0xed, 0x0a, 0x29, 0x09, 0xec, 0xce, 0xeb, 0x0c, 0x08, 0x20, 0x13, 0xdb, 0x09,
    0xf2, 0x3c, 0x0e, 0xf2, 0x28, 0xee, 0xeb, 0x13, 0x28, 0x0b, 0x00, 0x9e, 0xdb,
    0xf5, 0x52, 0x1b, 0x19, 0x13, 0x18, 0x1b, 0x01, 0x21, 0x07, 0xf8, 0xc6, 0x06,
    0x29, 0x06, 0xe0, 0x09, 0x1b, 0xa2, 0xc1, 0xf2, 0x14, 0x15, 0x02, 0xf8, 0x23,
    0x97, 0xe4, 0x40, 0xf9, 0x5b, 0xc7, 0xc3, 0x35, 0x16, 0x20, 0xe7, 0xfe, 0xef,
    0x36, 0xda, 0x23, 0x00, 0xc1, 0x13, 0xec, 0x4c, 0x4c, 0x23, 0x28, 0x27, 0xcb,
    0x2a, 0xe3, 0x81, 0xa6, 0xfb, 0xda, 0xdc, 0xff, 0xff, 0x00, 0x00, 0x00, 0x09,
    0x18, 0x00, 0x00, 0x00, 0x07, 0x00, 0x00, 0x00, 0x08, 0x00, 0x00, 0x00, 0x14,
    0x00, 0x00, 0x00, 0x01, 0x00, 0x00, 0x00, 0x35, 0x00, 0x00, 0x00, 0x01, 0x00,
    0x00, 0x00, 0x00, 0x08, 0x00, 0x00, 0x24, 0xdc, 0xff, 0xff, 0x9a, 0xdd, 0xff,
    0xff, 0x04, 0x00, 0x00, 0x00, 0x80, 0x00, 0x00, 0x00, 0x6b, 0x37, 0xfa, 0x11,
    0x42, 0x24, 0x3f, 0x28, 0x67, 0x3b, 0x49, 0x10, 0xf5, 0x0e, 0xba, 0x4a, 0x61,
    0x14, 0x4b, 0x0f, 0xb0, 0x0f, 0xfd, 0x10, 0x80, 0x2d, 0x65, 0x2f, 0x2d, 0x0e,
    0x13, 0x10, 0x6a, 0xfb, 0xdb, 0xe9, 0xf0, 0x05, 0xfe, 0xf2, 0x51, 0xf7, 0xd5,
    0xed, 0xc2, 0xf2, 0x80, 0xf2, 0x1d, 0xee, 0x4a, 0xed, 0xfb, 0xef, 0x42, 0xed,
    0xa0, 0xf6, 0x2f, 0xf9, 0x6b, 0xf1, 0xc0, 0xf0, 0x86, 0x2e, 0x93, 0x44, 0xfa,
    0x3e, 0xea, 0x0e, 0x23, 0x29, 0x13, 0x10, 0x76, 0x0e, 0xfc, 0x0e, 0xee, 0x38,
    0x41, 0x10, 0xc3, 0x3b, 0x5e, 0x32, 0x31, 0x38, 0x8d, 0x2d, 0x3d, 0x10, 0xcd,
    0x44, 0xb2, 0xf5, 0xd9, 0xf5, 0x67, 0xfd, 0x5a, 0xf0, 0x4f, 0xfb, 0xe5, 0xee,
    0x5d, 0xf1, 0x56, 0xef, 0x1f, 0xf5, 0xf3, 0xe7, 0xdc, 0xef, 0x47, 0xf2, 0x0e,
    0xf4, 0xbf, 0xf9, 0xa0, 0xf0, 0xe8, 0xfc, 0x92, 0xdd, 0xff, 0xff, 0x00, 0x00,
    0x00, 0x07, 0x18, 0x00, 0x00, 0x00, 0x06, 0x00, 0x00, 0x00, 0x08, 0x00, 0x00,
    0x00, 0x14, 0x00, 0x00, 0x00, 0x01, 0x00, 0x00, 0x00, 0x34, 0x00, 0x00, 0x00,
    0x01, 0x00, 0x00, 0x00, 0x40, 0x00, 0x00, 0x00, 0xdc, 0xdc, 0xff, 0xff, 0x52,
    0xde, 0xff, 0xff, 0x04, 0x00, 0x00, 0x00, 0x00, 0x10, 0x00, 0x00, 0xeb, 0xee,
    0x7f, 0x0d, 0xc0, 0xf2, 0x13, 0xed, 0xf1, 0xed, 0x27, 0xde, 0xd8, 0x1b, 0xff,
    0x1c, 0x11, 0x03, 0x1c, 0x07, 0xe0, 0xde, 0x21, 0xd7, 0x8c, 0x1b, 0xca, 0x19,
    0xfb, 0xfd, 0x16, 0xee, 0xef, 0xfb, 0xf7, 0xb0, 0xc1, 0xf1, 0xff, 0x16, 0xfd,
    0x1c, 0xf3, 0xe3, 0x31, 0xe4, 0x07, 0xe8, 0x17, 0x0c, 0x0b, 0xfc, 0xe9, 0x0d,
    0x16, 0x08, 0x07, 0x15, 0x26, 0xdb, 0x81, 0xf0, 0x00, 0x20, 0x11, 0xee, 0x6b,
    0x55, 0xc3, 0xf8, 0x01, 0x0b, 0xf9, 0x10, 0xfd, 0x04, 0x23, 0xd1, 0xff, 0x0a,
    0xef, 0xbe, 0x1a, 0x16, 0xf8, 0xf1, 0xee, 0x0b, 0xe6, 0x0b, 0x02, 0x9e, 0x88,
    0xed, 0x01, 0x0f, 0xaf, 0x3e, 0xa8, 0x47, 0x13, 0xd8, 0x49, 0xa3, 0xf2, 0xfc,
    0x27, 0xcf, 0xa1, 0xe3, 0x53, 0x48, 0x81, 0xb1, 0x02, 0x0d, 0xf8, 0x59, 0x3f,
    0x4f, 0xaf, 0x3e, 0x01, 0xf6, 0xd2, 0xa4, 0x3b, 0x9d, 0x0d, 0x01, 0x0c, 0x1f,
    0x05, 0xf4, 0x03, 0x12, 0x09, 0x0b, 0xfc, 0x15, 0xe6, 0xfa, 0xe9, 0x00, 0xfb,
    0xef, 0x17, 0x0c, 0x0e, 0xfb, 0xf5, 0xfa, 0x0f, 0xe6, 0x03, 0x17, 0x21, 0x14,
    0xf1, 0x9b, 0x0f, 0xfb, 0xc9, 0xbe, 0x81, 0xe8, 0xe9, 0x1f, 0xfc, 0x08, 0x13,
    0xfd, 0x30, 0x2a, 0x05, 0xf3, 0xef, 0x0b, 0xe2, 0xfc, 0x00, 0x1d, 0x0c, 0xf4,
    0x05, 0xea, 0x0f, 0x0d, 0x13, 0xeb, 0x10, 0x13, 0xb1, 0xf5, 0xde, 0xb2, 0xfa,
    0xf0, 0x0b, 0xf5, 0x06, 0x08, 0x0c, 0x0a, 0xe1, 0x1a, 0x10, 0x0c, 0x0c, 0xe2,
    0xde, 0x03, 0xeb, 0xf5, 0xfe, 0x09, 0x33, 0xfb, 0x22, 0xe3, 0x1a, 0xff, 0xf7,
    0xef, 0x23, 0xf6, 0x2a, 0x31, 0xd5, 0x06, 0xf9, 0xe5, 0x0b, 0x0a, 0xea, 0x02,
    0x09, 0x81, 0x16, 0x04, 0x12, 0x36, 0x1c, 0xe9, 0xdf, 0x06, 0xf1, 0x10, 0x07,
    0xfa, 0xf7, 0xf2, 0x38, 0x18, 0xfd, 0x2c, 0x00, 0x01, 0xfe, 0xeb, 0x81, 0x00,
    0xfd, 0xf6, 0x00, 0xfc, 0xf9, 0x02, 0x0c, 0x02, 0x04, 0xf9, 0xf0, 0x0e, 0xb6,
    0xff, 0xf8, 0x02, 0xfb, 0xf9, 0xff, 0x04, 0xd8, 0xfd, 0xf0, 0xf7, 0x02, 0x01,
    0x03, 0x01, 0xfa, 0xf1, 0xdf, 0x00, 0x01, 0x81, 0x02, 0x04, 0xfd, 0x02, 0x1d,
    0x00, 0x00, 0xff, 0xf7, 0xc8, 0x0d, 0x03, 0x01, 0x07, 0x05, 0xfb, 0xf3, 0x01,
    0x05, 0xe6, 0xe0, 0xfe, 0x02, 0x17, 0x21, 0x0b, 0xfa, 0xff, 0xff, 0x1e, 0xf7,
    0xda, 0x21, 0xfd, 0x08, 0xe9, 0xfa, 0xff, 0x04, 0x1e, 0xfc, 0x19, 0xf6, 0x05,
    0xe2, 0xdc, 0xe3, 0x17, 0x06, 0x03, 0xb6, 0x02, 0xfc, 0xf8, 0x13, 0xea, 0x1a,
    0x14, 0xfc, 0x30, 0xfb, 0x04, 0x0e, 0x10, 0xec, 0xf2, 0x0b, 0xf4, 0xd5, 0x46,
    0x12, 0x00, 0xe7, 0x04, 0xa0, 0x11, 0xfa, 0xfe, 0x14, 0xed, 0x81, 0xed, 0x2c,
    0x2b, 0x23, 0x18, 0xf9, 0x27, 0xd0, 0xf9, 0xf4, 0xf4, 0xf4, 0x0b, 0xfe, 0x16,
    0x05, 0x01, 0xfe, 0x04, 0xee, 0xd1, 0xfa, 0xf1, 0x12, 0x08, 0xe1, 0xfb, 0x14,
    0xf9, 0xfe, 0x04, 0x01, 0xfc, 0x01, 0x11, 0xd4, 0x81, 0xf4, 0x18, 0x4b, 0xfb,
    0xda, 0x29, 0x40, 0xec, 0x12, 0x1e, 0xe1, 0x11, 0xf8, 0x13, 0xbb, 0xb8, 0x0d,
    0xe9, 0x07, 0xf7, 0xf5, 0x09, 0x00, 0xfd, 0x12, 0xed, 0xc4, 0xe5, 0x7f, 0x1d,
    0x1b, 0xfa, 0x0f, 0x0d, 0xed, 0x04, 0xda, 0x1f, 0xea, 0xf8, 0xfd, 0xef, 0xf5,
    0x01, 0xff, 0x06, 0xfb, 0xe8, 0xf4, 0x08, 0xf9, 0xec, 0xfb, 0xf4, 0x07, 0xf7,
    0x10, 0x03, 0xfd, 0x0d, 0x07, 0x25, 0xed, 0x81, 0xfd, 0x12, 0x0f, 0xee, 0xd2,
    0xaa, 0xee, 0x00, 0x1d, 0x5a, 0x27, 0xf2, 0xf9, 0xf9, 0x2c, 0xf4, 0xe3, 0x05,
    0x31, 0x63, 0xda, 0x10, 0x81, 0xf0, 0x15, 0xe3, 0xd4, 0x00, 0xce, 0xe0, 0x03,
    0x98, 0xf6, 0xcc, 0x08, 0xfa, 0x94, 0x2b, 0x5f, 0x2f, 0x28, 0xe6, 0x33, 0x12,
    0xf5, 0x19, 0x1b, 0xe1, 0x06, 0x05, 0xca, 0x1c, 0xf8, 0x0d, 0x0f, 0xd7, 0xf5,
    0x10, 0x76, 0x0d, 0x52, 0x10, 0x05, 0x43, 0x14, 0x2f, 0x55, 0x19, 0xdf, 0x24,
    0xff, 0xf8, 0x0d, 0x30, 0xfd, 0x08, 0x11, 0x05, 0xc6, 0x1e, 0x13, 0xe2, 0x11,
    0xfb, 0xbb, 0x17, 0x20, 0x12, 0x14, 0x09, 0x93, 0x00, 0x1a, 0x2c, 0xec, 0x2b,
    0xfa, 0xe2, 0xf1, 0x01, 0x81, 0xc4, 0x31, 0x18, 0x12, 0x01, 0x13, 0xf0, 0xfd,
    0xf1, 0xe0, 0x1e, 0x12, 0x1a, 0x1b, 0x3a, 0xfe, 0xf8, 0x2a, 0xfe, 0x1c, 0xf4,
    0x38, 0xff, 0x16, 0x63, 0x4e, 0xde, 0x0d, 0x03, 0xfa, 0x43, 0xca, 0x2b, 0x11,
    0x24, 0x53, 0x9b, 0x51, 0xe3, 0xc8, 0xc6, 0xd6, 0x09, 0xd7, 0x3d, 0xe8, 0x37,
    0xb4, 0xc0, 0xa2, 0x2a, 0xb4, 0x4d, 0x10, 0xb2, 0xb7, 0x91, 0x2d, 0x99, 0x2c,
    0xfd, 0xed, 0xf5, 0xff, 0x05, 0xee, 0xf1, 0xea, 0x07, 0xff, 0xff, 0xee, 0xf9,
    0x0b, 0xf4, 0xf4, 0xee, 0x3b, 0x05, 0x81, 0xf2, 0x0c, 0xf4, 0xe9, 0xea, 0x0c,
    0xf6, 0xe4, 0x02, 0xe9, 0x13, 0x07, 0xd0, 0xe1, 0xed, 0x44, 0x39, 0x79, 0xfd,
    0x10, 0xe7, 0x13, 0xf1, 0x10, 0x06, 0xca, 0xcf, 0x07, 0x15, 0x0d, 0xe6, 0x32,
    0x04, 0x06, 0xf2, 0x12, 0x0c, 0xe1, 0xf5, 0x0c, 0x22, 0xf6, 0x00, 0xe1, 0xf3,
    0xec, 0x0c, 0x1f, 0x13, 0xe4, 0xfe, 0x0e, 0x12, 0xf2, 0xed, 0xfb, 0x0a, 0x10,
    0x81, 0x01, 0xfe, 0x03, 0xfd, 0x15, 0xf0, 0xc0, 0x11, 0x0b, 0x0b, 0xe9, 0xf8,
    0x24, 0x3f, 0x03, 0x21, 0x0f, 0x0d, 0xe4, 0x04, 0xd6, 0xef, 0x2f, 0x0f, 0x08,
    0x1d, 0x07, 0xf3, 0x08, 0x01, 0xf4, 0x7c, 0xf1, 0x01, 0xf0, 0xdc, 0xbd, 0xef,
    0x07, 0x13, 0xf0, 0x05, 0xf5, 0x11, 0xf9, 0x0a, 0xea, 0xe8, 0x13, 0xc5, 0x0a,
    0xff, 0xfd, 0xfa, 0xa7, 0xfd, 0x02, 0xfb, 0x04, 0x05, 0x01, 0xf7, 0x0b, 0x12,
    0x00, 0x05, 0xfd, 0x0f, 0xc4, 0x05, 0x03, 0xfb, 0x04, 0x04, 0xfc, 0x04, 0xc2,
    0xf2, 0xf0, 0xef, 0x03, 0x05, 0xfb, 0x02, 0xf8, 0xff, 0x0e, 0x00, 0xfd, 0xcc,
    0xfb, 0xfa, 0x06, 0xfc, 0x05, 0x00, 0xfe, 0xf9, 0xea, 0xf9, 0x04, 0x01, 0x02,
    0x02, 0x06, 0x04, 0xe3, 0x03, 0xf4, 0xf4, 0xe9, 0x05, 0xfb, 0xfe, 0xef, 0x16,
    0x05, 0xab, 0xfa, 0x19, 0x24, 0x08, 0x24, 0xe3, 0xfb, 0x15, 0x01, 0xfc, 0x05,
    0xdf, 0xdf, 0xed, 0xf3, 0x0f, 0x0b, 0x1d, 0x15, 0x17, 0xf8, 0x19, 0x81, 0x06,
    0xfa, 0xee, 0xe2, 0x0b, 0xf4, 0x00, 0xfe, 0x54, 0xf1, 0x03, 0x11, 0x22, 0xfd,
    0xf2, 0xf1, 0x0a, 0x1b, 0xe6, 0xf6, 0xf2, 0x2a, 0x1f, 0xaa, 0xe9, 0xf5, 0x10,
    0x09, 0xfa, 0x25, 0x11, 0xf8, 0xe9, 0x03, 0xee, 0xf0, 0xdc, 0x1a, 0xf4, 0x05,
    0x2d, 0x14, 0x03, 0xfa, 0xfc, 0xf9, 0x0f, 0x0b, 0x06, 0xda, 0xee, 0xf8, 0xf4,
    0xda, 0xff, 0x19, 0xfb, 0xdc, 0xf7, 0xf7, 0xfd, 0x0b, 0xfb, 0x10, 0xdf, 0xf0,
    0xb2, 0x02, 0xfe, 0x17, 0xfc, 0xa3, 0x38, 0xd9, 0x15, 0x07, 0x15, 0xe4, 0xea,
    0xe7, 0x03, 0xf8, 0x19, 0x13, 0xe3, 0x03, 0xe9, 0x16, 0xf3, 0x07, 0x14, 0x0a,
    0xfc, 0x36, 0x19, 0x57, 0x25, 0x06, 0xc5, 0x10, 0x27, 0x18, 0x02, 0x28, 0xe3,
    0xe9, 0x12, 0x0f, 0xc5, 0xf0, 0xfd, 0xff, 0xf7, 0x0f, 0x23, 0xf1, 0xfe, 0x2c,
    0x23, 0xff, 0xf0, 0xf8, 0x0f, 0x10, 0x01, 0xcf, 0x0f, 0x22, 0xa1, 0xfe, 0xdc,
    0x03, 0x32, 0xe8, 0xea, 0x31, 0x7b, 0x3a, 0xe7, 0x09, 0x1f, 0x04, 0x12, 0xf8,
    0x00, 0x07, 0x20, 0xff, 0xeb, 0x1f, 0x84, 0x2b, 0x1c, 0x3f, 0xfa, 0x00, 0xe8,
    0xf6, 0xfe, 0x53, 0xb4, 0xe7, 0x03, 0x00, 0xec, 0x21, 0xfc, 0xfd, 0x38, 0x32,
    0x09, 0x14, 0x1b, 0x0f, 0xe2, 0xf7, 0x1a, 0x14, 0x2e, 0x15, 0xfa, 0x12, 0x36,
    0x35, 0x0c, 0xa5, 0x06, 0x07, 0xfb, 0x10, 0x0f, 0xbf, 0x04, 0x35, 0x38, 0xf7,
    0xcf, 0xe3, 0xec, 0x0c, 0xda, 0xea, 0x10, 0xee, 0xed, 0x15, 0xfc, 0xf3, 0xf8,
    0xff, 0x97, 0xeb, 0x0e, 0x10, 0x0d, 0xf9, 0x08, 0x1e, 0xe9, 0xf5, 0x08, 0xe4,
    0x06, 0xd0, 0xcd, 0xc5, 0xfb, 0xf0, 0xea, 0x08, 0xf8, 0xb7, 0x08, 0x7f, 0x0f,
    0x07, 0xf2, 0xfb, 0x16, 0xf7, 0xee, 0x02, 0xda, 0x07, 0xf4, 0xc8, 0xe9, 0x0b,
    0x09, 0x06, 0x04, 0xe4, 0xfb, 0x0b, 0xef, 0x38, 0x2b, 0xde, 0xd6, 0xe7, 0xcf,
    0x21, 0xfd, 0xd1, 0xee, 0xeb, 0xed, 0xe2, 0x04, 0x13, 0xdf, 0x09, 0xe7, 0xa6,
    0x54, 0xfb, 0x16, 0x3b, 0x0b, 0x7a, 0x14, 0xe2, 0xf9, 0x1d, 0x03, 0x0a, 0x0e,
    0x44, 0x81, 0xee, 0x8b, 0x01, 0xf9, 0xe9, 0xfd, 0x04, 0xe2, 0xfe, 0xfa, 0xf7,
    0x99, 0xec, 0xfb, 0xf0, 0x10, 0xcb, 0x13, 0x10, 0xf1, 0x13, 0x14, 0xfe, 0xf7,
    0xdc, 0x0f, 0xf4, 0xf7, 0x00, 0xf5, 0xed, 0xe7, 0x26, 0xf8, 0xf6, 0xe7, 0xeb,
    0xea, 0xc9, 0x81, 0x49, 0x23, 0x04, 0xd3, 0x0b, 0x1a, 0xea, 0x0d, 0xe5, 0x2e,
    0xff, 0x15, 0x3d, 0xd5, 0xd6, 0x01, 0x38, 0xf8, 0x02, 0x23, 0xd3, 0x1d, 0x7a,
    0xf4, 0x1b, 0x0d, 0x22, 0x81, 0x3b, 0x1b, 0xe1, 0xc8, 0x39, 0xf4, 0xfd, 0x0a,
    0xee, 0x20, 0xf4, 0xe1, 0xae, 0x61, 0xe8, 0x0a, 0x22, 0xf3, 0x81, 0xf0, 0xed,
    0x1e, 0x02, 0xfb, 0xda, 0x00, 0x3f, 0xd0, 0xe2, 0x0d, 0xf8, 0x74, 0xab, 0xf5,
    0xf7, 0xc5, 0x09, 0x01, 0xf4, 0xcc, 0x03, 0xfb, 0x08, 0x01, 0xff, 0x09, 0xfd,
    0xfe, 0xea, 0x25, 0xf9, 0xfc, 0x0d, 0xff, 0x0a, 0xff, 0xed, 0x07, 0xf2, 0xff,
    0x1d, 0xfa, 0x0b, 0x20, 0xe5, 0xfb, 0x9c, 0x0e, 0x08, 0xf6, 0xea, 0xbf, 0xf2,
    0x18, 0x0d, 0xf0, 0x10, 0x34, 0xf5, 0xe6, 0xcd, 0x16, 0x2f, 0x16, 0xfd, 0xf3,
    0x08, 0xe7, 0xd8, 0x05, 0x4b, 0xf8, 0x22, 0x83, 0xfb, 0x45, 0xde, 0x0b, 0xd8,
    0x39, 0xfa, 0x09, 0x0d, 0xcb, 0x0c, 0x15, 0x21, 0xf5, 0xeb, 0x12, 0xf4, 0x05,
    0x00, 0xef, 0x30, 0xec, 0xe1, 0xeb, 0xf9, 0xfc, 0xef, 0xe4, 0xd8, 0x0c, 0x19,
    0xf0, 0x0d, 0x81, 0x3c, 0xf3, 0xb6, 0xe9, 0x3a, 0xf0, 0x09, 0xe8, 0xea, 0xfb,
    0xf1, 0x07, 0x2e, 0xc8, 0xef, 0xf1, 0xf1, 0x81, 0x9a, 0x16, 0x02, 0xf4, 0x15,
    0x0e, 0x37, 0xf6, 0xbf, 0x2a, 0xf8, 0xbe, 0x02, 0xe9, 0xf9, 0xd8, 0x30, 0x51,
    0xbf, 0x04, 0xd8, 0x0a, 0xd3, 0x1f, 0x26, 0xe0, 0x11, 0xb3, 0xe3, 0x07, 0x81,
    0xca, 0xef, 0x20, 0x12, 0xff, 0xfc, 0x08, 0xa5, 0x1b, 0xe0, 0xd6, 0xd1, 0xeb,
    0x2a, 0x9c, 0xe2, 0x06, 0xf2, 0x18, 0x81, 0xfd, 0x01, 0x0e, 0x0a, 0xfa, 0xfa,
    0xf8, 0xf1, 0xfa, 0x00, 0x09, 0x13, 0x1c, 0x08, 0xfb, 0xfe, 0xfb, 0x00, 0x06,
    0xee, 0x00, 0x12, 0xf0, 0x05, 0x02, 0x07, 0x05, 0xdd, 0x0f, 0x0f, 0xe1, 0x81,
    0x16, 0x13, 0x85, 0x13, 0xfb, 0x02, 0xf2, 0xe8, 0xc0, 0x10, 0xeb, 0xd7, 0xa3,
    0xd9, 0xf8, 0x28, 0xfe, 0xf9, 0x07, 0xc3, 0x04, 0xe3, 0xb9, 0xec, 0xce, 0x08,
    0x0d, 0x14, 0xf5, 0x0e, 0x37, 0x08, 0xf1, 0x02, 0xf5, 0xdb, 0xfa, 0xe9, 0xef,
    0x25, 0x1f, 0xf2, 0xe3, 0x05, 0x31, 0xe4, 0x1f, 0xba, 0x0c, 0xf2, 0x17, 0x2c,
    0x1c, 0x06, 0x0e, 0x56, 0x14, 0xdb, 0x7f, 0xee, 0xfa, 0xe9, 0x07, 0x01, 0x06,
    0x04, 0x17, 0xfe, 0x0b, 0xfa, 0x06, 0x03, 0xff, 0x06, 0x07, 0x09, 0x10, 0xf4,
    0x01, 0xfd, 0xf8, 0x09, 0xfc, 0xfb, 0xfa, 0x46, 0x0a, 0xec, 0xe4, 0xf9, 0xc9,
    0xe4, 0xf6, 0x0d, 0xbc, 0xc5, 0x16, 0x0e, 0xaf, 0xf4, 0xf8, 0x07, 0xf4, 0xed,
    0xd9, 0xe8, 0x0d, 0xb9, 0xbd, 0xb9, 0x07, 0x2a, 0x12, 0x0a, 0x15, 0x81, 0x0f,
    0x1c, 0xb2, 0xa5, 0x1f, 0xe6, 0x32, 0xfc, 0xf4, 0x04, 0x23, 0xd2, 0xe6, 0x17,
    0x25, 0xef, 0xf6, 0x0b, 0xf0, 0x0a, 0x81, 0xe8, 0xec, 0x34, 0x05, 0xe8, 0x0b,
    0x36, 0x08, 0x09, 0x14, 0xc1, 0x07, 0x99, 0xd0, 0xc4, 0x17, 0xf9, 0xc8, 0xc5,
    0xfb, 0x36, 0x0e, 0xce, 0x0b, 0xee, 0xea, 0x0f, 0xe6, 0xe8, 0x01, 0x18, 0x75,
    0xe6, 0xf6, 0x0e, 0x32, 0x31, 0x11, 0x0a, 0xe8, 0xe4, 0x0e, 0xfe, 0xfb, 0x0b,
    0x1f, 0x1e, 0x06, 0xf2, 0x30, 0x31, 0xf9, 0x01, 0xb1, 0x1d, 0x0e, 0xfe, 0x14,
    0x0e, 0xfe, 0xe7, 0xed, 0xa5, 0xdf, 0x11, 0x09, 0x0a, 0x31, 0xfe, 0xea, 0xde,
    0x17, 0xf0, 0x19, 0xe1, 0x09, 0xf8, 0xaa, 0x3b, 0x19, 0x0d, 0xb5, 0xe0, 0x0a,
    0x14, 0x08, 0x4a, 0x0c, 0x09, 0x81, 0xf7, 0xfc, 0x0f, 0xf2, 0xe7, 0x2e, 0xfb,
    0xfc, 0x08, 0xfd, 0x06, 0x07, 0xd1, 0xf0, 0xff, 0x09, 0xf3, 0x02, 0x31, 0xde,
    0x24, 0x03, 0xfe, 0xd6, 0x70, 0x23, 0xcc, 0x3e, 0xc6, 0x17, 0x12, 0xf1, 0x05,
    0x1b, 0xe4, 0x01, 0x29, 0xdf, 0xe6, 0x04, 0xc8, 0x99, 0x4f, 0x06, 0xdb, 0xec,
    0x1e, 0x1c, 0xf2, 0xf7, 0xf4, 0x12, 0x44, 0x1c, 0xe6, 0x44, 0x0d, 0x01, 0x1d,
    0x0b, 0xff, 0xec, 0x0a, 0x05, 0x18, 0xfe, 0x00, 0xf1, 0xb3, 0xf0, 0xf0, 0x06,
    0xf9, 0xe8, 0xda, 0x0a, 0xdb, 0x01, 0xfd, 0xea, 0x16, 0x19, 0xec, 0xf9, 0xfa,
    0xea, 0x07, 0xf8, 0x81, 0x08, 0xe3, 0xfa, 0x0a, 0x0c, 0x05, 0xff, 0xfe, 0x04,
    0x0c, 0x01, 0x25, 0xf9, 0x03, 0xfa, 0x0f, 0xe1, 0xf0, 0x0a, 0x17, 0x08, 0xfe,
    0xf5, 0x08, 0xf4, 0x09, 0xd1, 0xe2, 0xfb, 0xff, 0xf7, 0x0a, 0xf0, 0xb0, 0xd1,
    0x43, 0xee, 0x18, 0x0c, 0xfd, 0x01, 0xff, 0x11, 0xc4, 0x1c, 0x19, 0xec, 0x9d,
    0x30, 0x09, 0xf5, 0xf6, 0xe8, 0x0e, 0xf8, 0xca, 0x10, 0x1b, 0xbf, 0x1b, 0x81,
    0x13, 0x47, 0xe8, 0x18, 0xdb, 0x38, 0x03, 0xdf, 0xe8, 0x18, 0xf7, 0xf3, 0xeb,
    0xff, 0xc5, 0x0b, 0xfc, 0x19, 0x00, 0x0b, 0x06, 0xfd, 0xfe, 0xe6, 0xf3, 0x0a,
    0xfe, 0xf4, 0x32, 0x10, 0x2b, 0xfb, 0x17, 0x2d, 0xc8, 0xf3, 0xe0, 0xe5, 0xac,
    0xeb, 0x04, 0xdc, 0xe5, 0xf6, 0x0a, 0x12, 0xf8, 0x26, 0x05, 0xf4, 0x0b, 0xcb,
    0x3e, 0x01, 0xf4, 0x05, 0x0b, 0xf2, 0x29, 0xef, 0xdf, 0x03, 0xfa, 0xd9, 0x11,
    0x05, 0x26, 0xea, 0xd1, 0xd8, 0x35, 0x08, 0x06, 0x1f, 0x20, 0xeb, 0x2d, 0x2c,
    0xf0, 0x63, 0xd1, 0x38, 0x55, 0x48, 0x1a, 0xed, 0xe0, 0xe2, 0xe2, 0xd1, 0x33,
    0x1d, 0x0a, 0x1f, 0x53, 0xf4, 0xd2, 0x33, 0xf1, 0x06, 0x0c, 0x09, 0xf5, 0xff,
    0xfa, 0x0a, 0x09, 0xfd, 0x07, 0x06, 0xff, 0x0f, 0xff, 0xfc, 0xef, 0xfe, 0xfc,
    0xfb, 0x06, 0x02, 0xf7, 0x09, 0x08, 0xf5, 0xfa, 0xff, 0x11, 0x05, 0xff, 0x15,
    0x0a, 0xf3, 0xd6, 0x4b, 0x4a, 0x14, 0xf0, 0x0c, 0xf7, 0xfc, 0x05, 0x08, 0xca,
    0x20, 0xf1, 0xf0, 0x15, 0x3d, 0xfc, 0xfc, 0x24, 0xf9, 0xf0, 0x0d, 0x36, 0xf3,
    0x2c, 0x25, 0x17, 0xcf, 0x02, 0xfc, 0x13, 0xfa, 0x28, 0x81, 0x13, 0xe7, 0xf8,
    0xa4, 0xd8, 0x1d, 0x11, 0x13, 0x03, 0x14, 0x0e, 0xf9, 0x89, 0x02, 0xee, 0xf3,
    0xbd, 0x0b, 0xf5, 0x01, 0xbf, 0x11, 0xfb, 0xbb, 0x08, 0x2e, 0xee, 0xf5, 0x23,
    0xfd, 0xdb, 0x10, 0x16, 0x03, 0x00, 0xf7, 0xf3, 0x05, 0xfb, 0xfd, 0x06, 0xe7,
    0xf7, 0xf6, 0xfd, 0x08, 0xfc, 0x09, 0xf3, 0xfb, 0x06, 0x0c, 0xfe, 0xfc, 0x08,
    0x03, 0xe9, 0x09, 0xff, 0x81, 0xfc, 0x15, 0xea, 0x45, 0x23, 0xec, 0x0f, 0x1b,
    0xf3, 0xf7, 0x19, 0xed, 0x13, 0x44, 0xf8, 0xec, 0x14, 0x34, 0xf2, 0x0c, 0x31,
    0x05, 0xf2, 0xf6, 0xed, 0x11, 0x13, 0x56, 0x07, 0x8b, 0x0d, 0xe4, 0xce, 0x08,
    0xef, 0x46, 0xba, 0x10, 0x00, 0xed, 0xe0, 0xe9, 0xe6, 0x1a, 0xc8, 0x0d, 0xf9,
    0xff, 0xf5, 0x1d, 0xdf, 0xfa, 0xfc, 0xfe, 0x01, 0x03, 0x1d, 0x16, 0x07, 0xce,
    0xc3, 0xbd, 0x0f, 0x1f, 0xac, 0x00, 0xee, 0xb3, 0xdc, 0x03, 0x04, 0x0b, 0x00,
    0xfb, 0xff, 0x07, 0xf9, 0xf5, 0xff, 0x08, 0x25, 0xe8, 0x28, 0xfe, 0x08, 0x07,
    0x0b, 0x0c, 0xf9, 0x02, 0x0f, 0xee, 0x07, 0x15, 0xf6, 0xe6, 0xce, 0x0d, 0xa0,
    0x18, 0x38, 0x06, 0x1a, 0x32, 0xdc, 0xfe, 0x1d, 0x0d, 0x39, 0x69, 0x05, 0xec,
    0x01, 0x4b, 0x3f, 0xe6, 0xb4, 0xf1, 0xe4, 0x18, 0x2e, 0xf6, 0x53, 0x5a, 0x5d,
    0x12, 0xfc, 0x04, 0xe3, 0xea, 0xfd, 0xe0, 0x25, 0x14, 0xec, 0xfd, 0xf9, 0x02,
    0x0a, 0xf1, 0xab, 0x04, 0xf8, 0x0d, 0xfe, 0xf2, 0x3f, 0xff, 0xde, 0x11, 0xea,
    0x12, 0x23, 0xf6, 0x2b, 0x07, 0xf5, 0xcd, 0xea, 0xe5, 0x1d, 0x0a, 0x14, 0x11,
    0xf1, 0x0a, 0x0a, 0xcb, 0x0a, 0x06, 0xf8, 0x11, 0xfd, 0x1a, 0x01, 0xf9, 0x81,
    0xad, 0xf6, 0xf5, 0xdb, 0x10, 0xf8, 0xf8, 0xef, 0x03, 0xbd, 0xc7, 0xe0, 0x2b,
    0x04, 0xc3, 0x2d, 0xf1, 0x39, 0xfb, 0xae, 0xee, 0x1a, 0xe8, 0xf2, 0x00, 0x06,
    0x0d, 0xe4, 0x14, 0xe9, 0x1e, 0x33, 0x51, 0x05, 0xfd, 0xd2, 0xf2, 0xf3, 0xeb,
    0x9f, 0x13, 0x73, 0xb7, 0xf1, 0xd8, 0x10, 0xf0, 0x02, 0xc3, 0x0a, 0x3b, 0x02,
    0xf8, 0xee, 0x22, 0x15, 0x02, 0x29, 0x06, 0xf6, 0x15, 0x29, 0xdc, 0xdd, 0x0a,
    0x03, 0xf9, 0xf7, 0x30, 0x0d, 0x0d, 0xf2, 0xf6, 0x2e, 0xfa, 0x1a, 0xff, 0x1d,
    0x00, 0x16, 0xf3, 0x24, 0x90, 0xf7, 0x17, 0xfc, 0x81, 0xf0, 0xf8, 0x08, 0xfe,
    0xb7, 0xef, 0xe4, 0xfc, 0xeb, 0xfe, 0xcc, 0xff, 0x41, 0xf0, 0xe3, 0xee, 0xf4,
    0x0a, 0xd7, 0xd0, 0xc4, 0x29, 0xed, 0x35, 0xda, 0xe8, 0xf8, 0xda, 0x1a, 0x11,
    0xfb, 0xf5, 0x08, 0x08, 0x0a, 0x11, 0xf0, 0x3b, 0x1b, 0x22, 0x26, 0x14, 0xeb,
    0x0a, 0xde, 0x12, 0x00, 0x0b, 0xec, 0x0a, 0x17, 0xd0, 0x3f, 0x0b, 0x1d, 0x2c,
    0xb0, 0xd1, 0xda, 0x7f, 0x99, 0x0a, 0xd2, 0x4f, 0x3a, 0xfd, 0xed, 0xf3, 0x5c,
    0x9f, 0x19, 0x30, 0x65, 0xdb, 0xf1, 0xec, 0xf4, 0x39, 0xc9, 0xc4, 0xda, 0x19,
    0x04, 0x1e, 0xeb, 0x37, 0xe1, 0x8a, 0xdd, 0xfb, 0xe1, 0x81, 0xba, 0xfa, 0xf4,
    0x67, 0x23, 0x13, 0xf6, 0xf5, 0x38, 0xc4, 0xee, 0x06, 0xe0, 0xa1, 0x03, 0xff,
    0xc1, 0xed, 0xff, 0xe6, 0xcc, 0x13, 0xf7, 0x11, 0xbd, 0xe4, 0xf2, 0xce, 0x10,
    0x12, 0x0d, 0xe2, 0x03, 0x10, 0xf8, 0xe7, 0xf8, 0x00, 0x07, 0xfb, 0x02, 0x24,
    0xfc, 0xf9, 0x1b, 0x04, 0x11, 0x05, 0x08, 0xf3, 0x05, 0x07, 0x22, 0xe8, 0x19,
    0xf1, 0x01, 0xe2, 0xf2, 0xd4, 0xfe, 0x0b, 0x23, 0xee, 0x11, 0xf6, 0xea, 0x05,
    0xf2, 0x13, 0xeb, 0xee, 0x0f, 0x2c, 0x0c, 0x0c, 0xdf, 0xf1, 0x08, 0x0c, 0x16,
    0x01, 0x01, 0xfb, 0xf2, 0x03, 0x24, 0xfe, 0x01, 0x05, 0x13, 0xe5, 0xf9, 0x06,
    0x19, 0xd6, 0xe0, 0x09, 0x0b, 0x08, 0xfc, 0x04, 0xf0, 0x00, 0x0e, 0xcf, 0xf1,
    0xf6, 0x99, 0xda, 0x0c, 0xf5, 0x02, 0x11, 0x10, 0x0e, 0xa5, 0x11, 0xd0, 0xdd,
    0x81, 0xef, 0xfd, 0x0e, 0x2e, 0x01, 0xca, 0x1a, 0x84, 0x1c, 0x0a, 0xd0, 0xfe,
    0x14, 0xef, 0xe0, 0xff, 0xf6, 0xf9, 0xdf, 0x16, 0x1c, 0x81, 0x0a, 0xd8, 0xec,
    0xe5, 0x0c, 0xf5, 0xe2, 0xa2, 0xc9, 0x08, 0xe3, 0xea, 0xcb, 0xee, 0x0c, 0x23,
    0x81, 0xce, 0x14, 0xff, 0x02, 0x13, 0x02, 0x08, 0xf0, 0xd2, 0xdb, 0xf9, 0x00,
    0x19, 0xdf, 0xce, 0xe7, 0x03, 0x0a, 0x01, 0x01, 0x0c, 0xf6, 0xc3, 0xce, 0x14,
    0xe9, 0x06, 0xf6, 0x28, 0xed, 0xf7, 0xff, 0x1b, 0x10, 0xe7, 0xd7, 0x18, 0xfb,
    0xed, 0x0c, 0x32, 0x00, 0x06, 0xf6, 0xb9, 0xf0, 0x11, 0x02, 0xc6, 0xf0, 0xfb,
    0x07, 0xdb, 0x0b, 0xe6, 0xf7, 0xfa, 0x7f, 0xf5, 0x94, 0xa9, 0xf5, 0xed, 0x81,
    0xea, 0x00, 0x06, 0x01, 0xf2, 0x07, 0xf9, 0x08, 0xe6, 0xfb, 0x0d, 0x02, 0x31,
    0xde, 0x16, 0x01, 0x06, 0xf5, 0xff, 0xfb, 0x06, 0x02, 0x0d, 0xf7, 0xf0, 0xfc,
    0xfb, 0xed, 0x29, 0xff, 0x5c, 0x12, 0xaf, 0xfe, 0x1d, 0xe3, 0xdc, 0xe9, 0x0a,
    0xe8, 0xeb, 0xc0, 0x10, 0xf0, 0xf4, 0xbd, 0xaf, 0x05, 0xf6, 0xfa, 0x17, 0xe5,
    0xbd, 0x0b, 0x81, 0x88, 0x90, 0x21, 0x0e, 0xfc, 0x0f, 0x0b, 0x00, 0x88, 0xbb,
    0x10, 0x03, 0xec, 0x0d, 0x0c, 0x16, 0xf2, 0x81, 0x3e, 0x11, 0x0d, 0x32, 0x4b,
    0xbd, 0xf8, 0x1a, 0xee, 0xfb, 0xee, 0xfd, 0xfd, 0x1d, 0x07, 0xfe, 0xdf, 0x04,
    0x1b, 0xff, 0x0a, 0xed, 0xf7, 0xff, 0xfd, 0xfe, 0x16, 0xf9, 0xff, 0x00, 0x04,
    0x14, 0x16, 0xfe, 0x08, 0xd1, 0xce, 0xea, 0x05, 0x02, 0x05, 0x0b, 0x03, 0xd6,
    0x0f, 0x45, 0x0c, 0xd6, 0xf5, 0x02, 0xe7, 0x04, 0x09, 0xc1, 0xe2, 0xc9, 0xe4,
    0xe6, 0x57, 0x18, 0xff, 0xf8, 0xe9, 0x11, 0xc5, 0x0c, 0xec, 0xfb, 0x73, 0xea,
    0x17, 0xcf, 0x00, 0x1c, 0xe8, 0xd1, 0xf2, 0x0a, 0xb1, 0x81, 0xfc, 0x0c, 0x1d,
    0xe0, 0xfe, 0xed, 0x42, 0x00, 0x2a, 0xfd, 0xd5, 0x47, 0x24, 0xe9, 0xdf, 0xd4,
    0xe6, 0xde, 0x1b, 0x02, 0xf8, 0x81, 0x2d, 0xd4, 0x34, 0xdd, 0xe6, 0x00, 0xd8,
    0x96, 0x02, 0xeb, 0xe2, 0x21, 0xbe, 0xf8, 0xe5, 0x28, 0xd8, 0xfa, 0x13, 0x0e,
    0x01, 0x04, 0xe4, 0xf0, 0xf0, 0xba, 0x18, 0xe8, 0x00, 0xcc, 0xf3, 0xe6, 0x18,
    0xfc, 0xee, 0xe9, 0xea, 0xef, 0xee, 0x46, 0xfe, 0x9d, 0xb6, 0xff, 0x26, 0xc8,
    0x1a, 0xb0, 0xeb, 0x33, 0xe6, 0xe7, 0x20, 0x0a, 0x17, 0x18, 0xf2, 0xf3, 0x12,
    0x10, 0xe7, 0xb3, 0x02, 0xe6, 0xf0, 0xc9, 0x17, 0xff, 0xf6, 0xe3, 0xff, 0xf1,
    0x08, 0xd3, 0x4d, 0xf0, 0x7f, 0x87, 0x20, 0xd4, 0x49, 0xb3, 0xae, 0x19, 0xf6,
    0x43, 0xd2, 0x3d, 0xdb, 0x3d, 0xd7, 0xc9, 0x25, 0x21, 0x9d, 0x2d, 0x13, 0x48,
    0xff, 0xe8, 0xd0, 0xf3, 0xc0, 0x4d, 0xe7, 0xca, 0x1c, 0xe0, 0xde, 0x07, 0x12,
    0x31, 0xb0, 0x1c, 0x22, 0xe4, 0x8d, 0xe8, 0x09, 0xe2, 0xe3, 0xac, 0xd1, 0xef,
    0x05, 0x21, 0xa5, 0x0e, 0xf1, 0xfb, 0xf0, 0x0e, 0xf1, 0x40, 0x0c, 0x19, 0x0e,
    0x10, 0xd2, 0x14, 0x3d, 0x38, 0xff, 0xdd, 0x07, 0xea, 0x0a, 0xf1, 0xd8, 0xf9,
    0xf4, 0x1b, 0x02, 0x04, 0xcc, 0x0b, 0x06, 0x04, 0x0e, 0x16, 0x08, 0xda, 0xe9,
    0x19, 0x02, 0x08, 0xec, 0xfb, 0x07, 0x3f, 0x3b, 0x11, 0x7f, 0x1a, 0x00, 0xe4,
    0x8b, 0xf6, 0xfb, 0xfc, 0x05, 0x02, 0xfd, 0x0a, 0xf9, 0xe0, 0xc6, 0xeb, 0xed,
    0xf3, 0x20, 0xd0, 0x0d, 0x14, 0x07, 0xf2, 0xf6, 0x14, 0xf0, 0xd0, 0x36, 0xd8,
    0xf8, 0xe8, 0x81, 0x08, 0x0f, 0xe2, 0xeb, 0xf3, 0x02, 0x01, 0x24, 0x0c, 0xf9,
    0x08, 0xf1, 0x19, 0xd5, 0xf0, 0xfb, 0xba, 0xe4, 0xe9, 0xf4, 0x2d, 0xfe, 0xfa,
    0xfa, 0xd5, 0xf9, 0xdb, 0xe0, 0xee, 0x1a, 0x02, 0xfa, 0xee, 0x06, 0x2a, 0x39,
    0x7f, 0xed, 0xf6, 0x32, 0x22, 0x12, 0xec, 0xe3, 0x11, 0x2b, 0x17, 0xe0, 0xe7,
    0xfa, 0x12, 0xf0, 0xbe, 0x09, 0xec, 0xf1, 0x03, 0x06, 0xe7, 0x2c, 0xf5, 0x68,
    0x14, 0x31, 0x43, 0x14, 0xb2, 0xf9, 0x19, 0xe7, 0xf2, 0xe0, 0x07, 0x0c, 0xf0,
    0xf1, 0x06, 0xbb, 0xfd, 0x01, 0x13, 0x47, 0xf2, 0xf8, 0xeb, 0xec, 0x00, 0x11,
    0xf8, 0xf0, 0xe9, 0x79, 0x0d, 0xfc, 0x03, 0x25, 0xda, 0x1d, 0xdb, 0x34, 0xc3,
    0xfe, 0xeb, 0xcf, 0xf2, 0xf5, 0xfc, 0x23, 0x19, 0xe0, 0xf2, 0x09, 0x20, 0xdc,
    0x83, 0xe6, 0x25, 0xea, 0x0d, 0xf5, 0xdc, 0xe8, 0x81, 0xc8, 0xcc, 0xea, 0xe0,
    0xc9, 0xee, 0xf9, 0xe1, 0x2e, 0xdc, 0x04, 0xef, 0xda, 0xf4, 0x0b, 0x0b, 0xf0,
    0x1b, 0xfe, 0xf7, 0xf5, 0xd4, 0x01, 0xcc, 0xf5, 0x3f, 0xf9, 0xfd, 0x14, 0xef,
    0xf9, 0x03, 0x0e, 0xe9, 0xed, 0x05, 0x04, 0xf9, 0xfb, 0xe3, 0x46, 0x31, 0xf7,
    0xe5, 0xfc, 0x09, 0x05, 0xf0, 0xff, 0x31, 0x0c, 0xf8, 0xf8, 0x0a, 0x81, 0x30,
    0xe8, 0xcb, 0xfc, 0x17, 0x1d, 0xf5, 0x0c, 0x2f, 0xf1, 0xe5, 0xdd, 0xf6, 0x18,
    0x16, 0x0b, 0xfe, 0x3d, 0xa1, 0x01, 0xec, 0xe7, 0xf7, 0xf9, 0x06, 0x0a, 0xf5,
    0xfe, 0x09, 0x16, 0xe8, 0xf2, 0xb2, 0xf2, 0x1a, 0xff, 0xff, 0xfe, 0xff, 0xfc,
    0xf1, 0x0f, 0x21, 0x14, 0xfb, 0xc4, 0x88, 0xfe, 0xf2, 0xd7, 0x48, 0x03, 0xea,
    0x0a, 0x0e, 0x03, 0x14, 0xef, 0xf5, 0xc8, 0xf0, 0x01, 0xf4, 0x19, 0xd2, 0xf3,
    0xe1, 0xf4, 0x14, 0x00, 0x16, 0xf0, 0x21, 0x24, 0xc9, 0x16, 0x13, 0x39, 0x2b,
    0x13, 0x58, 0x2e, 0xe4, 0x1b, 0xfc, 0xd1, 0xe0, 0xda, 0x1b, 0x1d, 0xcf, 0x29,
    0x10, 0xfc, 0xd4, 0xc0, 0x40, 0xf5, 0x49, 0xfd, 0xef, 0x1f, 0x7f, 0x19, 0x16,
    0xc7, 0x2d, 0xac, 0xfc, 0x1d, 0x16, 0x18, 0xb6, 0x35, 0x1f, 0xed, 0xe8, 0x3b,
    0x27, 0xe0, 0xe0, 0xee, 0x15, 0x41, 0xf5, 0x1a, 0xde, 0xe1, 0xaa, 0xee, 0xfe,
    0x2b, 0xf2, 0x23, 0x7f, 0x23, 0x61, 0xfa, 0xfa, 0x02, 0x22, 0xa3, 0x01, 0x06,
    0xf2, 0xca, 0xaa, 0x0d, 0xfa, 0xde, 0x02, 0x14, 0x09, 0x0d, 0x11, 0x1e, 0x0d,
    0xfb, 0x0a, 0xfd, 0x12, 0x08, 0x81, 0xf0, 0x12, 0x05, 0xbf, 0xf6, 0x37, 0x1a,
    0x1d, 0x0f, 0xea, 0xfd, 0x22, 0xfd, 0xe0, 0x11, 0xfd, 0x10, 0xed, 0xf5, 0xfa,
    0xef, 0x12, 0xfa, 0x06, 0xfd, 0xea, 0xff, 0xf4, 0x00, 0xcf, 0xf7, 0xe5, 0xf0,
    0xf4, 0x11, 0x08, 0xf1, 0x0d, 0xef, 0x1c, 0x6b, 0x0d, 0xff, 0x15, 0xfe, 0x13,
    0x38, 0x2a, 0xf1, 0x0f, 0x22, 0xe3, 0xf9, 0x0f, 0xf9, 0x87, 0xf2, 0x06, 0x00,
    0x04, 0xb3, 0x15, 0x11, 0xd9, 0x07, 0xec, 0x12, 0xef, 0xed, 0x10, 0xfd, 0xb1,
    0xef, 0x01, 0xb5, 0x0b, 0x02, 0x11, 0x3e, 0x08, 0xed, 0xf5, 0xe4, 0xfb, 0xff,
    0xef, 0x0c, 0x1f, 0x17, 0x10, 0xeb, 0x01, 0x08, 0x0a, 0x15, 0x0a, 0x0f, 0x05,
    0xee, 0xf4, 0xf8, 0xf2, 0x0a, 0x0a, 0xfe, 0xfb, 0x0c, 0xe1, 0xfa, 0xeb, 0x81,
    0xf1, 0x5b, 0x0f, 0x30, 0xd9, 0x09, 0xf7, 0xe8, 0x05, 0x0e, 0x0c, 0x0c, 0x11,
    0x20, 0xb7, 0x43, 0xa1, 0xfc, 0x4f, 0xf1, 0x15, 0x36, 0x74, 0x03, 0x2d, 0xc1,
    0x48, 0x9b, 0x93, 0x14, 0xf8, 0xe3, 0x63, 0x17, 0xf8, 0x12, 0x03, 0x0e, 0xff,
    0x13, 0x03, 0xb3, 0x0c, 0x0f, 0xd7, 0x11, 0xc8, 0x06, 0x0f, 0xfa, 0xe8, 0x13,
    0xd9, 0x04, 0x0e, 0x20, 0x11, 0xfb, 0x08, 0xcc, 0x9c, 0xe9, 0xf9, 0x38, 0xe1,
    0xcf, 0xd1, 0x50, 0xf2, 0x10, 0x24, 0xc7, 0x38, 0x42, 0xfa, 0xd3, 0xeb, 0x59,
    0x24, 0xee, 0x10, 0xfd, 0x18, 0x34, 0xc5, 0xfd, 0xe8, 0x51, 0xd9, 0xdc, 0xf4,
    0x6c, 0x81, 0x02, 0x1b, 0x4b, 0x12, 0x0b, 0xff, 0x24, 0x08, 0x17, 0xe1, 0xe4,
    0x18, 0x46, 0xdc, 0x27, 0x8c, 0x2c, 0x1b, 0x02, 0xda, 0x07, 0xf6, 0xe4, 0x62,
    0xe6, 0x45, 0x8f, 0x57, 0x02, 0x19, 0x07, 0xd6, 0x0c, 0x3e, 0x01, 0xd0, 0x16,
    0x1c, 0x2b, 0x24, 0x01, 0x0f, 0xfe, 0x06, 0x4f, 0x19, 0x12, 0xe1, 0xac, 0x1f,
    0x0c, 0xde, 0x0b, 0x0c, 0x07, 0x00, 0xfc, 0xe7, 0x81, 0xf1, 0x1a, 0x17, 0xe9,
    0xf5, 0x05, 0xee, 0x4c, 0x5b, 0xea, 0x08, 0x07, 0xf7, 0x0d, 0xf7, 0xfb, 0xf8,
    0x0a, 0x0f, 0xeb, 0xd5, 0x21, 0x17, 0xfd, 0x28, 0x16, 0x17, 0xed, 0x3b, 0x08,
    0x3c, 0x20, 0x32, 0xed, 0x10, 0x1d, 0xdb, 0xfc, 0x18, 0xe6, 0xe7, 0x11, 0xef,
    0x42, 0xf3, 0xff, 0x0f, 0x05, 0x05, 0x01, 0x01, 0x0c, 0xe5, 0x81, 0x0e, 0x08,
    0xc6, 0xf6, 0x10, 0x03, 0xc2, 0x16, 0x1a, 0xe1, 0x03, 0xf4, 0xf5, 0x28, 0x4b,
    0xfc, 0x27, 0x39, 0xdc, 0xfb, 0xec, 0x3f, 0x0c, 0xf3, 0x0d, 0xf3, 0x24, 0xdb,
    0x13, 0xea, 0xdc, 0x9e, 0x03, 0x08, 0xac, 0xef, 0xe5, 0x17, 0x69, 0x18, 0x17,
    0x19, 0xfa, 0xc6, 0x0c, 0xe0, 0x09, 0x14, 0x0c, 0x0c, 0xbe, 0x14, 0x0d, 0xea,
    0xfe, 0xf8, 0x10, 0x00, 0xd2, 0xe0, 0x14, 0xf4, 0x05, 0xfd, 0xb4, 0x0f, 0x11,
    0xef, 0xeb, 0xf9, 0x1b, 0x13, 0x12, 0xff, 0x36, 0x24, 0x06, 0x81, 0x3a, 0xfd,
    0x08, 0x81, 0xdc, 0xfd, 0x07, 0x07, 0x06, 0x06, 0x01, 0x02, 0xe9, 0xeb, 0x13,
    0xff, 0x0a, 0xfd, 0xea, 0x0d, 0x1e, 0x13, 0xee, 0x0e, 0x1b, 0xf7, 0xfd, 0xe6,
    0x06, 0x09, 0xfb, 0xfb, 0xc1, 0xfc, 0x9a, 0xf8, 0x2f, 0x05, 0x0e, 0x2a, 0x1b,
    0xe8, 0x13, 0x05, 0x22, 0xd9, 0x04, 0x02, 0x46, 0x4b, 0xb6, 0xec, 0xf8, 0x10,
    0x0e, 0xe1, 0xa3, 0x0c, 0xe0, 0x41, 0xea, 0xf0, 0x14, 0x22, 0x0a, 0x13, 0x27,
    0xef, 0x1f, 0xf2, 0xef, 0xdc, 0x1e, 0x14, 0xf7, 0xe0, 0xe4, 0xc5, 0xf5, 0xf2,
    0xdb, 0x33, 0x54, 0xfb, 0xf1, 0xda, 0x26, 0xf0, 0xc7, 0xf1, 0xd3, 0x3a, 0xea,
    0x15, 0x20, 0x68, 0xeb, 0xff, 0xca, 0xd0, 0x52, 0xee, 0x14, 0xf3, 0x13, 0xee,
    0xfe, 0xf2, 0x05, 0x16, 0x04, 0xfc, 0x01, 0x12, 0x2e, 0xf8, 0xf5, 0x0b, 0x07,
    0x04, 0x48, 0x05, 0x3d, 0xdb, 0x03, 0xdc, 0xfa, 0x12, 0xd4, 0x0b, 0x24, 0x23,
    0x0a, 0x01, 0x07, 0x0c, 0x04, 0x14, 0x03, 0xf2, 0xfe, 0x13, 0x02, 0xf3, 0x05,
    0x1c, 0xf2, 0x0c, 0x12, 0xff, 0x0b, 0x0f, 0x00, 0x10, 0xdc, 0x26, 0xf6, 0x81,
    0x02, 0x0b, 0xf2, 0xf0, 0xef, 0x09, 0xf1, 0x19, 0x09, 0x18, 0xf8, 0x00, 0x0b,
    0xe8, 0x81, 0xd2, 0x14, 0x0c, 0x02, 0xfc, 0xb1, 0xfd, 0xfe, 0xfc, 0x08, 0xf2,
    0xff, 0x07, 0xee, 0xf2, 0xdc, 0xef, 0x09, 0x99, 0x08, 0xf0, 0xef, 0x81, 0x1a,
    0x10, 0xf7, 0x15, 0xf1, 0x00, 0x07, 0x09, 0xcc, 0x1c, 0xf8, 0x0a, 0x06, 0x19,
    0xcf, 0x02, 0x0c, 0xf5, 0xf7, 0x04, 0xd6, 0xfa, 0x12, 0xf9, 0x2f, 0x0c, 0xf8,
    0xeb, 0xb7, 0xeb, 0xe2, 0xbf, 0xb9, 0xe2, 0xd1, 0xef, 0xaf, 0xfc, 0x50, 0xd6,
    0xc6, 0xcf, 0xbe, 0x34, 0x48, 0x18, 0x35, 0xeb, 0x34, 0xcf, 0x56, 0x0a, 0x17,
    0xe5, 0xb8, 0x09, 0x9e, 0xfd, 0xef, 0xe9, 0x81, 0xe6, 0x2a, 0xd2, 0x85, 0x13,
    0x01, 0x08, 0x00, 0xdf, 0xec, 0x09, 0x0f, 0xdc, 0xfb, 0x16, 0x28, 0x43, 0xdf,
    0xfc, 0xe5, 0x0c, 0x18, 0x00, 0x2a, 0x03, 0xda, 0xef, 0x28, 0xf6, 0x04, 0x05,
    0x1a, 0xca, 0xbd, 0x66, 0x72, 0xd3, 0xcc, 0x03, 0x24, 0x2a, 0xee, 0xff, 0xad,
    0xf1, 0xf7, 0x2f, 0xe6, 0xe7, 0xf0, 0xf3, 0x13, 0xc9, 0xc9, 0xe5, 0x7f, 0x2a,
    0x17, 0xdb, 0x60, 0x29, 0x0e, 0xe6, 0x08, 0x09, 0xda, 0xf8, 0xce, 0xf0, 0xe4,
    0xd8, 0x03, 0x0a, 0x0e, 0xfd, 0xbf, 0xf4, 0x22, 0xe1, 0xd0, 0x7f, 0x1c, 0x21,
    0x07, 0x25, 0x22, 0xfd, 0x2f, 0xf0, 0xbd, 0xec, 0x04, 0xfd, 0x08, 0xee, 0xca,
    0xed, 0xff, 0xff, 0x00, 0x00, 0x00, 0x09, 0x18, 0x00, 0x00, 0x00, 0x05, 0x00,
    0x00, 0x00, 0x08, 0x00, 0x00, 0x00, 0x14, 0x00, 0x00, 0x00, 0x01, 0x00, 0x00,
    0x00, 0x33, 0x00, 0x00, 0x00, 0x01, 0x00, 0x00, 0x00, 0x00, 0x10, 0x00, 0x00,
    0x14, 0xed, 0xff, 0xff, 0x8a, 0xee, 0xff, 0xff, 0x04, 0x00, 0x00, 0x00, 0x00,
    0x01, 0x00, 0x00, 0x17, 0x11, 0xf2, 0x22, 0xbf, 0x15, 0x01, 0x2c, 0xa1, 0x19,
    0x3e, 0x0e, 0xc5, 0x45, 0x0f, 0x47, 0x50, 0x18, 0x15, 0x1e, 0x40, 0x14, 0x63,
    0x16, 0xfd, 0x05, 0x8c, 0x13, 0x5b, 0x15, 0x55, 0x0d, 0x9f, 0xfb, 0x91, 0xf6,
    0x9c, 0x03, 0xa5, 0xeb, 0xe6, 0xfe, 0x99, 0xfb, 0x32, 0xe4, 0x70, 0xda, 0x51,
    0xfe, 0xc2, 0xf8, 0x59, 0xfe, 0xd0, 0xf6, 0x20, 0xfa, 0x45, 0x00, 0x95, 0xfc,
    0x9b, 0x02, 0x11, 0x30, 0x2c, 0x13, 0x42, 0x1c, 0x0b, 0x37, 0xfa, 0x09, 0xff,
    0x19, 0xd9, 0x12, 0x4c, 0x16, 0xdd, 0x25, 0xdc, 0x12, 0xc0, 0x0f, 0x19, 0x21,
    0x4f, 0x13, 0x26, 0x12, 0xa4, 0x16, 0x11, 0x15, 0xf6, 0xf5, 0x3b, 0xfb, 0x42,
    0xf2, 0xcc, 0xfa, 0xc4, 0xfd, 0xa4, 0xed, 0x43, 0xfb, 0x99, 0xf5, 0x13, 0xf2,
    0x52, 0xfa, 0x76, 0x00, 0xfe, 0xf1, 0x26, 0xf9, 0x2f, 0xff, 0x02, 0xed, 0x82,
    0xf8, 0x8d, 0x13, 0xa9, 0x1d, 0x4a, 0x1a, 0xc4, 0x13, 0x0c, 0x13, 0x70, 0x07,
    0x7b, 0x12, 0x7d, 0x13, 0xc7, 0x09, 0xab, 0x13, 0x5b, 0x1f, 0x0d, 0x18, 0x9c,
    0x12, 0x7f, 0x2a, 0x11, 0x15, 0x83, 0x16, 0xb4, 0xf8, 0xac, 0xe8, 0xca, 0xf3,
    0x0d, 0x02, 0xfb, 0xee, 0x53, 0xfb, 0xbe, 0xff, 0x9c, 0xed, 0xcb, 0xfc, 0xb2,
    0xf6, 0xe1, 0xef, 0xea, 0xf7, 0xba, 0xfb, 0x87, 0xec, 0x62, 0xf5, 0x92, 0xfa,
    0x25, 0x0f, 0x2d, 0x0a, 0x0f, 0x16, 0x54, 0x06, 0x9f, 0x1a, 0xc1, 0x19, 0xcc,
    0x16, 0xcb, 0x19, 0xb6, 0x0e, 0xb5, 0x0f, 0x04, 0x19, 0xde, 0x18, 0x2f, 0x13,
    0x86, 0x1b, 0x5e, 0x12, 0x4f, 0x15, 0x11, 0xff, 0xf0, 0xff, 0x82, 0xf7, 0xe0,
    0xfb, 0x13, 0xfd, 0x3c, 0xed, 0xe0, 0xfe, 0x21, 0xfd, 0x81, 0x01, 0x64, 0x01,
    0x1b, 0xf9, 0x0b, 0xf7, 0xc2, 0xfd, 0x97, 0xf4, 0xee, 0xf9, 0x83, 0xff, 0x02,
    0xef, 0xff, 0xff, 0x00, 0x00, 0x00, 0x07, 0x18, 0x00, 0x00, 0x00, 0x04, 0x00,
    0x00, 0x00, 0x08, 0x00, 0x00, 0x00, 0x14, 0x00, 0x00, 0x00, 0x01, 0x00, 0x00,
    0x00, 0x32, 0x00, 0x00, 0x00, 0x01, 0x00, 0x00, 0x00, 0x80, 0x00, 0x00, 0x00,
    0x4c, 0xee, 0xff, 0xff, 0xc2, 0xef, 0xff, 0xff, 0x04, 0x00, 0x00, 0x00, 0x00,
    0x10, 0x00, 0x00, 0x03, 0x01, 0x06, 0xef, 0x04, 0xef, 0x1b, 0xdf, 0x0d, 0x01,
    0xfe, 0x18, 0x04, 0x10, 0x10, 0x01, 0x11, 0x00, 0xe1, 0x12, 0xef, 0x06, 0xfc,
    0x07, 0xf6, 0x0b, 0x0b, 0x09, 0x02, 0x0a, 0xf6, 0xfd, 0x06, 0x07, 0x0f, 0x02,
    0x0a, 0xea, 0x1a, 0xec, 0x08, 0x03, 0xfe, 0x0c, 0x06, 0x0d, 0x09, 0x00, 0x0a,
    0x00, 0xed, 0x0c, 0xf1, 0x08, 0xfa, 0x1a, 0x03, 0x0d, 0x01, 0x0b, 0x04, 0x05,
    0xf8, 0xfa, 0xfe, 0x07, 0xfb, 0xe9, 0x09, 0xe7, 0x02, 0xf8, 0x15, 0x00, 0x0c,
    0x05, 0x00, 0x06, 0x03, 0xfd, 0x0a, 0xf0, 0x81, 0x00, 0xef, 0x15, 0x02, 0x17,
    0x07, 0x0c, 0x0a, 0xf9, 0x07, 0x00, 0xeb, 0xda, 0xfa, 0xf2, 0x09, 0x13, 0xee,
    0x19, 0xf7, 0xff, 0xf2, 0x02, 0xfa, 0xff, 0x03, 0xf1, 0x05, 0xff, 0xf8, 0xfd,
    0xf9, 0x09, 0x0e, 0xf8, 0x08, 0xf9, 0xfc, 0x04, 0xf4, 0xf0, 0xf7, 0xfe, 0x04,
    0x02, 0xed, 0xee, 0xfe, 0x00, 0xfe, 0x0b, 0xf9, 0x06, 0xff, 0xf6, 0xfc, 0xe6,
    0xfe, 0xfd, 0x04, 0x03, 0xf6, 0xf7, 0x08, 0xf4, 0x17, 0xff, 0x1c, 0xe1, 0xfc,
    0x02, 0xf6, 0x01, 0x08, 0xf0, 0xfe, 0xfc, 0x09, 0xf8, 0xfa, 0xef, 0xf0, 0xe1,
    0xd5, 0x06, 0xea, 0xe4, 0x05, 0xf4, 0xfd, 0xeb, 0xf5, 0x03, 0xf7, 0x15, 0xf5,
    0xdf, 0xee, 0x02, 0xdb, 0x17, 0xf5, 0xf3, 0xf0, 0xf5, 0xf9, 0x05, 0x20, 0xf8,
    0x00, 0xf0, 0x02, 0xe3, 0xee, 0x22, 0xf8, 0x04, 0xdf, 0x04, 0xef, 0x02, 0x01,
    0xce, 0xfb, 0x06, 0x00, 0xfd, 0xfb, 0x02, 0x0c, 0xe9, 0x10, 0xee, 0xf7, 0xf9,
    0x03, 0xf8, 0xe7, 0xf0, 0x05, 0x05, 0x0a, 0xfc, 0x0c, 0xea, 0x06, 0xec, 0x13,
    0x02, 0x0b, 0x0f, 0x05, 0x0d, 0xfb, 0x04, 0x04, 0xf9, 0x0a, 0x16, 0xf4, 0x0d,
    0xf6, 0x0b, 0xf5, 0x1d, 0x0e, 0x0c, 0xfe, 0x0a, 0x04, 0x07, 0x00, 0xee, 0x07,
    0xd3, 0x08, 0xc2, 0x15, 0x0b, 0x10, 0xfc, 0x1d, 0xef, 0xf9, 0xf2, 0xfa, 0xe6,
    0xfe, 0xf5, 0xeb, 0x00, 0xde, 0xeb, 0x25, 0xff, 0xf8, 0xfb, 0x0b, 0x0c, 0x06,
    0x06, 0xfa, 0x0c, 0x02, 0xfd, 0x08, 0xfb, 0x01, 0xf8, 0x04, 0xf3, 0x00, 0xf3,
    0x05, 0x07, 0xfd, 0x0b, 0xf8, 0x05, 0xff, 0xf9, 0x00, 0x0b, 0xee, 0x07, 0xf5,
    0x0d, 0xf3, 0x15, 0x10, 0x0f, 0x01, 0x01, 0x07, 0x01, 0xfb, 0xe9, 0xdd, 0xf3,
    0xf3, 0x0a, 0xe0, 0x10, 0xff, 0x16, 0xee, 0xf4, 0x05, 0x11, 0xfc, 0xe5, 0xf2,
    0xef, 0x14, 0x00, 0x13, 0x11, 0x01, 0xf0, 0xec, 0xe8, 0xf1, 0xf1, 0xef, 0x07,
    0xf0, 0xf2, 0xfd, 0x03, 0x13, 0x0a, 0x0c, 0xff, 0x08, 0xec, 0x20, 0xf6, 0xfb,
    0x0e, 0xfd, 0x10, 0xfc, 0x07, 0x04, 0x01, 0x12, 0xfe, 0xe4, 0xfe, 0xf6, 0xfa,
    0xff, 0x1e, 0xfd, 0x14, 0xf5, 0xfa, 0x02, 0x08, 0xf4, 0xf5, 0x02, 0x00, 0xfe,
    0x28, 0xf6, 0x17, 0x06, 0x02, 0xf3, 0x07, 0xf2, 0x05, 0xff, 0xea, 0x01, 0xf9,
    0x03, 0xe6, 0xef, 0x12, 0xff, 0xf9, 0x08, 0x08, 0xfa, 0xf7, 0x08, 0xf0, 0xd5,
    0xf6, 0x06, 0xe6, 0xec, 0xf7, 0xec, 0xfe, 0xfa, 0xf3, 0xf9, 0xff, 0xf7, 0x11,
    0xfc, 0xfe, 0xfe, 0xe9, 0xfa, 0xf6, 0x01, 0xf4, 0xf8, 0xf5, 0x05, 0xf7, 0xfb,
    0xfa, 0x07, 0x11, 0xfb, 0x03, 0x03, 0xee, 0xfe, 0x04, 0xf6, 0xf3, 0xff, 0xf8,
    0xfd, 0x26, 0x09, 0x05, 0xe3, 0x02, 0xda, 0xf4, 0xfd, 0xf6, 0x05, 0xfe, 0x08,
    0xfa, 0xfb, 0xf4, 0x14, 0xfd, 0x12, 0x0d, 0xfb, 0x00, 0xfb, 0xfe, 0xfc, 0xfc,
    0x04, 0xd8, 0xe7, 0xef, 0x00, 0x02, 0xe5, 0x19, 0x02, 0x13, 0xeb, 0xff, 0xeb,
    0x06, 0x08, 0xf7, 0xff, 0xff, 0x0b, 0xfa, 0x13, 0x07, 0x02, 0xf7, 0x14, 0xea,
    0xf9, 0xfb, 0xf5, 0x03, 0xe8, 0xf3, 0x09, 0xf1, 0x03, 0xf5, 0x06, 0xfb, 0x1c,
    0xf7, 0xfe, 0xed, 0xd4, 0x15, 0xee, 0xfb, 0xe4, 0xf1, 0xf3, 0x16, 0x0c, 0x07,
    0xfd, 0xe1, 0x01, 0xf3, 0x0b, 0x11, 0x12, 0x11, 0x0b, 0x08, 0xf8, 0x14, 0xec,
    0x22, 0x12, 0xf4, 0x01, 0xff, 0x06, 0xfa, 0xfa, 0xf4, 0xe0, 0x19, 0xf4, 0xfc,
    0x00, 0xfe, 0xf8, 0x0c, 0x0c, 0x07, 0x07, 0xe8, 0x05, 0xef, 0x12, 0x0d, 0x07,
    0x11, 0x0a, 0x04, 0x0b, 0x00, 0xe8, 0x09, 0x0a, 0xdf, 0x08, 0xfc, 0x0e, 0xfd,
    0x06, 0xe2, 0xf3, 0xf9, 0xdd, 0x09, 0xff, 0xfd, 0xf5, 0x0d, 0x06, 0x03, 0x15,
    0xfc, 0xfe, 0xee, 0x0c, 0x00, 0x07, 0x0a, 0x07, 0x07, 0xf8, 0xff, 0xe5, 0x09,
    0x02, 0x08, 0xf9, 0x03, 0xf7, 0x04, 0x02, 0xe8, 0x0b, 0xfb, 0x08, 0x05, 0xfd,
    0x07, 0x09, 0xf5, 0xfb, 0x04, 0xf0, 0x09, 0xf1, 0xfd, 0xef, 0xf4, 0xf8, 0xf3,
    0xf6, 0xfb, 0xf7, 0x12, 0x11, 0xf8, 0xf0, 0x06, 0xff, 0xfd, 0xdb, 0x01, 0xfd,
    0x06, 0x14, 0xff, 0x11, 0x00, 0xf9, 0xe7, 0xff, 0xfe, 0xff, 0xf8, 0x00, 0x24,
    0xfe, 0x0f, 0xf5, 0xe5, 0xfe, 0xfa, 0xf9, 0x0a, 0xfb, 0x0c, 0x0c, 0x05, 0x06,
    0x0c, 0x11, 0x0e, 0xfd, 0xed, 0xee, 0x0a, 0x18, 0xed, 0x13, 0xf6, 0xde, 0x07,
    0xfd, 0x0b, 0xf6, 0x0b, 0xed, 0xbe, 0x0d, 0x07, 0x16, 0xee, 0xda, 0x09, 0xf4,
    0xe9, 0xe9, 0xfd, 0xf5, 0xea, 0xfe, 0xf4, 0x03, 0x06, 0xfe, 0x10, 0x03, 0x12,
    0x0c, 0x00, 0x05, 0xfc, 0xff, 0x0a, 0x0a, 0xec, 0x03, 0xf3, 0x01, 0x09, 0x05,
    0x0e, 0xdc, 0xf0, 0x01, 0xf0, 0xf3, 0xfe, 0xfd, 0x0d, 0x0a, 0xef, 0x0b, 0xed,
    0x0b, 0x0a, 0x12, 0xfa, 0xfd, 0xf2, 0xe5, 0x11, 0xde, 0xff, 0x05, 0xf2, 0xf9,
    0x14, 0x04, 0x0e, 0x06, 0xf8, 0x07, 0xec, 0x05, 0x03, 0x07, 0x0e, 0x0a, 0x0b,
    0x09, 0xe4, 0xf5, 0x06, 0xe5, 0xf9, 0xfa, 0xf3, 0x13, 0xfa, 0x00, 0xe7, 0x04,
    0xf0, 0xeb, 0xfd, 0x11, 0x04, 0xf8, 0xe5, 0xf8, 0xfd, 0xf5, 0xeb, 0xf9, 0xf5,
    0x03, 0x05, 0x15, 0xef, 0xf4, 0xf0, 0xec, 0xec, 0x0d, 0x03, 0x0c, 0xf4, 0x0d,
    0x01, 0x0b, 0xf7, 0x08, 0xf3, 0xea, 0x0b, 0xf4, 0x04, 0x0d, 0xf7, 0xf9, 0x0e,
    0x03, 0x0d, 0x10, 0xe9, 0x0c, 0xf4, 0x14, 0x0d, 0x02, 0x11, 0x0b, 0x04, 0x04,
    0xe0, 0xf6, 0x07, 0xfa, 0x09, 0xf1, 0x04, 0xfb, 0x09, 0xf9, 0xf0, 0xfe, 0xf2,
    0x14, 0xf1, 0xd4, 0x0a, 0x11, 0xf6, 0xec, 0x0e, 0xf6, 0xf9, 0x07, 0xe9, 0x02,
    0xf6, 0x00, 0xed, 0xe9, 0xe9, 0x03, 0x07, 0xff, 0xe1, 0x0d, 0xf6, 0x03, 0xfe,
    0x10, 0xfc, 0x02, 0xf3, 0xe6, 0x15, 0xfe, 0x03, 0xfb, 0xf8, 0xf9, 0x11, 0x09,
    0x01, 0x00, 0xed, 0x05, 0xff, 0x13, 0x11, 0x07, 0x11, 0x0b, 0xfe, 0x09, 0xfc,
    0xed, 0x0e, 0xfc, 0x09, 0xfe, 0x09, 0xea, 0x0b, 0x02, 0xc0, 0x08, 0xfc, 0xfd,
    0x02, 0xeb, 0x0a, 0x0e, 0xf2, 0xfb, 0xfa, 0xf9, 0x00, 0xfb, 0xfe, 0xee, 0xfd,
    0xff, 0xec, 0x04, 0xfa, 0x02, 0x0d, 0x0a, 0xf0, 0xfa, 0x01, 0xf9, 0xfc, 0xf2,
    0xff, 0xe6, 0x0d, 0xfa, 0xf2, 0x06, 0xfc, 0xe0, 0xf3, 0x02, 0xfe, 0xe8, 0xff,
    0x0c, 0xf9, 0xff, 0xfe, 0xf5, 0x01, 0x00, 0xf2, 0x00, 0x01, 0x06, 0xee, 0xf4,
    0xf3, 0x00, 0xf5, 0x00, 0xfa, 0xcb, 0x07, 0x03, 0x04, 0xff, 0x05, 0xef, 0x04,
    0x02, 0x01, 0xfd, 0xf3, 0x07, 0xe8, 0x0a, 0x0f, 0xfc, 0x0c, 0xe1, 0xfc, 0xfc,
    0xf3, 0xf2, 0x0d, 0xfc, 0x07, 0x05, 0x02, 0xfd, 0x09, 0xf5, 0xfd, 0xe3, 0x13,
    0xfa, 0x11, 0x03, 0xf8, 0x1c, 0x03, 0xd4, 0x05, 0x0b, 0xf5, 0xf1, 0x0b, 0xfb,
    0x0c, 0xfd, 0x01, 0xfb, 0xf8, 0x01, 0xef, 0xf9, 0xfa, 0x04, 0x04, 0xfb, 0xea,
    0x00, 0x03, 0x02, 0xe2, 0x00, 0xea, 0x0d, 0xef, 0xf9, 0x0b, 0x00, 0x01, 0x03,
    0x03, 0x17, 0x03, 0x05, 0xee, 0xf6, 0x03, 0x07, 0x0e, 0xf9, 0xf1, 0xd6, 0x04,
    0xf2, 0x03, 0xf9, 0x06, 0xeb, 0xf5, 0x03, 0x0a, 0x00, 0xf4, 0x03, 0xeb, 0x09,
    0x03, 0x02, 0x0e, 0x05, 0xff, 0x04, 0x03, 0x0e, 0x04, 0x0a, 0xf4, 0xe6, 0x01,
    0x0f, 0x0a, 0xff, 0x03, 0xed, 0x02, 0x01, 0x0a, 0xfb, 0x0f, 0xf6, 0xf5, 0xfd,
    0x0e, 0x07, 0xe3, 0xf4, 0xef, 0xf4, 0x06, 0xfc, 0x0a, 0x0c, 0xfb, 0x04, 0x0f,
    0x17, 0xf8, 0x02, 0x02, 0x85, 0x04, 0x09, 0xff, 0xef, 0x12, 0x03, 0x02, 0x0c,
    0x18, 0xfd, 0x08, 0x09, 0xf3, 0x07, 0xf5, 0xff, 0x06, 0x02, 0x17, 0xfb, 0x03,
    0xf4, 0xef, 0xf7, 0x0b, 0xfd, 0xef, 0xf1, 0xf7, 0xff, 0x03, 0x04, 0xf3, 0x01,
    0xfe, 0x0c, 0xf3, 0x09, 0x05, 0xed, 0xec, 0xfe, 0xfd, 0x07, 0x03, 0x00, 0xe3,
    0xf8, 0x14, 0xf9, 0x17, 0xf7, 0x03, 0xf2, 0xee, 0xfa, 0xe3, 0xf9, 0xf5, 0xf9,
    0xf7, 0x0b, 0x06, 0x0c, 0xfe, 0xf6, 0xf6, 0x0d, 0xe4, 0xf8, 0x02, 0xff, 0xfa,
    0x0b, 0xea, 0x05, 0x0d, 0xf7, 0x02, 0xf1, 0xe8, 0xe5, 0xfe, 0xeb, 0xfb, 0xed,
    0x08, 0x00, 0x03, 0xff, 0xe2, 0x14, 0x07, 0xfc, 0x13, 0x06, 0xfa, 0xe6, 0xd1,
    0x00, 0xe4, 0xf0, 0xee, 0xed, 0xf6, 0x06, 0x01, 0x12, 0x03, 0x01, 0x06, 0x00,
    0x0b, 0xff, 0x0f, 0x01, 0x0d, 0xea, 0xfa, 0x06, 0x08, 0xfc, 0xd8, 0xfe, 0xea,
    0x10, 0xfd, 0xde, 0x00, 0xfd, 0x00, 0x06, 0xf3, 0xfe, 0x0a, 0xec, 0xf0, 0x06,
    0x08, 0xfe, 0x06, 0x05, 0xe3, 0x04, 0x03, 0xfb, 0xe2, 0xf5, 0xfc, 0x11, 0x06,
    0x0e, 0x03, 0x05, 0x10, 0x19, 0x06, 0x06, 0xf5, 0xe8, 0x00, 0x00, 0x05, 0x04,
    0x15, 0xf9, 0xf9, 0x07, 0x07, 0xf9, 0x01, 0x03, 0xc4, 0xef, 0xed, 0xf1, 0xdf,
    0xf8, 0x0a, 0xfd, 0x05, 0x0b, 0xe5, 0xf5, 0xdd, 0xfc, 0xcf, 0x1b, 0xbf, 0x06,
    0x02, 0x1c, 0xe3, 0x02, 0xe0, 0xe9, 0x13, 0xfb, 0x00, 0xf6, 0xfd, 0xcf, 0xe0,
    0x12, 0x09, 0x05, 0x03, 0x10, 0x00, 0x02, 0xeb, 0xe8, 0x04, 0x0a, 0x12, 0x0d,
    0x03, 0x01, 0x05, 0x0f, 0x10, 0x16, 0xe7, 0xee, 0x07, 0x0d, 0x01, 0x01, 0x09,
    0xf9, 0xfd, 0x04, 0x0c, 0xf7, 0x02, 0x0a, 0xd8, 0xfd, 0xda, 0xfe, 0x0a, 0xfa,
    0x0e, 0xfb, 0x09, 0xed, 0xeb, 0xec, 0x16, 0xff, 0xd8, 0xf4, 0xfa, 0x0e, 0x06,
    0xf7, 0x00, 0xff, 0xf1, 0x01, 0xed, 0xfd, 0xf7, 0xf6, 0xfc, 0xf7, 0x04, 0x0e,
    0xed, 0x01, 0x0d, 0x00, 0xf1, 0x04, 0xea, 0x0f, 0xfa, 0x07, 0x11, 0x08, 0x02,
    0xf9, 0x08, 0x0d, 0x02, 0x06, 0xf1, 0xe9, 0xff, 0x07, 0x07, 0x02, 0x09, 0xea,
    0xfa, 0x04, 0x06, 0xf5, 0x06, 0xed, 0xf7, 0x08, 0xf2, 0xfa, 0xf2, 0x0a, 0x19,
    0x0f, 0x01, 0xf0, 0xef, 0xea, 0x0b, 0x05, 0xe6, 0xf5, 0xf6, 0x07, 0xf5, 0x03,
    0xf3, 0x00, 0x04, 0x01, 0xe3, 0x07, 0x0b, 0xef, 0xef, 0x00, 0xfd, 0xff, 0xd7,
    0xf6, 0x04, 0xfd, 0xf4, 0xf9, 0xf7, 0xff, 0xf8, 0xf4, 0x08, 0xf6, 0x0b, 0x04,
    0xf3, 0xf8, 0xe2, 0x05, 0xf9, 0xfb, 0xfc, 0xf9, 0xf6, 0xf7, 0x05, 0xf9, 0x06,
    0xee, 0xf9, 0x04, 0xf4, 0x09, 0xfa, 0xfc, 0x05, 0x02, 0x0f, 0x06, 0x09, 0x08,
    0xfd, 0xf0, 0x00, 0x05, 0xec, 0x08, 0x01, 0x07, 0xf4, 0x0e, 0x00, 0x11, 0x00,
    0xf8, 0xf9, 0x12, 0xe4, 0xf9, 0x0e, 0xf9, 0x02, 0xff, 0xf3, 0xfe, 0xfe, 0xff,
    0xf8, 0xee, 0x05, 0xfe, 0x23, 0xf2, 0xfe, 0xec, 0xf5, 0xef, 0x0b, 0x04, 0xf7,
    0xf1, 0xfc, 0x0c, 0x10, 0x1b, 0x00, 0xfc, 0xfa, 0x0a, 0xc9, 0xff, 0x03, 0xf2,
    0xf6, 0xf3, 0xfd, 0x09, 0x0a, 0x07, 0x02, 0x0d, 0x08, 0x09, 0xf0, 0x0a, 0xfe,
    0xdb, 0x13, 0xf7, 0x0c, 0xea, 0x02, 0xdb, 0xf9, 0x01, 0x04, 0x0c, 0xf8, 0x0e,
    0x08, 0x12, 0xff, 0x04, 0x00, 0x07, 0x15, 0x0f, 0xf4, 0x07, 0xec, 0x0c, 0xfb,
    0x12, 0x08, 0x02, 0xf7, 0x0b, 0xfb, 0xd1, 0x06, 0xed, 0x09, 0xff, 0xf4, 0xeb,
    0x07, 0x01, 0x07, 0x0f, 0xec, 0x10, 0xf8, 0x11, 0x18, 0x05, 0x0b, 0x09, 0x12,
    0x06, 0x01, 0x0b, 0x17, 0x17, 0x00, 0x09, 0x10, 0x10, 0xf5, 0x06, 0xf6, 0xd6,
    0x16, 0x06, 0xff, 0xf0, 0xfa, 0xe6, 0x03, 0x06, 0x0e, 0x10, 0xf0, 0x0d, 0xfe,
    0x15, 0x03, 0x07, 0xfb, 0x00, 0x0b, 0x0a, 0xfb, 0x03, 0x0c, 0xf5, 0x09, 0xfd,
    0xf5, 0xfa, 0xfe, 0xed, 0xe5, 0x1d, 0xfd, 0x07, 0xf3, 0xff, 0x12, 0x16, 0xfc,
    0xff, 0xf9, 0xf1, 0x14, 0x01, 0x01, 0xf7, 0xfa, 0xf2, 0x02, 0x02, 0x05, 0xf8,
    0x04, 0xff, 0xed, 0xf6, 0x18, 0xfc, 0xf6, 0x02, 0x08, 0x04, 0x08, 0x28, 0xff,
    0x0a, 0xf8, 0x06, 0xe9, 0x0a, 0x05, 0xfb, 0xf0, 0xfc, 0x0f, 0xf6, 0x0e, 0xf8,
    0xf0, 0xf7, 0x00, 0x08, 0xfc, 0xf8, 0x00, 0x00, 0xf9, 0x0a, 0x00, 0xed, 0x06,
    0x08, 0x05, 0xf6, 0x11, 0xde, 0xdc, 0x00, 0xed, 0xe4, 0x11, 0x0d, 0x0a, 0x0b,
    0x03, 0xe9, 0xf0, 0x08, 0x15, 0x1d, 0xf8, 0xf7, 0xfe, 0x0a, 0xeb, 0xe5, 0xff,
    0xfc, 0xff, 0xe7, 0xf5, 0xf1, 0xfa, 0xfd, 0xff, 0xf6, 0x11, 0x07, 0xf6, 0x03,
    0x00, 0xfc, 0x07, 0xf6, 0x0b, 0x04, 0x01, 0xf7, 0x07, 0xfc, 0xf4, 0xe2, 0x07,
    0xfb, 0xf0, 0x03, 0xfd, 0x02, 0xd6, 0x04, 0xea, 0x17, 0x04, 0x0f, 0xfd, 0xff,
    0xfb, 0x0e, 0x05, 0xdd, 0x03, 0xfd, 0x0c, 0xfe, 0xf9, 0xf0, 0x09, 0x04, 0x07,
    0x0a, 0xea, 0x0d, 0xf7, 0x03, 0x06, 0x01, 0x05, 0xfe, 0x0e, 0x0f, 0xf8, 0x05,
    0x14, 0xde, 0xff, 0x0d, 0xf4, 0x08, 0x00, 0x00, 0xf8, 0x03, 0x13, 0xfa, 0xff,
    0x10, 0xfe, 0xf8, 0xdc, 0xe9, 0xda, 0xf2, 0x08, 0xf0, 0xe9, 0xf9, 0xf6, 0xf8,
    0xbd, 0xf8, 0x19, 0xd6, 0x06, 0x0f, 0xfd, 0x16, 0xf8, 0x0c, 0x04, 0xfe, 0xf9,
    0x0f, 0xfb, 0xd5, 0x05, 0x08, 0x0d, 0x01, 0xf3, 0xf2, 0x03, 0x06, 0x03, 0x0a,
    0xe8, 0x05, 0xe8, 0x10, 0x0b, 0x03, 0x10, 0xff, 0x09, 0x07, 0xef, 0x01, 0x15,
    0xed, 0x08, 0xf9, 0xfa, 0xdb, 0x0a, 0xf4, 0xfa, 0xf2, 0xf8, 0x0b, 0xf7, 0xe6,
    0x0d, 0x10, 0x0b, 0xec, 0x1b, 0x09, 0x14, 0x02, 0xd7, 0x00, 0x07, 0x01, 0x01,
    0xfa, 0xdd, 0xf1, 0xf4, 0xee, 0xe5, 0x11, 0xfe, 0x12, 0x0e, 0xfd, 0xf8, 0x0f,
    0xfa, 0xdd, 0x14, 0xf9, 0x11, 0xfe, 0x08, 0xf3, 0x00, 0x04, 0x01, 0x10, 0xee,
    0x13, 0xf8, 0x08, 0x13, 0x08, 0x09, 0x03, 0x10, 0x07, 0x04, 0x00, 0x12, 0xef,
    0xfa, 0xfb, 0x00, 0xeb, 0xf6, 0x02, 0xee, 0x19, 0x00, 0xf0, 0xfb, 0xf9, 0x07,
    0x13, 0x03, 0xf7, 0x00, 0xfb, 0x08, 0x02, 0x02, 0xec, 0x06, 0xf1, 0x03, 0xfa,
    0xff, 0xf3, 0xfe, 0x02, 0xe3, 0xfa, 0x03, 0x01, 0xf7, 0x08, 0x03, 0xed, 0x08,
    0xe6, 0xf9, 0x06, 0xe4, 0xe9, 0xf5, 0xf5, 0x0a, 0xfb, 0xeb, 0x0f, 0xf6, 0x07,
    0x03, 0xe9, 0xfe, 0x02, 0x00, 0xf1, 0xf6, 0x00, 0xf5, 0xf8, 0xed, 0xf0, 0x03,
    0x02, 0xf8, 0x05, 0xfc, 0x07, 0x09, 0x14, 0xfa, 0xfb, 0x02, 0xff, 0xfe, 0xe0,
    0xf8, 0x00, 0xf7, 0xf7, 0x06, 0xf5, 0x03, 0xec, 0x0b, 0xf9, 0xf8, 0x0a, 0xfe,
    0x02, 0xf8, 0x0a, 0xf6, 0xfb, 0x0b, 0xf4, 0xf7, 0xec, 0x06, 0xfe, 0x0f, 0x20,
    0xf9, 0x07, 0xf5, 0xf1, 0x0c, 0x01, 0x08, 0x04, 0x0a, 0x05, 0x11, 0x00, 0xe7,
    0xfd, 0xf8, 0xff, 0xf5, 0xff, 0xf0, 0xf7, 0x03, 0xf4, 0xda, 0xf7, 0xec, 0x05,
    0x10, 0xf6, 0x15, 0xf1, 0xfd, 0x02, 0x07, 0xf2, 0xfb, 0x02, 0xf6, 0xfc, 0xfd,
    0x06, 0x01, 0x0b, 0xfd, 0x0f, 0xfb, 0x18, 0xf5, 0x01, 0xf6, 0xfd, 0xf9, 0x03,
    0xfa, 0x04, 0x09, 0xf6, 0xf2, 0xff, 0xff, 0xff, 0x25, 0x0c, 0xff, 0xf2, 0x04,
    0xdb, 0xfe, 0x04, 0xf8, 0x00, 0xfb, 0x08, 0xfe, 0xed, 0x01, 0x13, 0x01, 0x0f,
    0xf8, 0xff, 0xff, 0x06, 0xfb, 0xf9, 0xfb, 0x00, 0xed, 0x10, 0xfb, 0x0b, 0xfa,
    0x03, 0xef, 0x06, 0xf5, 0x08, 0xf9, 0xfa, 0x0d, 0x01, 0x05, 0x05, 0x03, 0x0a,
    0x06, 0xe2, 0x02, 0xf9, 0x08, 0xfc, 0x16, 0x04, 0x11, 0x01, 0x0e, 0x06, 0x02,
    0xf9, 0xf2, 0xea, 0xe7, 0xf9, 0xd4, 0xea, 0x2c, 0xfb, 0x17, 0xe1, 0xf6, 0xed,
    0x0c, 0x03, 0xfe, 0x04, 0x03, 0x0c, 0xff, 0x0d, 0x11, 0x07, 0xf4, 0x1c, 0xf7,
    0xf6, 0x06, 0x00, 0xfe, 0xf8, 0xea, 0x03, 0xf7, 0xfb, 0xf9, 0xe6, 0x04, 0xf9,
    0xf8, 0xfa, 0xf6, 0xf6, 0xf8, 0x07, 0xf4, 0xfc, 0x06, 0xef, 0xf9, 0x02, 0x01,
    0x0e, 0xdb, 0x1f, 0x01, 0xec, 0x0f, 0xf9, 0x05, 0xec, 0xd6, 0xe5, 0xee, 0x00,
    0xfc, 0x0c, 0x06, 0x03, 0x00, 0x0a, 0xdb, 0xf7, 0xf2, 0x06, 0x0a, 0x08, 0x0a,
    0x02, 0x0f, 0x0b, 0x01, 0x0f, 0xec, 0xed, 0xfd, 0xf4, 0x12, 0xf5, 0xec, 0x05,
    0x00, 0x01, 0xfd, 0xfd, 0xfb, 0xe4, 0xe0, 0x0b, 0xfd, 0x02, 0xeb, 0x09, 0xf9,
    0x14, 0x02, 0x0c, 0xfe, 0x05, 0x04, 0x04, 0xe7, 0x05, 0x02, 0xff, 0x0b, 0xba,
    0x05, 0xef, 0x0c, 0xfb, 0x16, 0xf9, 0x0c, 0xf6, 0x01, 0x0a, 0xfc, 0xf9, 0xfa,
    0xf7, 0x04, 0xe9, 0x06, 0xfc, 0x11, 0xf7, 0xfc, 0x00, 0xfd, 0xfb, 0xf5, 0x05,
    0x01, 0x08, 0xf8, 0xfb, 0xf6, 0xf8, 0xf4, 0x1b, 0xf2, 0x16, 0x08, 0xff, 0xf9,
    0xf4, 0xed, 0x05, 0xee, 0xfe, 0x05, 0xfe, 0xfb, 0x06, 0xf4, 0xf9, 0xf8, 0xfe,
    0x00, 0x04, 0x06, 0x07, 0xf6, 0x07, 0x01, 0x07, 0xfd, 0xf8, 0x02, 0xfe, 0x02,
    0xf1, 0x0c, 0x00, 0xf7, 0x00, 0xff, 0x03, 0xff, 0x00, 0xf7, 0x01, 0x02, 0x01,
    0x0a, 0xfd, 0x01, 0x09, 0xdd, 0x1d, 0xc9, 0x08, 0x0b, 0xf5, 0x12, 0xfd, 0x05,
    0x0e, 0xf6, 0x0a, 0x02, 0xed, 0x03, 0xf5, 0x07, 0x09, 0x20, 0xe6, 0x03, 0x07,
    0x08, 0xff, 0x07, 0xfa, 0xf9, 0xf7, 0xf6, 0x05, 0xfc, 0xf6, 0xf9, 0x00, 0xfa,
    0xf7, 0xf7, 0xfa, 0xf8, 0xf8, 0xf8, 0x01, 0xf9, 0x05, 0xfa, 0xff, 0x02, 0xff,
    0x01, 0x04, 0x07, 0xf8, 0x02, 0xfc, 0xff, 0xff, 0xf8, 0x00, 0x04, 0xe0, 0x02,
    0xce, 0xe0, 0xeb, 0xf7, 0xde, 0x05, 0x05, 0xf2, 0x00, 0xf2, 0xff, 0xe9, 0xf2,
    0x00, 0xd1, 0x0b, 0xf2, 0xf0, 0xed, 0xe5, 0xdc, 0x10, 0xff, 0xea, 0xe5, 0xfa,
    0xf3, 0x08, 0x18, 0xfe, 0xe8, 0xf6, 0x00, 0x08, 0x03, 0xf9, 0xfe, 0x07, 0xf0,
    0xf3, 0xe6, 0xf6, 0xf9, 0xf1, 0x10, 0xe9, 0x0f, 0x09, 0x1b, 0xf7, 0x11, 0xf0,
    0x2a, 0xfd, 0xf5, 0x07, 0xdd, 0x0b, 0xfa, 0xec, 0x07, 0x08, 0xec, 0xe4, 0x01,
    0x19, 0xec, 0x08, 0xf6, 0x08, 0xf8, 0xf7, 0x01, 0xff, 0x00, 0xf6, 0xf2, 0x06,
    0x08, 0x0a, 0x0a, 0xfb, 0x0b, 0xf9, 0x12, 0xf8, 0xf9, 0x03, 0xf6, 0xed, 0x10,
    0xf5, 0xfe, 0xff, 0x08, 0x02, 0x02, 0xf6, 0x04, 0xe0, 0x22, 0xe3, 0x07, 0x07,
    0x01, 0x11, 0x07, 0x09, 0x07, 0x01, 0x0a, 0x02, 0xe9, 0x09, 0xf2, 0x05, 0xed,
    0x12, 0xf8, 0x0d, 0xfe, 0x0f, 0x00, 0x02, 0xfc, 0xf6, 0x02, 0x00, 0x08, 0xfc,
    0xfa, 0xfe, 0x08, 0xfc, 0xf5, 0x04, 0xf5, 0xff, 0x08, 0xfa, 0x00, 0xf1, 0x08,
    0xff, 0xfa, 0xff, 0xf5, 0x01, 0x05, 0x05, 0xf5, 0xfb, 0xf6, 0x03, 0x06, 0xfd,
    0x03, 0xf8, 0x01, 0x0e, 0x04, 0x01, 0xf4, 0x0d, 0x02, 0x0b, 0x0c, 0xff, 0x0c,
    0x0b, 0xfb, 0x0b, 0x04, 0xf3, 0xfe, 0x01, 0xf9, 0x09, 0xfa, 0x07, 0xf8, 0xf6,
    0xf9, 0xf1, 0x05, 0xfd, 0xfa, 0x10, 0x06, 0xf3, 0x05, 0xf5, 0x01, 0x00, 0xdf,
    0x08, 0x09, 0x06, 0xf4, 0x07, 0xdf, 0x07, 0x0b, 0x0a, 0xed, 0xef, 0x0a, 0xea,
    0x05, 0x0d, 0xf6, 0x05, 0xe2, 0xff, 0xf7, 0xf2, 0xf4, 0x0e, 0xfd, 0xfa, 0x05,
    0x06, 0x08, 0xed, 0x0b, 0xfd, 0x02, 0xfc, 0x01, 0xf3, 0xdf, 0x08, 0xf9, 0x04,
    0x05, 0xfd, 0xfa, 0x18, 0x09, 0x0e, 0x0c, 0xee, 0x04, 0xf4, 0x0d, 0x1d, 0x0d,
    0x13, 0x08, 0x0b, 0x06, 0xe5, 0xf3, 0x08, 0xfd, 0x0e, 0xf6, 0xf1, 0xe6, 0x07,
    0xef, 0x08, 0x10, 0xff, 0x13, 0xfe, 0xe4, 0x0c, 0x0b, 0xec, 0xf4, 0x0f, 0x01,
    0x08, 0x03, 0xf1, 0xf7, 0xe9, 0x04, 0xec, 0xf2, 0xed, 0xfd, 0xfa, 0xfc, 0xd6,
    0x01, 0xfd, 0xf2, 0xea, 0x10, 0xf4, 0xef, 0xfc, 0xee, 0x04, 0x0b, 0x08, 0xe0,
    0xe1, 0xfb, 0x04, 0xd1, 0x08, 0xe4, 0xc9, 0xf8, 0xdd, 0x0b, 0xe3, 0xfa, 0xfb,
    0xeb, 0xf0, 0x0a, 0x0b, 0xfa, 0xe7, 0x0b, 0xe9, 0x0b, 0xf8, 0xf5, 0xfb, 0x04,
    0xd5, 0xe9, 0x02, 0x03, 0x0b, 0x07, 0xfc, 0xf8, 0x12, 0x01, 0x00, 0x0a, 0xf5,
    0x03, 0xfa, 0x09, 0x0e, 0x05, 0x0c, 0x05, 0x0d, 0xff, 0xe5, 0xf1, 0xf5, 0xfd,
    0x01, 0x03, 0x06, 0x10, 0xfb, 0x08, 0xfc, 0xe9, 0x14, 0xf7, 0x03, 0x06, 0xfb,
    0xe2, 0x12, 0x0b, 0x0c, 0x12, 0xf4, 0x03, 0xef, 0x0d, 0x0f, 0x01, 0x0a, 0x0c,
    0xfc, 0xff, 0xdf, 0xf0, 0x05, 0x04, 0x0a, 0xf2, 0x02, 0xf5, 0x04, 0x01, 0xed,
    0xfb, 0xfa, 0x0e, 0x0e, 0xf1, 0xe8, 0x06, 0x09, 0x04, 0x01, 0x0d, 0x16, 0xe1,
    0x11, 0xf7, 0x04, 0xf3, 0xee, 0xff, 0x05, 0xfc, 0x12, 0x06, 0xfe, 0xf9, 0xf9,
    0xfc, 0xff, 0xf9, 0xf6, 0xfe, 0xfe, 0xfc, 0xfe, 0x06, 0x02, 0x03, 0xfe, 0x04,
    0xfe, 0x05, 0x08, 0x00, 0xee, 0x00, 0xfe, 0xf8, 0xfa, 0xfe, 0xf5, 0x06, 0x07,
    0xf6, 0x01, 0xfa, 0x05, 0x08, 0xf7, 0x02, 0xf9, 0x0e, 0xf4, 0x02, 0xf0, 0xe0,
    0x18, 0x01, 0x0a, 0xfe, 0xfb, 0xf5, 0x10, 0x07, 0xff, 0xfb, 0xe7, 0xfc, 0xf4,
    0x02, 0x0b, 0x0c, 0x0a, 0x0e, 0x05, 0x05, 0x0f, 0xe5, 0x0d, 0xf9, 0xf8, 0xf7,
    0xfb, 0x01, 0xf8, 0xf8, 0xfd, 0xf9, 0xff, 0xf9, 0x01, 0x04, 0x03, 0xf7, 0x01,
    0xfa, 0xf8, 0x01, 0xfe, 0xff, 0xfa, 0xfd, 0xfe, 0xfa, 0xf9, 0xff, 0xfa, 0x00,
    0xf8, 0xfa, 0xfb, 0xfc, 0xf6, 0x0a, 0x0b, 0xe8, 0xce, 0xe8, 0x0b, 0xf8, 0xed,
    0x00, 0xf0, 0xd5, 0x16, 0x01, 0x0b, 0xfe, 0xf3, 0xf9, 0xe3, 0xff, 0xe7, 0x18,
    0xe9, 0xff, 0x00, 0xfa, 0xf1, 0xe5, 0xe2, 0xfd, 0xed, 0xf9, 0x09, 0x0c, 0xdf,
    0x03, 0x0d, 0x05, 0x09, 0x01, 0x06, 0x07, 0x07, 0xe5, 0xf5, 0x09, 0xf6, 0xff,
    0xfc, 0x05, 0x11, 0x00, 0x07, 0xf6, 0xf9, 0xf1, 0x11, 0xff, 0xff, 0x07, 0xf4,
    0xf7, 0xe4, 0x00, 0x08, 0xfc, 0x02, 0xfa, 0x0a, 0xfc, 0x07, 0x11, 0xfa, 0x0f,
    0x0a, 0xf9, 0x0f, 0xfd, 0xeb, 0xf7, 0x07, 0xfe, 0x13, 0xf9, 0x02, 0xf5, 0xf1,
    0xf4, 0xf7, 0xfa, 0x02, 0xfd, 0x15, 0x09, 0xf0, 0x13, 0xea, 0x04, 0xfe, 0x0d,
    0xfa, 0xfc, 0xea, 0xdd, 0x0a, 0xfa, 0x02, 0xfc, 0xfc, 0xf4, 0x16, 0x05, 0x01,
    0x0d, 0xe7, 0x0a, 0xfa, 0x10, 0x09, 0x0a, 0x08, 0x03, 0x0d, 0x08, 0xf9, 0xee,
    0x0b, 0xf7, 0xf3, 0xfd, 0xfe, 0xff, 0xf2, 0xfc, 0xf9, 0xf9, 0xfb, 0x08, 0x03,
    0x01, 0xf9, 0x06, 0xfb, 0xf4, 0xf3, 0x01, 0xf9, 0xf5, 0xf9, 0xf6, 0x00, 0xfb,
    0xf6, 0xf9, 0x07, 0x01, 0xf7, 0xfd, 0xf7, 0x02, 0xf0, 0xf4, 0x06, 0xf2, 0x14,
    0xf9, 0x04, 0xfc, 0xfa, 0xf9, 0xfd, 0x01, 0xee, 0xfa, 0xe9, 0x08, 0x08, 0xfc,
    0xfb, 0xf9, 0x00, 0x03, 0xf3, 0x0e, 0x09, 0xef, 0xf9, 0x02, 0xf6, 0x03, 0x08,
    0xfa, 0x04, 0x01, 0x13, 0x0a, 0x12, 0x14, 0x00, 0xf9, 0x00, 0xfd, 0xf5, 0x02,
    0xff, 0xfe, 0xf4, 0x0f, 0xfc, 0x0a, 0xfe, 0xf8, 0xff, 0x07, 0xf3, 0x02, 0x0b,
    0xf8, 0x03, 0xff, 0xfb, 0xff, 0xfe, 0x00, 0x05, 0x08, 0xfb, 0x02, 0xec, 0xec,
    0x03, 0x0a, 0x10, 0x09, 0xfa, 0xfe, 0x04, 0x13, 0x0e, 0x06, 0xee, 0xf9, 0xfe,
    0x0b, 0x03, 0xfa, 0x0f, 0xfd, 0xff, 0x09, 0x03, 0xf6, 0x05, 0x07, 0xe9, 0xf9,
    0xfd, 0xea, 0xde, 0x05, 0x22, 0x05, 0x04, 0xfb, 0xe3, 0xf9, 0x10, 0x06, 0xf6,
    0xf3, 0xec, 0x0a, 0xff, 0x17, 0xfc, 0x00, 0xf5, 0x06, 0xee, 0xff, 0xf7, 0xff,
    0xed, 0xf5, 0x0b, 0x07, 0x08, 0x06, 0xe3, 0x00, 0x0c, 0xf0, 0x09, 0xf3, 0x04,
    0xe4, 0xfb, 0xf1, 0xf8, 0x01, 0x00, 0x15, 0x0d, 0xff, 0x0c, 0x0d, 0x0b, 0xe6,
    0xd5, 0x06, 0xf5, 0x0c, 0xdb, 0x11, 0xfd, 0x07, 0xd9, 0x0f, 0x00, 0xf8, 0x0d,
    0x05, 0xfa, 0x07, 0xef, 0xe7, 0xff, 0xfc, 0x09, 0x0e, 0x03, 0xff, 0xf8, 0x16,
    0x02, 0x0a, 0x02, 0xe6, 0x10, 0x00, 0x0b, 0xfa, 0xda, 0x08, 0x0c, 0x0f, 0x0d,
    0xf8, 0x11, 0xf9, 0xf4, 0x03, 0x0f, 0x0b, 0x03, 0xfd, 0xdb, 0xf9, 0xf8, 0x11,
    0x02, 0xfa, 0x03, 0xfa, 0x0b, 0x1b, 0x07, 0x0b, 0xde, 0xe2, 0x0b, 0x01, 0x02,
    0x05, 0x13, 0xf2, 0xfa, 0x06, 0x1d, 0xfb, 0x01, 0xfe, 0xb8, 0x00, 0xf7, 0x04,
    0x14, 0x08, 0x05, 0x00, 0x03, 0x10, 0x0c, 0xf1, 0xee, 0x01, 0xf3, 0x02, 0xed,
    0x0d, 0xf7, 0xe9, 0xfa, 0xfc, 0x06, 0x19, 0xec, 0xfe, 0x0e, 0xfd, 0xfa, 0xf1,
    0xed, 0x01, 0xfb, 0xfb, 0xfb, 0x06, 0xff, 0xff, 0xfd, 0xf8, 0x02, 0xff, 0xfc,
    0xfa, 0xfe, 0xfa, 0xf8, 0xfb, 0xf9, 0xf9, 0xf3, 0xfd, 0x02, 0xf9, 0x02, 0xf8,
    0x00, 0xff, 0xf6, 0xfb, 0xff, 0x03, 0xf6, 0xfb, 0xfa, 0x02, 0x0c, 0xf9, 0xea,
    0x05, 0xef, 0x16, 0x00, 0x15, 0x0c, 0x06, 0x02, 0xfb, 0x07, 0x07, 0x10, 0x0d,
    0xee, 0xe2, 0x07, 0x0e, 0x04, 0x04, 0x0d, 0xca, 0x06, 0xfe, 0xf3, 0xf6, 0x0e,
    0xf6, 0xf7, 0x03, 0xfd, 0x02, 0xfc, 0xfd, 0xf7, 0x04, 0x04, 0xfe, 0xff, 0xf8,
    0x02, 0xf8, 0xf4, 0xf3, 0xfa, 0xff, 0xfe, 0x02, 0xfb, 0x00, 0x03, 0xfd, 0xfb,
    0xf6, 0xf7, 0x01, 0x02, 0xfd, 0xfe, 0xf9, 0xf7, 0xec, 0x01, 0xd8, 0xe5, 0xe3,
    0x06, 0xf6, 0x00, 0xe4, 0xcb, 0x0c, 0x05, 0x00, 0xe6, 0x00, 0x09, 0xe2, 0x0f,
    0xfc, 0xff, 0xf0, 0xd5, 0xf1, 0xf1, 0xf1, 0xfd, 0xe0, 0xf3, 0x0f, 0x05, 0x12,
    0xff, 0xfe, 0xdc, 0x00, 0x18, 0xee, 0x13, 0x0c, 0x06, 0x03, 0xfe, 0xdb, 0xf1,
    0x07, 0xe3, 0xf4, 0xd7, 0x0d, 0x04, 0x04, 0xfa, 0xf9, 0x04, 0x1f, 0x00, 0xf7,
    0x03, 0x07, 0x07, 0xf8, 0xd8, 0x0c, 0xed, 0xf5, 0xd7, 0xf7, 0x04, 0xfc, 0x21,
    0xfc, 0x10, 0xf2, 0xf7, 0xf6, 0xff, 0xfe, 0xe6, 0xfc, 0xf5, 0x0b, 0xfd, 0x0f,
    0x00, 0x04, 0xfc, 0x16, 0xeb, 0xfd, 0xf6, 0xff, 0xeb, 0xf5, 0xf2, 0x0a, 0x00,
    0x02, 0x03, 0x03, 0xf1, 0x02, 0xec, 0x0d, 0xf3, 0x06, 0x0d, 0x0a, 0xfc, 0xfc,
    0x07, 0x11, 0x01, 0x07, 0xf1, 0xf3, 0x01, 0x0e, 0x0a, 0xfe, 0x02, 0xf1, 0x00,
    0xfc, 0x02, 0xf8, 0x0a, 0xf7, 0xf6, 0xf8, 0xf4, 0xfb, 0xff, 0x02, 0xf1, 0xff,
    0xfb, 0xfd, 0xfd, 0xef, 0x02, 0xf8, 0xf7, 0xf9, 0xfc, 0x02, 0xfa, 0xff, 0xfd,
    0xf6, 0x00, 0xfb, 0xfb, 0xf6, 0x03, 0x03, 0xfe, 0xf5, 0xfd, 0xf9, 0x02, 0xed,
    0x0b, 0xf9, 0xfb, 0xf6, 0x0c, 0xfb, 0x13, 0x33, 0xfc, 0x06, 0xec, 0xf9, 0x07,
    0x0d, 0x04, 0x00, 0xe0, 0xf2, 0x0c, 0x00, 0x0e, 0xf5, 0x03, 0xec, 0xf7, 0xfe,
    0xfb, 0xf5, 0xfa, 0xf6, 0xdc, 0xe7, 0xee, 0xfc, 0xf3, 0xfa, 0xf6, 0x01, 0x08,
    0x16, 0xf9, 0xf7, 0xfe, 0xfc, 0x03, 0xda, 0xf5, 0x03, 0xfb, 0xfe, 0xf8, 0xfa,
    0x06, 0xd8, 0x02, 0xf9, 0xfb, 0x01, 0x04, 0x01, 0xfd, 0x08, 0xf7, 0x18, 0xf8,
    0x13, 0x05, 0x01, 0x00, 0x0c, 0xfe, 0xd4, 0x09, 0xff, 0x0f, 0x01, 0xf6, 0xf3,
    0x00, 0x04, 0x07, 0x0e, 0xe2, 0x0a, 0xf1, 0x12, 0x11, 0x05, 0x0e, 0x02, 0x0c,
    0x04, 0xf7, 0x00, 0x12, 0xfc, 0x0b, 0xf0, 0xe3, 0xf2, 0x0a, 0xe9, 0x09, 0x2a,
    0x03, 0x08, 0xed, 0xe7, 0x10, 0x0b, 0x0b, 0xf4, 0x00, 0x03, 0x03, 0x04, 0xf7,
    0xfb, 0x09, 0xf9, 0x02, 0xff, 0xee, 0xf2, 0x00, 0xf5, 0xe6, 0x0e, 0x19, 0xdb,
    0xf5, 0x15, 0x15, 0x05, 0xee, 0x00, 0xf7, 0x07, 0x0a, 0xf7, 0xf2, 0xfc, 0x0c,
    0xe6, 0x12, 0xd0, 0x09, 0xf4, 0xee, 0x0d, 0xf7, 0x03, 0x00, 0x03, 0x01, 0xfb,
    0x13, 0xf7, 0x00, 0x14, 0x00, 0x0f, 0x14, 0x0b, 0xff, 0x06, 0x09, 0xe8, 0xfc,
    0x0d, 0xfe, 0x00, 0xf4, 0xef, 0x09, 0x07, 0x0f, 0x09, 0xea, 0x0d, 0xfb, 0x1a,
    0x0e, 0x01, 0x08, 0x0c, 0x0c, 0x06, 0x0e, 0xef, 0x0c, 0x1f, 0xf3, 0x19, 0x05,
    0x01, 0xf7, 0x00, 0x00, 0xda, 0x06, 0xdf, 0x0a, 0xf7, 0xf5, 0xf9, 0x07, 0xf9,
    0x09, 0xfb, 0xf2, 0x03, 0xfe, 0x19, 0x07, 0x05, 0x12, 0xff, 0x19, 0x14, 0xf6,
    0x07, 0x0a, 0xf7, 0x08, 0x0a, 0xff, 0x05, 0x06, 0x05, 0xeb, 0x20, 0x05, 0x11,
    0x0c, 0xf9, 0xe3, 0x09, 0xf5, 0x0d, 0xe5, 0x03, 0x08, 0xe4, 0x04, 0xf5, 0x0a,
    0xf6, 0xfe, 0xfb, 0x0d, 0xf8, 0xfb, 0xf7, 0xeb, 0xfd, 0xf7, 0xff, 0xfa, 0x04,
    0xfd, 0xf8, 0x07, 0xf4, 0x03, 0x01, 0xf9, 0xf6, 0xfe, 0x08, 0xfc, 0xfb, 0xf7,
    0xfd, 0x02, 0xfe, 0xf5, 0x09, 0xf0, 0xfa, 0xfa, 0xf7, 0x05, 0xfa, 0x03, 0xfa,
    0xfb, 0x0e, 0x02, 0x05, 0x10, 0x01, 0xf8, 0x07, 0x04, 0xd3, 0x0e, 0x03, 0x02,
    0xef, 0x00, 0xdc, 0x12, 0xfe, 0x03, 0x0d, 0xf3, 0x13, 0x00, 0x15, 0x06, 0x0b,
    0x10, 0x09, 0x0a, 0x05, 0x0b, 0xff, 0x0c, 0xfb, 0xf7, 0xfd, 0xfe, 0x00, 0xf6,
    0xf5, 0xfc, 0xff, 0xfb, 0x01, 0x03, 0xf7, 0x02, 0x05, 0xfd, 0x01, 0xfc, 0xfb,
    0xfe, 0x00, 0xff, 0x00, 0x03, 0xfc, 0xf8, 0x06, 0xfa, 0xfe, 0x03, 0xf6, 0xfb,
    0x12, 0xe0, 0xf7, 0x0b, 0xf9, 0xe7, 0xeb, 0x0e, 0xf0, 0xdd, 0xf9, 0xea, 0xc2,
    0x0a, 0x16, 0x04, 0x0c, 0xf3, 0xea, 0xd9, 0x05, 0x04, 0x21, 0xfc, 0xf8, 0xfe,
    0x11, 0xe2, 0xe5, 0xd6, 0x09, 0xee, 0x01, 0x00, 0x0a, 0xe6, 0x0c, 0x0c, 0x0c,
    0x0e, 0x1b, 0x01, 0x0f, 0xfc, 0xe1, 0xfb, 0x08, 0x06, 0x09, 0xdc, 0x04, 0x0d,
    0xe8, 0x0c, 0x0a, 0x15, 0xf0, 0xf6, 0xfa, 0x10, 0xfa, 0x00, 0xef, 0x07, 0xf7,
    0x11, 0xfa, 0xf6, 0x01, 0x08, 0x00, 0x14, 0x27, 0xf3, 0x01, 0xfd, 0xf4, 0x05,
    0x05, 0xfd, 0x04, 0xf5, 0xf8, 0x10, 0x0b, 0x18, 0xfb, 0xed, 0xf1, 0x06, 0xff,
    0xf4, 0xf0, 0x09, 0xfb, 0xf2, 0x10, 0x05, 0x0d, 0x0a, 0xf9, 0xf6, 0x11, 0xfe,
    0xdc, 0x14, 0xfa, 0x0c, 0xff, 0xfb, 0xef, 0x09, 0x05, 0x08, 0x12, 0xe8, 0x0d,
    0xf8, 0x0f, 0x11, 0x05, 0x0d, 0x07, 0x0f, 0x0c, 0x0d, 0x02, 0x12, 0xf6, 0xfd,
    0x03, 0xf9, 0xf1, 0xf3, 0x04, 0x00, 0xf7, 0xfc, 0xff, 0xf7, 0x03, 0x00, 0xf7,
    0xfb, 0x02, 0xf1, 0x01, 0xf9, 0xf6, 0xfc, 0xf3, 0xf7, 0xfe, 0xf5, 0xfd, 0xfa,
    0x01, 0xf8, 0x02, 0xf7, 0x3a, 0xff, 0xff, 0xff, 0x00, 0x00, 0x00, 0x09, 0x18,
    0x00, 0x00, 0x00, 0x03, 0x00, 0x00, 0x00, 0x08, 0x00, 0x00, 0x00, 0x18, 0x00,
    0x00, 0x00, 0x01, 0x00, 0x00, 0x00, 0x31, 0x00, 0x00, 0x00, 0x01, 0x00, 0x00,
    0x00, 0x00, 0x10, 0x00, 0x00, 0x04, 0x00, 0x06, 0x00, 0x04, 0x00, 0x00, 0x00,
    0x00, 0x00, 0x06, 0x00, 0x08, 0x00, 0x04, 0x00, 0x06, 0x00, 0x00, 0x00, 0x04,
    0x00, 0x00, 0x00, 0x80, 0x00, 0x00, 0x00, 0x6a, 0x42, 0x6a, 0x42, 0x6a, 0x42,
    0x6a, 0x42, 0x6a, 0x42, 0x6a, 0x42, 0x6a, 0x42, 0x6a, 0x42, 0x6a, 0x42, 0x6a,
    0x42, 0x6a, 0x42, 0x6a, 0x42, 0x6a, 0x42, 0x6a, 0x42, 0x6a, 0x42, 0x6a, 0x42,
    0x4d, 0xe6, 0xca, 0xea, 0x98, 0xce, 0x84, 0xdb, 0xdb, 0x0b, 0xd9, 0xcb, 0x50,
    0x04, 0xae, 0xc0, 0xd4, 0x05, 0xff, 0xde, 0x38, 0xc9, 0x2b, 0xed, 0x3f, 0xeb,
    0x22, 0xf0, 0xcb, 0x0b, 0x2c, 0xf9, 0x6a, 0x42, 0x6a, 0x42, 0x6a, 0x42, 0x6a,
    0x42, 0x6a, 0x42, 0x6a, 0x42, 0x6a, 0x42, 0x6a, 0x42, 0x6a, 0x42, 0x6a, 0x42,
    0x6a, 0x42, 0x6a, 0x42, 0x6a, 0x42, 0x6a, 0x42, 0x6a, 0x42, 0x6a, 0x42, 0x2a,
    0xda, 0xe0, 0x06, 0xee, 0xf0, 0x6c, 0xee, 0x8e, 0xa5, 0x0c, 0xe1, 0x38, 0x02,
    0x8e, 0xe6, 0xe2, 0xef, 0x28, 0xfb, 0x14, 0xfd, 0x77, 0xcc, 0x0b, 0xe0, 0x11,
    0x09, 0xe7, 0xe8, 0xab, 0xf2, 0x00, 0x00, 0x0e, 0x00, 0x18, 0x00, 0x08, 0x00,
    0x07, 0x00, 0x0c, 0x00, 0x10, 0x00, 0x14, 0x00, 0x0e, 0x00, 0x00, 0x00, 0x00,
    0x00, 0x00, 0x07, 0x18, 0x00, 0x00, 0x00, 0x02, 0x00, 0x00, 0x00, 0x08, 0x00,
    0x00, 0x00, 0x14, 0x00, 0x00, 0x00, 0x01, 0x00, 0x00, 0x00, 0x30, 0x00, 0x00,
    0x00, 0x01, 0x00, 0x00, 0x00, 0x40, 0x00, 0x00, 0x00, 0x58, 0xff, 0xff, 0xff,
    0x14, 0x00, 0x1c, 0x00, 0x08, 0x00, 0x07, 0x00, 0x0c, 0x00, 0x10, 0x00, 0x14,
    0x00, 0x00, 0x00, 0x00, 0x00, 0x18, 0x00, 0x14, 0x00, 0x00, 0x00, 0x00, 0x00,
    0x00, 0x09, 0x48, 0x00, 0x00, 0x00, 0x01, 0x00, 0x00, 0x00, 0x20, 0x00, 0x00,
    0x00, 0x5c, 0x00, 0x00, 0x00, 0x04, 0x00, 0x00, 0x00, 0x04, 0x00, 0x00, 0x00,
    0xff, 0xff, 0xff, 0xff, 0x01, 0x00, 0x00, 0x00, 0x04, 0x00, 0x00, 0x00, 0x20,
    0x00, 0x00, 0x00, 0x19, 0x00, 0x00, 0x00, 0x73, 0x65, 0x72, 0x76, 0x69, 0x6e,
    0x67, 0x5f, 0x64, 0x65, 0x66, 0x61, 0x75, 0x6c, 0x74, 0x5f, 0x69, 0x6e, 0x70,
    0x75, 0x74, 0x5f, 0x35, 0x3a, 0x30, 0x00, 0x00, 0x00, 0x04, 0x00, 0x00, 0x00,
    0x01, 0x00, 0x00, 0x00, 0x01, 0x00, 0x00, 0x00, 0x04, 0x00, 0x00, 0x00, 0x20,
    0x00, 0x00, 0x00, 0x0c, 0x00, 0x0c, 0x00, 0x00, 0x00, 0x00, 0x00, 0x04, 0x00,
    0x08, 0x00, 0x0c, 0x00, 0x00, 0x00, 0x14, 0x00, 0x00, 0x00, 0x04, 0x00, 0x00,
    0x00, 0x01, 0x00, 0x00, 0x00, 0x7f, 0x00, 0x00, 0x00, 0x00, 0x00, 0x00, 0x00,
    0x01, 0x00, 0x00, 0x00, 0x17, 0x56, 0xcb, 0x3d, 0x04, 0x00, 0x04, 0x00, 0x04,
    0x00, 0x00, 0x00,
};

const int vnr_model_data_len = 13640;