// This is a TensorFlow Lite model file that has been converted into a C data
// array using the convert_tflite_to_c_source() tool.

#if( USE_SWMEM == 1)
__attribute__((section(".SwMem_data")))
#elif( USE_EXTMEM == 1)
__attribute__((section(".ExtMem_data")))
#endif
const unsigned char vnr_model_data[] __attribute__((aligned(4))) = {
    0x20, 0x00, 0x00, 0x00, 0x54, 0x46, 0x4c, 0x33, 0x00, 0x00, 0x00, 0x00, 0x14,
    0x00, 0x20, 0x00, 0x04, 0x00, 0x08, 0x00, 0x0c, 0x00, 0x10, 0x00, 0x14, 0x00,
    0x00, 0x00, 0x18, 0x00, 0x1c, 0x00, 0x14, 0x00, 0x00, 0x00, 0x03, 0x00, 0x00,
    0x00, 0x6c, 0x00, 0x00, 0x00, 0x60, 0x00, 0x00, 0x00, 0x5c, 0x01, 0x00, 0x00,
    0x0c, 0x00, 0x00, 0x00, 0x04, 0x01, 0x00, 0x00, 0x6c, 0x00, 0x00, 0x00, 0x12,
    0x00, 0x00, 0x00, 0x38, 0x1f, 0x00, 0x00, 0x34, 0x1f, 0x00, 0x00, 0x00, 0x1e,
    0x00, 0x00, 0xb8, 0x19, 0x00, 0x00, 0xfc, 0x18, 0x00, 0x00, 0xc0, 0x10, 0x00,
    0x00, 0x04, 0x10, 0x00, 0x00, 0xc8, 0x08, 0x00, 0x00, 0x7c, 0x08, 0x00, 0x00,
    0x14, 0x1f, 0x00, 0x00, 0x10, 0x1f, 0x00, 0x00, 0x90, 0x05, 0x00, 0x00, 0x08,
    0x1f, 0x00, 0x00, 0xf8, 0x03, 0x00, 0x00, 0x00, 0x1f, 0x00, 0x00, 0xfc, 0x1e,
    0x00, 0x00, 0xf8, 0x1e, 0x00, 0x00, 0xe8, 0x00, 0x00, 0x00, 0x01, 0x00, 0x00,
    0x00, 0x20, 0x01, 0x00, 0x00, 0x04, 0x00, 0x00, 0x00, 0xb8, 0x07, 0x00, 0x00,
    0x58, 0x03, 0x00, 0x00, 0x7c, 0x02, 0x00, 0x00, 0xc0, 0x01, 0x00, 0x00, 0x01,
    0x00, 0x00, 0x00, 0x10, 0x00, 0x00, 0x00, 0x0c, 0x00, 0x14, 0x00, 0x10, 0x00,
    0x0c, 0x00, 0x08, 0x00, 0x04, 0x00, 0x0c, 0x00, 0x00, 0x00, 0x10, 0x00, 0x00,
    0x00, 0x14, 0x00, 0x00, 0x00, 0x24, 0x00, 0x00, 0x00, 0x28, 0x00, 0x00, 0x00,
    0x00, 0x00, 0x00, 0x00, 0x00, 0x00, 0x00, 0x00, 0x0f, 0x00, 0x00, 0x00, 0x73,
    0x65, 0x72, 0x76, 0x69, 0x6e, 0x67, 0x5f, 0x64, 0x65, 0x66, 0x61, 0x75, 0x6c,
    0x74, 0x00, 0x01, 0x00, 0x00, 0x00, 0x14, 0x00, 0x00, 0x00, 0x01, 0x00, 0x00,
    0x00, 0x30, 0x00, 0x00, 0x00, 0x08, 0x00, 0x0c, 0x00, 0x08, 0x00, 0x04, 0x00,
    0x08, 0x00, 0x00, 0x00, 0x0f, 0x00, 0x00, 0x00, 0x04, 0x00, 0x00, 0x00, 0x12,
    0x00, 0x00, 0x00, 0x71, 0x75, 0x61, 0x6e, 0x74, 0x5f, 0x61, 0x63, 0x74, 0x69,
    0x76, 0x61, 0x74, 0x69, 0x6f, 0x6e, 0x5f, 0x32, 0x00, 0x00, 0xe2, 0xe2, 0xff,
    0xff, 0x04, 0x00, 0x00, 0x00, 0x07, 0x00, 0x00, 0x00, 0x69, 0x6e, 0x70, 0x75,
    0x74, 0x5f, 0x31, 0x00, 0x01, 0x00, 0x00, 0x00, 0x0c, 0x00, 0x00, 0x00, 0x08,
    0x00, 0x0c, 0x00, 0x04, 0x00, 0x08, 0x00, 0x08, 0x00, 0x00, 0x00, 0x08, 0x00,
    0x00, 0x00, 0x11, 0x00, 0x00, 0x00, 0x13, 0x00, 0x00, 0x00, 0x6d, 0x69, 0x6e,
    0x5f, 0x72, 0x75, 0x6e, 0x74, 0x69, 0x6d, 0x65, 0x5f, 0x76, 0x65, 0x72, 0x73,
    0x69, 0x6f, 0x6e, 0x00, 0x2a, 0xe3, 0xff, 0xff, 0x04, 0x00, 0x00, 0x00, 0x10,
    0x00, 0x00, 0x00, 0x31, 0x2e, 0x31, 0x34, 0x2e, 0x30, 0x00, 0x00, 0x00, 0x00,
    0x00, 0x00, 0x00, 0x00, 0x00, 0x00, 0x0f, 0x00, 0x00, 0x00, 0x4d, 0x4c, 0x49,
    0x52, 0x20, 0x43, 0x6f, 0x6e, 0x76, 0x65, 0x72, 0x74, 0x65, 0x64, 0x2e, 0x00,
    0x00, 0x00, 0x0e, 0x00, 0x18, 0x00, 0x04, 0x00, 0x08, 0x00, 0x0c, 0x00, 0x10,
    0x00, 0x14, 0x00, 0x0e, 0x00, 0x00, 0x00, 0x4c, 0x00, 0x00, 0x00, 0x40, 0x00,
    0x00, 0x00, 0x34, 0x00, 0x00, 0x00, 0x14, 0x00, 0x00, 0x00, 0x04, 0x00, 0x00,
    0x00, 0x04, 0x00, 0x00, 0x00, 0x6d, 0x61, 0x69, 0x6e, 0x00, 0x00, 0x00, 0x00,
    0x06, 0x00, 0x00, 0x00, 0xb0, 0x05, 0x00, 0x00, 0x7c, 0x04, 0x00, 0x00, 0x00,
    0x03, 0x00, 0x00, 0xb8, 0x01, 0x00, 0x00, 0x10, 0x01, 0x00, 0x00, 0x58, 0x00,
    0x00, 0x00, 0x01, 0x00, 0x00, 0x00, 0x0f, 0x00, 0x00, 0x00, 0x01, 0x00, 0x00,
    0x00, 0x00, 0x00, 0x00, 0x00, 0x10, 0x00, 0x00, 0x00, 0xe4, 0x1c, 0x00, 0x00,
    0xa0, 0x1c, 0x00, 0x00, 0x08, 0x1c, 0x00, 0x00, 0xcc, 0x17, 0x00, 0x00, 0x10,
    0x17, 0x00, 0x00, 0xd4, 0x0e, 0x00, 0x00, 0x18, 0x0e, 0x00, 0x00, 0xdc, 0x06,
    0x00, 0x00, 0x50, 0x06, 0x00, 0x00, 0xe4, 0x04, 0x00, 0x00, 0xe4, 0x03, 0x00,
    0x00, 0x64, 0x03, 0x00, 0x00, 0x58, 0x02, 0x00, 0x00, 0xcc, 0x01, 0x00, 0x00,
    0xf0, 0x00, 0x00, 0x00, 0x34, 0x00, 0x00, 0x00, 0x56, 0xff, 0xff, 0xff, 0x03,
    0x00, 0x00, 0x00, 0x10, 0x00, 0x00, 0x00, 0x04, 0x00, 0x00, 0x00, 0x01, 0x00,
    0x00, 0x00, 0x0f, 0x00, 0x00, 0x00, 0x01, 0x00, 0x00, 0x00, 0x0e, 0x00, 0x00,
    0x00, 0x7c, 0xfe, 0xff, 0xff, 0x0e, 0x00, 0x00, 0x00, 0x00, 0x00, 0x00, 0x0e,
    0x02, 0x00, 0x00, 0x00, 0xa0, 0xe3, 0xff, 0xff, 0x00, 0x00, 0x00, 0x09, 0x40,
    0x00, 0x00, 0x00, 0x10, 0x00, 0x00, 0x00, 0x18, 0x00, 0x00, 0x00, 0x40, 0x00,
    0x00, 0x00, 0x04, 0x00, 0x00, 0x00, 0x02, 0x00, 0x00, 0x00, 0xff, 0xff, 0xff,
    0xff, 0x01, 0x00, 0x00, 0x00, 0x19, 0x00, 0x00, 0x00, 0x53, 0x74, 0x61, 0x74,
    0x65, 0x66, 0x75, 0x6c, 0x50, 0x61, 0x72, 0x74, 0x69, 0x74, 0x69, 0x6f, 0x6e,
    0x65, 0x64, 0x43, 0x61, 0x6c, 0x6c, 0x3a, 0x30, 0x00, 0x00, 0x00, 0x02, 0x00,
    0x00, 0x00, 0x01, 0x00, 0x00, 0x00, 0x01, 0x00, 0x00, 0x00, 0x7c, 0xe3, 0xff,
    0xff, 0x18, 0x00, 0x00, 0x00, 0x04, 0x00, 0x00, 0x00, 0x01, 0x00, 0x00, 0x00,
    0x80, 0xff, 0xff, 0xff, 0xff, 0xff, 0xff, 0xff, 0x00, 0x00, 0x00, 0x00, 0x01,
    0x00, 0x00, 0x00, 0x00, 0x00, 0x80, 0x3b, 0x00, 0x00, 0x0a, 0x00, 0x10, 0x00,
    0x04, 0x00, 0x08, 0x00, 0x0c, 0x00, 0x0a, 0x00, 0x00, 0x00, 0x02, 0x00, 0x00,
    0x00, 0x10, 0x00, 0x00, 0x00, 0x04, 0x00, 0x00, 0x00, 0x01, 0x00, 0x00, 0x00,
    0x0e, 0x00, 0x00, 0x00, 0x02, 0x00, 0x00, 0x00, 0x0d, 0x00, 0x00, 0x00, 0x07,
    0x00, 0x00, 0x00, 0x34, 0xff, 0xff, 0xff, 0x16, 0x00, 0x00, 0x00, 0x00, 0x00,
    0x00, 0x16, 0x01, 0x00, 0x00, 0x00, 0x58, 0xe4, 0xff, 0xff, 0x00, 0x00, 0x00,
    0x09, 0x28, 0x00, 0x00, 0x00, 0x0f, 0x00, 0x00, 0x00, 0x18, 0x00, 0x00, 0x00,
    0x28, 0x00, 0x00, 0x00, 0x04, 0x00, 0x00, 0x00, 0x02, 0x00, 0x00, 0x00, 0xff,
    0xff, 0xff, 0xff, 0x01, 0x00, 0x00, 0x00, 0x01, 0x00, 0x00, 0x00, 0x44, 0x00,
    0x00, 0x00, 0x02, 0x00, 0x00, 0x00, 0x01, 0x00, 0x00, 0x00, 0x01, 0x00, 0x00,
    0x00, 0x1c, 0xe4, 0xff, 0xff, 0x18, 0x00, 0x00, 0x00, 0x04, 0x00, 0x00, 0x00,
    0x01, 0x00, 0x00, 0x00, 0xed, 0xff, 0xff, 0xff, 0xff, 0xff, 0xff, 0xff, 0x00,
    0x00, 0x00, 0x00, 0x01, 0x00, 0x00, 0x00, 0x02, 0x18, 0x8b, 0x3d, 0x00, 0x00,
    0x0e, 0x00, 0x1a, 0x00, 0x08, 0x00, 0x0c, 0x00, 0x10, 0x00, 0x07, 0x00, 0x14,
    0x00, 0x0e, 0x00, 0x00, 0x00, 0x00, 0x00, 0x00, 0x01, 0x01, 0x00, 0x00, 0x00,
    0x30, 0x00, 0x00, 0x00, 0x24, 0x00, 0x00, 0x00, 0x10, 0x00, 0x00, 0x00, 0x00,
    0x00, 0x0a, 0x00, 0x10, 0x00, 0x0f, 0x00, 0x04, 0x00, 0x08, 0x00, 0x0a, 0x00,
    0x00, 0x00, 0x01, 0x00, 0x00, 0x00, 0x01, 0x00, 0x00, 0x00, 0x00, 0x00, 0x00,
    0x01, 0x01, 0x00, 0x00, 0x00, 0x0d, 0x00, 0x00, 0x00, 0x03, 0x00, 0x00, 0x00,
    0x0b, 0x00, 0x00, 0x00, 0x0c, 0x00, 0x00, 0x00, 0x0a, 0x00, 0x00, 0x00, 0x0c,
    0x00, 0x10, 0x00, 0x0b, 0x00, 0x00, 0x00, 0x0c, 0x00, 0x04, 0x00, 0x0c, 0x00,
    0x00, 0x00, 0x03, 0x00, 0x00, 0x00, 0x00, 0x00, 0x00, 0x03, 0x03, 0x00, 0x00,
    0x00, 0x30, 0xe5, 0xff, 0xff, 0x00, 0x00, 0x00, 0x09, 0x30, 0x00, 0x00, 0x00,
    0x0e, 0x00, 0x00, 0x00, 0x20, 0x00, 0x00, 0x00, 0x38, 0x00, 0x00, 0x00, 0x04,
    0x00, 0x00, 0x00, 0x04, 0x00, 0x00, 0x00, 0xff, 0xff, 0xff, 0xff, 0x01, 0x00,
    0x00, 0x00, 0x01, 0x00, 0x00, 0x00, 0x01, 0x00, 0x00, 0x00, 0x01, 0x00, 0x00,
    0x00, 0x43, 0x00, 0x00, 0x00, 0x04, 0x00, 0x00, 0x00, 0x01, 0x00, 0x00, 0x00,
    0x01, 0x00, 0x00, 0x00, 0x01, 0x00, 0x00, 0x00, 0x01, 0x00, 0x00, 0x00, 0x04,
    0xe5, 0xff, 0xff, 0x14, 0x00, 0x00, 0x00, 0x04, 0x00, 0x00, 0x00, 0x01, 0x00,
    0x00, 0x00, 0xed, 0xff, 0xff, 0xff, 0xff, 0xff, 0xff, 0xff, 0x01, 0x00, 0x00,
    0x00, 0x02, 0x18, 0x8b, 0x3d, 0x2a, 0xe6, 0xff, 0xff, 0x04, 0x00, 0x00, 0x00,
    0x10, 0x00, 0x00, 0x00, 0x9b, 0x2e, 0xad, 0x9d, 0x3d, 0x9e, 0x32, 0x81, 0x2d,
    0x27, 0x27, 0x2d, 0x2c, 0x54, 0x9e, 0x53, 0xf2, 0xe5, 0xff, 0xff, 0x00, 0x00,
    0x00, 0x09, 0x18, 0x00, 0x00, 0x00, 0x0d, 0x00, 0x00, 0x00, 0x08, 0x00, 0x00,
    0x00, 0x20, 0x00, 0x00, 0x00, 0x01, 0x00, 0x00, 0x00, 0x42, 0x00, 0x00, 0x00,
    0x04, 0x00, 0x00, 0x00, 0x01, 0x00, 0x00, 0x00, 0x01, 0x00, 0x00, 0x00, 0x01,
    0x00, 0x00, 0x00, 0x10, 0x00, 0x00, 0x00, 0x74, 0xe5, 0xff, 0xff, 0x14, 0x00,
    0x00, 0x00, 0x04, 0x00, 0x00, 0x00, 0x01, 0x00, 0x00, 0x00, 0x00, 0x00, 0x00,
    0x00, 0x00, 0x00, 0x00, 0x00, 0x01, 0x00, 0x00, 0x00, 0x29, 0x17, 0x48, 0x3a,
    0x68, 0xfd, 0xff, 0xff, 0xa0, 0x00, 0x00, 0x00, 0x94, 0x00, 0x00, 0x00, 0x04,
    0x00, 0x00, 0x00, 0x87, 0x00, 0x00, 0x00, 0x6b, 0x74, 0x00, 0x6d, 0x70, 0x00,
    0x08, 0x40, 0x00, 0x00, 0x00, 0x40, 0x00, 0x00, 0x00, 0x00, 0x61, 0x67, 0x67,
    0x70, 0x00, 0x18, 0x00, 0x04, 0x00, 0x00, 0x00, 0x00, 0x00, 0x00, 0x00, 0x00,
    0x00, 0x00, 0x01, 0x00, 0x00, 0x00, 0x00, 0x00, 0x00, 0x00, 0x00, 0x00, 0x00,
    0x00, 0x00, 0x6f, 0x74, 0x70, 0x00, 0x08, 0x10, 0x00, 0x00, 0x00, 0x02, 0x00,
    0xfc, 0xff, 0x00, 0x73, 0x63, 0x72, 0x61, 0x74, 0x63, 0x68, 0x00, 0x61, 0x6b,
    0x70, 0x00, 0x20, 0x00, 0x00, 0x00, 0x00, 0x01, 0x00, 0x00, 0x00, 0x00, 0x00,
    0x00, 0x00, 0x01, 0x00, 0x00, 0x00, 0x01, 0x00, 0x00, 0x00, 0x00, 0x00, 0x00,
    0x00, 0x00, 0x00, 0x00, 0x00, 0x10, 0x00, 0x00, 0x00, 0x00, 0x01, 0x22, 0x14,
    0x06, 0x5f, 0x2b, 0x71, 0x6f, 0x44, 0x37, 0x06, 0x01, 0x06, 0x62, 0x0d, 0x00,
    0x74, 0x48, 0x00, 0x14, 0x28, 0x04, 0x14, 0x14, 0x04, 0x0c, 0x24, 0x01, 0x00,
    0x01, 0x00, 0x00, 0x00, 0x0b, 0x00, 0x00, 0x00, 0x03, 0x00, 0x00, 0x00, 0x09,
    0x00, 0x00, 0x00, 0x02, 0x00, 0x00, 0x00, 0x01, 0x00, 0x00, 0x00, 0xc0, 0xe6,
    0xff, 0xff, 0x00, 0x00, 0x00, 0x09, 0x30, 0x00, 0x00, 0x00, 0x0c, 0x00, 0x00,
    0x00, 0x20, 0x00, 0x00, 0x00, 0x38, 0x00, 0x00, 0x00, 0x04, 0x00, 0x00, 0x00,
    0x04, 0x00, 0x00, 0x00, 0xff, 0xff, 0xff, 0xff, 0x01, 0x00, 0x00, 0x00, 0x01,
    0x00, 0x00, 0x00, 0x10, 0x00, 0x00, 0x00, 0x01, 0x00, 0x00, 0x00, 0x41, 0x00,
    0x00, 0x00, 0x04, 0x00, 0x00, 0x00, 0x01, 0x00, 0x00, 0x00, 0x01, 0x00, 0x00,
    0x00, 0x01, 0x00, 0x00, 0x00, 0x10, 0x00, 0x00, 0x00, 0x94, 0xe6, 0xff, 0xff,
    0x14, 0x00, 0x00, 0x00, 0x04, 0x00, 0x00, 0x00, 0x01, 0x00, 0x00, 0x00, 0x80,
    0xff, 0xff, 0xff, 0xff, 0xff, 0xff, 0xff, 0x01, 0x00, 0x00, 0x00, 0x0b, 0x35,
    0x05, 0x3e, 0xba, 0xe7, 0xff, 0xff, 0x04, 0x00, 0x00, 0x00, 0x04, 0x00, 0x00,
    0x00, 0x5a, 0xef, 0xff, 0xff, 0x76, 0xe7, 0xff, 0xff, 0x00, 0x00, 0x00, 0x02,
    0x18, 0x00, 0x00, 0x00, 0x0b, 0x00, 0x00, 0x00, 0x08, 0x00, 0x00, 0x00, 0x14,
    0x00, 0x00, 0x00, 0x01, 0x00, 0x00, 0x00, 0x39, 0x00, 0x00, 0x00, 0x01, 0x00,
    0x00, 0x00, 0x01, 0x00, 0x00, 0x00, 0xec, 0xe6, 0xff, 0xff, 0x14, 0x00, 0x00,
    0x00, 0x04, 0x00, 0x00, 0x00, 0x01, 0x00, 0x00, 0x00, 0x00, 0x00, 0x00, 0x00,
    0x00, 0x00, 0x00, 0x00, 0x01, 0x00, 0x00, 0x00, 0xfc, 0x3a, 0xd0, 0x38, 0xe0,
    0xfe, 0xff, 0xff, 0xa0, 0x00, 0x00, 0x00, 0x94, 0x00, 0x00, 0x00, 0x04, 0x00,
    0x00, 0x00, 0x87, 0x00, 0x00, 0x00, 0x6b, 0x74, 0x00, 0x6d, 0x70, 0x00, 0x08,
    0x60, 0x00, 0x00, 0x00, 0x20, 0x00, 0x00, 0x00, 0x00, 0x61, 0x67, 0x67, 0x70,
    0x00, 0x18, 0x00, 0x04, 0x00, 0x00, 0x00, 0x00, 0x00, 0x00, 0x01, 0x00, 0x00,
    0x00, 0x00, 0x00, 0x00, 0x00, 0x00, 0x00, 0x00, 0x00, 0x20, 0x00, 0x00, 0x00,
    0x00, 0x6f, 0x74, 0x70, 0x00, 0x08, 0x20, 0x00, 0x00, 0x00, 0x04, 0x00, 0xfa,
    0xff, 0x00, 0x73, 0x63, 0x72, 0x61, 0x74, 0x63, 0x68, 0x00, 0x61, 0x6b, 0x70,
    0x00, 0x20, 0x00, 0x00, 0x00, 0x00, 0x01, 0x00, 0x00, 0x00, 0x00, 0x00, 0x00,
    0x00, 0x02, 0x00, 0x00, 0x00, 0x02, 0x00, 0x00, 0x00, 0x00, 0x00, 0x00, 0x00,
    0x00, 0x00, 0x00, 0x00, 0x20, 0x00, 0x00, 0x00, 0x00, 0x01, 0x22, 0x14, 0x06,
    0x5f, 0x2b, 0x71, 0x6f, 0x44, 0x37, 0x06, 0x01, 0x06, 0x62, 0x0d, 0x00, 0x74,
    0x48, 0x00, 0x14, 0x28, 0x04, 0x14, 0x14, 0x04, 0x0c, 0x24, 0x01, 0x00, 0x01,
    0x00, 0x00, 0x00, 0x09, 0x00, 0x00, 0x00, 0x03, 0x00, 0x00, 0x00, 0x08, 0x00,
    0x00, 0x00, 0x04, 0x00, 0x00, 0x00, 0x03, 0x00, 0x00, 0x00, 0x38, 0xe8, 0xff,
    0xff, 0x00, 0x00, 0x00, 0x09, 0x30, 0x00, 0x00, 0x00, 0x0a, 0x00, 0x00, 0x00,
    0x20, 0x00, 0x00, 0x00, 0x38, 0x00, 0x00, 0x00, 0x04, 0x00, 0x00, 0x00, 0x04,
    0x00, 0x00, 0x00, 0xff, 0xff, 0xff, 0xff, 0x01, 0x00, 0x00, 0x00, 0x02, 0x00,
    0x00, 0x00, 0x20, 0x00, 0x00, 0x00, 0x01, 0x00, 0x00, 0x00, 0x38, 0x00, 0x00,
    0x00, 0x04, 0x00, 0x00, 0x00, 0x01, 0x00, 0x00, 0x00, 0x01, 0x00, 0x00, 0x00,
    0x02, 0x00, 0x00, 0x00, 0x20, 0x00, 0x00, 0x00, 0x0c, 0xe8, 0xff, 0xff, 0x14,
    0x00, 0x00, 0x00, 0x04, 0x00, 0x00, 0x00, 0x01, 0x00, 0x00, 0x00, 0x80, 0xff,
    0xff, 0xff, 0xff, 0xff, 0xff, 0xff, 0x01, 0x00, 0x00, 0x00, 0xd8, 0x02, 0xf2,
    0x3d, 0x10, 0x00, 0x10, 0x00, 0x00, 0x00, 0x04, 0x00, 0x08, 0x00, 0x00, 0x00,
    0x00, 0x00, 0x0c, 0x00, 0x10, 0x00, 0x00, 0x00, 0xa8, 0x00, 0x00, 0x00, 0x9c,
    0x00, 0x00, 0x00, 0x04, 0x00, 0x00, 0x00, 0x8f, 0x00, 0x00, 0x00, 0x6b, 0x74,
    0x00, 0x6d, 0x70, 0x00, 0x20, 0x60, 0x00, 0x00, 0x00, 0x18, 0x00, 0x00, 0x00,
    0x00, 0x00, 0x00, 0x00, 0x01, 0x00, 0x00, 0x00, 0x00, 0x00, 0x00, 0x00, 0x08,
    0x00, 0x00, 0x00, 0xf8, 0xff, 0xff, 0xff, 0x30, 0x00, 0x00, 0x00, 0x00, 0x61,
    0x67, 0x67, 0x70, 0x00, 0x08, 0x20, 0x00, 0x00, 0x00, 0x30, 0x00, 0x00, 0x00,
    0x00, 0x6f, 0x74, 0x70, 0x00, 0x08, 0x20, 0x00, 0x00, 0x00, 0x04, 0x00, 0xfc,
    0xff, 0x00, 0x73, 0x63, 0x72, 0x61, 0x74, 0x63, 0x68, 0x00, 0x61, 0x6b, 0x70,
    0x00, 0x20, 0x00, 0x00, 0x00, 0x00, 0x01, 0x00, 0x00, 0x00, 0x00, 0x00, 0x00,
    0x00, 0x03, 0x00, 0x00, 0x00, 0x02, 0x00, 0x00, 0x00, 0x00, 0x00, 0x00, 0x00,
    0x00, 0x00, 0x00, 0x00, 0x20, 0x00, 0x00, 0x00, 0x00, 0x01, 0x22, 0x14, 0x06,
    0x4f, 0x2b, 0x79, 0x77, 0x44, 0x37, 0x06, 0x01, 0x06, 0x52, 0x0d, 0x01, 0x7c,
    0x48, 0x60, 0x14, 0x28, 0x04, 0x14, 0x14, 0x04, 0x0c, 0x24, 0x01, 0x00, 0x01,
    0x00, 0x00, 0x00, 0x08, 0x00, 0x00, 0x00, 0x03, 0x00, 0x00, 0x00, 0x00, 0x00,
    0x00, 0x00, 0x06, 0x00, 0x00, 0x00, 0x05, 0x00, 0x00, 0x00, 0x0c, 0x00, 0x10,
    0x00, 0x0f, 0x00, 0x08, 0x00, 0x00, 0x00, 0x04, 0x00, 0x0c, 0x00, 0x00, 0x00,
    0x20, 0x00, 0x00, 0x00, 0x08, 0x00, 0x00, 0x00, 0x00, 0x00, 0x00, 0x20, 0x0c,
    0x00, 0x00, 0x00, 0x58, 0x43, 0x5f, 0x63, 0x6f, 0x6e, 0x76, 0x32, 0x64, 0x5f,
    0x76, 0x32, 0x00, 0x00, 0x00, 0x00, 0xa0, 0xe9, 0xff, 0xff, 0x00, 0x00, 0x00,
    0x09, 0x30, 0x00, 0x00, 0x00, 0x09, 0x00, 0x00, 0x00, 0x20, 0x00, 0x00, 0x00,
    0x38, 0x00, 0x00, 0x00, 0x04, 0x00, 0x00, 0x00, 0x04, 0x00, 0x00, 0x00, 0xff,
    0xff, 0xff, 0xff, 0x01, 0x00, 0x00, 0x00, 0x03, 0x00, 0x00, 0x00, 0x20, 0x00,
    0x00, 0x00, 0x01, 0x00, 0x00, 0x00, 0x37, 0x00, 0x00, 0x00, 0x04, 0x00, 0x00,
    0x00, 0x01, 0x00, 0x00, 0x00, 0x01, 0x00, 0x00, 0x00, 0x03, 0x00, 0x00, 0x00,
    0x20, 0x00, 0x00, 0x00, 0x74, 0xe9, 0xff, 0xff, 0x14, 0x00, 0x00, 0x00, 0x04,
    0x00, 0x00, 0x00, 0x01, 0x00, 0x00, 0x00, 0x80, 0xff, 0xff, 0xff, 0xff, 0xff,
    0xff, 0xff, 0x01, 0x00, 0x00, 0x00, 0x1d, 0x2a, 0x3b, 0x3e, 0x9a, 0xea, 0xff,
    0xff, 0x04, 0x00, 0x00, 0x00, 0x10, 0x00, 0x00, 0x00, 0xff, 0xff, 0xff, 0xff,
    0xff, 0xff, 0xff, 0xff, 0x01, 0x00, 0x00, 0x00, 0x00, 0x00, 0x00, 0x00, 0x62,
    0xea, 0xff, 0xff, 0x00, 0x00, 0x00, 0x04, 0x18, 0x00, 0x00, 0x00, 0x08, 0x00,
    0x00, 0x00, 0x08, 0x00, 0x00, 0x00, 0x14, 0x00, 0x00, 0x00, 0x01, 0x00, 0x00,
    0x00, 0x36, 0x00, 0x00, 0x00, 0x01, 0x00, 0x00, 0x00, 0x02, 0x00, 0x00, 0x00,
    0xac, 0xe9, 0xff, 0xff, 0xe2, 0xea, 0xff, 0xff, 0x04, 0x00, 0x00, 0x00, 0x00,
    0x07, 0x00, 0x00, 0xfe, 0xea, 0x1d, 0xf1, 0x01, 0xe6, 0x04, 0xce, 0xcd, 0xf8,
    0x74, 0x72, 0x10, 0xbd, 0x9b, 0xf9, 0x08, 0xe9, 0x1d, 0x14, 0xf4, 0x17, 0x06,
    0xee, 0xec, 0xef, 0x13, 0xe5, 0x22, 0x0e, 0x00, 0xd0, 0x10, 0x0a, 0x9e, 0xd7,
    0x14, 0x08, 0x7a, 0x49, 0x2b, 0x32, 0x12, 0x38, 0x1d, 0x3d, 0x45, 0x11, 0xe4,
    0x06, 0xf5, 0x7f, 0x52, 0x13, 0x1a, 0x07, 0xf4, 0xfc, 0xa1, 0xbc, 0xe0, 0x27,
    0x31, 0x04, 0x81, 0x1c, 0x2d, 0x22, 0xfa, 0x53, 0x47, 0x0c, 0x13, 0x42, 0x4a,
    0x42, 0x49, 0x09, 0xcd, 0xea, 0x34, 0xd5, 0xf7, 0xd6, 0xf4, 0xd6, 0xc1, 0x04,
    0xae, 0x4f, 0x52, 0x2c, 0xc6, 0x05, 0xe7, 0xde, 0x6f, 0x87, 0xba, 0xb3, 0xe0,
    0x13, 0xc1, 0xd2, 0xf6, 0xf5, 0x13, 0xea, 0xfd, 0xcc, 0xd5, 0x06, 0x11, 0xf3,
    0x68, 0x40, 0x4c, 0x31, 0xf4, 0x62, 0x7f, 0xc1, 0xea, 0xd3, 0xd9, 0xaf, 0xd7,
    0x0d, 0xdd, 0xc5, 0xd4, 0xe4, 0xba, 0x9d, 0xa8, 0xce, 0xd2, 0xcc, 0xe3, 0xce,
    0xd2, 0xde, 0x19, 0x09, 0xf4, 0xf0, 0xef, 0x02, 0xf1, 0xd4, 0xf3, 0xf8, 0x34,
    0x34, 0x49, 0x62, 0x7f, 0x23, 0x25, 0x33, 0x29, 0xf1, 0x11, 0x04, 0xee, 0x26,
    0xe8, 0xfb, 0xc3, 0x81, 0xa3, 0x5a, 0x59, 0x0a, 0x6e, 0x2a, 0xb6, 0x33, 0xeb,
    0xfe, 0xfd, 0xd5, 0x21, 0xe0, 0x36, 0xfd, 0x17, 0x05, 0x18, 0x14, 0xde, 0xfc,
    0xd2, 0x36, 0xc5, 0x21, 0xea, 0x11, 0x19, 0xfa, 0xdd, 0xd1, 0xf8, 0x01, 0xea,
    0x06, 0x11, 0x05, 0xdf, 0x1a, 0xd0, 0x01, 0x77, 0x6c, 0xec, 0x94, 0xd3, 0x45,
    0xe4, 0x10, 0xf2, 0x15, 0x17, 0x17, 0xb6, 0x23, 0x35, 0xca, 0xfc, 0xd6, 0x02,
    0x29, 0x18, 0x0f, 0xd1, 0xe1, 0x25, 0x20, 0xe2, 0x19, 0x2b, 0x1a, 0xec, 0xa0,
    0xcf, 0xb8, 0xfb, 0x7f, 0xc1, 0x2f, 0x5c, 0xb9, 0x19, 0x2d, 0x22, 0x31, 0x27,
    0xcc, 0x81, 0x95, 0x8d, 0x90, 0x99, 0xb2, 0xcb, 0xe5, 0xde, 0xe5, 0x0b, 0xfe,
    0xde, 0x23, 0x1b, 0x28, 0x2b, 0x28, 0x1c, 0x50, 0xe6, 0xf9, 0x27, 0x16, 0x96,
    0xb7, 0xe1, 0xcb, 0x98, 0xb3, 0xc3, 0x30, 0xe5, 0x2c, 0xb7, 0xd9, 0xe7, 0xee,
    0x0f, 0xd0, 0x81, 0xb4, 0x2b, 0x37, 0xd5, 0xea, 0xab, 0x94, 0x70, 0xe4, 0xc5,
    0xc4, 0x27, 0x36, 0xc4, 0x0e, 0xc4, 0x0d, 0xf0, 0x19, 0x2c, 0x19, 0xe7, 0xbb,
    0xe4, 0x38, 0xab, 0x57, 0x13, 0x56, 0xf1, 0x38, 0x0f, 0xe4, 0x40, 0xc7, 0x2f,
    0x46, 0x0b, 0xed, 0x36, 0x52, 0x53, 0x43, 0x4c, 0xe7, 0xc3, 0xb0, 0x49, 0x4d,
    0xcc, 0x33, 0xe3, 0x46, 0xbe, 0x81, 0xcf, 0xa7, 0xe2, 0xda, 0xdc, 0xba, 0xe4,
    0xe9, 0xd7, 0xe0, 0xe5, 0x34, 0x31, 0x1e, 0x35, 0xf2, 0xfd, 0x0f, 0x20, 0x1a,
    0xe8, 0x11, 0x3d, 0x40, 0x6b, 0x4c, 0x0c, 0xf3, 0x40, 0xf3, 0xf1, 0x1d, 0x00,
    0xdc, 0x30, 0x7f, 0x14, 0xfe, 0xc9, 0x00, 0x18, 0x21, 0xd5, 0xde, 0x0e, 0xe0,
    0xd3, 0x16, 0xe3, 0x03, 0xed, 0xd6, 0x35, 0x03, 0x14, 0xed, 0xef, 0xc0, 0x0c,
    0x76, 0x1b, 0xf8, 0xee, 0x59, 0xe5, 0x75, 0xfd, 0xb3, 0x92, 0x03, 0x52, 0x4a,
    0x73, 0x0f, 0x5f, 0xc3, 0xa7, 0xc8, 0x40, 0x97, 0x21, 0x24, 0x4d, 0x20, 0x7f,
    0xe4, 0xcd, 0x60, 0xe9, 0x64, 0x01, 0x22, 0x61, 0x4f, 0xb5, 0xfa, 0xd6, 0x69,
    0x51, 0xb6, 0x43, 0x27, 0xc9, 0xa0, 0x09, 0xe1, 0x04, 0xf9, 0x1d, 0xf9, 0x4c,
    0x7f, 0x39, 0x0a, 0xe2, 0xc4, 0xc4, 0xfd, 0x86, 0xd1, 0xd5, 0x5b, 0x51, 0xca,
    0x27, 0x1e, 0x29, 0x31, 0x4b, 0x0d, 0xc7, 0xdb, 0x22, 0x1d, 0xeb, 0xf2, 0x4c,
    0xff, 0xe6, 0x0b, 0x22, 0x0c, 0xe6, 0x59, 0xcb, 0x16, 0xbd, 0x0b, 0xf5, 0xd2,
    0x24, 0x46, 0x04, 0xd7, 0xc6, 0x81, 0x10, 0x09, 0xbd, 0x01, 0x73, 0x7f, 0x11,
    0x9a, 0xc8, 0xe2, 0x0a, 0x13, 0x32, 0xe9, 0xf0, 0xff, 0xe1, 0x17, 0x11, 0xd4,
    0xda, 0xf6, 0x12, 0x0c, 0x1e, 0xe4, 0xf6, 0xdb, 0xc4, 0x1f, 0x13, 0xfd, 0x08,
    0xe1, 0xe7, 0xf8, 0xe2, 0xdb, 0xde, 0x23, 0xea, 0xf1, 0x38, 0xcd, 0x26, 0xf4,
    0x24, 0xdd, 0xdd, 0xfb, 0xed, 0x05, 0x23, 0x30, 0xfa, 0xb7, 0xc1, 0x17, 0x0e,
    0xfb, 0x44, 0x0a, 0x16, 0xdd, 0xf6, 0x45, 0x3f, 0x2d, 0x2d, 0x41, 0x1d, 0x0a,
    0x03, 0x23, 0x2b, 0x2e, 0x2b, 0xed, 0xf5, 0xe2, 0x0b, 0xd3, 0xc4, 0x87, 0xdd,
    0x53, 0x55, 0x1b, 0x54, 0x14, 0xa6, 0x12, 0xd5, 0x0b, 0x01, 0xa6, 0x22, 0x10,
    0x06, 0xff, 0x1d, 0x26, 0xe7, 0xd0, 0x20, 0xf2, 0xd4, 0x05, 0xa6, 0xff, 0x79,
    0x47, 0x13, 0x81, 0x13, 0x26, 0x17, 0xfb, 0x10, 0xf9, 0xbc, 0xd2, 0x30, 0xe3,
    0x05, 0x98, 0xf9, 0xa1, 0x2a, 0x70, 0xd2, 0x18, 0x1a, 0xed, 0x24, 0x0c, 0xca,
    0xf1, 0x1a, 0x2b, 0xf4, 0x6a, 0x31, 0x5a, 0xe6, 0xf3, 0x41, 0x31, 0x06, 0x24,
    0x64, 0x60, 0xf0, 0x27, 0xf0, 0xfd, 0x55, 0x22, 0xc3, 0xd3, 0xef, 0x32, 0xe9,
    0x1a, 0x3a, 0x1b, 0x4a, 0x09, 0x33, 0x3c, 0x2a, 0xf0, 0xe0, 0x43, 0x7f, 0x47,
    0xfd, 0x1a, 0xfa, 0x11, 0xf6, 0xf4, 0xe3, 0x4a, 0x43, 0xf0, 0x13, 0xe0, 0xd9,
    0x19, 0x0c, 0xe5, 0x09, 0xf7, 0xef, 0x07, 0x0d, 0x1e, 0xf0, 0x0d, 0x2b, 0xc9,
    0xe3, 0x1f, 0xf5, 0x1a, 0xf0, 0xcc, 0x2e, 0xe0, 0xbd, 0x00, 0xc3, 0x66, 0x7c,
    0xb5, 0x59, 0xff, 0x37, 0x3d, 0x4e, 0xd4, 0xa3, 0x70, 0x36, 0xdf, 0xf1, 0xab,
    0x0a, 0xee, 0x03, 0xf5, 0x22, 0xe4, 0x24, 0x56, 0x3b, 0x2e, 0xf1, 0xa4, 0xaf,
    0x17, 0xcf, 0xde, 0x5a, 0x0b, 0xde, 0xf4, 0x32, 0xdf, 0xd5, 0x5f, 0xe8, 0x10,
    0xce, 0xf6, 0x0d, 0xcb, 0x00, 0x6d, 0xdd, 0x43, 0x33, 0xca, 0x13, 0x42, 0x0b,
    0xe2, 0xd7, 0xf0, 0xee, 0x28, 0x37, 0x7c, 0x28, 0xe0, 0x14, 0x06, 0xeb, 0xca,
    0xc9, 0xe6, 0xd0, 0x4f, 0x28, 0x2d, 0xdc, 0xac, 0xd6, 0xee, 0x5e, 0xc0, 0x5f,
    0xfc, 0x45, 0x49, 0x2b, 0x1e, 0xf3, 0x0d, 0xee, 0xfd, 0x1c, 0x26, 0xec, 0xea,
    0x21, 0xdc, 0x0c, 0xd7, 0xf3, 0xf8, 0xf2, 0x03, 0x17, 0x81, 0x06, 0xb6, 0xd5,
    0xfa, 0xef, 0x15, 0x19, 0xc0, 0x16, 0x90, 0xab, 0xd6, 0x2b, 0x29, 0x04, 0x01,
    0x12, 0xed, 0x13, 0x22, 0x18, 0x22, 0x3a, 0xd8, 0x4e, 0x0d, 0x42, 0x15, 0xf9,
    0xb6, 0xe5, 0xd6, 0x27, 0x81, 0x93, 0xf6, 0x3d, 0x60, 0x00, 0x32, 0x2a, 0xd5,
    0xab, 0x26, 0x56, 0xef, 0x02, 0xf4, 0xec, 0xfc, 0xd8, 0x81, 0xed, 0x39, 0xed,
    0xf6, 0xe4, 0xf5, 0xfd, 0xe3, 0x08, 0x14, 0xf2, 0xfc, 0x26, 0xdf, 0x8a, 0x09,
    0x49, 0x0c, 0xbf, 0x3a, 0x7f, 0x14, 0x0a, 0x15, 0xee, 0x00, 0x06, 0xe1, 0xb7,
    0xbf, 0xe8, 0xdc, 0xf8, 0x23, 0x11, 0xc9, 0xf8, 0x16, 0x0e, 0xfc, 0x28, 0x39,
    0xbe, 0x36, 0x59, 0x23, 0x1e, 0x1e, 0xed, 0x00, 0xf1, 0xf2, 0xd4, 0xeb, 0xfd,
    0xe1, 0x11, 0x08, 0x11, 0x10, 0x29, 0x32, 0x4a, 0x37, 0x59, 0x73, 0x43, 0x6f,
    0x6a, 0x32, 0x2e, 0x04, 0x09, 0x00, 0xfc, 0x29, 0x1a, 0x24, 0x01, 0x0d, 0xfa,
    0xff, 0x0c, 0x11, 0xde, 0x5e, 0xdc, 0x1a, 0xa8, 0xf1, 0x3a, 0x40, 0x21, 0x12,
    0x70, 0x7f, 0xd2, 0x62, 0x32, 0xf5, 0x08, 0x71, 0xdd, 0xc5, 0x4a, 0x90, 0x62,
    0xa6, 0xf4, 0x4d, 0x59, 0x53, 0x44, 0x72, 0xb8, 0x4d, 0x15, 0x6e, 0x4c, 0xd2,
    0x30, 0xdd, 0xf7, 0x00, 0x48, 0x4b, 0x0f, 0x9e, 0x33, 0xf5, 0x0e, 0xba, 0x7c,
    0xb9, 0x10, 0xc3, 0x7f, 0x62, 0x57, 0x67, 0xd4, 0xdd, 0x25, 0xec, 0x79, 0x31,
    0x11, 0xf1, 0xf2, 0xf4, 0x0e, 0x0e, 0xfc, 0x2a, 0x40, 0x5c, 0x28, 0xa2, 0x81,
    0xf8, 0x16, 0xe8, 0x17, 0x24, 0x0d, 0xd5, 0xfa, 0xdc, 0x0e, 0x08, 0x1f, 0xff,
    0x0a, 0x1e, 0x23, 0x0a, 0xf2, 0x13, 0x53, 0xb1, 0xf4, 0x14, 0x05, 0xf5, 0x0d,
    0xf1, 0x07, 0x05, 0x09, 0x07, 0x19, 0x15, 0xf2, 0x35, 0xd7, 0xc4, 0xbd, 0xa6,
    0x55, 0xf5, 0x4b, 0x5a, 0x0f, 0xa2, 0xce, 0x16, 0x15, 0xf2, 0x05, 0xf2, 0x28,
    0xda, 0xed, 0x08, 0xfd, 0xde, 0x0f, 0xf2, 0x0d, 0x38, 0x1c, 0x26, 0x53, 0x08,
    0xda, 0x08, 0x31, 0xf4, 0x13, 0xe0, 0xef, 0xde, 0xea, 0x0e, 0xe1, 0xea, 0xd5,
    0x21, 0xe3, 0xc9, 0x00, 0xf4, 0xea, 0xd6, 0xfd, 0xee, 0x1f, 0x08, 0xfe, 0xda,
    0xc0, 0x4f, 0x1d, 0xe1, 0xb3, 0x30, 0x32, 0x42, 0x2a, 0xa8, 0x2a, 0x34, 0x2b,
    0xbc, 0xe9, 0xfc, 0xf1, 0xfb, 0xff, 0x1e, 0xd0, 0xfe, 0x02, 0xe4, 0x4f, 0xe0,
    0x42, 0x10, 0x3a, 0xe4, 0x7d, 0x21, 0x0c, 0xff, 0x16, 0x7f, 0xed, 0x0f, 0xdc,
    0xc9, 0x66, 0x02, 0xf4, 0x0f, 0xbc, 0xf5, 0x12, 0x48, 0xb4, 0xa0, 0xb8, 0xb6,
    0x7c, 0x34, 0x30, 0x62, 0xef, 0x25, 0x30, 0x7f, 0x65, 0xe5, 0xa6, 0xca, 0x08,
    0x04, 0x0f, 0xeb, 0x03, 0x09, 0x21, 0xec, 0xd9, 0xec, 0x0b, 0x08, 0xdd, 0xdb,
    0x14, 0x1f, 0xe0, 0xe8, 0xfa, 0x2f, 0x43, 0xcb, 0x9c, 0xc2, 0x07, 0x27, 0x0c,
    0xea, 0x13, 0x39, 0xee, 0x0d, 0x39, 0x46, 0x2d, 0x05, 0x0e, 0x7f, 0x33, 0xac,
    0x86, 0xb6, 0xf4, 0x0f, 0xdd, 0x55, 0x41, 0x0f, 0x1b, 0xdc, 0x3c, 0xe1, 0xc3,
    0xb9, 0xbf, 0xe1, 0xf8, 0xc6, 0xed, 0xf6, 0x57, 0xc6, 0x05, 0xcf, 0x2a, 0xdd,
    0xb3, 0xe0, 0x14, 0x38, 0xbb, 0xfd, 0x12, 0xbc, 0x60, 0x1b, 0x21, 0x19, 0xe3,
    0xeb, 0x7f, 0xd6, 0xce, 0x09, 0x01, 0xde, 0x22, 0x2c, 0xea, 0xc0, 0xb8, 0xc9,
    0xf9, 0x10, 0x2c, 0x7f, 0x4e, 0xd8, 0x1f, 0xf2, 0xf0, 0xe5, 0xe1, 0x0d, 0xec,
    0xd8, 0xb4, 0xca, 0x02, 0x1c, 0xf9, 0x09, 0x1e, 0xfc, 0x07, 0x05, 0x1a, 0x06,
    0x03, 0x0d, 0x06, 0x3d, 0x3a, 0x28, 0xfe, 0x23, 0x0a, 0x38, 0x13, 0xda, 0x1c,
    0xe3, 0x1f, 0xfd, 0xc8, 0xbe, 0x24, 0x13, 0x14, 0x59, 0x14, 0x98, 0x06, 0x5f,
    0x29, 0x15, 0xfe, 0xe3, 0x29, 0xfc, 0x02, 0xf0, 0xfa, 0xd9, 0xd3, 0xcb, 0x0c,
    0xfe, 0xff, 0x17, 0xfd, 0xf2, 0x12, 0x07, 0xea, 0xeb, 0x19, 0xfd, 0x05, 0xe2,
    0xd8, 0xd9, 0xca, 0xad, 0xaf, 0xbe, 0xb2, 0x81, 0xc9, 0x9d, 0xc1, 0xcb, 0x29,
    0xf2, 0xf3, 0xd7, 0x4c, 0xa5, 0xbf, 0x52, 0xa0, 0x68, 0xbb, 0x26, 0xe5, 0xa2,
    0x28, 0x4a, 0x27, 0x3c, 0xcb, 0xee, 0x5a, 0x5d, 0xf8, 0x4f, 0x32, 0xfe, 0x31,
    0x19, 0x39, 0x24, 0xbf, 0x75, 0xe9, 0x41, 0x31, 0x49, 0x19, 0xb3, 0x9e, 0xeb,
    0x10, 0xfd, 0x01, 0x17, 0xe3, 0xed, 0x08, 0xec, 0x24, 0x06, 0x0c, 0xfe, 0xf8,
    0x18, 0xfa, 0xf5, 0xe6, 0x31, 0x05, 0xdc, 0xb9, 0x81, 0x46, 0xe1, 0x18, 0x58,
    0x28, 0x2c, 0x11, 0x3c, 0x7f, 0xf9, 0xc0, 0xfc, 0x19, 0xd5, 0x0b, 0xc9, 0xc6,
    0xdf, 0xdc, 0x0b, 0x09, 0x41, 0x04, 0xc3, 0xb0, 0x0b, 0x38, 0x52, 0x21, 0x81,
    0xeb, 0x52, 0xfa, 0xa2, 0xea, 0x30, 0x4c, 0x2b, 0xc8, 0x7f, 0x66, 0xf9, 0x3e,
    0x39, 0xcd, 0xff, 0x79, 0x16, 0x42, 0x56, 0x6e, 0xcf, 0x0b, 0xf6, 0x15, 0xf7,
    0xef, 0xf1, 0x13, 0x0e, 0xe9, 0x0c, 0x32, 0x0d, 0xf2, 0x15, 0x02, 0x1f, 0xeb,
    0xf3, 0xe5, 0xb4, 0xdc, 0x66, 0x33, 0xc2, 0x98, 0xe6, 0x10, 0x2c, 0xb0, 0x4d,
    0x0f, 0x0e, 0x3c, 0x3b, 0xf0, 0xd1, 0x14, 0x4f, 0x8c, 0x93, 0x2e, 0xf1, 0xe1,
    0x28, 0xce, 0x16, 0xb1, 0xd2, 0x00, 0x00, 0x00, 0x00, 0x00, 0x00, 0x00, 0x00,
    0x00, 0x00, 0x00, 0x00, 0x00, 0x00, 0x00, 0x00, 0x00, 0x00, 0x00, 0x00, 0x00,
    0x00, 0x00, 0x00, 0x00, 0x00, 0x00, 0x00, 0x00, 0x00, 0x00, 0x00, 0x00, 0x00,
    0x00, 0x00, 0x00, 0x00, 0x00, 0x00, 0x00, 0x00, 0x00, 0x00, 0x00, 0x00, 0x00,
    0x00, 0x00, 0x00, 0x00, 0x00, 0x00, 0x00, 0x00, 0x00, 0x00, 0x00, 0x00, 0x00,
    0x00, 0x00, 0x00, 0x00, 0x00, 0x00, 0x00, 0x00, 0x00, 0x00, 0x00, 0x00, 0x00,
    0x00, 0x00, 0x00, 0x00, 0x00, 0x00, 0x00, 0x00, 0x00, 0x00, 0x00, 0x00, 0x00,
    0x00, 0x00, 0x00, 0x00, 0x00, 0x00, 0x00, 0x00, 0x00, 0x00, 0x00, 0x00, 0x00,
    0x00, 0x00, 0x00, 0x00, 0x00, 0x00, 0x00, 0x00, 0x00, 0x00, 0x00, 0x00, 0x00,
    0x00, 0x00, 0x00, 0x00, 0x00, 0x00, 0x00, 0x00, 0x00, 0x00, 0x00, 0x00, 0x00,
    0x00, 0x00, 0x00, 0x00, 0x00, 0x00, 0x00, 0x00, 0x00, 0x00, 0x00, 0x00, 0x00,
    0x00, 0x00, 0x00, 0x00, 0x00, 0x00, 0x00, 0x00, 0x00, 0x00, 0x00, 0x00, 0x00,
    0x00, 0x00, 0x00, 0x00, 0x00, 0x00, 0x00, 0x00, 0x00, 0x00, 0x00, 0x00, 0x00,
    0x00, 0x00, 0x00, 0x00, 0x00, 0x00, 0x00, 0x00, 0x00, 0x00, 0x00, 0x00, 0x00,
    0x00, 0x00, 0x00, 0x00, 0x00, 0x00, 0x00, 0x00, 0x00, 0x00, 0x00, 0x00, 0x00,
    0x00, 0x00, 0x00, 0x00, 0x00, 0x00, 0x00, 0x00, 0x00, 0x00, 0x00, 0x00, 0x00,
    0x00, 0x00, 0x00, 0x00, 0x00, 0x00, 0x00, 0x00, 0x00, 0x00, 0x00, 0x00, 0x00,
    0x00, 0x00, 0x00, 0x00, 0x00, 0x00, 0x00, 0x00, 0x00, 0x00, 0x00, 0x00, 0x00,
    0x00, 0x00, 0x00, 0x00, 0x00, 0x00, 0x00, 0x00, 0x00, 0x00, 0x00, 0x00, 0x00,
    0x00, 0x00, 0x00, 0x00, 0x00, 0x00, 0x00, 0x00, 0x00, 0x00, 0x00, 0x00, 0x00,
    0x00, 0x9a, 0xf1, 0xff, 0xff, 0x00, 0x00, 0x00, 0x09, 0x18, 0x00, 0x00, 0x00,
    0x07, 0x00, 0x00, 0x00, 0x08, 0x00, 0x00, 0x00, 0x14, 0x00, 0x00, 0x00, 0x01,
    0x00, 0x00, 0x00, 0x35, 0x00, 0x00, 0x00, 0x01, 0x00, 0x00, 0x00, 0x00, 0x07,
    0x00, 0x00, 0xe4, 0xf0, 0xff, 0xff, 0x1a, 0xf2, 0xff, 0xff, 0x04, 0x00, 0x00,
    0x00, 0x80, 0x00, 0x00, 0x00, 0xae, 0x33, 0xa5, 0x31, 0xd1, 0x11, 0x79, 0x4a,
    0x5a, 0x38, 0x1c, 0x18, 0xec, 0x31, 0x0a, 0x27, 0x47, 0x33, 0x7e, 0x34, 0xec,
    0x36, 0xf0, 0x43, 0x3e, 0x34, 0x3a, 0x38, 0x1f, 0x36, 0x01, 0x41, 0x14, 0xf8,
    0x4c, 0xf8, 0x33, 0xef, 0x90, 0xf4, 0xd4, 0xf9, 0xbf, 0xea, 0x93, 0xf9, 0xe5,
    0x04, 0x3d, 0xf6, 0x3c, 0xf7, 0xc2, 0xf6, 0x83, 0xf6, 0x9d, 0xfa, 0xb8, 0xf4,
    0x34, 0xed, 0xf5, 0xf8, 0xa0, 0x2a, 0xbb, 0x2e, 0x76, 0x51, 0xce, 0x11, 0xfd,
    0x37, 0xd4, 0x48, 0xcc, 0x3d, 0x2a, 0x49, 0xc2, 0x11, 0x03, 0x11, 0x7b, 0x30,
    0x9a, 0x4a, 0xc0, 0x40, 0x00, 0x39, 0x8d, 0x4f, 0x80, 0x36, 0xe0, 0xfb, 0x96,
    0xf8, 0x34, 0xf6, 0x8a, 0xed, 0x51, 0xf9, 0x76, 0xf8, 0x3f, 0xf9, 0x95, 0xf3,
    0x50, 0xed, 0x7b, 0xf0, 0xf0, 0xf6, 0xd7, 0xf4, 0x4a, 0xf6, 0xe4, 0xf5, 0xe7,
    0xf7, 0xd4, 0xf4, 0x52, 0xf2, 0xff, 0xff, 0x00, 0x00, 0x00, 0x07, 0x18, 0x00,
    0x00, 0x00, 0x06, 0x00, 0x00, 0x00, 0x08, 0x00, 0x00, 0x00, 0x14, 0x00, 0x00,
    0x00, 0x01, 0x00, 0x00, 0x00, 0x34, 0x00, 0x00, 0x00, 0x01, 0x00, 0x00, 0x00,
    0x40, 0x00, 0x00, 0x00, 0x9c, 0xf1, 0xff, 0xff, 0xd2, 0xf2, 0xff, 0xff, 0x04,
    0x00, 0x00, 0x00, 0x00, 0x08, 0x00, 0x00, 0x26, 0xb6, 0x13, 0xb2, 0xf2, 0xdf,
    0x04, 0x3c, 0xc6, 0xcf, 0x96, 0xf7, 0x0a, 0x08, 0xfb, 0xda, 0xdc, 0x0a, 0xe9,
    0xea, 0xdd, 0x0d, 0xf7, 0xa8, 0x0d, 0xf9, 0xf8, 0xc9, 0x11, 0x40, 0xe9, 0xc3,
    0xf8, 0x08, 0xed, 0x08, 0xbd, 0xee, 0xd2, 0xac, 0xfa, 0xf4, 0xb6, 0x18, 0x0b,
    0xe9, 0x46, 0xdc, 0x0c, 0xc7, 0xe6, 0xf3, 0x0d, 0x81, 0xbc, 0x39, 0xf3, 0xfb,
    0x1a, 0x17, 0x09, 0x13, 0x05, 0xd9, 0x19, 0xfb, 0x0d, 0xf0, 0xf7, 0xf1, 0x26,
    0xe4, 0x24, 0x29, 0xec, 0x09, 0xe6, 0x13, 0x0b, 0xeb, 0xe2, 0x15, 0x81, 0x10,
    0x00, 0x13, 0x18, 0x0b, 0x06, 0xfb, 0x0e, 0xee, 0xf9, 0x0d, 0x09, 0xf8, 0xea,
    0xe2, 0xe9, 0x90, 0xd8, 0xb9, 0x87, 0x13, 0x81, 0xf4, 0xc0, 0x15, 0xc5, 0xec,
    0x28, 0x9d, 0xc7, 0xe5, 0x94, 0xd2, 0xba, 0xda, 0xa1, 0x0c, 0xce, 0x2f, 0x3a,
    0xaf, 0xec, 0x0a, 0xb1, 0x91, 0x3d, 0x4d, 0xf3, 0xd4, 0xf1, 0x18, 0x03, 0x1e,
    0xd8, 0xb4, 0xd2, 0xeb, 0xff, 0xed, 0x7f, 0x9b, 0x16, 0x16, 0xc2, 0x09, 0xf0,
    0xed, 0xd4, 0xf8, 0x1b, 0x0c, 0xdc, 0xef, 0xd5, 0xd4, 0xe9, 0xf0, 0xf6, 0x0f,
    0x0e, 0xcb, 0x0c, 0x12, 0x20, 0x00, 0x18, 0xec, 0xf7, 0xde, 0xd0, 0x1a, 0x31,
    0x1e, 0x1e, 0x81, 0xd7, 0xfc, 0xf9, 0x03, 0x40, 0xe3, 0x0c, 0xfd, 0x09, 0x0c,
    0xfb, 0xfb, 0xfc, 0x02, 0xf8, 0x0c, 0xf2, 0x30, 0xf4, 0x06, 0xf7, 0xfd, 0xcc,
    0xd9, 0xfe, 0x9a, 0x3a, 0x1f, 0xfd, 0x03, 0xc0, 0x00, 0x0f, 0xfb, 0xbd, 0x32,
    0x10, 0x46, 0xff, 0xe9, 0xf0, 0x10, 0x2d, 0xfe, 0x2c, 0x27, 0xe1, 0xc4, 0xe8,
    0xec, 0x29, 0xf2, 0x02, 0x0a, 0xf1, 0x02, 0x05, 0x10, 0x0a, 0x22, 0xf0, 0x19,
    0xe8, 0xbf, 0xfd, 0x02, 0xcb, 0x0b, 0x22, 0x0c, 0x12, 0x03, 0x81, 0x0c, 0xec,
    0xf5, 0xee, 0xcb, 0xcb, 0xff, 0xfb, 0xfe, 0x1e, 0xfb, 0xf6, 0x14, 0xd1, 0x0d,
    0xf9, 0x09, 0x04, 0xfa, 0x01, 0xd9, 0x11, 0xfa, 0xf9, 0x10, 0x2c, 0xf7, 0x11,
    0x81, 0xfb, 0xf5, 0x08, 0x8f, 0x15, 0x2d, 0x02, 0xfb, 0x0c, 0x00, 0xed, 0x07,
    0xf6, 0x0d, 0xcc, 0x0e, 0x28, 0xed, 0x0a, 0x22, 0x20, 0xec, 0xf7, 0xf7, 0xe1,
    0xfa, 0x2f, 0xec, 0xc9, 0x14, 0xf2, 0x46, 0x01, 0x0d, 0x07, 0x0b, 0xfd, 0xf2,
    0xcc, 0xd5, 0xed, 0x16, 0xca, 0xf0, 0x2f, 0x0d, 0xe0, 0xfc, 0xf9, 0xf0, 0x07,
    0xcb, 0x28, 0xe7, 0x7f, 0xff, 0xdc, 0x06, 0xfe, 0xc7, 0xfc, 0xfa, 0xe1, 0xf2,
    0xe7, 0x33, 0xce, 0x0a, 0xdd, 0x28, 0xf9, 0xf7, 0x06, 0x01, 0xfb, 0xba, 0xe4,
    0xfa, 0xe6, 0x08, 0x81, 0xf3, 0x05, 0xfd, 0xd1, 0xf8, 0xf4, 0x23, 0xc6, 0xf2,
    0xe5, 0xf8, 0x35, 0xf3, 0x0a, 0x23, 0xf2, 0xfa, 0x04, 0xb0, 0xe3, 0x0a, 0x93,
    0xeb, 0x00, 0xf7, 0xf3, 0x21, 0x11, 0xf0, 0xe8, 0xef, 0x00, 0xf3, 0x4a, 0xd0,
    0xfc, 0x30, 0xd2, 0x52, 0xea, 0x10, 0x33, 0xfb, 0x1d, 0x22, 0xcd, 0x32, 0xfd,
    0x02, 0x1e, 0x4a, 0x09, 0x00, 0x31, 0x3e, 0x81, 0x56, 0xef, 0xf0, 0xd6, 0xe7,
    0xd2, 0xfd, 0x04, 0x2f, 0x49, 0xb2, 0x09, 0xe7, 0x96, 0xd9, 0xd4, 0x0d, 0xf3,
    0x15, 0xbe, 0x3c, 0xf4, 0x38, 0xf8, 0x12, 0xbd, 0x21, 0x49, 0x11, 0xe1, 0x0e,
    0xfa, 0x1c, 0x0c, 0x14, 0xff, 0x01, 0xc1, 0xfe, 0x25, 0xb1, 0xf7, 0xd5, 0x18,
    0xf8, 0x53, 0xc8, 0x2f, 0xce, 0xfe, 0x30, 0xbb, 0xf6, 0xeb, 0xda, 0xfd, 0x27,
    0xc9, 0x17, 0x15, 0x32, 0x02, 0xe4, 0xee, 0x15, 0xf5, 0x1b, 0xd6, 0xf8, 0x6a,
    0xc7, 0x33, 0xe4, 0x30, 0x05, 0x81, 0xad, 0x10, 0x2d, 0x0e, 0x28, 0xff, 0x06,
    0x36, 0xe9, 0xd2, 0x67, 0xe8, 0x08, 0xed, 0x54, 0x45, 0x0a, 0xdc, 0x00, 0xc9,
    0x0d, 0x10, 0x21, 0x2e, 0xec, 0xcd, 0xc2, 0x40, 0x1c, 0x7e, 0x3d, 0xfc, 0xf7,
    0x81, 0x37, 0x2b, 0xdf, 0x13, 0x0e, 0xff, 0xf4, 0x0e, 0x7a, 0x1b, 0x08, 0x07,
    0x3e, 0x0c, 0xe3, 0x23, 0x1d, 0xbc, 0x09, 0xf7, 0xe7, 0x85, 0x0c, 0x19, 0xdf,
    0xfe, 0xe2, 0xd4, 0x0a, 0x09, 0xa8, 0x01, 0x0b, 0x2b, 0xd9, 0xdd, 0xf7, 0x24,
    0xc2, 0xad, 0x09, 0x10, 0xec, 0x34, 0x2f, 0x0c, 0x3f, 0x02, 0xb1, 0x10, 0x00,
    0xf6, 0xee, 0xf9, 0xf3, 0x09, 0xd6, 0x1b, 0x1d, 0x06, 0xe1, 0xfa, 0x0c, 0x06,
    0xfe, 0xc5, 0xf7, 0xa4, 0xfe, 0x1c, 0x17, 0x2e, 0x0f, 0x01, 0x0f, 0x2f, 0xfb,
    0xfc, 0x13, 0x1f, 0x13, 0xd2, 0xb6, 0x2a, 0xb0, 0xc2, 0x09, 0x1a, 0xa6, 0xa9,
    0x12, 0xe2, 0xb6, 0x10, 0xde, 0x05, 0x03, 0x15, 0xe3, 0xcb, 0x44, 0xb5, 0x92,
    0x1b, 0xd9, 0x2e, 0xf4, 0xa5, 0xc6, 0x2d, 0xe6, 0x9e, 0xbb, 0x0e, 0xd8, 0x13,
    0x12, 0x26, 0xec, 0xe6, 0xdd, 0x34, 0x42, 0x29, 0x1e, 0xe4, 0x13, 0xcf, 0x4c,
    0xf8, 0x1e, 0x19, 0xf7, 0xf7, 0x2e, 0x16, 0x1a, 0xf8, 0xf9, 0x07, 0x27, 0xfa,
    0x57, 0x06, 0xe6, 0xe9, 0x0a, 0x0e, 0xe1, 0xff, 0x0a, 0xdf, 0x00, 0xef, 0xd6,
    0xdf, 0xf8, 0xc6, 0x07, 0x20, 0x08, 0xf1, 0xdc, 0xe7, 0xfe, 0x01, 0xff, 0x26,
    0x0e, 0x02, 0x01, 0x00, 0x22, 0x1c, 0x07, 0xe6, 0x08, 0xe4, 0xe9, 0xfd, 0xf3,
    0x43, 0xf3, 0xfc, 0x0c, 0xc7, 0x05, 0x14, 0x11, 0x09, 0xec, 0x3f, 0xdb, 0xd8,
    0xf9, 0xf1, 0xf0, 0xf8, 0xda, 0xf1, 0x3f, 0x12, 0x07, 0x81, 0xea, 0xb7, 0x2e,
    0xf4, 0xe6, 0xcb, 0x2d, 0x05, 0xa4, 0x08, 0x0b, 0xda, 0x20, 0x2c, 0xd0, 0x45,
    0xb6, 0x1c, 0x40, 0x18, 0x12, 0x1d, 0xca, 0xe2, 0xfd, 0x08, 0x30, 0x2d, 0xce,
    0xf1, 0xef, 0xf9, 0xf7, 0x22, 0x1f, 0x5c, 0x38, 0xbc, 0xfc, 0x06, 0xfd, 0x09,
    0x10, 0xd2, 0xff, 0x01, 0x02, 0xd9, 0xc2, 0xe1, 0xf9, 0x1d, 0xb9, 0xf7, 0xed,
    0xe9, 0x0a, 0xfb, 0xe5, 0x12, 0x0e, 0x0e, 0x0e, 0xa9, 0xda, 0x2e, 0x18, 0xfb,
    0xca, 0x52, 0x00, 0x09, 0x4c, 0xf5, 0xe9, 0xf9, 0xf2, 0xed, 0x7f, 0x29, 0xf4,
    0xd6, 0x1a, 0x1b, 0xe6, 0x9f, 0x04, 0x49, 0x14, 0x2b, 0xf8, 0xdc, 0x1d, 0xfa,
    0x1f, 0x28, 0xb5, 0x2e, 0x0c, 0xba, 0xcf, 0xea, 0xf5, 0x2f, 0xf7, 0xef, 0xe3,
    0xe9, 0xeb, 0x0d, 0xfd, 0xeb, 0xf0, 0xc0, 0xed, 0x11, 0x06, 0xea, 0xfb, 0x06,
    0x2a, 0xe1, 0xff, 0xd6, 0x0f, 0x38, 0xd3, 0xa8, 0xe9, 0xf2, 0xc9, 0xfb, 0xf3,
    0x12, 0xf9, 0xf0, 0xe4, 0xa8, 0xff, 0x20, 0x07, 0xa5, 0xe9, 0x24, 0xfa, 0xeb,
    0xf8, 0xe4, 0x26, 0xdb, 0xe7, 0xd5, 0xef, 0x01, 0x11, 0x27, 0x16, 0xf3, 0xf5,
    0xf2, 0x9e, 0xf5, 0xe6, 0xc0, 0xd9, 0x07, 0xef, 0xef, 0xc0, 0xe3, 0xed, 0xca,
    0x0e, 0xe4, 0xba, 0xca, 0x9b, 0xac, 0xdf, 0xb7, 0xc3, 0x0c, 0x09, 0xa3, 0x06,
    0xf1, 0xed, 0x0c, 0xe9, 0x06, 0x0e, 0x01, 0x9f, 0x81, 0x9e, 0xe7, 0xc8, 0xb0,
    0x3f, 0x0a, 0xce, 0x05, 0xf2, 0xe2, 0x18, 0xb1, 0x39, 0x40, 0xfb, 0x49, 0xa4,
    0xd8, 0x32, 0xa4, 0x41, 0xf3, 0x15, 0xa0, 0x3d, 0x02, 0x41, 0x09, 0xe2, 0xba,
    0xf1, 0x36, 0x37, 0xca, 0xd7, 0x12, 0x39, 0x03, 0xfb, 0x2f, 0x15, 0xc9, 0x0c,
    0xec, 0xbd, 0xd0, 0x05, 0xe2, 0x2e, 0x1c, 0xb7, 0x33, 0x04, 0x15, 0x31, 0x81,
    0xdb, 0xcb, 0xbf, 0x24, 0x1c, 0x1b, 0x03, 0x36, 0xbf, 0xd3, 0xdb, 0xfa, 0x05,
    0x1c, 0x00, 0xf7, 0x10, 0x09, 0x46, 0x17, 0xeb, 0xea, 0x0e, 0xcd, 0xf1, 0x25,
    0x32, 0xea, 0xf0, 0xee, 0x12, 0x00, 0x15, 0xe4, 0xaa, 0x1a, 0x05, 0x0d, 0x06,
    0x18, 0x0f, 0xcd, 0xf5, 0xef, 0xe9, 0x06, 0xf0, 0x0f, 0xef, 0x07, 0x03, 0xe9,
    0xcb, 0x96, 0x0d, 0xc3, 0xd8, 0xc9, 0xc3, 0x14, 0xe2, 0xa6, 0xff, 0xd9, 0xce,
    0xd2, 0x81, 0x06, 0x0a, 0xbf, 0x99, 0x14, 0xbb, 0xea, 0xa4, 0x3b, 0xe3, 0xe0,
    0x30, 0xc6, 0x30, 0x09, 0xc7, 0x0f, 0xf2, 0x06, 0x30, 0xbe, 0x3e, 0x5b, 0xdd,
    0x19, 0x5b, 0x0d, 0xde, 0xb7, 0xfa, 0x8e, 0xdc, 0x15, 0xd8, 0x0a, 0x12, 0xda,
    0x74, 0xdb, 0x23, 0xda, 0x09, 0xec, 0x0f, 0x18, 0xfb, 0xfa, 0xc9, 0xf7, 0x21,
    0xee, 0x17, 0xc1, 0x20, 0x6c, 0x18, 0xee, 0x6d, 0x22, 0xf4, 0x44, 0x06, 0xb4,
    0x25, 0x18, 0xf3, 0xd2, 0x22, 0xe5, 0xf2, 0x1b, 0xe4, 0xff, 0x41, 0xfe, 0x3c,
    0xfd, 0xda, 0x0e, 0xed, 0xe0, 0x3d, 0xb4, 0xb9, 0x11, 0x26, 0x02, 0x15, 0x08,
    0x05, 0x8e, 0xf7, 0xf8, 0x06, 0x0a, 0xe4, 0x01, 0xff, 0x03, 0xbb, 0xed, 0x39,
    0xf0, 0xb9, 0x0c, 0x03, 0xf6, 0x06, 0xd1, 0xff, 0x10, 0xb2, 0x1b, 0x08, 0x39,
    0xbb, 0xff, 0x3c, 0xbd, 0xe5, 0x06, 0xf0, 0x1a, 0x04, 0x1d, 0x0c, 0x20, 0x7f,
    0x0b, 0x08, 0x06, 0xfd, 0x15, 0xfe, 0x20, 0x0a, 0xe5, 0x92, 0xec, 0x18, 0xf6,
    0xfc, 0xd7, 0xfb, 0xc9, 0xc1, 0x0b, 0x17, 0x0b, 0xe8, 0x38, 0x9e, 0x0c, 0x1d,
    0x09, 0x0a, 0x19, 0xec, 0xae, 0xd6, 0xf1, 0x06, 0x57, 0xf6, 0x45, 0x22, 0x99,
    0x10, 0xf6, 0xfc, 0xda, 0xcb, 0x4f, 0x1e, 0x00, 0xfb, 0xcf, 0xb9, 0x20, 0x0b,
    0xa9, 0xed, 0x4c, 0x09, 0xf6, 0x27, 0xc0, 0x18, 0x05, 0x35, 0xc3, 0x17, 0xe2,
    0xf0, 0x9e, 0xcf, 0xd2, 0xe4, 0xec, 0xe8, 0x02, 0x02, 0x06, 0x08, 0x66, 0x19,
    0xcd, 0x5f, 0x2b, 0x14, 0x38, 0x14, 0x42, 0x25, 0xe2, 0x6e, 0x32, 0xed, 0xf5,
    0x00, 0x53, 0x3a, 0xf7, 0xd2, 0xe1, 0x17, 0x0c, 0x12, 0xbf, 0x51, 0x5a, 0xd4,
    0x2b, 0x90, 0xf7, 0x4e, 0xd3, 0x02, 0xb2, 0x1c, 0xb4, 0x24, 0x26, 0x21, 0x21,
    0xe8, 0xe7, 0x7d, 0xd1, 0x4e, 0x55, 0x27, 0xba, 0x42, 0xc0, 0xc7, 0x0f, 0xf8,
    0xe3, 0xfd, 0xcf, 0x58, 0xc2, 0xed, 0x35, 0x59, 0x00, 0x39, 0x04, 0x0c, 0xda,
    0x88, 0x2a, 0x26, 0xb4, 0x00, 0xe2, 0xed, 0xb6, 0x1c, 0x36, 0xd0, 0xd5, 0x00,
    0xe4, 0x52, 0xfd, 0xe3, 0xdb, 0xe5, 0x0c, 0xee, 0x1a, 0xd1, 0x81, 0xfc, 0xf7,
    0x33, 0xfe, 0xda, 0x57, 0x11, 0xe2, 0x39, 0xe1, 0xd4, 0x52, 0x0b, 0x49, 0xc1,
    0xdd, 0x9d, 0x26, 0xc0, 0xf1, 0x12, 0xf6, 0x81, 0xde, 0x04, 0xe5, 0xf4, 0xfd,
    0x49, 0xd7, 0x0b, 0x10, 0x25, 0x2f, 0x66, 0x2a, 0x18, 0x3c, 0xe1, 0xaf, 0xf5,
    0x0b, 0x29, 0xf1, 0xef, 0xe0, 0xeb, 0x1e, 0xed, 0x11, 0xf7, 0xe6, 0x09, 0xae,
    0xf0, 0xa1, 0x81, 0xf1, 0xdc, 0xdd, 0x25, 0xb4, 0x18, 0x06, 0x02, 0x27, 0x3b,
    0xec, 0xe7, 0xc8, 0xfb, 0xa9, 0x06, 0xe0, 0xe1, 0xf0, 0xff, 0xdc, 0x00, 0x7f,
    0xcc, 0x1a, 0xf3, 0xd4, 0x0a, 0xe6, 0xdf, 0xd1, 0xe2, 0x13, 0xf3, 0xf4, 0xeb,
    0xc7, 0x0b, 0xcd, 0x0b, 0xf7, 0xf8, 0xf2, 0xa9, 0xf9, 0xe5, 0x41, 0x09, 0x4a,
    0x28, 0xed, 0x10, 0xf4, 0x81, 0x31, 0x03, 0xfc, 0x17, 0xca, 0x05, 0x1e, 0xf8,
    0x10, 0xf2, 0xfb, 0x12, 0x1d, 0xf7, 0x4a, 0xf2, 0xf9, 0xed, 0x13, 0x18, 0x03,
    0x10, 0xf4, 0x00, 0x0f, 0xff, 0xdc, 0x2d, 0x7a, 0xed, 0xd8, 0x03, 0x06, 0xfd,
    0xe0, 0x0c, 0xf2, 0xf5, 0x81, 0xe9, 0x41, 0x09, 0x0c, 0x07, 0x1e, 0x00, 0x24,
    0xf7, 0x16, 0xfb, 0x81, 0xb1, 0x44, 0x0e, 0xd6, 0x0e, 0xf0, 0xfa, 0xad, 0x00,
    0xf7, 0xd8, 0xee, 0xca, 0x15, 0xcd, 0xe2, 0x07, 0x83, 0x24, 0x38, 0xdf, 0x0b,
    0xf5, 0xfe, 0xb9, 0xec, 0x04, 0xea, 0x48, 0xcc, 0x1d, 0xcf, 0xef, 0xf9, 0x1b,
    0x25, 0xff, 0x1a, 0x09, 0x2a, 0x12, 0x24, 0x2c, 0x24, 0x03, 0x04, 0x2c, 0xce,
    0xfb, 0x1c, 0xf9, 0xf5, 0x1c, 0x13, 0x36, 0xfc, 0xf1, 0xc8, 0x21, 0x03, 0x1b,
    0xe3, 0x12, 0xf2, 0xd2, 0x23, 0x34, 0xa3, 0xee, 0x50, 0xe7, 0x44, 0x2a, 0x52,
    0x03, 0xd6, 0x30, 0x3a, 0x0e, 0xd7, 0x17, 0x52, 0x1e, 0x05, 0xf4, 0x81, 0x26,
    0x01, 0x23, 0x2a, 0x42, 0xeb, 0xeb, 0xcc, 0x06, 0xb1, 0x75, 0xe9, 0x3d, 0xf9,
    0xee, 0x7f, 0xc8, 0x3e, 0x5d, 0x14, 0xd2, 0xde, 0x20, 0x17, 0x35, 0xf6, 0xd8,
    0xf0, 0xf3, 0x55, 0x22, 0x14, 0x1b, 0x18, 0xf6, 0x47, 0xbc, 0x06, 0x43, 0x0f,
    0xdf, 0x0e, 0x09, 0xf8, 0xf5, 0x18, 0xec, 0xde, 0xf9, 0x18, 0xd0, 0x64, 0x81,
    0xe3, 0xfc, 0x12, 0xf1, 0x23, 0x24, 0x4e, 0x1b, 0xf8, 0xed, 0xdc, 0x4c, 0x23,
    0xe8, 0xf0, 0x4d, 0xa3, 0xc5, 0xf7, 0x3e, 0xfc, 0xe6, 0xec, 0xee, 0x21, 0xf9,
    0xdb, 0x4b, 0xe6, 0xf6, 0xc8, 0x03, 0x09, 0xe2, 0xe5, 0x30, 0xfe, 0x12, 0xf8,
    0xf7, 0xdb, 0xf9, 0xd7, 0x94, 0xf4, 0x05, 0x15, 0x07, 0xe9, 0x06, 0xed, 0x05,
    0xe8, 0xb6, 0xe2, 0x3b, 0x42, 0xfd, 0xfa, 0x03, 0x93, 0xb4, 0x0a, 0x0b, 0xff,
    0xd7, 0x07, 0xc6, 0xac, 0x1b, 0x0b, 0x0a, 0x02, 0xfc, 0x81, 0xf6, 0xfa, 0x02,
    0xcd, 0xcb, 0x48, 0xe1, 0x43, 0x21, 0xea, 0x06, 0xeb, 0x1e, 0x04, 0x00, 0x1c,
    0xe4, 0x00, 0xc3, 0x21, 0xe4, 0x81, 0xff, 0x12, 0x22, 0xf5, 0x40, 0xf4, 0x0a,
    0x2c, 0x2f, 0xb4, 0x56, 0x19, 0x1f, 0xad, 0x41, 0xf6, 0x08, 0xed, 0xd5, 0xcd,
    0xfd, 0x05, 0xd1, 0x12, 0x0e, 0xe1, 0x8a, 0x35, 0xe6, 0xc5, 0xe2, 0x81, 0xd6,
    0x0e, 0xe5, 0x04, 0x32, 0x02, 0xf1, 0xec, 0xd7, 0xeb, 0x4d, 0x1e, 0x1e, 0xf7,
    0x12, 0x08, 0xf4, 0x28, 0x16, 0x1f, 0x5b, 0xff, 0x2e, 0xd8, 0xe8, 0x14, 0xd5,
    0xcc, 0x14, 0xe7, 0x02, 0x05, 0xd5, 0x00, 0x81, 0xd6, 0xeb, 0xff, 0x0d, 0xff,
    0xe0, 0xd5, 0x44, 0x18, 0xf3, 0xdb, 0x25, 0xfd, 0x00, 0x41, 0x44, 0xf5, 0xae,
    0x12, 0xa2, 0xca, 0xf5, 0xf3, 0x67, 0xba, 0xcc, 0x63, 0x86, 0x37, 0x2f, 0xd8,
    0xee, 0xcc, 0x15, 0x5f, 0x1d, 0x16, 0xbf, 0x0c, 0x4e, 0xdb, 0xea, 0x14, 0x09,
    0x10, 0x0c, 0x7e, 0x16, 0x15, 0xcb, 0xff, 0x25, 0xe3, 0xf1, 0x10, 0xb7, 0x19,
    0x1d, 0xc6, 0xfc, 0xc0, 0x3a, 0xca, 0x64, 0xf3, 0x33, 0xff, 0x11, 0xe7, 0x7a,
    0x40, 0x02, 0xe1, 0x1e, 0xf6, 0xc3, 0x23, 0x22, 0xea, 0xb8, 0x0e, 0x10, 0x07,
    0x07, 0x34, 0xda, 0x28, 0x13, 0x79, 0xdf, 0x31, 0xe8, 0xfb, 0x07, 0xc5, 0x18,
    0xdc, 0x8c, 0x23, 0x02, 0x11, 0x1b, 0x03, 0x35, 0x01, 0x20, 0x18, 0xde, 0xcd,
    0x2b, 0x37, 0x0e, 0x28, 0x1a, 0x11, 0xe7, 0xe9, 0x01, 0xc9, 0xef, 0xfa, 0xde,
    0x00, 0x11, 0x02, 0x31, 0x71, 0xfc, 0xfb, 0x05, 0xdc, 0xf8, 0xd6, 0x0f, 0xeb,
    0x0d, 0x0f, 0x08, 0x98, 0x0b, 0xf6, 0x07, 0xe0, 0xfd, 0x20, 0x13, 0xf5, 0xbb,
    0xe9, 0x08, 0x1d, 0x08, 0x48, 0x17, 0xea, 0xb6, 0xe4, 0x0c, 0x15, 0x07, 0x17,
    0x01, 0xf7, 0xff, 0x23, 0xd6, 0x05, 0xff, 0x11, 0xfa, 0x20, 0xfe, 0xc9, 0x05,
    0xea, 0xf3, 0x0d, 0xec, 0xf8, 0xf9, 0xe7, 0xf5, 0xda, 0xf5, 0xe7, 0x30, 0x09,
    0x09, 0xc3, 0xf4, 0x30, 0xfb, 0xfb, 0xdc, 0xf9, 0x01, 0xe4, 0xe7, 0x18, 0x19,
    0x0f, 0x0f, 0xf7, 0x08, 0x1e, 0xf9, 0xde, 0xd1, 0xf1, 0x1f, 0xef, 0x06, 0xd3,
    0xdb, 0x32, 0xc4, 0xe1, 0x2b, 0xe4, 0xd3, 0x90, 0xf1, 0xff, 0xb7, 0xb7, 0x92,
    0xfc, 0x10, 0xcb, 0xcb, 0x24, 0xed, 0x07, 0xbb, 0x0a, 0xef, 0xb6, 0xff, 0xd7,
    0x1f, 0x8a, 0xfa, 0xff, 0xff, 0x00, 0x00, 0x00, 0x09, 0x18, 0x00, 0x00, 0x00,
    0x05, 0x00, 0x00, 0x00, 0x08, 0x00, 0x00, 0x00, 0x14, 0x00, 0x00, 0x00, 0x01,
    0x00, 0x00, 0x00, 0x33, 0x00, 0x00, 0x00, 0x01, 0x00, 0x00, 0x00, 0x00, 0x08,
    0x00, 0x00, 0xd4, 0xf9, 0xff, 0xff, 0x0a, 0xfb, 0xff, 0xff, 0x04, 0x00, 0x00,
    0x00, 0x80, 0x00, 0x00, 0x00, 0x4f, 0x2b, 0xca, 0x21, 0xdc, 0x28, 0x8e, 0x37,
    0x19, 0x59, 0xce, 0x13, 0x80, 0x27, 0xdd, 0x4c, 0x7a, 0x30, 0xc9, 0x39, 0x23,
    0x57, 0x7b, 0x32, 0x7f, 0x0e, 0x22, 0x53, 0xcd, 0x2f, 0x7d, 0x2d, 0x2f, 0x02,
    0x05, 0xf9, 0xbd, 0xf6, 0x96, 0xe8, 0x93, 0xcf, 0x60, 0xf9, 0x8e, 0x00, 0x6c,
    0xe7, 0x15, 0xfb, 0x28, 0xf7, 0x0a, 0xf6, 0xb5, 0x00, 0xcd, 0xed, 0x6c, 0xff,
    0x22, 0xea, 0xab, 0xfa, 0x21, 0x0f, 0x7a, 0x3c, 0x3c, 0x3f, 0x80, 0x3c, 0x86,
    0x23, 0x15, 0x28, 0xb5, 0x22, 0xb5, 0x20, 0xc6, 0x24, 0xf5, 0x28, 0xfe, 0x2a,
    0x3c, 0x3a, 0x7a, 0x26, 0xf4, 0x21, 0xb8, 0x1c, 0xc3, 0x42, 0x37, 0xf4, 0xe5,
    0xfb, 0xf6, 0xfc, 0xe0, 0xef, 0x4d, 0xfd, 0xc1, 0xfc, 0xff, 0xf9, 0xf7, 0xfc,
    0x10, 0x05, 0x30, 0xf6, 0x42, 0xef, 0xe4, 0xfa, 0xae, 0xfa, 0x53, 0x08, 0x7d,
    0x02, 0x68, 0xe3, 0x42, 0xfb, 0xff, 0xff, 0x00, 0x00, 0x00, 0x07, 0x18, 0x00,
    0x00, 0x00, 0x04, 0x00, 0x00, 0x00, 0x08, 0x00, 0x00, 0x00, 0x14, 0x00, 0x00,
    0x00, 0x01, 0x00, 0x00, 0x00, 0x32, 0x00, 0x00, 0x00, 0x01, 0x00, 0x00, 0x00,
    0x40, 0x00, 0x00, 0x00, 0x8c, 0xfa, 0xff, 0xff, 0xc2, 0xfb, 0xff, 0xff, 0x04,
    0x00, 0x00, 0x00, 0x00, 0x04, 0x00, 0x00, 0x06, 0xf5, 0x03, 0xf7, 0x00, 0xdd,
    0x0a, 0x03, 0xf9, 0x00, 0xf9, 0xfd, 0x09, 0xfe, 0x07, 0xfa, 0x0a, 0x05, 0xee,
    0xfc, 0xe7, 0x08, 0x06, 0x06, 0x03, 0xf8, 0xf8, 0xfc, 0x11, 0x10, 0x00, 0xed,
    0xf3, 0x0e, 0xee, 0xe1, 0xfc, 0x42, 0x02, 0x10, 0xfb, 0x01, 0xed, 0x0d, 0x0e,
    0x01, 0xf0, 0xf1, 0xf6, 0x05, 0x0f, 0x0e, 0x05, 0xdd, 0xed, 0xfa, 0xf8, 0x0d,
    0x15, 0xe3, 0xfa, 0xf8, 0xfd, 0xee, 0x0c, 0xf6, 0xfa, 0xef, 0xf6, 0xd7, 0x02,
    0xfd, 0x0a, 0x05, 0x16, 0xec, 0x00, 0x0c, 0x02, 0x03, 0x00, 0x0c, 0xf5, 0xf9,
    0x04, 0x16, 0x0c, 0x0b, 0x0a, 0xe7, 0xf6, 0x09, 0x0c, 0x0d, 0xfa, 0x81, 0x10,
    0xfa, 0xfb, 0xed, 0xe2, 0xc3, 0x08, 0xf7, 0x0e, 0x0f, 0x07, 0xfa, 0x0a, 0x03,
    0x0c, 0x09, 0xfe, 0x08, 0xf1, 0xed, 0x02, 0x0d, 0x0d, 0x06, 0x11, 0xe5, 0xf7,
    0x13, 0x0b, 0x0b, 0x02, 0xee, 0x0f, 0xf7, 0xfc, 0xee, 0xed, 0xcb, 0x03, 0xf6,
    0x01, 0x0c, 0x07, 0xf8, 0x01, 0x0a, 0x06, 0x08, 0xff, 0x0c, 0xf1, 0xef, 0x00,
    0x0d, 0x06, 0x08, 0x11, 0xf0, 0xfd, 0x15, 0x0e, 0x02, 0x01, 0xea, 0x0e, 0xfc,
    0xff, 0xef, 0xee, 0xc8, 0x02, 0xed, 0x03, 0x09, 0x09, 0xf5, 0x03, 0x02, 0x09,
    0x08, 0x0f, 0x0b, 0xf5, 0xf3, 0x05, 0x0f, 0xff, 0x0b, 0x0e, 0xf9, 0xf7, 0x10,
    0x0c, 0x03, 0x08, 0xef, 0x0d, 0xf8, 0x03, 0xea, 0xe7, 0xc9, 0x09, 0xf5, 0x06,
    0x09, 0x0b, 0xf9, 0xfe, 0x03, 0x11, 0x06, 0xf8, 0x0b, 0xf0, 0xef, 0x04, 0x0f,
    0x03, 0x0b, 0x0b, 0xf2, 0x00, 0x10, 0x0a, 0xff, 0x06, 0xe6, 0x0c, 0xfd, 0x01,
    0xee, 0xde, 0xba, 0x00, 0xf7, 0x00, 0x0c, 0x05, 0xf1, 0xfe, 0x09, 0x03, 0x06,
    0x01, 0x11, 0xf0, 0xf1, 0x04, 0x07, 0x02, 0x0d, 0x0d, 0xf4, 0xea, 0x12, 0x08,
    0x04, 0x03, 0xe6, 0xfb, 0xde, 0x00, 0x05, 0x0a, 0x95, 0x04, 0x19, 0x01, 0xf4,
    0xf6, 0xfe, 0x05, 0xea, 0xdb, 0xf2, 0xfc, 0xed, 0x17, 0x05, 0xf4, 0xe3, 0xfc,
    0x03, 0xfe, 0x10, 0x02, 0xfb, 0xff, 0xee, 0xf0, 0xbd, 0x0d, 0x01, 0xfb, 0xf3,
    0xda, 0xbf, 0x00, 0xfc, 0xf8, 0x0e, 0x07, 0xf4, 0x02, 0x09, 0x04, 0x0d, 0xf3,
    0x07, 0xe8, 0xf1, 0xff, 0x0b, 0x00, 0x0a, 0x0f, 0xfb, 0xf8, 0x08, 0x0c, 0x05,
    0x08, 0xea, 0xfa, 0x05, 0xf4, 0xee, 0xfb, 0x37, 0x02, 0x11, 0xf9, 0x03, 0xfc,
    0x0f, 0xff, 0x02, 0x02, 0xf4, 0x06, 0x01, 0x04, 0x11, 0xfa, 0xeb, 0xfa, 0xff,
    0xf7, 0x07, 0x06, 0xea, 0xf3, 0x06, 0xfd, 0x05, 0x16, 0xf8, 0x02, 0xed, 0xe4,
    0xcd, 0x09, 0xf3, 0x04, 0x0d, 0x0a, 0xeb, 0x07, 0x03, 0x10, 0x01, 0x0c, 0x0d,
    0xf1, 0xf7, 0x03, 0x16, 0x08, 0x0b, 0x0f, 0xe8, 0xea, 0x13, 0x0d, 0x07, 0xfe,
    0xcb, 0xfc, 0x06, 0xef, 0xfa, 0x17, 0x34, 0xf2, 0x1a, 0xfa, 0xe0, 0xe6, 0x13,
    0xfa, 0xfa, 0xea, 0xe2, 0x08, 0xee, 0x19, 0x07, 0x09, 0xd1, 0x05, 0xe7, 0xed,
    0x0c, 0x1b, 0xdd, 0xee, 0xfa, 0x07, 0xf3, 0xfa, 0x0b, 0xf4, 0x0e, 0x11, 0x3f,
    0xf8, 0x12, 0xf7, 0xfa, 0xf6, 0x13, 0x07, 0x01, 0xff, 0xed, 0x0d, 0xff, 0x0b,
    0x0c, 0x05, 0xdf, 0x06, 0xef, 0xee, 0x11, 0x03, 0xe2, 0xe9, 0x04, 0x05, 0x0f,
    0x0a, 0xf6, 0xfd, 0xe7, 0xef, 0xcd, 0x01, 0xf6, 0x09, 0x10, 0x0e, 0xee, 0xfd,
    0x00, 0x0d, 0xfc, 0xf5, 0x0e, 0xf8, 0xf0, 0x08, 0x18, 0x02, 0x0c, 0x08, 0xed,
    0xf2, 0x12, 0x09, 0xfd, 0x06, 0xd4, 0xf5, 0x03, 0xec, 0x0e, 0x11, 0x37, 0xfb,
    0x11, 0xfa, 0x03, 0xf9, 0x15, 0xff, 0xfe, 0xf9, 0xfc, 0x03, 0xf9, 0x07, 0x06,
    0xf1, 0xe7, 0xf4, 0xf5, 0xf8, 0xfe, 0x0d, 0xee, 0xfd, 0xfe, 0xf5, 0x10, 0x07,
    0xf6, 0xfa, 0xf2, 0xfd, 0xee, 0xf7, 0xfa, 0xfc, 0x00, 0x12, 0x05, 0xf4, 0x0a,
    0x09, 0x00, 0x04, 0x0c, 0xfc, 0xf7, 0xe3, 0xff, 0xf9, 0x0c, 0xf9, 0xf2, 0xf8,
    0xf6, 0x0a, 0x07, 0x08, 0xec, 0xff, 0x06, 0xf9, 0xe9, 0x0f, 0x39, 0xf1, 0x0f,
    0xfb, 0xfe, 0xf9, 0xf8, 0xf4, 0xf7, 0xf6, 0xe4, 0xf6, 0x00, 0x0e, 0x0d, 0xf3,
    0xe9, 0xec, 0x08, 0xfb, 0x10, 0x02, 0xf7, 0xea, 0xfe, 0xf3, 0xfa, 0x04, 0xfc,
    0x07, 0x9d, 0xd5, 0xc1, 0x0c, 0xf8, 0x04, 0x04, 0x01, 0x0f, 0xfe, 0x0c, 0x01,
    0x06, 0xf6, 0x0e, 0xea, 0xf6, 0x02, 0x01, 0x09, 0x06, 0x04, 0xf7, 0xf4, 0xfd,
    0x07, 0x08, 0x13, 0xce, 0x05, 0xf3, 0x08, 0xc1, 0xe6, 0xc1, 0x07, 0xee, 0x04,
    0x05, 0x0a, 0x0b, 0xf3, 0x10, 0x0d, 0x0f, 0x0a, 0x10, 0xfa, 0xf4, 0x06, 0x0a,
    0x0d, 0x07, 0x05, 0xfe, 0xf2, 0x02, 0x0f, 0x0a, 0x0b, 0xe7, 0x03, 0xf6, 0x08,
    0xf6, 0xed, 0xb2, 0x0a, 0xe9, 0x0a, 0x0b, 0x0a, 0x04, 0xff, 0x06, 0x0c, 0x0c,
    0xf4, 0x0b, 0xf9, 0xf2, 0x0a, 0x0d, 0x11, 0x05, 0x03, 0xf4, 0xf3, 0x0c, 0x0c,
    0x12, 0x0f, 0xf0, 0x03, 0xf5, 0x0a, 0xf1, 0xe3, 0xc9, 0x0d, 0xf6, 0x0d, 0x0b,
    0x0d, 0x0c, 0x05, 0x07, 0x0c, 0x12, 0xfe, 0x0b, 0xf4, 0xf6, 0x05, 0x0c, 0x14,
    0x07, 0x03, 0xef, 0xf6, 0x11, 0x0b, 0x14, 0x07, 0xe8, 0x05, 0xf8, 0x08, 0xf5,
    0xe5, 0xbd, 0x09, 0xed, 0x07, 0x06, 0x06, 0x09, 0xf3, 0x0b, 0x0a, 0x0f, 0x07,
    0x0b, 0xf7, 0xf5, 0x03, 0x05, 0x0f, 0xff, 0x08, 0xf7, 0xf8, 0x0c, 0x0d, 0x13,
    0x0f, 0xef, 0x04, 0xf4, 0x08, 0xf1, 0xd9, 0xc8, 0x0f, 0xee, 0x07, 0x03, 0x12,
    0x10, 0x00, 0x0d, 0x08, 0x0e, 0x06, 0x07, 0xf4, 0xf2, 0x05, 0x0e, 0x13, 0x00,
    0x07, 0xf5, 0xf0, 0x11, 0x09, 0x13, 0x0c, 0xed, 0x0b, 0x07, 0xff, 0x06, 0x1b,
    0xad, 0x14, 0xfe, 0x08, 0xe7, 0xf3, 0x03, 0xf8, 0xe8, 0xd6, 0xfb, 0xf7, 0xf6,
    0x12, 0x0c, 0x01, 0xfa, 0xf0, 0x09, 0xfd, 0x0e, 0x0e, 0xf0, 0xf9, 0xe9, 0x04,
    0xd7, 0x01, 0xed, 0x0b, 0xf0, 0xe4, 0xbd, 0x09, 0xf4, 0x11, 0xff, 0x13, 0x09,
    0xf6, 0x09, 0x17, 0x04, 0x0b, 0x0b, 0xf8, 0xf2, 0x09, 0x0c, 0x15, 0x05, 0x00,
    0xf4, 0xeb, 0x0f, 0x0a, 0x0d, 0x09, 0xf5, 0x05, 0x07, 0xf2, 0x02, 0xfe, 0x3a,
    0xf3, 0x15, 0xea, 0x0e, 0x0b, 0x04, 0xfa, 0x00, 0xf4, 0xde, 0x00, 0x01, 0x02,
    0x09, 0xe8, 0xec, 0xea, 0xfb, 0xfd, 0x04, 0x11, 0xf6, 0xf5, 0xf8, 0xeb, 0x12,
    0xfe, 0xf7, 0x08, 0xcd, 0xec, 0xbf, 0x0c, 0x00, 0x07, 0x02, 0x07, 0x15, 0x0b,
    0x13, 0xfe, 0x0c, 0x03, 0x0d, 0xf4, 0xf6, 0x02, 0x01, 0x0a, 0x01, 0x0c, 0xfa,
    0xf5, 0x02, 0x0c, 0x11, 0x0d, 0xf1, 0x00, 0x11, 0xf6, 0xfa, 0x36, 0x2d, 0xfa,
    0x1d, 0x03, 0xef, 0xf2, 0xfc, 0xff, 0xe4, 0xec, 0xe0, 0x05, 0xf4, 0x0d, 0x0f,
    0xfd, 0xe4, 0xdf, 0xf6, 0xef, 0x17, 0xf4, 0xed, 0xee, 0xef, 0x00, 0xe0, 0x00,
    0x0e, 0xf3, 0x03, 0x0e, 0x32, 0xf5, 0x0d, 0xf3, 0x0c, 0xfd, 0xf8, 0xff, 0xf7,
    0xe7, 0xe6, 0xf7, 0xfe, 0x02, 0x0b, 0xfa, 0xe9, 0xe3, 0xff, 0xfb, 0x0d, 0x16,
    0xea, 0xfa, 0xf1, 0xf7, 0x1a, 0x02, 0xf9, 0x0a, 0xef, 0xe4, 0xcc, 0x13, 0xf4,
    0x01, 0xff, 0x07, 0x10, 0x01, 0x13, 0x10, 0x10, 0x0c, 0x09, 0xf4, 0xf6, 0x09,
    0x08, 0x17, 0xfe, 0x0f, 0xfb, 0xfa, 0x0c, 0x05, 0x17, 0x0a, 0xee, 0xf3, 0x09,
    0xfa, 0x05, 0x19, 0x39, 0xed, 0x15, 0xeb, 0x0c, 0xfa, 0xfd, 0x08, 0x00, 0xfa,
    0xe5, 0xf9, 0xf5, 0x08, 0x0b, 0xed, 0xeb, 0xec, 0xf0, 0xfc, 0x10, 0x03, 0xee,
    0xf7, 0xfe, 0xea, 0x03, 0x7a, 0xff, 0xff, 0xff, 0x00, 0x00, 0x00, 0x09, 0x18,
    0x00, 0x00, 0x00, 0x03, 0x00, 0x00, 0x00, 0x08, 0x00, 0x00, 0x00, 0x18, 0x00,
    0x00, 0x00, 0x01, 0x00, 0x00, 0x00, 0x31, 0x00, 0x00, 0x00, 0x01, 0x00, 0x00,
    0x00, 0x00, 0x04, 0x00, 0x00, 0x04, 0x00, 0x06, 0x00, 0x04, 0x00, 0x00, 0x00,
    0x00, 0x00, 0x06, 0x00, 0x08, 0x00, 0x04, 0x00, 0x06, 0x00, 0x00, 0x00, 0x04,
    0x00, 0x00, 0x00, 0x40, 0x00, 0x00, 0x00, 0x1c, 0x4b, 0x1c, 0x4b, 0x1c, 0x4b,
    0x1c, 0x4b, 0x1c, 0x4b, 0x1c, 0x4b, 0x1c, 0x4b, 0x1c, 0x4b, 0x1c, 0x4b, 0x1c,
    0x4b, 0x1c, 0x4b, 0x1c, 0x4b, 0x1c, 0x4b, 0x1c, 0x4b, 0x1c, 0x4b, 0x1c, 0x4b,
    0xe6, 0xed, 0x47, 0xf3, 0x95, 0xf7, 0xd9, 0xd1, 0xb1, 0xec, 0xf0, 0xf1, 0xd1,
    0xe9, 0x88, 0xad, 0xba, 0xe9, 0xb4, 0xef, 0x8d, 0xfa, 0x41, 0xf0, 0x11, 0xeb,
    0x86, 0xc8, 0x0d, 0xe0, 0x5d, 0xe2, 0x00, 0x00, 0x0e, 0x00, 0x18, 0x00, 0x08,
    0x00, 0x07, 0x00, 0x0c, 0x00, 0x10, 0x00, 0x14, 0x00, 0x0e, 0x00, 0x00, 0x00,
    0x00, 0x00, 0x00, 0x07, 0x18, 0x00, 0x00, 0x00, 0x02, 0x00, 0x00, 0x00, 0x08,
    0x00, 0x00, 0x00, 0x14, 0x00, 0x00, 0x00, 0x01, 0x00, 0x00, 0x00, 0x30, 0x00,
    0x00, 0x00, 0x01, 0x00, 0x00, 0x00, 0x20, 0x00, 0x00, 0x00, 0x58, 0xff, 0xff,
    0xff, 0x14, 0x00, 0x1c, 0x00, 0x08, 0x00, 0x07, 0x00, 0x0c, 0x00, 0x10, 0x00,
    0x14, 0x00, 0x00, 0x00, 0x00, 0x00, 0x18, 0x00, 0x14, 0x00, 0x00, 0x00, 0x00,
    0x00, 0x00, 0x09, 0x48, 0x00, 0x00, 0x00, 0x01, 0x00, 0x00, 0x00, 0x20, 0x00,
    0x00, 0x00, 0x5c, 0x00, 0x00, 0x00, 0x04, 0x00, 0x00, 0x00, 0x04, 0x00, 0x00,
    0x00, 0xff, 0xff, 0xff, 0xff, 0x01, 0x00, 0x00, 0x00, 0x04, 0x00, 0x00, 0x00,
    0x18, 0x00, 0x00, 0x00, 0x19, 0x00, 0x00, 0x00, 0x73, 0x65, 0x72, 0x76, 0x69,
    0x6e, 0x67, 0x5f, 0x64, 0x65, 0x66, 0x61, 0x75, 0x6c, 0x74, 0x5f, 0x69, 0x6e,
    0x70, 0x75, 0x74, 0x5f, 0x31, 0x3a, 0x30, 0x00, 0x00, 0x00, 0x04, 0x00, 0x00,
    0x00, 0x01, 0x00, 0x00, 0x00, 0x01, 0x00, 0x00, 0x00, 0x04, 0x00, 0x00, 0x00,
    0x18, 0x00, 0x00, 0x00, 0x0c, 0x00, 0x0c, 0x00, 0x00, 0x00, 0x00, 0x00, 0x04,
    0x00, 0x08, 0x00, 0x0c, 0x00, 0x00, 0x00, 0x14, 0x00, 0x00, 0x00, 0x04, 0x00,
    0x00, 0x00, 0x01, 0x00, 0x00, 0x00, 0x7f, 0x00, 0x00, 0x00, 0x00, 0x00, 0x00,
    0x00, 0x01, 0x00, 0x00, 0x00, 0x2a, 0x53, 0xcc, 0x3d, 0x04, 0x00, 0x04, 0x00,
    0x04, 0x00, 0x00, 0x00,
};

const int vnr_model_data_len = 8064;
