// This is a TensorFlow Lite model file that has been converted into a C data
// array using the convert_tflite_to_c_source() tool.

#if( USE_SWMEM == 1)
__attribute__((section(".SwMem_data")))
#elif( USE_EXTMEM == 1)
__attribute__((section(".ExtMem_data")))
#endif
const unsigned char vnr_model_data[] __attribute__((aligned(4))) = {
    0x1c, 0x00, 0x00, 0x00, 0x54, 0x46, 0x4c, 0x33, 0x14, 0x00, 0x20, 0x00, 0x04,
    0x00, 0x08, 0x00, 0x0c, 0x00, 0x10, 0x00, 0x14, 0x00, 0x00, 0x00, 0x18, 0x00,
    0x1c, 0x00, 0x14, 0x00, 0x00, 0x00, 0x03, 0x00, 0x00, 0x00, 0x74, 0x00, 0x00,
    0x00, 0x68, 0x00, 0x00, 0x00, 0x68, 0x01, 0x00, 0x00, 0x0c, 0x00, 0x00, 0x00,
    0x10, 0x01, 0x00, 0x00, 0x78, 0x00, 0x00, 0x00, 0x14, 0x00, 0x00, 0x00, 0xfc,
    0x35, 0x00, 0x00, 0xf8, 0x35, 0x00, 0x00, 0xc4, 0x34, 0x00, 0x00, 0x7c, 0x20,
    0x00, 0x00, 0xc0, 0x1f, 0x00, 0x00, 0x84, 0x0c, 0x00, 0x00, 0x38, 0x0c, 0x00,
    0x00, 0xbc, 0x0a, 0x00, 0x00, 0x6c, 0x09, 0x00, 0x00, 0xd8, 0x35, 0x00, 0x00,
    0xd4, 0x35, 0x00, 0x00, 0xd0, 0x35, 0x00, 0x00, 0xcc, 0x35, 0x00, 0x00, 0x6c,
    0x05, 0x00, 0x00, 0xc4, 0x35, 0x00, 0x00, 0xcc, 0x03, 0x00, 0x00, 0xbc, 0x35,
    0x00, 0x00, 0xb8, 0x35, 0x00, 0x00, 0xb4, 0x35, 0x00, 0x00, 0xec, 0x00, 0x00,
    0x00, 0x01, 0x00, 0x00, 0x00, 0x24, 0x01, 0x00, 0x00, 0x05, 0x00, 0x00, 0x00,
    0xb0, 0x08, 0x00, 0x00, 0xcc, 0x07, 0x00, 0x00, 0x0c, 0x07, 0x00, 0x00, 0x7c,
    0x02, 0x00, 0x00, 0xd0, 0x01, 0x00, 0x00, 0x01, 0x00, 0x00, 0x00, 0x10, 0x00,
    0x00, 0x00, 0x0c, 0x00, 0x14, 0x00, 0x10, 0x00, 0x0c, 0x00, 0x08, 0x00, 0x04,
    0x00, 0x0c, 0x00, 0x00, 0x00, 0x10, 0x00, 0x00, 0x00, 0x14, 0x00, 0x00, 0x00,
    0x24, 0x00, 0x00, 0x00, 0x28, 0x00, 0x00, 0x00, 0x00, 0x00, 0x00, 0x00, 0x00,
    0x00, 0x00, 0x00, 0x0f, 0x00, 0x00, 0x00, 0x73, 0x65, 0x72, 0x76, 0x69, 0x6e,
    0x67, 0x5f, 0x64, 0x65, 0x66, 0x61, 0x75, 0x6c, 0x74, 0x00, 0x01, 0x00, 0x00,
    0x00, 0x14, 0x00, 0x00, 0x00, 0x01, 0x00, 0x00, 0x00, 0x30, 0x00, 0x00, 0x00,
    0x08, 0x00, 0x0c, 0x00, 0x08, 0x00, 0x04, 0x00, 0x08, 0x00, 0x00, 0x00, 0x11,
    0x00, 0x00, 0x00, 0x04, 0x00, 0x00, 0x00, 0x12, 0x00, 0x00, 0x00, 0x71, 0x75,
    0x61, 0x6e, 0x74, 0x5f, 0x61, 0x63, 0x74, 0x69, 0x76, 0x61, 0x74, 0x69, 0x6f,
    0x6e, 0x5f, 0x34, 0x00, 0x00, 0x2a, 0xcc, 0xff, 0xff, 0x04, 0x00, 0x00, 0x00,
    0x07, 0x00, 0x00, 0x00, 0x69, 0x6e, 0x70, 0x75, 0x74, 0x5f, 0x32, 0x00, 0x01,
    0x00, 0x00, 0x00, 0x0c, 0x00, 0x00, 0x00, 0x08, 0x00, 0x0c, 0x00, 0x04, 0x00,
    0x08, 0x00, 0x08, 0x00, 0x00, 0x00, 0x08, 0x00, 0x00, 0x00, 0x13, 0x00, 0x00,
    0x00, 0x13, 0x00, 0x00, 0x00, 0x6d, 0x69, 0x6e, 0x5f, 0x72, 0x75, 0x6e, 0x74,
    0x69, 0x6d, 0x65, 0x5f, 0x76, 0x65, 0x72, 0x73, 0x69, 0x6f, 0x6e, 0x00, 0x72,
    0xcc, 0xff, 0xff, 0x04, 0x00, 0x00, 0x00, 0x10, 0x00, 0x00, 0x00, 0x32, 0x2e,
    0x31, 0x2e, 0x30, 0x00, 0x00, 0x00, 0x00, 0x00, 0x00, 0x00, 0x00, 0x00, 0x00,
    0x00, 0x0f, 0x00, 0x00, 0x00, 0x4d, 0x4c, 0x49, 0x52, 0x20, 0x43, 0x6f, 0x6e,
    0x76, 0x65, 0x72, 0x74, 0x65, 0x64, 0x2e, 0x00, 0x00, 0x00, 0x0e, 0x00, 0x18,
    0x00, 0x04, 0x00, 0x08, 0x00, 0x0c, 0x00, 0x10, 0x00, 0x14, 0x00, 0x0e, 0x00,
    0x00, 0x00, 0x54, 0x00, 0x00, 0x00, 0x48, 0x00, 0x00, 0x00, 0x3c, 0x00, 0x00,
    0x00, 0x14, 0x00, 0x00, 0x00, 0x04, 0x00, 0x00, 0x00, 0x04, 0x00, 0x00, 0x00,
    0x6d, 0x61, 0x69, 0x6e, 0x00, 0x00, 0x00, 0x00, 0x08, 0x00, 0x00, 0x00, 0x18,
    0x07, 0x00, 0x00, 0x68, 0x06, 0x00, 0x00, 0xf0, 0x04, 0x00, 0x00, 0x50, 0x04,
    0x00, 0x00, 0xcc, 0x02, 0x00, 0x00, 0xac, 0x01, 0x00, 0x00, 0x08, 0x01, 0x00,
    0x00, 0x60, 0x00, 0x00, 0x00, 0x01, 0x00, 0x00, 0x00, 0x11, 0x00, 0x00, 0x00,
    0x01, 0x00, 0x00, 0x00, 0x00, 0x00, 0x00, 0x00, 0x12, 0x00, 0x00, 0x00, 0x94,
    0x33, 0x00, 0x00, 0x50, 0x33, 0x00, 0x00, 0xb8, 0x32, 0x00, 0x00, 0x7c, 0x1e,
    0x00, 0x00, 0xc0, 0x1d, 0x00, 0x00, 0x84, 0x0a, 0x00, 0x00, 0x58, 0x09, 0x00,
    0x00, 0xe8, 0x07, 0x00, 0x00, 0x28, 0x07, 0x00, 0x00, 0x44, 0x06, 0x00, 0x00,
    0x98, 0x05, 0x00, 0x00, 0x1c, 0x04, 0x00, 0x00, 0xac, 0x03, 0x00, 0x00, 0x2c,
    0x03, 0x00, 0x00, 0x18, 0x02, 0x00, 0x00, 0x8c, 0x01, 0x00, 0x00, 0xe0, 0x00,
    0x00, 0x00, 0x34, 0x00, 0x00, 0x00, 0x1a, 0xfa, 0xff, 0xff, 0x04, 0x00, 0x00,
    0x00, 0x10, 0x00, 0x00, 0x00, 0x04, 0x00, 0x00, 0x00, 0x01, 0x00, 0x00, 0x00,
    0x11, 0x00, 0x00, 0x00, 0x01, 0x00, 0x00, 0x00, 0x10, 0x00, 0x00, 0x00, 0x3c,
    0xf9, 0xff, 0xff, 0x0e, 0x00, 0x00, 0x00, 0x00, 0x00, 0x00, 0x0e, 0x02, 0x00,
    0x00, 0x00, 0xf8, 0xcc, 0xff, 0xff, 0x00, 0x00, 0x00, 0x09, 0x40, 0x00, 0x00,
    0x00, 0x12, 0x00, 0x00, 0x00, 0x18, 0x00, 0x00, 0x00, 0x40, 0x00, 0x00, 0x00,
    0x04, 0x00, 0x00, 0x00, 0x02, 0x00, 0x00, 0x00, 0xff, 0xff, 0xff, 0xff, 0x01,
    0x00, 0x00, 0x00, 0x19, 0x00, 0x00, 0x00, 0x53, 0x74, 0x61, 0x74, 0x65, 0x66,
    0x75, 0x6c, 0x50, 0x61, 0x72, 0x74, 0x69, 0x74, 0x69, 0x6f, 0x6e, 0x65, 0x64,
    0x43, 0x61, 0x6c, 0x6c, 0x3a, 0x30, 0x00, 0x00, 0x00, 0x02, 0x00, 0x00, 0x00,
    0x01, 0x00, 0x00, 0x00, 0x01, 0x00, 0x00, 0x00, 0xd4, 0xcc, 0xff, 0xff, 0x14,
    0x00, 0x00, 0x00, 0x04, 0x00, 0x00, 0x00, 0x01, 0x00, 0x00, 0x00, 0x80, 0xff,
    0xff, 0xff, 0xff, 0xff, 0xff, 0xff, 0x01, 0x00, 0x00, 0x00, 0x00, 0x00, 0x80,
    0x3b, 0xbe, 0xfa, 0xff, 0xff, 0x03, 0x00, 0x00, 0x00, 0x10, 0x00, 0x00, 0x00,
    0x04, 0x00, 0x00, 0x00, 0x01, 0x00, 0x00, 0x00, 0x10, 0x00, 0x00, 0x00, 0x02,
    0x00, 0x00, 0x00, 0x0f, 0x00, 0x00, 0x00, 0x05, 0x00, 0x00, 0x00, 0xe4, 0xf9,
    0xff, 0xff, 0x16, 0x00, 0x00, 0x00, 0x00, 0x00, 0x00, 0x16, 0x01, 0x00, 0x00,
    0x00, 0xa0, 0xcd, 0xff, 0xff, 0x00, 0x00, 0x00, 0x09, 0x28, 0x00, 0x00, 0x00,
    0x11, 0x00, 0x00, 0x00, 0x18, 0x00, 0x00, 0x00, 0x28, 0x00, 0x00, 0x00, 0x04,
    0x00, 0x00, 0x00, 0x02, 0x00, 0x00, 0x00, 0xff, 0xff, 0xff, 0xff, 0x01, 0x00,
    0x00, 0x00, 0x01, 0x00, 0x00, 0x00, 0x46, 0x00, 0x00, 0x00, 0x02, 0x00, 0x00,
    0x00, 0x01, 0x00, 0x00, 0x00, 0x01, 0x00, 0x00, 0x00, 0x64, 0xcd, 0xff, 0xff,
    0x14, 0x00, 0x00, 0x00, 0x04, 0x00, 0x00, 0x00, 0x01, 0x00, 0x00, 0x00, 0xf4,
    0xff, 0xff, 0xff, 0xff, 0xff, 0xff, 0xff, 0x01, 0x00, 0x00, 0x00, 0x2a, 0xf1,
    0x93, 0x3d, 0x00, 0x00, 0x0e, 0x00, 0x14, 0x00, 0x00, 0x00, 0x08, 0x00, 0x0c,
    0x00, 0x07, 0x00, 0x10, 0x00, 0x0e, 0x00, 0x00, 0x00, 0x00, 0x00, 0x00, 0x01,
    0x24, 0x00, 0x00, 0x00, 0x18, 0x00, 0x00, 0x00, 0x04, 0x00, 0x00, 0x00, 0xa6,
    0xfa, 0xff, 0xff, 0x01, 0x00, 0x00, 0x00, 0x01, 0x00, 0x00, 0x00, 0x00, 0x00,
    0x00, 0x01, 0x01, 0x00, 0x00, 0x00, 0x0f, 0x00, 0x00, 0x00, 0x03, 0x00, 0x00,
    0x00, 0x0d, 0x00, 0x00, 0x00, 0x0e, 0x00, 0x00, 0x00, 0x0c, 0x00, 0x00, 0x00,
    0x48, 0xce, 0xff, 0xff, 0x00, 0x00, 0x00, 0x09, 0x30, 0x00, 0x00, 0x00, 0x10,
    0x00, 0x00, 0x00, 0x20, 0x00, 0x00, 0x00, 0x38, 0x00, 0x00, 0x00, 0x04, 0x00,
    0x00, 0x00, 0x04, 0x00, 0x00, 0x00, 0xff, 0xff, 0xff, 0xff, 0x01, 0x00, 0x00,
    0x00, 0x01, 0x00, 0x00, 0x00, 0x01, 0x00, 0x00, 0x00, 0x01, 0x00, 0x00, 0x00,
    0x45, 0x00, 0x00, 0x00, 0x04, 0x00, 0x00, 0x00, 0x01, 0x00, 0x00, 0x00, 0x01,
    0x00, 0x00, 0x00, 0x01, 0x00, 0x00, 0x00, 0x01, 0x00, 0x00, 0x00, 0x1c, 0xce,
    0xff, 0xff, 0x14, 0x00, 0x00, 0x00, 0x04, 0x00, 0x00, 0x00, 0x01, 0x00, 0x00,
    0x00, 0xf4, 0xff, 0xff, 0xff, 0xff, 0xff, 0xff, 0xff, 0x01, 0x00, 0x00, 0x00,
    0x2a, 0xf1, 0x93, 0x3d, 0x42, 0xcf, 0xff, 0xff, 0x04, 0x00, 0x00, 0x00, 0x10,
    0x00, 0x00, 0x00, 0x3f, 0x48, 0x41, 0xd2, 0xb4, 0x99, 0x82, 0xaa, 0x4d, 0xba,
    0x54, 0xc0, 0xa3, 0x3d, 0xa7, 0x88, 0x0a, 0xcf, 0xff, 0xff, 0x00, 0x00, 0x00,
    0x09, 0x18, 0x00, 0x00, 0x00, 0x0f, 0x00, 0x00, 0x00, 0x08, 0x00, 0x00, 0x00,
    0x20, 0x00, 0x00, 0x00, 0x01, 0x00, 0x00, 0x00, 0x44, 0x00, 0x00, 0x00, 0x04,
    0x00, 0x00, 0x00, 0x01, 0x00, 0x00, 0x00, 0x01, 0x00, 0x00, 0x00, 0x01, 0x00,
    0x00, 0x00, 0x10, 0x00, 0x00, 0x00, 0x8c, 0xce, 0xff, 0xff, 0x18, 0x00, 0x00,
    0x00, 0x04, 0x00, 0x00, 0x00, 0x01, 0x00, 0x00, 0x00, 0x00, 0x00, 0x00, 0x00,
    0x00, 0x00, 0x00, 0x00, 0x00, 0x00, 0x00, 0x00, 0x01, 0x00, 0x00, 0x00, 0xf7,
    0x00, 0x61, 0x3a, 0xf4, 0xfd, 0xff, 0xff, 0x02, 0x00, 0x00, 0x00, 0xa0, 0x00,
    0x00, 0x00, 0x94, 0x00, 0x00, 0x00, 0x04, 0x00, 0x00, 0x00, 0x87, 0x00, 0x00,
    0x00, 0x6b, 0x74, 0x00, 0x6d, 0x70, 0x00, 0x08, 0x40, 0x01, 0x00, 0x00, 0x40,
    0x01, 0x00, 0x00, 0x00, 0x61, 0x67, 0x67, 0x70, 0x00, 0x18, 0x00, 0x14, 0x00,
    0x00, 0x00, 0x00, 0x00, 0x00, 0x00, 0x00, 0x00, 0x00, 0x09, 0x00, 0x00, 0x00,
    0x00, 0x00, 0x00, 0x00, 0x00, 0x00, 0x00, 0x00, 0x00, 0x6f, 0x74, 0x70, 0x00,
    0x08, 0x10, 0x00, 0x00, 0x00, 0x03, 0x00, 0xfb, 0xff, 0x00, 0x73, 0x63, 0x72,
    0x61, 0x74, 0x63, 0x68, 0x00, 0x61, 0x6b, 0x70, 0x00, 0x20, 0x00, 0x00, 0x00,
    0x00, 0x01, 0x00, 0x00, 0x00, 0x00, 0x00, 0x00, 0x00, 0x01, 0x00, 0x00, 0x00,
    0x01, 0x00, 0x00, 0x00, 0x00, 0x00, 0x00, 0x00, 0x00, 0x00, 0x00, 0x00, 0x10,
    0x00, 0x00, 0x00, 0x00, 0x01, 0x22, 0x14, 0x06, 0x5f, 0x2b, 0x71, 0x6f, 0x44,
    0x37, 0x06, 0x01, 0x06, 0x62, 0x0d, 0x00, 0x74, 0x48, 0x00, 0x14, 0x28, 0x04,
    0x14, 0x14, 0x04, 0x0c, 0x24, 0x01, 0x00, 0x01, 0x00, 0x00, 0x00, 0x0d, 0x00,
    0x00, 0x00, 0x03, 0x00, 0x00, 0x00, 0x0b, 0x00, 0x00, 0x00, 0x02, 0x00, 0x00,
    0x00, 0x01, 0x00, 0x00, 0x00, 0xe0, 0xcf, 0xff, 0xff, 0x00, 0x00, 0x00, 0x09,
    0x30, 0x00, 0x00, 0x00, 0x0e, 0x00, 0x00, 0x00, 0x20, 0x00, 0x00, 0x00, 0x38,
    0x00, 0x00, 0x00, 0x04, 0x00, 0x00, 0x00, 0x04, 0x00, 0x00, 0x00, 0xff, 0xff,
    0xff, 0xff, 0x01, 0x00, 0x00, 0x00, 0x01, 0x00, 0x00, 0x00, 0x10, 0x00, 0x00,
    0x00, 0x01, 0x00, 0x00, 0x00, 0x43, 0x00, 0x00, 0x00, 0x04, 0x00, 0x00, 0x00,
    0x01, 0x00, 0x00, 0x00, 0x01, 0x00, 0x00, 0x00, 0x01, 0x00, 0x00, 0x00, 0x10,
    0x00, 0x00, 0x00, 0xb4, 0xcf, 0xff, 0xff, 0x14, 0x00, 0x00, 0x00, 0x04, 0x00,
    0x00, 0x00, 0x01, 0x00, 0x00, 0x00, 0x80, 0xff, 0xff, 0xff, 0xff, 0xff, 0xff,
    0xff, 0x01, 0x00, 0x00, 0x00, 0xf7, 0xba, 0x15, 0x3e, 0xda, 0xd0, 0xff, 0xff,
    0x04, 0x00, 0x00, 0x00, 0x04, 0x00, 0x00, 0x00, 0xea, 0x0c, 0x00, 0x00, 0x96,
    0xd0, 0xff, 0xff, 0x00, 0x00, 0x00, 0x02, 0x18, 0x00, 0x00, 0x00, 0x0d, 0x00,
    0x00, 0x00, 0x08, 0x00, 0x00, 0x00, 0x14, 0x00, 0x00, 0x00, 0x01, 0x00, 0x00,
    0x00, 0x42, 0x00, 0x00, 0x00, 0x01, 0x00, 0x00, 0x00, 0x01, 0x00, 0x00, 0x00,
    0x0c, 0xd0, 0xff, 0xff, 0x18, 0x00, 0x00, 0x00, 0x04, 0x00, 0x00, 0x00, 0x01,
    0x00, 0x00, 0x00, 0x00, 0x00, 0x00, 0x00, 0x00, 0x00, 0x00, 0x00, 0x00, 0x00,
    0x00, 0x00, 0x01, 0x00, 0x00, 0x00, 0xe4, 0x99, 0x03, 0x39, 0xfa, 0xfd, 0xff,
    0xff, 0x01, 0x00, 0x00, 0x00, 0x10, 0x00, 0x00, 0x00, 0x04, 0x00, 0x00, 0x00,
    0x01, 0x00, 0x00, 0x00, 0x0b, 0x00, 0x00, 0x00, 0x01, 0x00, 0x00, 0x00, 0x0a,
    0x00, 0x00, 0x00, 0xc8, 0xd0, 0xff, 0xff, 0x00, 0x00, 0x00, 0x09, 0x30, 0x00,
    0x00, 0x00, 0x0c, 0x00, 0x00, 0x00, 0x20, 0x00, 0x00, 0x00, 0x38, 0x00, 0x00,
    0x00, 0x04, 0x00, 0x00, 0x00, 0x04, 0x00, 0x00, 0x00, 0xff, 0xff, 0xff, 0xff,
    0x01, 0x00, 0x00, 0x00, 0x0a, 0x00, 0x00, 0x00, 0x20, 0x00, 0x00, 0x00, 0x01,
    0x00, 0x00, 0x00, 0x41, 0x00, 0x00, 0x00, 0x04, 0x00, 0x00, 0x00, 0x01, 0x00,
    0x00, 0x00, 0x01, 0x00, 0x00, 0x00, 0x0a, 0x00, 0x00, 0x00, 0x20, 0x00, 0x00,
    0x00, 0x9c, 0xd0, 0xff, 0xff, 0x14, 0x00, 0x00, 0x00, 0x04, 0x00, 0x00, 0x00,
    0x01, 0x00, 0x00, 0x00, 0x80, 0xff, 0xff, 0xff, 0xff, 0xff, 0xff, 0xff, 0x01,
    0x00, 0x00, 0x00, 0xe6, 0x8c, 0x8f, 0x3d, 0x10, 0x00, 0x14, 0x00, 0x04, 0x00,
    0x08, 0x00, 0x0c, 0x00, 0x00, 0x00, 0x00, 0x00, 0x10, 0x00, 0x10, 0x00, 0x00,
    0x00, 0x02, 0x00, 0x00, 0x00, 0xb4, 0x00, 0x00, 0x00, 0xa8, 0x00, 0x00, 0x00,
    0x04, 0x00, 0x00, 0x00, 0x99, 0x00, 0x00, 0x00, 0x6b, 0x74, 0x00, 0x6d, 0x70,
    0x00, 0x20, 0x60, 0x01, 0x00, 0x00, 0x20, 0x00, 0x00, 0x00, 0x02, 0x00, 0x00,
    0x00, 0x02, 0x00, 0x00, 0x00, 0x00, 0x00, 0x00, 0x00, 0x10, 0x00, 0x00, 0x00,
    0xf0, 0xff, 0xff, 0xff, 0x30, 0x01, 0x00, 0x00, 0x00, 0x61, 0x67, 0x67, 0x70,
    0x00, 0x08, 0x20, 0x00, 0x00, 0x00, 0x90, 0x00, 0x00, 0x00, 0x00, 0x6f, 0x74,
    0x70, 0x00, 0x08, 0x20, 0x00, 0x00, 0x00, 0x05, 0x00, 0xfd, 0xff, 0x00, 0x73,
    0x63, 0x72, 0x61, 0x74, 0x63, 0x68, 0x00, 0x61, 0x6b, 0x70, 0x00, 0x20, 0x00,
    0x00, 0x00, 0x00, 0x01, 0x00, 0x00, 0x00, 0x00, 0x00, 0x00, 0x00, 0x0a, 0x00,
    0x00, 0x00, 0x02, 0x00, 0x00, 0x00, 0x00, 0x00, 0x00, 0x00, 0x00, 0x00, 0x00,
    0x00, 0x20, 0x00, 0x00, 0x00, 0x00, 0x01, 0x22, 0x14, 0x06, 0x4f, 0x2b, 0x79,
    0x77, 0x44, 0x37, 0x00, 0x07, 0x00, 0x01, 0x00, 0x06, 0x00, 0x56, 0x00, 0x12,
    0x00, 0x01, 0x00, 0x83, 0x00, 0x50, 0x00, 0xc0, 0x00, 0x14, 0x28, 0x05, 0x14,
    0x14, 0x05, 0x12, 0x25, 0x01, 0x00, 0x00, 0x00, 0x01, 0x00, 0x00, 0x00, 0x0a,
    0x00, 0x00, 0x00, 0x03, 0x00, 0x00, 0x00, 0x09, 0x00, 0x00, 0x00, 0x04, 0x00,
    0x00, 0x00, 0x03, 0x00, 0x00, 0x00, 0x0c, 0x00, 0x10, 0x00, 0x0f, 0x00, 0x08,
    0x00, 0x00, 0x00, 0x04, 0x00, 0x0c, 0x00, 0x00, 0x00, 0x20, 0x00, 0x00, 0x00,
    0x08, 0x00, 0x00, 0x00, 0x00, 0x00, 0x00, 0x20, 0x0c, 0x00, 0x00, 0x00, 0x58,
    0x43, 0x5f, 0x63, 0x6f, 0x6e, 0x76, 0x32, 0x64, 0x5f, 0x76, 0x32, 0x00, 0x00,
    0x00, 0x00, 0x40, 0xd2, 0xff, 0xff, 0x00, 0x00, 0x00, 0x09, 0x30, 0x00, 0x00,
    0x00, 0x0b, 0x00, 0x00, 0x00, 0x20, 0x00, 0x00, 0x00, 0x38, 0x00, 0x00, 0x00,
    0x04, 0x00, 0x00, 0x00, 0x04, 0x00, 0x00, 0x00, 0xff, 0xff, 0xff, 0xff, 0x01,
    0x00, 0x00, 0x00, 0x0a, 0x00, 0x00, 0x00, 0x20, 0x00, 0x00, 0x00, 0x01, 0x00,
    0x00, 0x00, 0x39, 0x00, 0x00, 0x00, 0x04, 0x00, 0x00, 0x00, 0x01, 0x00, 0x00,
    0x00, 0x01, 0x00, 0x00, 0x00, 0x0a, 0x00, 0x00, 0x00, 0x20, 0x00, 0x00, 0x00,
    0x14, 0xd2, 0xff, 0xff, 0x14, 0x00, 0x00, 0x00, 0x04, 0x00, 0x00, 0x00, 0x01,
    0x00, 0x00, 0x00, 0x54, 0x00, 0x00, 0x00, 0x00, 0x00, 0x00, 0x00, 0x01, 0x00,
    0x00, 0x00, 0x75, 0xce, 0xce, 0x3e, 0x00, 0x00, 0x0a, 0x00, 0x10, 0x00, 0x04,
    0x00, 0x08, 0x00, 0x0c, 0x00, 0x0a, 0x00, 0x00, 0x00, 0x01, 0x00, 0x00, 0x00,
    0x10, 0x00, 0x00, 0x00, 0x04, 0x00, 0x00, 0x00, 0x01, 0x00, 0x00, 0x00, 0x09,
    0x00, 0x00, 0x00, 0x01, 0x00, 0x00, 0x00, 0x08, 0x00, 0x00, 0x00, 0x2c, 0xff,
    0xff, 0xff, 0x13, 0x00, 0x00, 0x00, 0x00, 0x00, 0x00, 0x13, 0x02, 0x00, 0x00,
    0x00, 0xe8, 0xd2, 0xff, 0xff, 0x00, 0x00, 0x00, 0x09, 0x30, 0x00, 0x00, 0x00,
    0x0a, 0x00, 0x00, 0x00, 0x20, 0x00, 0x00, 0x00, 0x38, 0x00, 0x00, 0x00, 0x04,
    0x00, 0x00, 0x00, 0x04, 0x00, 0x00, 0x00, 0xff, 0xff, 0xff, 0xff, 0x03, 0x00,
    0x00, 0x00, 0x16, 0x00, 0x00, 0x00, 0x10, 0x00, 0x00, 0x00, 0x01, 0x00, 0x00,
    0x00, 0x38, 0x00, 0x00, 0x00, 0x04, 0x00, 0x00, 0x00, 0x01, 0x00, 0x00, 0x00,
    0x03, 0x00, 0x00, 0x00, 0x16, 0x00, 0x00, 0x00, 0x10, 0x00, 0x00, 0x00, 0xbc,
    0xd2, 0xff, 0xff, 0x14, 0x00, 0x00, 0x00, 0x04, 0x00, 0x00, 0x00, 0x01, 0x00,
    0x00, 0x00, 0x80, 0xff, 0xff, 0xff, 0xff, 0xff, 0xff, 0xff, 0x01, 0x00, 0x00,
    0x00, 0x0b, 0x8e, 0xe7, 0x3c, 0x00, 0x00, 0x0e, 0x00, 0x16, 0x00, 0x00, 0x00,
    0x08, 0x00, 0x0c, 0x00, 0x07, 0x00, 0x10, 0x00, 0x0e, 0x00, 0x00, 0x00, 0x00,
    0x00, 0x00, 0x01, 0x30, 0x00, 0x00, 0x00, 0x24, 0x00, 0x00, 0x00, 0x10, 0x00,
    0x00, 0x00, 0x00, 0x00, 0x0a, 0x00, 0x10, 0x00, 0x0f, 0x00, 0x04, 0x00, 0x08,
    0x00, 0x0a, 0x00, 0x00, 0x00, 0x01, 0x00, 0x00, 0x00, 0x01, 0x00, 0x00, 0x00,
    0x00, 0x00, 0x00, 0x01, 0x01, 0x00, 0x00, 0x00, 0x08, 0x00, 0x00, 0x00, 0x03,
    0x00, 0x00, 0x00, 0x00, 0x00, 0x00, 0x00, 0x06, 0x00, 0x00, 0x00, 0x07, 0x00,
    0x00, 0x00, 0x0c, 0x00, 0x10, 0x00, 0x0b, 0x00, 0x00, 0x00, 0x0c, 0x00, 0x04,
    0x00, 0x0c, 0x00, 0x00, 0x00, 0x03, 0x00, 0x00, 0x00, 0x00, 0x00, 0x00, 0x03,
    0x03, 0x00, 0x00, 0x00, 0xc8, 0xd3, 0xff, 0xff, 0x00, 0x00, 0x00, 0x09, 0x30,
    0x00, 0x00, 0x00, 0x09, 0x00, 0x00, 0x00, 0x20, 0x00, 0x00, 0x00, 0x38, 0x00,
    0x00, 0x00, 0x04, 0x00, 0x00, 0x00, 0x04, 0x00, 0x00, 0x00, 0xff, 0xff, 0xff,
    0xff, 0x03, 0x00, 0x00, 0x00, 0x16, 0x00, 0x00, 0x00, 0x10, 0x00, 0x00, 0x00,
    0x01, 0x00, 0x00, 0x00, 0x37, 0x00, 0x00, 0x00, 0x04, 0x00, 0x00, 0x00, 0x01,
    0x00, 0x00, 0x00, 0x03, 0x00, 0x00, 0x00, 0x16, 0x00, 0x00, 0x00, 0x10, 0x00,
    0x00, 0x00, 0x9c, 0xd3, 0xff, 0xff, 0x18, 0x00, 0x00, 0x00, 0x04, 0x00, 0x00,
    0x00, 0x01, 0x00, 0x00, 0x00, 0x35, 0x00, 0x00, 0x00, 0x00, 0x00, 0x00, 0x00,
    0x00, 0x00, 0x00, 0x00, 0x01, 0x00, 0x00, 0x00, 0x91, 0x8b, 0xbf, 0x3d, 0xc6,
    0xd4, 0xff, 0xff, 0x04, 0x00, 0x00, 0x00, 0x40, 0x00, 0x00, 0x00, 0x5c, 0xf3,
    0xff, 0xff, 0xac, 0x02, 0x00, 0x00, 0x62, 0x03, 0x00, 0x00, 0x3e, 0xff, 0xff,
    0xff, 0x15, 0xfe, 0xff, 0xff, 0x68, 0xf6, 0xff, 0xff, 0x22, 0x00, 0x00, 0x00,
    0x2e, 0x0d, 0x00, 0x00, 0xe8, 0xf4, 0xff, 0xff, 0x4b, 0xf5, 0xff, 0xff, 0x35,
    0xfe, 0xff, 0xff, 0xaf, 0xf9, 0xff, 0xff, 0x3f, 0xea, 0xff, 0xff, 0x06, 0xfb,
    0xff, 0xff, 0xf3, 0xf3, 0xff, 0xff, 0x6f, 0xf4, 0xff, 0xff, 0xbe, 0xd4, 0xff,
    0xff, 0x00, 0x00, 0x00, 0x02, 0x18, 0x00, 0x00, 0x00, 0x08, 0x00, 0x00, 0x00,
    0x08, 0x00, 0x00, 0x00, 0x14, 0x00, 0x00, 0x00, 0x01, 0x00, 0x00, 0x00, 0x36,
    0x00, 0x00, 0x00, 0x01, 0x00, 0x00, 0x00, 0x10, 0x00, 0x00, 0x00, 0x34, 0xd4,
    0xff, 0xff, 0x90, 0x00, 0x00, 0x00, 0x04, 0x00, 0x00, 0x00, 0x10, 0x00, 0x00,
    0x00, 0x00, 0x00, 0x00, 0x00, 0x00, 0x00, 0x00, 0x00, 0x00, 0x00, 0x00, 0x00,
    0x00, 0x00, 0x00, 0x00, 0x00, 0x00, 0x00, 0x00, 0x00, 0x00, 0x00, 0x00, 0x00,
    0x00, 0x00, 0x00, 0x00, 0x00, 0x00, 0x00, 0x00, 0x00, 0x00, 0x00, 0x00, 0x00,
    0x00, 0x00, 0x00, 0x00, 0x00, 0x00, 0x00, 0x00, 0x00, 0x00, 0x00, 0x00, 0x00,
    0x00, 0x00, 0x00, 0x00, 0x00, 0x00, 0x00, 0x00, 0x00, 0x00, 0x00, 0x00, 0x00,
    0x00, 0x00, 0x00, 0x00, 0x00, 0x00, 0x00, 0x00, 0x00, 0x00, 0x00, 0x00, 0x00,
    0x00, 0x00, 0x00, 0x00, 0x00, 0x00, 0x00, 0x00, 0x00, 0x00, 0x00, 0x00, 0x00,
    0x00, 0x00, 0x00, 0x00, 0x00, 0x00, 0x00, 0x00, 0x00, 0x00, 0x00, 0x00, 0x00,
    0x00, 0x00, 0x00, 0x00, 0x00, 0x00, 0x00, 0x00, 0x00, 0x00, 0x00, 0x00, 0x00,
    0x00, 0x00, 0x00, 0x00, 0x00, 0x00, 0x00, 0x00, 0x00, 0x00, 0x00, 0x00, 0x00,
    0x00, 0x00, 0x00, 0x10, 0x00, 0x00, 0x00, 0x2c, 0xb3, 0xa2, 0x39, 0xad, 0x38,
    0xd6, 0x39, 0x03, 0xa4, 0x3f, 0x3a, 0x34, 0xb3, 0x0d, 0x3a, 0x0b, 0x85, 0x9f,
    0x39, 0x96, 0xd1, 0x10, 0x3a, 0x5c, 0xa1, 0xd3, 0x39, 0x45, 0x91, 0xa2, 0x39,
    0x9b, 0xee, 0xf5, 0x39, 0x08, 0xeb, 0xb1, 0x39, 0x9a, 0x31, 0xcf, 0x39, 0xfa,
    0x67, 0xc1, 0x39, 0xb0, 0xbc, 0xb1, 0x39, 0x4a, 0xc7, 0x03, 0x3a, 0xfa, 0x93,
    0xb3, 0x39, 0x45, 0xff, 0x9c, 0x39, 0x12, 0xd6, 0xff, 0xff, 0x04, 0x00, 0x00,
    0x00, 0x60, 0x00, 0x00, 0x00, 0x81, 0x0e, 0x47, 0xc1, 0x19, 0x12, 0xe3, 0xe1,
    0xd1, 0x7f, 0x6c, 0xc8, 0x7f, 0xd9, 0x15, 0x54, 0xd3, 0xf6, 0x7f, 0xcf, 0xc4,
    0x87, 0x36, 0x37, 0x69, 0x7f, 0xe1, 0x8b, 0x9c, 0x0d, 0x35, 0x81, 0x3e, 0x0e,
    0xc7, 0x27, 0xb7, 0x6b, 0xfc, 0x9c, 0x7f, 0xfe, 0x1c, 0xae, 0x4f, 0xe1, 0xa1,
    0x7f, 0x21, 0x45, 0xfc, 0xb8, 0x81, 0x4f, 0x7f, 0xfb, 0x92, 0x60, 0xe3, 0xb7,
    0x81, 0x9e, 0x4d, 0x31, 0x78, 0xfb, 0xb5, 0x2b, 0x4c, 0x81, 0xe4, 0x77, 0xf6,
    0x66, 0x8f, 0x1b, 0x49, 0x81, 0x7f, 0x3a, 0xe5, 0xfe, 0xa6, 0xe6, 0xce, 0xab,
    0x81, 0x61, 0x54, 0x37, 0x7f, 0x43, 0x7a, 0xa2, 0x8f, 0x83, 0x2a, 0xd6, 0xff,
    0xff, 0x00, 0x00, 0x00, 0x09, 0x18, 0x00, 0x00, 0x00, 0x07, 0x00, 0x00, 0x00,
    0x08, 0x00, 0x00, 0x00, 0x20, 0x00, 0x00, 0x00, 0x01, 0x00, 0x00, 0x00, 0x35,
    0x00, 0x00, 0x00, 0x04, 0x00, 0x00, 0x00, 0x10, 0x00, 0x00, 0x00, 0x02, 0x00,
    0x00, 0x00, 0x03, 0x00, 0x00, 0x00, 0x01, 0x00, 0x00, 0x00, 0xac, 0xd5, 0xff,
    0xff, 0x90, 0x00, 0x00, 0x00, 0x04, 0x00, 0x00, 0x00, 0x10, 0x00, 0x00, 0x00,
    0x00, 0x00, 0x00, 0x00, 0x00, 0x00, 0x00, 0x00, 0x00, 0x00, 0x00, 0x00, 0x00,
    0x00, 0x00, 0x00, 0x00, 0x00, 0x00, 0x00, 0x00, 0x00, 0x00, 0x00, 0x00, 0x00,
    0x00, 0x00, 0x00, 0x00, 0x00, 0x00, 0x00, 0x00, 0x00, 0x00, 0x00, 0x00, 0x00,
    0x00, 0x00, 0x00, 0x00, 0x00, 0x00, 0x00, 0x00, 0x00, 0x00, 0x00, 0x00, 0x00,
    0x00, 0x00, 0x00, 0x00, 0x00, 0x00, 0x00, 0x00, 0x00, 0x00, 0x00, 0x00, 0x00,
    0x00, 0x00, 0x00, 0x00, 0x00, 0x00, 0x00, 0x00, 0x00, 0x00, 0x00, 0x00, 0x00,
    0x00, 0x00, 0x00, 0x00, 0x00, 0x00, 0x00, 0x00, 0x00, 0x00, 0x00, 0x00, 0x00,
    0x00, 0x00, 0x00, 0x00, 0x00, 0x00, 0x00, 0x00, 0x00, 0x00, 0x00, 0x00, 0x00,
    0x00, 0x00, 0x00, 0x00, 0x00, 0x00, 0x00, 0x00, 0x00, 0x00, 0x00, 0x00, 0x00,
    0x00, 0x00, 0x00, 0x00, 0x00, 0x00, 0x00, 0x00, 0x00, 0x00, 0x00, 0x00, 0x00,
    0x00, 0x00, 0x10, 0x00, 0x00, 0x00, 0x09, 0xd9, 0x4b, 0x3b, 0x20, 0x33, 0x86,
    0x3b, 0x9f, 0x1b, 0xf0, 0x3b, 0x72, 0x89, 0xb1, 0x3b, 0x02, 0xdd, 0x47, 0x3b,
    0xbf, 0x71, 0xb5, 0x3b, 0x97, 0x93, 0x84, 0x3b, 0x8f, 0xae, 0x4b, 0x3b, 0xa1,
    0x10, 0x9a, 0x3b, 0x2e, 0xea, 0x5e, 0x3b, 0x17, 0xcc, 0x81, 0x3b, 0xe4, 0x51,
    0x72, 0x3b, 0x1e, 0xb0, 0x5e, 0x3b, 0x2c, 0x1b, 0xa5, 0x3b, 0x99, 0xfe, 0x60,
    0x3b, 0xea, 0xb3, 0x44, 0x3b, 0x8a, 0xd7, 0xff, 0xff, 0x04, 0x00, 0x00, 0x00,
    0x10, 0x00, 0x00, 0x00, 0xff, 0xff, 0xff, 0xff, 0xff, 0xff, 0xff, 0xff, 0x01,
    0x00, 0x00, 0x00, 0x00, 0x00, 0x00, 0x00, 0x52, 0xd7, 0xff, 0xff, 0x00, 0x00,
    0x00, 0x04, 0x18, 0x00, 0x00, 0x00, 0x06, 0x00, 0x00, 0x00, 0x08, 0x00, 0x00,
    0x00, 0x14, 0x00, 0x00, 0x00, 0x01, 0x00, 0x00, 0x00, 0x34, 0x00, 0x00, 0x00,
    0x01, 0x00, 0x00, 0x00, 0x02, 0x00, 0x00, 0x00, 0x9c, 0xd6, 0xff, 0xff, 0xd2,
    0xd7, 0xff, 0xff, 0x04, 0x00, 0x00, 0x00, 0x00, 0x13, 0x00, 0x00, 0x01, 0x04,
    0xd5, 0x15, 0x06, 0xeb, 0xbf, 0x0c, 0xcf, 0x04, 0xf3, 0xf8, 0xf5, 0xf7, 0x04,
    0xf5, 0x02, 0xf3, 0xef, 0x0f, 0x00, 0x06, 0xca, 0x16, 0xd7, 0x07, 0xc9, 0x16,
    0xce, 0x06, 0xb8, 0xdc, 0xfc, 0x02, 0x04, 0x03, 0x11, 0x03, 0xf5, 0xa5, 0xf6,
    0x07, 0xfc, 0xc1, 0x06, 0x12, 0xf6, 0xf7, 0xfe, 0x09, 0x0c, 0xf3, 0x02, 0xdd,
    0xe4, 0xbd, 0x05, 0x07, 0xff, 0xcc, 0x0a, 0x0a, 0x04, 0x03, 0x11, 0xe3, 0x00,
    0x12, 0x16, 0x23, 0xe2, 0x09, 0x0a, 0x0f, 0x15, 0x0a, 0xf6, 0x21, 0xf3, 0x15,
    0x23, 0xbd, 0x02, 0x1a, 0xff, 0x07, 0xfe, 0xf6, 0xfa, 0x17, 0xf2, 0xfa, 0xda,
    0x28, 0xf7, 0xfd, 0xf9, 0xf1, 0x00, 0x06, 0xf2, 0x19, 0xf0, 0x10, 0x06, 0xff,
    0xf9, 0xe4, 0xdd, 0x09, 0xf4, 0xed, 0x09, 0xfb, 0xf8, 0xea, 0x09, 0xc7, 0x0c,
    0xe5, 0xdd, 0xfb, 0xe4, 0xfa, 0x27, 0xfa, 0x0b, 0xfd, 0xf4, 0x01, 0xd0, 0xe8,
    0x0d, 0x0d, 0xdf, 0xf1, 0xed, 0xf3, 0xf1, 0xc7, 0x0e, 0xdc, 0xd6, 0xca, 0xf7,
    0xe5, 0x10, 0x18, 0xf8, 0x10, 0xe7, 0x09, 0xe2, 0xff, 0xed, 0xf7, 0xf5, 0xfe,
    0xf9, 0xd6, 0x1e, 0xe6, 0x19, 0xab, 0xb4, 0x02, 0x06, 0x16, 0xcd, 0xef, 0x2e,
    0xed, 0xdd, 0x1a, 0xea, 0xdc, 0x12, 0xec, 0x1f, 0xbf, 0xdb, 0xd4, 0xe5, 0x26,
    0xbd, 0xf0, 0x38, 0xfd, 0xe0, 0x1a, 0xd7, 0xe0, 0xf7, 0xfc, 0x0b, 0x27, 0x32,
    0xdc, 0x18, 0xe5, 0xca, 0x09, 0xd5, 0xfa, 0x11, 0x10, 0x43, 0x1f, 0x03, 0xdd,
    0xf8, 0x0c, 0x27, 0x15, 0xe3, 0xe8, 0x2a, 0xe2, 0x24, 0xf1, 0x2b, 0xeb, 0x26,
    0x1e, 0x11, 0xd6, 0xdb, 0xb4, 0x06, 0x99, 0x01, 0xf2, 0x93, 0xd8, 0xec, 0xff,
    0x23, 0x8e, 0xda, 0xe5, 0xbb, 0x06, 0x2d, 0xb5, 0xf7, 0x0b, 0xfc, 0x21, 0x01,
    0xed, 0xb0, 0x02, 0xcd, 0xfe, 0xf7, 0xec, 0x87, 0x01, 0xbf, 0xd5, 0xff, 0x26,
    0xcf, 0xdf, 0x9e, 0x32, 0xba, 0xda, 0x18, 0x0b, 0xde, 0xe8, 0xc0, 0x0e, 0xbc,
    0xff, 0x0e, 0xbb, 0xe9, 0xaa, 0xc5, 0x20, 0xc2, 0xef, 0x29, 0x05, 0x05, 0xfb,
    0xfd, 0x0d, 0x07, 0x14, 0x01, 0xdc, 0xe9, 0x0b, 0xdf, 0x07, 0xf3, 0x0b, 0x0c,
    0xfe, 0xdf, 0xdc, 0xe9, 0xfd, 0xee, 0x17, 0x13, 0xd2, 0x2c, 0xfb, 0xc9, 0x06,
    0xcf, 0x0e, 0x0c, 0xf3, 0x04, 0x04, 0x05, 0xdf, 0xf3, 0x0a, 0x08, 0xea, 0xfd,
    0xf9, 0x03, 0xe2, 0xf5, 0x03, 0x0b, 0xd9, 0xff, 0x03, 0x01, 0x00, 0xf4, 0x24,
    0x01, 0x11, 0xfc, 0xfe, 0x1d, 0x33, 0x20, 0x1d, 0xfd, 0xce, 0xf3, 0x01, 0x06,
    0x20, 0xd1, 0xed, 0xea, 0xde, 0xff, 0x11, 0xd7, 0xcd, 0x04, 0xf5, 0xed, 0x9d,
    0xf8, 0xc0, 0xea, 0xf8, 0x07, 0x2c, 0xf5, 0xd6, 0xd3, 0x0a, 0x0d, 0xde, 0x1e,
    0xdb, 0x9c, 0x02, 0xe1, 0xb5, 0xfb, 0x29, 0x14, 0x28, 0xff, 0xc1, 0x02, 0xff,
    0x0e, 0x03, 0x09, 0x04, 0xf1, 0xf2, 0xb2, 0xe9, 0xfa, 0x17, 0xfb, 0x42, 0xe8,
    0xcc, 0x13, 0x0a, 0xce, 0x07, 0x2d, 0x11, 0x9a, 0xe5, 0x9a, 0xaf, 0x04, 0xfd,
    0x25, 0xf4, 0xfa, 0xe5, 0xf5, 0x04, 0x02, 0xf0, 0x0b, 0x03, 0x84, 0x19, 0x1b,
    0x0b, 0x07, 0xdd, 0xdf, 0xc4, 0xec, 0xec, 0xfd, 0x11, 0xf6, 0xc2, 0xfe, 0x13,
    0xc2, 0xd4, 0x01, 0xdc, 0x05, 0x14, 0xee, 0x1a, 0xf0, 0x06, 0xea, 0x04, 0x17,
    0x11, 0x08, 0xe5, 0xe4, 0x17, 0x07, 0x04, 0x24, 0xd6, 0xbc, 0xc5, 0x07, 0x2c,
    0x0e, 0x1b, 0x19, 0xc6, 0xf4, 0xf2, 0xf4, 0xd4, 0xe6, 0x00, 0xfc, 0xfc, 0xbd,
    0x08, 0xfa, 0xd5, 0xf8, 0xeb, 0xd7, 0xfb, 0x10, 0xe3, 0xe3, 0x15, 0x2c, 0x3d,
    0x12, 0x33, 0xf5, 0xe9, 0xe8, 0xd0, 0xde, 0xf6, 0xf8, 0xf6, 0x26, 0xfb, 0xf1,
    0x25, 0x40, 0x20, 0xf4, 0xe6, 0xa1, 0xef, 0x03, 0xe3, 0x81, 0xf1, 0xe3, 0x03,
    0xc0, 0xf2, 0xec, 0xec, 0x98, 0xd4, 0x05, 0x17, 0xe7, 0x1c, 0xfd, 0xf9, 0xe1,
    0xfc, 0xe3, 0x08, 0x0d, 0x00, 0xfa, 0xfd, 0xf6, 0xf7, 0x02, 0x0d, 0x10, 0xe5,
    0xf7, 0xc7, 0x12, 0xd2, 0xf6, 0x08, 0xf7, 0xc5, 0x18, 0xfb, 0x11, 0x01, 0xfd,
    0x01, 0x00, 0x13, 0xff, 0x15, 0x0a, 0xc8, 0xfc, 0x06, 0xe3, 0x04, 0x0a, 0xf8,
    0xfd, 0xfa, 0x03, 0xde, 0xd3, 0x0b, 0xfc, 0x15, 0xc2, 0x02, 0x04, 0x03, 0xd1,
    0xf1, 0x05, 0x1f, 0xd7, 0xe6, 0x17, 0xe1, 0xf1, 0x0f, 0x12, 0x1a, 0xde, 0x07,
    0x17, 0xfa, 0x09, 0x01, 0xfd, 0xfc, 0x02, 0x20, 0xec, 0x04, 0xe1, 0x1b, 0x04,
    0x25, 0xcd, 0x06, 0x0c, 0x0c, 0xf3, 0x0c, 0xf1, 0xfe, 0xfe, 0x12, 0xf4, 0x02,
    0x00, 0x09, 0xfd, 0x01, 0xf2, 0x08, 0x0d, 0x01, 0xfa, 0xed, 0xe1, 0x03, 0xf2,
    0xf6, 0xff, 0x0b, 0xc3, 0xf9, 0x09, 0x03, 0x0f, 0xfd, 0xf4, 0xef, 0xf9, 0xfd,
    0x03, 0x81, 0x09, 0xc9, 0xfa, 0xfd, 0x06, 0xfc, 0x0a, 0xeb, 0xe2, 0xf7, 0xf4,
    0xf8, 0x1a, 0xf4, 0x09, 0x22, 0xfc, 0xdc, 0x0a, 0xf0, 0x03, 0xfa, 0x20, 0xe8,
    0x02, 0x1c, 0x0b, 0xeb, 0xf1, 0x00, 0xe8, 0x15, 0xd5, 0x25, 0x03, 0xde, 0x06,
    0x9c, 0xe8, 0x08, 0xf2, 0x02, 0xca, 0x05, 0x29, 0xf6, 0xf8, 0x1a, 0xda, 0xe1,
    0x15, 0xe3, 0x02, 0xff, 0xf8, 0x28, 0x0e, 0x05, 0x1b, 0xf3, 0x0e, 0xf7, 0xee,
    0xfc, 0xe7, 0xf1, 0xfc, 0x03, 0xf6, 0x2a, 0x0a, 0xb2, 0xde, 0xba, 0x83, 0x1d,
    0xe5, 0xdf, 0x06, 0x13, 0x1f, 0x0a, 0xe1, 0x11, 0x30, 0x02, 0x0e, 0xbb, 0xeb,
    0x01, 0xeb, 0xfb, 0x13, 0x11, 0x23, 0xf7, 0x17, 0x0f, 0x1d, 0xde, 0x96, 0xc2,
    0x05, 0x93, 0x03, 0xfc, 0x81, 0xea, 0xf0, 0x01, 0x1e, 0xf1, 0xea, 0xdf, 0xde,
    0x02, 0x07, 0x1c, 0x2c, 0x95, 0x5d, 0x83, 0xb6, 0x16, 0xf8, 0x0e, 0x20, 0x1e,
    0x4a, 0x1e, 0xd7, 0xef, 0xe0, 0xf1, 0xd4, 0xf7, 0xda, 0xf1, 0xab, 0x18, 0xc6,
    0xe8, 0x09, 0xf7, 0xf1, 0xeb, 0x03, 0xf9, 0xd9, 0x00, 0x0d, 0xf8, 0x26, 0xea,
    0xfc, 0x10, 0xf0, 0xdf, 0x06, 0xe9, 0x23, 0x1c, 0xe3, 0x01, 0x0c, 0x28, 0xfb,
    0xfb, 0xf7, 0xef, 0xa7, 0x0d, 0xeb, 0xd8, 0x12, 0x00, 0xe2, 0xd4, 0xf8, 0x00,
    0xc6, 0x21, 0xf7, 0xe6, 0xf9, 0x01, 0x04, 0x18, 0x00, 0x15, 0xe7, 0xef, 0x03,
    0xf9, 0x07, 0xe0, 0xe1, 0xfe, 0x09, 0xee, 0x02, 0xfe, 0xf6, 0xa9, 0xfc, 0x06,
    0x00, 0xf1, 0x0b, 0x0c, 0xfd, 0x01, 0xf9, 0x54, 0xf0, 0x23, 0xe4, 0x25, 0x09,
    0xe7, 0x29, 0x0b, 0xe7, 0x02, 0xf2, 0xe6, 0x02, 0x3c, 0x06, 0x18, 0xf6, 0xdf,
    0xf3, 0x14, 0xb0, 0xff, 0x1a, 0xf9, 0xfa, 0xbb, 0xc6, 0xff, 0xf6, 0xf2, 0xf0,
    0x1e, 0xdf, 0xd8, 0x12, 0x07, 0x8a, 0x10, 0x19, 0x0d, 0xdd, 0xfe, 0xcb, 0xf4,
    0xf4, 0x2d, 0x11, 0x29, 0xfb, 0xd1, 0xff, 0xfa, 0x12, 0xff, 0x14, 0xfc, 0xee,
    0xf3, 0xb4, 0xd8, 0x03, 0xfd, 0x23, 0x06, 0x22, 0xf8, 0x01, 0xea, 0xf1, 0xff,
    0xed, 0xf7, 0xf0, 0xd6, 0xf6, 0xd7, 0x04, 0xfc, 0x0f, 0xf2, 0x06, 0xe8, 0xf0,
    0x0c, 0x09, 0xe6, 0xfe, 0xfd, 0x8a, 0xee, 0x10, 0x06, 0xf6, 0xe7, 0x10, 0x10,
    0x0f, 0xa4, 0x09, 0xbf, 0xd6, 0x17, 0xa6, 0xd8, 0x1d, 0x01, 0x09, 0xf7, 0xf6,
    0x25, 0xfd, 0x2c, 0xe7, 0xf9, 0xc4, 0xfc, 0x02, 0x0b, 0xe8, 0xed, 0xf1, 0xfa,
    0xfc, 0xf8, 0x19, 0x17, 0x33, 0xaf, 0xd4, 0xdc, 0xef, 0xf3, 0xe3, 0xeb, 0x32,
    0xeb, 0xf1, 0xfa, 0x05, 0xf2, 0xfa, 0x02, 0xe3, 0x1c, 0xe9, 0xf5, 0x0b, 0xfb,
    0xee, 0x0d, 0x06, 0xfa, 0xd7, 0x0e, 0x25, 0x0e, 0xfa, 0x0c, 0xea, 0x24, 0xf5,
    0xf2, 0xe3, 0x06, 0xfa, 0x10, 0xfa, 0x09, 0xd3, 0xf1, 0xdf, 0xc7, 0xf6, 0xf0,
    0xe5, 0x0a, 0xfb, 0xdc, 0x8e, 0xfa, 0xfb, 0x14, 0xc6, 0xeb, 0xe6, 0xc1, 0xe1,
    0xb7, 0x05, 0x00, 0x15, 0xfd, 0xfc, 0xee, 0xd9, 0xcf, 0x01, 0x03, 0xff, 0xdf,
    0x04, 0x04, 0xfc, 0xfe, 0x05, 0x0c, 0x14, 0xdc, 0x03, 0xdc, 0x06, 0xef, 0xf8,
    0xf9, 0xfe, 0xb4, 0x0f, 0xfd, 0x0f, 0x04, 0x15, 0xb6, 0xd4, 0x05, 0x02, 0x17,
    0xfc, 0xfb, 0xfc, 0xf9, 0xf8, 0xf0, 0xdf, 0x13, 0xe8, 0xf8, 0x07, 0xfc, 0xfd,
    0x06, 0xed, 0x05, 0xb2, 0x07, 0xef, 0x10, 0xdb, 0xf8, 0x02, 0x0c, 0xdb, 0xd5,
    0x01, 0xfc, 0xfd, 0xf8, 0xff, 0xab, 0xfe, 0xea, 0xde, 0xf8, 0xf4, 0x00, 0x13,
    0xdc, 0xfd, 0x06, 0xf6, 0xfb, 0xe5, 0x04, 0x05, 0x10, 0xc1, 0xfc, 0x0e, 0xf9,
    0x05, 0xf6, 0xf7, 0xf1, 0x06, 0x0a, 0x01, 0xf8, 0x00, 0x29, 0xf0, 0x00, 0x00,
    0x06, 0xee, 0xfc, 0x08, 0xfc, 0xf2, 0x07, 0x06, 0xe1, 0x03, 0x07, 0xdc, 0x05,
    0xf5, 0x06, 0x05, 0x01, 0xed, 0x00, 0xff, 0xff, 0x04, 0xe8, 0x0a, 0xe9, 0xf0,
    0xed, 0xf1, 0xbe, 0xf6, 0xd3, 0xfc, 0xf6, 0xae, 0x0e, 0x2b, 0xf3, 0x05, 0x38,
    0xd0, 0xfd, 0xe5, 0x1a, 0xdd, 0x03, 0x10, 0xfe, 0xff, 0x03, 0x0d, 0x07, 0x01,
    0xfd, 0xfd, 0x1c, 0xf2, 0x21, 0x18, 0x05, 0x81, 0x0c, 0x1c, 0xff, 0x83, 0xcf,
    0x24, 0xd9, 0x21, 0xdc, 0x1c, 0xdf, 0x20, 0x1d, 0x1a, 0x08, 0xd3, 0xda, 0xfb,
    0x0f, 0xf6, 0xf0, 0x26, 0x12, 0xfb, 0xf0, 0xe9, 0x21, 0x03, 0x07, 0xdf, 0x02,
    0x0e, 0x9c, 0xe0, 0x01, 0x0d, 0x0e, 0x07, 0xf3, 0xc2, 0x1b, 0xc8, 0x01, 0xf9,
    0xea, 0xeb, 0x11, 0x02, 0xee, 0x0f, 0xca, 0xfa, 0x02, 0xe3, 0xf9, 0xf7, 0xfe,
    0x10, 0xf5, 0x25, 0x26, 0xc2, 0x09, 0xd4, 0x07, 0xef, 0xe3, 0xd3, 0xc6, 0xc8,
    0x06, 0xe9, 0x81, 0x10, 0xf3, 0x12, 0xfd, 0x02, 0x1a, 0x13, 0x07, 0x0f, 0xb0,
    0x0e, 0xcc, 0xdc, 0x05, 0x0f, 0xc7, 0x0e, 0x24, 0x20, 0x46, 0xf0, 0xee, 0xee,
    0x28, 0xfd, 0xd2, 0xfd, 0xfd, 0xd5, 0x04, 0xb0, 0xf7, 0x0e, 0xf9, 0x01, 0xf2,
    0x02, 0xf8, 0xd6, 0x08, 0x02, 0xf8, 0x07, 0xfe, 0xed, 0xff, 0xd3, 0xee, 0x06,
    0xef, 0x19, 0x27, 0x06, 0xde, 0xc8, 0x06, 0x05, 0x02, 0x0b, 0x01, 0x0a, 0xe2,
    0x23, 0x0d, 0xc2, 0xbf, 0xf9, 0x00, 0xfe, 0xf9, 0xd0, 0x15, 0xee, 0xfa, 0xf4,
    0x0d, 0x07, 0xfd, 0x0b, 0x00, 0xe9, 0xdd, 0xfb, 0xea, 0xf8, 0x17, 0x04, 0x2c,
    0x10, 0x10, 0xd7, 0xfd, 0x1c, 0x17, 0x1a, 0x05, 0xa4, 0x09, 0xc8, 0x05, 0xff,
    0xe9, 0x1f, 0x5c, 0x08, 0x27, 0xef, 0x13, 0x1f, 0x0e, 0x07, 0x0c, 0xe7, 0x35,
    0xf1, 0x0c, 0xea, 0x2e, 0x04, 0x52, 0x18, 0xce, 0x0c, 0x0d, 0xe7, 0xeb, 0x1c,
    0x0e, 0xa4, 0xf4, 0xa7, 0xf6, 0xe2, 0xfa, 0xfb, 0x35, 0x01, 0xdf, 0x11, 0x10,
    0xce, 0x08, 0x0d, 0x04, 0xd2, 0x0a, 0xb7, 0x00, 0x00, 0xee, 0xe3, 0xbc, 0xfb,
    0xf8, 0xf8, 0x10, 0xf7, 0xce, 0xff, 0x07, 0xc8, 0xe9, 0x09, 0xfa, 0xf6, 0xfd,
    0xe4, 0xe3, 0x00, 0xf6, 0xfc, 0xeb, 0xf3, 0xe7, 0xee, 0xf4, 0xf1, 0x06, 0xfa,
    0xe1, 0x12, 0xed, 0x81, 0x19, 0xfe, 0x1c, 0x14, 0x0d, 0x1c, 0xde, 0xf8, 0xec,
    0xf4, 0xcf, 0xf3, 0xf7, 0x0d, 0x06, 0xef, 0xf4, 0x0b, 0xdd, 0x00, 0xd6, 0xcb,
    0x11, 0xe7, 0xee, 0xff, 0x05, 0xf9, 0xfe, 0x02, 0x0e, 0x05, 0xef, 0x81, 0xe5,
    0xf1, 0x01, 0xdc, 0x0d, 0x1e, 0x19, 0xf4, 0xc3, 0x30, 0xd2, 0xf9, 0x04, 0x17,
    0xc2, 0xb3, 0xe3, 0x0c, 0x01, 0xd3, 0xff, 0x25, 0x1c, 0xff, 0xbe, 0x16, 0xbf,
    0x01, 0x14, 0xd1, 0x33, 0xff, 0xf8, 0xcf, 0xf6, 0xe9, 0x15, 0xe3, 0xf2, 0xf5,
    0xf2, 0xfd, 0x08, 0xf4, 0xf0, 0x00, 0x33, 0xfe, 0xf1, 0xf3, 0x07, 0xcf, 0x16,
    0xea, 0x00, 0xd2, 0x0b, 0xea, 0xd4, 0xfd, 0x04, 0xfe, 0x04, 0xfb, 0x08, 0x07,
    0xd5, 0x03, 0x01, 0xfb, 0xfa, 0x07, 0x04, 0x0a, 0xfb, 0x05, 0x04, 0x17, 0xf2,
    0xfd, 0xe8, 0x32, 0x9e, 0x11, 0xff, 0xf5, 0xf1, 0x05, 0x03, 0x06, 0xfe, 0x14,
    0xdd, 0x0e, 0x19, 0x20, 0x0f, 0xcf, 0x03, 0x1a, 0xea, 0x0c, 0x0c, 0x0c, 0xfb,
    0xf3, 0x17, 0x15, 0x81, 0xad, 0xfb, 0xfd, 0x35, 0xef, 0x00, 0x0e, 0xe4, 0xe0,
    0xdc, 0xc4, 0xe6, 0xe8, 0xef, 0xf9, 0xeb, 0xf4, 0x05, 0xfd, 0x14, 0xe7, 0x1a,
    0x10, 0xf3, 0x01, 0xeb, 0xcd, 0x22, 0xf7, 0xf9, 0x08, 0x03, 0xf8, 0xfb, 0x00,
    0x81, 0x0d, 0xeb, 0xc7, 0x00, 0x04, 0x0b, 0x24, 0x00, 0x08, 0x0e, 0xf2, 0xfd,
    0xf3, 0x06, 0xfd, 0xf5, 0xef, 0xfc, 0xf6, 0xf6, 0x1d, 0xfb, 0x18, 0xf6, 0xff,
    0xde, 0xfd, 0x00, 0x0b, 0x17, 0xe4, 0x12, 0xf0, 0x06, 0x08, 0x07, 0x03, 0xfe,
    0xfd, 0x15, 0x01, 0xe5, 0xe9, 0xf3, 0xd0, 0xb9, 0xe4, 0xea, 0xdd, 0xf3, 0x9f,
    0x1f, 0x35, 0xe7, 0x20, 0x2b, 0xf1, 0xd6, 0xd0, 0x00, 0xd3, 0xf8, 0xf7, 0xf7,
    0x08, 0xba, 0x81, 0x24, 0xfe, 0xeb, 0x27, 0x32, 0xf7, 0xf7, 0xfa, 0xfd, 0x0e,
    0x39, 0x03, 0x21, 0x0f, 0xdb, 0x8f, 0x2d, 0xed, 0xe4, 0x0d, 0x54, 0x26, 0x24,
    0x26, 0x09, 0x8e, 0x14, 0x29, 0x1f, 0x14, 0xd1, 0x22, 0xe5, 0x1e, 0xed, 0x1a,
    0xf2, 0x0f, 0x2c, 0x2d, 0xc5, 0x8b, 0xf1, 0x16, 0x85, 0x01, 0xfb, 0xb4, 0xda,
    0xef, 0x11, 0x1f, 0xf2, 0xec, 0x09, 0xcf, 0xf0, 0x07, 0xa9, 0xd3, 0x05, 0xfd,
    0x17, 0xd7, 0x00, 0xd2, 0xf1, 0xd0, 0x13, 0x03, 0xf5, 0xf3, 0x07, 0xd1, 0xf7,
    0xd4, 0x01, 0xda, 0x1b, 0x1d, 0x03, 0xbe, 0xdf, 0xf1, 0xe7, 0x0a, 0xf9, 0xc6,
    0x26, 0xdf, 0x37, 0xe8, 0xcf, 0xe3, 0x06, 0xa4, 0x10, 0xd3, 0x06, 0x2a, 0xdb,
    0x23, 0xfe, 0xcd, 0x1b, 0xfd, 0x2c, 0xe8, 0xca, 0xb8, 0xb0, 0x81, 0x15, 0xf8,
    0xbb, 0x14, 0x08, 0xff, 0xb3, 0xe9, 0xef, 0xee, 0x2a, 0x03, 0xbd, 0xe8, 0xec,
    0xb2, 0x0b, 0xd1, 0xd1, 0x15, 0x01, 0x07, 0xf8, 0x0f, 0xda, 0xd9, 0x03, 0x0a,
    0xe7, 0x1c, 0x02, 0xf6, 0xbd, 0x09, 0x11, 0xf7, 0xf3, 0xf5, 0x0f, 0xfe, 0xf6,
    0xa4, 0x2e, 0xf9, 0x0b, 0x11, 0x0c, 0x2c, 0xac, 0x19, 0x1c, 0x81, 0xd7, 0xea,
    0xfb, 0xfb, 0xe8, 0xb0, 0x22, 0xf4, 0xda, 0xcc, 0x0a, 0xa1, 0xd1, 0x14, 0xed,
    0xca, 0xe1, 0x9b, 0xc4, 0xd8, 0xf2, 0xc8, 0x45, 0x0a, 0xe2, 0xc1, 0xe3, 0x81,
    0xe4, 0xef, 0x82, 0xab, 0xb7, 0xb9, 0xcc, 0xf2, 0x42, 0xfd, 0x18, 0xfe, 0xd8,
    0x06, 0xfb, 0x0d, 0x04, 0x17, 0xfe, 0xed, 0xed, 0x81, 0xda, 0xf1, 0x47, 0xfd,
    0x56, 0x10, 0xc6, 0x0e, 0x09, 0xd7, 0x03, 0x22, 0x0e, 0xc6, 0xf5, 0x8e, 0xea,
    0x0a, 0x00, 0x09, 0xea, 0x06, 0xe2, 0xe2, 0x09, 0xf8, 0xdd, 0xff, 0x06, 0x81,
    0xf1, 0xfc, 0x07, 0x07, 0xf6, 0xf1, 0xbc, 0xf8, 0xec, 0xf6, 0x16, 0xec, 0xfd,
    0x09, 0x00, 0xe8, 0xe0, 0x09, 0xd3, 0xee, 0x07, 0xf5, 0xf5, 0xf7, 0xf7, 0xa0,
    0x0e, 0xe8, 0x16, 0xeb, 0xea, 0xf0, 0x1e, 0xf5, 0x01, 0x16, 0xbf, 0xa2, 0x3a,
    0x2d, 0x0f, 0x15, 0x28, 0x27, 0xd3, 0x0f, 0xfb, 0xd4, 0xe9, 0xf3, 0x00, 0x07,
    0x25, 0xde, 0x29, 0xe7, 0x08, 0xf1, 0x18, 0x1f, 0x1b, 0x00, 0x00, 0xe2, 0xfc,
    0x2f, 0x24, 0xdf, 0x23, 0xe9, 0x27, 0xbc, 0xcf, 0xf3, 0x13, 0x93, 0xf6, 0x2b,
    0xf2, 0x06, 0xac, 0x35, 0xca, 0xf7, 0xdb, 0xdb, 0x11, 0xfa, 0xc7, 0xbf, 0xf1,
    0xe7, 0x07, 0xc1, 0xe0, 0xea, 0x9b, 0xdf, 0xf2, 0x07, 0x08, 0xfa, 0xd5, 0x08,
    0xd4, 0xf6, 0xba, 0xf0, 0xfe, 0xf5, 0x81, 0x12, 0xf4, 0x01, 0x0f, 0x04, 0xd8,
    0x34, 0x10, 0xda, 0x21, 0xd4, 0x0d, 0xff, 0x08, 0xd9, 0xf3, 0xe3, 0x19, 0xe3,
    0xc5, 0xeb, 0xfe, 0xdf, 0xf2, 0x01, 0x0f, 0xd6, 0x06, 0x13, 0x05, 0xf0, 0xfd,
    0xf7, 0xef, 0x03, 0x04, 0x0a, 0xfd, 0x02, 0x10, 0x0f, 0x16, 0x11, 0x08, 0xf9,
    0x05, 0x0f, 0x07, 0xfa, 0x17, 0x04, 0xfc, 0xe4, 0x23, 0xdc, 0x0b, 0x3b, 0x1d,
    0x23, 0xfa, 0x16, 0x18, 0xd0, 0x05, 0x2f, 0x1e, 0x0a, 0x44, 0x0b, 0xfe, 0xbc,
    0x01, 0x00, 0x06, 0xff, 0xe3, 0x44, 0xf9, 0x19, 0xd8, 0xc9, 0x05, 0x00, 0x01,
    0xe4, 0x14, 0x03, 0xff, 0x0f, 0xa9, 0xfd, 0xf8, 0xc3, 0xf5, 0xfe, 0x1a, 0x23,
    0xf8, 0x25, 0x05, 0xf7, 0x0a, 0x03, 0x27, 0xf2, 0x8b, 0x56, 0x92, 0xf7, 0x02,
    0xee, 0x00, 0x2b, 0x04, 0x06, 0x61, 0x00, 0xf4, 0xd3, 0xfb, 0x1d, 0x0d, 0x04,
    0xf7, 0x0b, 0x0e, 0xd9, 0xfc, 0x15, 0xf1, 0x0e, 0x2f, 0xfc, 0x09, 0x02, 0x39,
    0xdf, 0xe8, 0xfc, 0x08, 0x0d, 0xe4, 0x1a, 0x08, 0xf2, 0xc1, 0xfa, 0xe0, 0xe4,
    0xc7, 0xf2, 0x5e, 0xff, 0x1a, 0xc4, 0x14, 0x23, 0xdf, 0x01, 0x00, 0xd4, 0xcb,
    0xa4, 0xd3, 0xea, 0x16, 0xed, 0x14, 0x1b, 0xa5, 0x0d, 0x00, 0xe6, 0x09, 0x08,
    0x06, 0xd4, 0xee, 0xa8, 0x0d, 0xf5, 0x08, 0xe4, 0xe0, 0xf5, 0xbc, 0xf9, 0xdb,
    0x04, 0xfe, 0x09, 0xe3, 0xf3, 0x1f, 0xff, 0xbd, 0x06, 0x0f, 0x1f, 0x02, 0xe5,
    0x93, 0x05, 0xc2, 0xbb, 0x15, 0xf4, 0xe6, 0x18, 0xec, 0x0c, 0x01, 0xc8, 0x1f,
    0xe4, 0xd1, 0xc9, 0xd7, 0xf9, 0xfd, 0xa0, 0xf8, 0x33, 0x27, 0x27, 0xcd, 0xff,
    0xbc, 0x22, 0x14, 0x2c, 0xf5, 0xfc, 0x1b, 0x1b, 0xee, 0x14, 0x39, 0x39, 0x12,
    0x94, 0x08, 0x00, 0x03, 0x05, 0x00, 0x05, 0xb4, 0xec, 0x3e, 0xfc, 0xe7, 0x28,
    0xf4, 0xfc, 0x0c, 0x1b, 0x47, 0xe6, 0xd8, 0x0b, 0xf6, 0x7f, 0x1e, 0xfb, 0x2e,
    0x35, 0xe7, 0x19, 0x2e, 0x1b, 0x1a, 0x07, 0x05, 0xfd, 0x05, 0xe9, 0x04, 0x23,
    0x08, 0xf8, 0x6e, 0x40, 0xec, 0x14, 0x12, 0xf1, 0x10, 0x04, 0x16, 0x0c, 0x0b,
    0x12, 0x1b, 0xe9, 0x05, 0xfc, 0x2e, 0x13, 0x0d, 0xe3, 0x14, 0xf5, 0x23, 0x13,
    0xf1, 0x9a, 0x90, 0xdd, 0x11, 0xf2, 0xf7, 0x32, 0x0e, 0x13, 0xf2, 0xd9, 0x14,
    0xb6, 0x07, 0x03, 0x0b, 0xb3, 0xc4, 0xe7, 0xfe, 0xf5, 0x19, 0x21, 0xf5, 0xed,
    0xf2, 0xf5, 0x14, 0xce, 0xf6, 0x11, 0xf6, 0xe0, 0xed, 0xd8, 0x1c, 0xcf, 0x1d,
    0x10, 0xbf, 0x09, 0xe3, 0xf7, 0x18, 0xce, 0x03, 0x12, 0xe1, 0x0c, 0xee, 0xfc,
    0xff, 0x0c, 0xac, 0xd5, 0xff, 0xe0, 0x1b, 0xe8, 0x1c, 0xf4, 0xfa, 0xfc, 0x4d,
    0xdc, 0xf1, 0x15, 0x38, 0x2c, 0x0f, 0x03, 0xd4, 0x0b, 0xf5, 0x36, 0x36, 0x34,
    0x2c, 0xe8, 0x77, 0xfd, 0xf8, 0x06, 0xe5, 0x0e, 0xef, 0x0b, 0xfa, 0x01, 0xff,
    0x01, 0x19, 0x0f, 0x0b, 0x14, 0x17, 0x8f, 0x13, 0xb6, 0xe5, 0xf8, 0x21, 0x26,
    0x10, 0xed, 0x02, 0xf1, 0x0f, 0xbe, 0x2b, 0x19, 0x22, 0xe8, 0x1e, 0x09, 0xda,
    0xfe, 0x14, 0xff, 0xfe, 0x4a, 0x12, 0x02, 0xf7, 0xcc, 0xe9, 0xf4, 0x10, 0x10,
    0x0f, 0xf9, 0xce, 0xf7, 0x01, 0x06, 0xee, 0x0a, 0x05, 0x03, 0xf3, 0xa9, 0xce,
    0x04, 0x03, 0xd5, 0xfd, 0xf2, 0x00, 0xfe, 0x1c, 0xf3, 0xf0, 0xdd, 0xe7, 0xd8,
    0x0f, 0xda, 0x0e, 0x0e, 0x04, 0xf9, 0xf4, 0xe4, 0x01, 0xfe, 0xf9, 0x15, 0x07,
    0xbe, 0xfe, 0x14, 0x07, 0x04, 0x12, 0x0a, 0xf3, 0x09, 0x13, 0xf3, 0xec, 0xbc,
    0x2e, 0x22, 0xdb, 0x05, 0xda, 0xfa, 0x0f, 0xf3, 0xe0, 0x13, 0x0c, 0xf4, 0x07,
    0xd3, 0x09, 0xf0, 0x3c, 0x00, 0xfc, 0x81, 0xe1, 0xe6, 0x12, 0xd2, 0xc8, 0x22,
    0x05, 0x07, 0x00, 0xea, 0x0c, 0x29, 0x97, 0xc7, 0xe2, 0xeb, 0x0d, 0xe2, 0x00,
    0xe5, 0x01, 0xea, 0xec, 0x0f, 0xb6, 0xe9, 0x10, 0x29, 0xca, 0xef, 0xcb, 0x02,
    0x05, 0xfb, 0x0f, 0xe7, 0xff, 0xf8, 0x13, 0x0e, 0xaf, 0x19, 0xd0, 0x01, 0xa8,
    0xfc, 0x1f, 0x3a, 0x02, 0x0b, 0x96, 0x1b, 0x19, 0x8a, 0x12, 0xd9, 0x12, 0xfc,
    0x15, 0x60, 0xdb, 0xdb, 0xbe, 0x03, 0x04, 0xeb, 0xf5, 0xf9, 0x01, 0xc8, 0xb6,
    0xf8, 0x0a, 0xf7, 0xfe, 0x1a, 0xef, 0xfe, 0x0c, 0x07, 0xfe, 0x0c, 0xdd, 0xed,
    0x08, 0x12, 0x17, 0x07, 0x10, 0x10, 0xae, 0xd9, 0xb6, 0xf8, 0xe1, 0x0a, 0x05,
    0xfd, 0xc3, 0xfa, 0xfc, 0xff, 0xdc, 0x03, 0x08, 0x29, 0x12, 0xd5, 0xf0, 0xab,
    0xd9, 0xd5, 0xc3, 0x2f, 0xfb, 0xf0, 0xd3, 0x20, 0xaa, 0xc2, 0xd3, 0x10, 0xc9,
    0xf4, 0x9a, 0xd7, 0xae, 0xb9, 0xb3, 0xef, 0x23, 0xf9, 0xd1, 0x05, 0xe0, 0xc3,
    0xda, 0x18, 0x00, 0xb5, 0x10, 0x03, 0x0b, 0x06, 0xf8, 0xfc, 0x07, 0x0b, 0x1d,
    0x10, 0xf8, 0xf9, 0x01, 0x02, 0x06, 0xae, 0x1b, 0x04, 0x0b, 0x0c, 0xef, 0xfd,
    0x01, 0xed, 0x11, 0x1e, 0xde, 0x00, 0xfa, 0xdd, 0x06, 0x06, 0x01, 0xe7, 0x15,
    0xcb, 0x01, 0xb2, 0xfe, 0xe3, 0xbf, 0x03, 0xfd, 0xfd, 0xf9, 0x06, 0x1c, 0xea,
    0x09, 0xf5, 0x3a, 0xc8, 0x28, 0x1c, 0x07, 0x13, 0xf4, 0xe2, 0x07, 0xf3, 0x16,
    0x05, 0x06, 0xd2, 0xd6, 0x01, 0xee, 0xa4, 0xfa, 0x06, 0xe5, 0x07, 0xd2, 0x07,
    0xde, 0x09, 0x0c, 0x01, 0x02, 0xde, 0xd6, 0xfa, 0xec, 0xc5, 0xf4, 0x01, 0xb3,
    0xf6, 0x81, 0xff, 0xf5, 0x02, 0x01, 0x0b, 0xfc, 0x08, 0x13, 0xea, 0x28, 0x11,
    0x2b, 0x65, 0x03, 0x22, 0x2a, 0x2b, 0x2d, 0xf0, 0x09, 0x1d, 0x81, 0x06, 0x33,
    0x05, 0x14, 0x23, 0xea, 0xfd, 0x00, 0x17, 0x12, 0x8d, 0xf0, 0x00, 0xe9, 0x05,
    0x19, 0x42, 0x1c, 0x01, 0x44, 0x5a, 0xd4, 0x2d, 0x13, 0x04, 0x32, 0x13, 0x0f,
    0xf7, 0xf8, 0xfd, 0xed, 0xfa, 0xf0, 0xf7, 0x1d, 0x2e, 0xe7, 0x21, 0xf6, 0x0a,
    0x0a, 0xe3, 0xe5, 0xf0, 0x18, 0xdd, 0xe5, 0xf8, 0x01, 0xf9, 0xde, 0xf4, 0x14,
    0xb9, 0x12, 0xbe, 0xdf, 0xf1, 0x06, 0xd6, 0xae, 0xfc, 0x05, 0xd2, 0xfb, 0xf2,
    0x16, 0x0f, 0x06, 0xef, 0x06, 0xd9, 0x0e, 0x0a, 0xff, 0xda, 0xac, 0xca, 0x31,
    0xd0, 0x2f, 0xe2, 0xf6, 0xfb, 0xe4, 0xfa, 0x0d, 0xd8, 0xf3, 0x29, 0xe2, 0x34,
    0x14, 0xfb, 0x00, 0xf8, 0x06, 0x1d, 0xee, 0xff, 0x02, 0xe4, 0x12, 0xbb, 0x14,
    0xff, 0x0f, 0xd3, 0xfc, 0xc9, 0x13, 0x3b, 0x1b, 0x39, 0xb8, 0x52, 0x81, 0x14,
    0x13, 0xa1, 0xb1, 0xf5, 0x0e, 0xf1, 0xdc, 0x0f, 0x04, 0x0f, 0xa8, 0xdb, 0xc2,
    0xe7, 0x17, 0xe0, 0x1d, 0xea, 0x0a, 0xd9, 0x24, 0xea, 0xf6, 0xbb, 0x1f, 0xeb,
    0x38, 0x02, 0x0e, 0x1b, 0x09, 0xf3, 0x24, 0xd6, 0x2a, 0x04, 0x1a, 0xdb, 0x03,
    0xfd, 0xf3, 0xf5, 0xe3, 0x0f, 0x01, 0x07, 0xfe, 0x0d, 0x0c, 0xff, 0x19, 0x04,
    0x0d, 0x81, 0x1c, 0xf8, 0xaf, 0xd8, 0xf4, 0xf7, 0xf2, 0x10, 0xff, 0xd2, 0xed,
    0x81, 0xe8, 0x00, 0xe4, 0xd9, 0xec, 0x0a, 0xed, 0xfa, 0x11, 0x0f, 0xfc, 0x08,
    0x06, 0xe9, 0x00, 0xcb, 0xcc, 0xf6, 0x04, 0xf8, 0x0d, 0x04, 0xe3, 0xe7, 0x16,
    0x01, 0x11, 0xee, 0x11, 0x10, 0xef, 0x29, 0x00, 0xcb, 0xf1, 0xf5, 0x02, 0xeb,
    0x03, 0x01, 0x0d, 0xe9, 0x06, 0xe9, 0xc8, 0xdb, 0x06, 0xf5, 0x81, 0x02, 0x00,
    0x04, 0xf9, 0xf1, 0x09, 0xf3, 0x01, 0xef, 0x19, 0xcf, 0x02, 0xfb, 0x10, 0x0c,
    0xc1, 0xfa, 0xee, 0x19, 0xfa, 0xff, 0xff, 0xdf, 0x2c, 0x0c, 0xf8, 0x02, 0xf2,
    0xf6, 0x0e, 0xef, 0xfb, 0x06, 0xfb, 0x00, 0x02, 0xeb, 0x0e, 0xfe, 0xe5, 0xf2,
    0xe4, 0x08, 0x0d, 0xe4, 0x0a, 0x02, 0x0f, 0xf9, 0x01, 0x00, 0x04, 0xf5, 0x00,
    0x08, 0x8b, 0xc9, 0xc3, 0xf3, 0x0d, 0x02, 0x10, 0xd7, 0x0b, 0xdf, 0xd4, 0xf2,
    0xa9, 0xf6, 0x0d, 0x21, 0xe1, 0xe7, 0xe6, 0x04, 0x17, 0xd2, 0xfd, 0xf9, 0x05,
    0xab, 0xd5, 0xf2, 0x1d, 0x17, 0xae, 0x0b, 0xa4, 0x10, 0xfb, 0x26, 0x06, 0x0a,
    0xb7, 0x1f, 0x13, 0x81, 0xf7, 0xf8, 0x09, 0x0a, 0xdc, 0xcb, 0xe4, 0xfa, 0xfb,
    0x0b, 0x15, 0xfb, 0x3c, 0x01, 0xf8, 0xd5, 0xdd, 0xee, 0xfc, 0xfe, 0x00, 0xfe,
    0xf4, 0x03, 0xf6, 0x09, 0x00, 0xff, 0xe9, 0xfd, 0xfa, 0x04, 0x16, 0x0a, 0x05,
    0xa2, 0xcc, 0x02, 0xec, 0xa3, 0xe9, 0xd0, 0xd1, 0x1e, 0x33, 0xe7, 0xd9, 0x10,
    0xe4, 0xc1, 0xbb, 0xe9, 0xc4, 0x20, 0xe9, 0xd4, 0xc7, 0xcb, 0x1b, 0xbb, 0xf7,
    0xd1, 0xdb, 0x22, 0x12, 0xc3, 0x12, 0x08, 0xc8, 0x07, 0xfc, 0x03, 0x13, 0x03,
    0x0f, 0x08, 0xd6, 0x13, 0xf3, 0xb5, 0xfa, 0xf1, 0xf7, 0x0c, 0xed, 0xc6, 0x09,
    0xff, 0x00, 0xff, 0xf7, 0xff, 0xff, 0x05, 0x0b, 0x09, 0xef, 0xfb, 0xff, 0x09,
    0x13, 0x82, 0x1c, 0xfc, 0xfa, 0xb4, 0xe2, 0x32, 0x24, 0xf1, 0xff, 0x10, 0x04,
    0x02, 0x0b, 0xcf, 0xfe, 0x02, 0xf4, 0xf1, 0x00, 0xe1, 0xf6, 0xad, 0x04, 0xf0,
    0xba, 0x11, 0xf9, 0xfb, 0xfb, 0x03, 0x08, 0xec, 0xea, 0xf9, 0xeb, 0xe5, 0xf3,
    0x06, 0x83, 0xef, 0xbb, 0x06, 0xf5, 0x05, 0xfd, 0x05, 0x04, 0xe9, 0xf6, 0x09,
    0x0b, 0xa0, 0x00, 0x0b, 0xf7, 0x08, 0xd4, 0x0b, 0xee, 0x09, 0x07, 0x0f, 0xf9,
    0x17, 0xa6, 0xbf, 0xff, 0xf6, 0xe7, 0x2b, 0xe9, 0xea, 0x11, 0xf6, 0x17, 0xe9,
    0xd9, 0xfb, 0xfb, 0x0a, 0x1c, 0xd3, 0xd2, 0xfe, 0xfa, 0x5e, 0x01, 0xf2, 0x17,
    0x1f, 0xfd, 0x0c, 0xe8, 0xec, 0xf0, 0x11, 0xef, 0xeb, 0x1a, 0x28, 0xf1, 0x1e,
    0x02, 0xe7, 0xfe, 0x03, 0xfe, 0x04, 0x22, 0xf5, 0x15, 0x12, 0x22, 0xea, 0x51,
    0x29, 0xdf, 0x0e, 0xfb, 0x15, 0x04, 0x11, 0xf3, 0x07, 0x13, 0xdf, 0x0b, 0xe3,
    0xf7, 0x24, 0xf8, 0x0d, 0xf6, 0x17, 0x05, 0xbf, 0x05, 0xfb, 0xf3, 0xc6, 0xc7,
    0xec, 0xed, 0xe5, 0xef, 0xf8, 0xe4, 0xe6, 0x1c, 0x81, 0x14, 0xe6, 0xdf, 0xf4,
    0x08, 0xdd, 0xc5, 0x06, 0x13, 0xee, 0x18, 0x03, 0xda, 0xf6, 0xfb, 0x20, 0x0f,
    0x81, 0x0d, 0x0b, 0xe6, 0x1f, 0xe3, 0xe7, 0x1f, 0xf1, 0x15, 0xf7, 0x16, 0x0a,
    0xf1, 0xec, 0xfc, 0xde, 0xfc, 0x02, 0xde, 0x14, 0xe0, 0x13, 0x45, 0xfb, 0xe5,
    0x0f, 0xd7, 0xfa, 0xf6, 0x15, 0x26, 0xe9, 0x2d, 0xec, 0x27, 0x00, 0x01, 0xcc,
    0x14, 0x33, 0xd6, 0x0f, 0xec, 0x17, 0xb9, 0x23, 0x14, 0xf5, 0xf5, 0xf7, 0x2c,
    0x0a, 0xf3, 0xda, 0xd8, 0x02, 0xf5, 0x13, 0xe6, 0xed, 0xfe, 0xf0, 0x04, 0xa8,
    0x17, 0x06, 0x08, 0x8f, 0x1c, 0xe1, 0xed, 0xf2, 0x04, 0x02, 0xed, 0xee, 0x07,
    0xf7, 0x00, 0xb2, 0xff, 0xfd, 0xf7, 0xb2, 0x16, 0xfa, 0xcd, 0xdb, 0xe0, 0x08,
    0xee, 0x07, 0xff, 0xeb, 0xf9, 0xd1, 0xe6, 0xff, 0xe2, 0xca, 0xe8, 0xfd, 0xbf,
    0xee, 0xe1, 0xfa, 0x02, 0x09, 0xfe, 0xca, 0xf7, 0x9d, 0xdb, 0x05, 0xfe, 0xd8,
    0xd9, 0xf4, 0x03, 0x04, 0xf8, 0x0e, 0x04, 0xe8, 0x02, 0x10, 0x02, 0x04, 0xd6,
    0x05, 0xf9, 0x0c, 0x0e, 0x05, 0xe4, 0xf4, 0x1e, 0x0b, 0x0c, 0xf8, 0x05, 0x0e,
    0x02, 0x0e, 0xf8, 0xdb, 0xdd, 0xff, 0x02, 0xfc, 0x04, 0xef, 0x14, 0xf7, 0xe4,
    0xdc, 0xee, 0xfc, 0x05, 0xe7, 0xfb, 0x0a, 0xf9, 0x04, 0xff, 0x04, 0xf5, 0x01,
    0xf0, 0xf8, 0xf1, 0xac, 0x07, 0x0f, 0x07, 0x0e, 0xf9, 0xf7, 0xf9, 0x08, 0x04,
    0xef, 0x07, 0x03, 0xc3, 0xe8, 0xd4, 0x04, 0x09, 0xe5, 0x06, 0xf0, 0x06, 0xe9,
    0x04, 0xf7, 0xee, 0xf0, 0x0a, 0x03, 0xeb, 0xfc, 0xeb, 0x07, 0x0e, 0xd4, 0x02,
    0x07, 0x0b, 0xef, 0x12, 0x00, 0xef, 0xfe, 0xfe, 0x3d, 0xb8, 0xba, 0xdc, 0x08,
    0x09, 0xdd, 0xcf, 0x01, 0x0e, 0xb8, 0x9a, 0xdb, 0xeb, 0xfb, 0x0e, 0x16, 0xd0,
    0xc7, 0xe5, 0x09, 0x1c, 0x03, 0xf7, 0xf2, 0x08, 0xa6, 0x00, 0xde, 0x0d, 0x04,
    0xa7, 0xd6, 0xde, 0x05, 0xee, 0xfe, 0x03, 0x00, 0x98, 0x06, 0xf9, 0xfd, 0xeb,
    0x04, 0x0b, 0x03, 0xc5, 0xde, 0xd5, 0xfe, 0xf4, 0x05, 0x0f, 0xfe, 0x9e, 0x07,
    0xfb, 0xe1, 0xd1, 0xf7, 0xf5, 0xa3, 0xb0, 0x26, 0xf0, 0xf0, 0xb7, 0x22, 0xb3,
    0x2a, 0xf8, 0x09, 0xd3, 0xc9, 0xc2, 0xe7, 0x9f, 0xe8, 0x04, 0xc9, 0xb6, 0xf2,
    0xec, 0x11, 0xc6, 0xa6, 0xe4, 0xe3, 0xed, 0xf7, 0xe5, 0xbc, 0xbb, 0x02, 0xfd,
    0xc6, 0x15, 0xfb, 0xec, 0xfd, 0xee, 0xfb, 0xfb, 0xf4, 0x03, 0x0e, 0xec, 0x03,
    0xfc, 0x07, 0xcc, 0x09, 0x08, 0x07, 0xf8, 0x07, 0xfd, 0x0a, 0xdd, 0x05, 0xf1,
    0xc0, 0xff, 0xf4, 0xf4, 0xf9, 0x11, 0x07, 0xff, 0x08, 0x0b, 0xf5, 0x16, 0x23,
    0x0f, 0x05, 0xd5, 0xe9, 0x14, 0xf8, 0x0d, 0x07, 0x05, 0xcc, 0x27, 0x0b, 0x4f,
    0xb1, 0xdb, 0x1f, 0x2b, 0x05, 0xfc, 0x16, 0xed, 0x06, 0xfb, 0x03, 0xff, 0xe9,
    0x08, 0xfc, 0x09, 0xe3, 0x08, 0xff, 0xc8, 0xf7, 0xdb, 0x12, 0xee, 0x04, 0xff,
    0x04, 0xfa, 0x0c, 0x00, 0xf9, 0x0d, 0x0c, 0x01, 0xf7, 0xc8, 0xf9, 0xe2, 0x09,
    0xfb, 0xff, 0x02, 0x0b, 0xb9, 0x0e, 0x06, 0x12, 0x2e, 0x1d, 0xf5, 0x2a, 0xde,
    0x1e, 0x17, 0x9e, 0xef, 0xf0, 0xed, 0x0e, 0x04, 0x03, 0x8d, 0xc6, 0x0b, 0xf3,
    0xf2, 0x6c, 0xe0, 0xef, 0x22, 0x23, 0xca, 0xf5, 0xde, 0x1f, 0xe8, 0x89, 0x26,
    0x03, 0x16, 0x31, 0xf0, 0x2d, 0xf9, 0x04, 0x1b, 0x12, 0xc4, 0xe8, 0x11, 0xfa,
    0x18, 0x42, 0xda, 0xd6, 0x35, 0x3f, 0x01, 0x24, 0x04, 0xf4, 0x11, 0x1d, 0x19,
    0xeb, 0x19, 0xfc, 0x09, 0xd6, 0x0e, 0xe1, 0x14, 0x18, 0x14, 0xe9, 0x07, 0xda,
    0x13, 0x13, 0xca, 0xe0, 0x90, 0xdc, 0x13, 0xe9, 0xdc, 0xf9, 0x0f, 0x0b, 0xf4,
    0xca, 0x07, 0xd2, 0xd9, 0x03, 0xe9, 0xbc, 0xb0, 0x1e, 0xd8, 0x01, 0xff, 0x1f,
    0x08, 0x20, 0x1d, 0x0b, 0x02, 0xcd, 0x1d, 0x02, 0xf6, 0xc7, 0x09, 0x17, 0xf4,
    0x14, 0x10, 0x03, 0xf6, 0xf2, 0x13, 0x1c, 0xfa, 0x93, 0x02, 0xe7, 0xee, 0x01,
    0xe8, 0x12, 0x2e, 0x0e, 0xff, 0x06, 0xe7, 0xdf, 0x18, 0x06, 0x24, 0xd6, 0x0a,
    0xe5, 0x14, 0xe6, 0x01, 0x1a, 0x78, 0x03, 0xec, 0xfb, 0xc0, 0x12, 0xd8, 0x32,
    0x43, 0x03, 0x48, 0x01, 0x3e, 0x08, 0xff, 0xff, 0xe6, 0xd0, 0xf5, 0x1d, 0xfc,
    0x0a, 0xe5, 0xf8, 0x05, 0x0e, 0x08, 0x07, 0x20, 0x18, 0x11, 0x0a, 0xdb, 0xea,
    0xff, 0x2f, 0xd2, 0xeb, 0xf9, 0xe3, 0xfb, 0x08, 0x17, 0xd7, 0x3b, 0x15, 0x37,
    0x0b, 0x11, 0x25, 0xfe, 0x08, 0x0d, 0x37, 0x0a, 0xe0, 0x07, 0xfc, 0xcc, 0xfe,
    0x0d, 0xff, 0xe8, 0xfb, 0x15, 0xd7, 0xdc, 0x0b, 0xe7, 0xce, 0x09, 0x06, 0xd8,
    0x06, 0xd6, 0x0b, 0xec, 0xf4, 0xcf, 0xeb, 0xfb, 0x02, 0x0b, 0xe0, 0xea, 0xed,
    0xb9, 0xa6, 0x04, 0xe9, 0xc9, 0x01, 0x05, 0x09, 0xe3, 0xf2, 0xee, 0xfa, 0xf0,
    0x09, 0x03, 0xa1, 0xfd, 0xfd, 0xf6, 0xfb, 0xbc, 0xfb, 0x00, 0x13, 0x0b, 0x05,
    0x07, 0xe0, 0x20, 0x07, 0xf3, 0x00, 0x13, 0x0f, 0x10, 0xf9, 0x0b, 0x05, 0xfc,
    0x0b, 0xf4, 0x0e, 0x1e, 0x0b, 0x19, 0xf8, 0xd5, 0xe6, 0xdf, 0xfa, 0x25, 0xed,
    0x55, 0x17, 0x07, 0x04, 0xfd, 0xfb, 0xf1, 0xe8, 0x81, 0xea, 0xc7, 0xf7, 0x0e,
    0xdd, 0xfc, 0xd1, 0x06, 0xd4, 0xe0, 0x8a, 0x0e, 0xf9, 0x0b, 0x09, 0xb9, 0xf7,
    0xd2, 0x10, 0x0a, 0xc4, 0x06, 0xf3, 0x11, 0xea, 0x00, 0xe3, 0x1c, 0x14, 0xc1,
    0x0e, 0xd8, 0x13, 0xff, 0x26, 0x02, 0x35, 0x86, 0x23, 0x18, 0x12, 0xf9, 0xff,
    0x07, 0xff, 0xf9, 0x55, 0xb2, 0xc7, 0xe7, 0x19, 0x08, 0xdf, 0xe0, 0x0f, 0x18,
    0xe5, 0xef, 0xf8, 0xe8, 0x05, 0xf5, 0x16, 0xe7, 0x0b, 0x11, 0x1f, 0xfe, 0xfc,
    0xe0, 0xef, 0x09, 0x07, 0x03, 0x00, 0x07, 0x0a, 0x99, 0xcc, 0xea, 0x0a, 0xee,
    0x06, 0x07, 0xef, 0x81, 0x01, 0x0a, 0xe9, 0xcc, 0x08, 0x03, 0xbc, 0x22, 0xdc,
    0xb9, 0xa7, 0xcb, 0xe1, 0x81, 0x10, 0x09, 0x0a, 0xd8, 0x83, 0x24, 0xaf, 0x3b,
    0x37, 0xfc, 0x21, 0x9d, 0x9b, 0x01, 0x1b, 0xe2, 0xba, 0xde, 0x22, 0xef, 0xa5,
    0xd6, 0xf9, 0x12, 0x0d, 0xea, 0xd5, 0x18, 0x02, 0x0a, 0x09, 0xfe, 0xf9, 0xfc,
    0x06, 0x21, 0x1b, 0x0c, 0xfb, 0xf9, 0x07, 0x0b, 0x81, 0x15, 0xef, 0xf5, 0x08,
    0xf1, 0xf4, 0xfc, 0x06, 0x07, 0x1b, 0x09, 0x03, 0xfe, 0xc4, 0xec, 0xf7, 0x0a,
    0xef, 0x02, 0xa6, 0xf8, 0xc2, 0x01, 0xed, 0xb6, 0x03, 0xf2, 0xfc, 0xe5, 0x03,
    0x12, 0xde, 0x17, 0x0e, 0x2d, 0xbe, 0x1f, 0x26, 0x0c, 0xf9, 0xc5, 0xea, 0x08,
    0xfb, 0x07, 0x07, 0xd0, 0xf2, 0xfa, 0x10, 0xf5, 0xbb, 0xfd, 0x01, 0xd8, 0xf7,
    0xd8, 0x03, 0xf5, 0x03, 0x06, 0x01, 0xd2, 0xf5, 0xee, 0xfd, 0x07, 0xce, 0xfe,
    0xf6, 0xc6, 0xf9, 0xa4, 0x0a, 0x0c, 0x05, 0x00, 0x06, 0x07, 0x25, 0xc5, 0xb0,
    0xdd, 0x11, 0x00, 0x79, 0x0c, 0x1a, 0x1c, 0x17, 0x07, 0x25, 0xde, 0x03, 0x45,
    0x27, 0xf6, 0xd4, 0x54, 0x2f, 0x01, 0x3f, 0x1c, 0x33, 0x12, 0x3f, 0x14, 0xe4,
    0xd5, 0xd5, 0xea, 0xe6, 0x00, 0xf1, 0xe2, 0xd5, 0x0a, 0x8c, 0x15, 0xaf, 0x8e,
    0xf4, 0xf6, 0xfc, 0xa2, 0x10, 0xf9, 0xf9, 0x23, 0xe5, 0xf0, 0xf3, 0x0c, 0xff,
    0xf7, 0xda, 0x15, 0xcd, 0xd4, 0x1c, 0xd4, 0xc6, 0x17, 0x2f, 0xda, 0x0c, 0xc8,
    0x22, 0xac, 0xd1, 0x16, 0xd3, 0xca, 0xff, 0x35, 0xe4, 0xf5, 0xfa, 0xfa, 0xf8,
    0x15, 0x07, 0xf2, 0xe9, 0xf8, 0xd6, 0xe4, 0xf2, 0xfb, 0xf1, 0x20, 0xef, 0x0c,
    0xfe, 0xfb, 0xd1, 0xca, 0xf2, 0xf1, 0x1f, 0xe9, 0xc5, 0xc3, 0x0f, 0x94, 0x0a,
    0xad, 0xed, 0xc8, 0x02, 0xdd, 0xf5, 0x24, 0x15, 0x0c, 0xd2, 0x0d, 0x28, 0xc5,
    0xfb, 0xf6, 0xc2, 0xf6, 0x00, 0xf4, 0x08, 0xe9, 0xf5, 0x04, 0xfb, 0xf4, 0x9d,
    0x00, 0x07, 0x00, 0xed, 0xff, 0xee, 0xf8, 0x00, 0x17, 0xe9, 0x10, 0x00, 0xd1,
    0xfc, 0xf2, 0x0f, 0x0f, 0xad, 0x07, 0x16, 0x10, 0xfb, 0x03, 0xe8, 0x01, 0xf1,
    0x0b, 0x1d, 0x94, 0xed, 0xc6, 0x0f, 0x09, 0xec, 0xf5, 0x23, 0x00, 0xc8, 0x23,
    0xdb, 0x06, 0x09, 0xf0, 0xcb, 0xe0, 0xfa, 0xfd, 0x03, 0x1c, 0x07, 0xb3, 0x14,
    0xfb, 0xd7, 0xc1, 0xfc, 0xf2, 0xe1, 0xcd, 0x0b, 0xc2, 0x1a, 0xe2, 0xbf, 0x13,
    0x18, 0x1d, 0xf2, 0xf5, 0x96, 0xf1, 0xd7, 0xe7, 0x08, 0xe7, 0xf6, 0x1b, 0xfe,
    0x00, 0x01, 0x13, 0x24, 0xf6, 0x05, 0xf8, 0xbc, 0xfa, 0xfb, 0xf8, 0x11, 0x05,
    0xb7, 0x28, 0x1e, 0x23, 0x81, 0xd7, 0xfd, 0x43, 0xf0, 0xf4, 0x22, 0x1f, 0xfc,
    0x07, 0x03, 0xd5, 0x07, 0xdc, 0xfd, 0xf3, 0x12, 0xed, 0xf5, 0xb0, 0xf9, 0xcd,
    0x05, 0x0e, 0xff, 0xff, 0x00, 0x00, 0x00, 0x00, 0x00, 0x00, 0x00, 0x00, 0x00,
    0x00, 0x00, 0x00, 0x00, 0x00, 0x00, 0x00, 0x00, 0x00, 0x00, 0x00, 0x00, 0x00,
    0x00, 0x00, 0x00, 0x00, 0x00, 0x00, 0x00, 0x00, 0x00, 0x00, 0x00, 0x00, 0x00,
    0x00, 0x00, 0x00, 0x00, 0x00, 0x00, 0x00, 0x00, 0x00, 0x00, 0x00, 0x00, 0x00,
    0x00, 0x00, 0x00, 0x00, 0x00, 0x00, 0x00, 0x00, 0x00, 0x00, 0x00, 0x00, 0x00,
    0x00, 0x00, 0x00, 0x00, 0x00, 0x00, 0x00, 0x00, 0x00, 0x00, 0x00, 0x00, 0x00,
    0x00, 0x00, 0x00, 0x00, 0x00, 0x00, 0x00, 0x00, 0x00, 0x00, 0x00, 0x00, 0x00,
    0x00, 0x00, 0x00, 0x00, 0x00, 0x00, 0x00, 0x00, 0x00, 0x00, 0x00, 0x00, 0x00,
    0x00, 0x00, 0x00, 0x00, 0x00, 0x00, 0x00, 0x00, 0x00, 0x00, 0x00, 0x00, 0x00,
    0x00, 0x00, 0x00, 0x00, 0x00, 0x00, 0x00, 0x00, 0x00, 0x00, 0x00, 0x00, 0x00,
    0x00, 0x00, 0x00, 0x00, 0x00, 0x00, 0x00, 0x00, 0x00, 0x00, 0x00, 0x00, 0x00,
    0x00, 0x00, 0x00, 0x00, 0x00, 0x00, 0x00, 0x00, 0x00, 0x00, 0x00, 0x00, 0x00,
    0x00, 0x00, 0x00, 0x00, 0x00, 0x00, 0x00, 0x00, 0x00, 0x00, 0x00, 0x00, 0x00,
    0x00, 0x00, 0x00, 0x00, 0x00, 0x00, 0x00, 0x00, 0x00, 0x00, 0x00, 0x00, 0x00,
    0x00, 0x00, 0x00, 0x00, 0x00, 0x00, 0x00, 0x00, 0x00, 0x00, 0x00, 0x00, 0x00,
    0x00, 0x00, 0x00, 0x00, 0x00, 0x00, 0x00, 0x00, 0x00, 0x00, 0x00, 0x00, 0x00,
    0x00, 0x00, 0x00, 0x00, 0x00, 0x00, 0x00, 0x00, 0x00, 0x00, 0x00, 0x00, 0x00,
    0x00, 0x00, 0x00, 0x00, 0x00, 0x00, 0x00, 0x00, 0x00, 0x00, 0x00, 0x00, 0x00,
    0x00, 0x00, 0x00, 0x00, 0x00, 0x00, 0x00, 0x00, 0x00, 0x00, 0x00, 0x00, 0x00,
    0x00, 0x00, 0x00, 0x00, 0x00, 0x00, 0x00, 0x00, 0x00, 0x00, 0x00, 0x00, 0x00,
    0x8a, 0xea, 0xff, 0xff, 0x00, 0x00, 0x00, 0x09, 0x18, 0x00, 0x00, 0x00, 0x05,
    0x00, 0x00, 0x00, 0x08, 0x00, 0x00, 0x00, 0x14, 0x00, 0x00, 0x00, 0x01, 0x00,
    0x00, 0x00, 0x33, 0x00, 0x00, 0x00, 0x01, 0x00, 0x00, 0x00, 0x00, 0x13, 0x00,
    0x00, 0xd4, 0xe9, 0xff, 0xff, 0x0a, 0xeb, 0xff, 0xff, 0x04, 0x00, 0x00, 0x00,
    0x80, 0x00, 0x00, 0x00, 0x59, 0x2b, 0xde, 0x37, 0x7a, 0x56, 0x09, 0x42, 0x11,
    0x27, 0xc6, 0x55, 0x88, 0x49, 0xbe, 0x2f, 0xda, 0x3b, 0xe4, 0x27, 0xa6, 0x3c,
    0x3a, 0x66, 0x93, 0x59, 0x02, 0x41, 0xdb, 0x6d, 0xa3, 0x2d, 0x57, 0xff, 0xcf,
    0xf9, 0x02, 0xe4, 0x52, 0xf6, 0x9f, 0xf7, 0xbd, 0xf6, 0x43, 0xf2, 0xcb, 0xf3,
    0xb5, 0xe9, 0x34, 0x09, 0xac, 0xfa, 0x07, 0xf7, 0xc0, 0xf7, 0x8f, 0xfd, 0x11,
    0xef, 0x81, 0xef, 0xfc, 0x71, 0x9c, 0x3c, 0x6f, 0x53, 0xac, 0x07, 0x6a, 0x5e,
    0xd9, 0x38, 0x79, 0x5a, 0xdb, 0x4a, 0x95, 0x5f, 0x99, 0x44, 0x67, 0x3c, 0xde,
    0x21, 0x9e, 0x3d, 0x33, 0x39, 0xe1, 0x23, 0x9f, 0x28, 0xea, 0xd3, 0x09, 0xfe,
    0x6f, 0xfe, 0xaa, 0x02, 0x9f, 0xe5, 0x4b, 0xf2, 0x7f, 0xde, 0x99, 0xfe, 0x91,
    0xef, 0x3a, 0xe6, 0x72, 0x01, 0xc4, 0x0a, 0xee, 0xfd, 0x1d, 0xe7, 0x63, 0x19,
    0xdc, 0x0b, 0x42, 0xeb, 0xff, 0xff, 0x00, 0x00, 0x00, 0x07, 0x18, 0x00, 0x00,
    0x00, 0x04, 0x00, 0x00, 0x00, 0x08, 0x00, 0x00, 0x00, 0x14, 0x00, 0x00, 0x00,
    0x01, 0x00, 0x00, 0x00, 0x32, 0x00, 0x00, 0x00, 0x01, 0x00, 0x00, 0x00, 0x40,
    0x00, 0x00, 0x00, 0x8c, 0xea, 0xff, 0xff, 0xc2, 0xeb, 0xff, 0xff, 0x04, 0x00,
    0x00, 0x00, 0x00, 0x14, 0x00, 0x00, 0xef, 0x05, 0x04, 0x0d, 0x09, 0x07, 0xb2,
    0xdf, 0x05, 0xa4, 0x05, 0x1a, 0xf0, 0xe9, 0xfa, 0xda, 0xe1, 0xd9, 0xfc, 0xfe,
    0xf9, 0x05, 0xee, 0x06, 0x08, 0xfb, 0xf3, 0xff, 0xfa, 0x09, 0x07, 0xef, 0xf6,
    0x03, 0x0f, 0x06, 0x0a, 0x05, 0xcc, 0xef, 0xf6, 0xdd, 0x11, 0x0b, 0xe8, 0xe1,
    0xed, 0xfe, 0x0a, 0x00, 0x01, 0x01, 0xfd, 0xf7, 0x06, 0xfb, 0x03, 0xec, 0xe7,
    0xfc, 0x07, 0xff, 0xe3, 0xbf, 0x01, 0xff, 0xf8, 0xf7, 0xf6, 0xf1, 0xf2, 0x06,
    0x13, 0x0f, 0x08, 0xe7, 0x00, 0x00, 0xfd, 0xe6, 0xf1, 0xf6, 0x06, 0xfc, 0x03,
    0x08, 0x29, 0xf2, 0xf6, 0xfd, 0x06, 0xf8, 0x05, 0x08, 0x02, 0xfc, 0xdc, 0x00,
    0xfc, 0x04, 0xf4, 0xef, 0x0c, 0x00, 0xf4, 0xe8, 0xfe, 0x04, 0xeb, 0xed, 0x00,
    0xf9, 0x15, 0x07, 0xf1, 0x02, 0xd2, 0xf6, 0xf2, 0x0e, 0xf6, 0x01, 0xf5, 0x00,
    0x08, 0xfd, 0xfc, 0xe0, 0xd8, 0xf4, 0x04, 0x00, 0x03, 0xff, 0x06, 0x08, 0xe0,
    0xf7, 0xf6, 0xfb, 0xf1, 0x03, 0x09, 0x0e, 0x1b, 0x0c, 0x00, 0x01, 0xf8, 0xf5,
    0xef, 0x06, 0xfb, 0xf4, 0x01, 0xff, 0x05, 0xfb, 0xe9, 0xd3, 0xeb, 0x05, 0x03,
    0xfd, 0x05, 0x09, 0xbe, 0xde, 0x0d, 0xd4, 0xef, 0xe8, 0x02, 0x0a, 0xea, 0xfd,
    0xce, 0xda, 0x05, 0xff, 0x0d, 0x05, 0x21, 0xe9, 0xe0, 0xff, 0xf4, 0x0f, 0x06,
    0x10, 0x08, 0x14, 0xe1, 0x01, 0xfe, 0x07, 0x0f, 0x06, 0x16, 0xf6, 0xee, 0xeb,
    0xfa, 0x01, 0xff, 0xef, 0x11, 0x07, 0x25, 0x10, 0x00, 0x03, 0x05, 0xf4, 0x02,
    0x11, 0x12, 0xfb, 0xfb, 0x06, 0xfd, 0xfc, 0x03, 0x0d, 0x0d, 0x17, 0x02, 0xe6,
    0xe1, 0x04, 0x0c, 0xfb, 0xf1, 0x14, 0x04, 0xfd, 0x05, 0x00, 0xfe, 0x03, 0x03,
    0xf6, 0x05, 0x01, 0x0b, 0x0d, 0xb6, 0x09, 0x17, 0x08, 0x09, 0x04, 0x02, 0xfa,
    0x07, 0x0a, 0xe3, 0x05, 0x08, 0x0d, 0x03, 0x04, 0xdf, 0xef, 0x02, 0xc5, 0xfd,
    0x0c, 0xf9, 0xf8, 0x05, 0xf4, 0xf5, 0xf3, 0x00, 0x03, 0xfe, 0xfc, 0xec, 0x02,
    0x08, 0xf4, 0xfd, 0xfc, 0xfe, 0x04, 0x05, 0xf4, 0xf8, 0x01, 0xfc, 0x03, 0xfe,
    0xfd, 0x0f, 0xf5, 0xee, 0xf3, 0xf9, 0xfb, 0xfd, 0xea, 0x0c, 0x08, 0x09, 0x0a,
    0xf1, 0x02, 0x0b, 0xf1, 0xf7, 0x0f, 0x08, 0xf8, 0xfd, 0x09, 0x01, 0x05, 0x04,
    0x0f, 0xfe, 0x00, 0x02, 0x0c, 0xe6, 0x02, 0x0b, 0x03, 0xfa, 0xf6, 0xf5, 0x0e,
    0xf2, 0xef, 0x05, 0xf6, 0xff, 0x0a, 0xfc, 0xfe, 0xed, 0x03, 0xd6, 0x08, 0x06,
    0x06, 0x03, 0x03, 0xfb, 0x01, 0xfc, 0xec, 0x05, 0xef, 0x09, 0x01, 0x09, 0x08,
    0xff, 0xf9, 0xfb, 0xf0, 0x03, 0x09, 0xf9, 0xfc, 0x07, 0x0e, 0x0c, 0x12, 0x07,
    0xfd, 0x0c, 0xfa, 0x05, 0xff, 0xf5, 0xf3, 0xe7, 0x05, 0xfa, 0xfd, 0xf7, 0xea,
    0x06, 0xf7, 0x0f, 0x01, 0x0c, 0x07, 0x0f, 0xf9, 0xe6, 0xf4, 0xfe, 0x0d, 0xf6,
    0x07, 0x10, 0x13, 0x2b, 0x0d, 0x04, 0xfc, 0x13, 0xf8, 0xf7, 0x00, 0x08, 0xf7,
    0xfa, 0x00, 0xfd, 0xf8, 0xe8, 0xf4, 0x07, 0xf9, 0x02, 0xfa, 0xfd, 0xfc, 0xc8,
    0x0b, 0x14, 0xcb, 0x01, 0xec, 0x00, 0x11, 0xf6, 0xec, 0xba, 0xfa, 0x02, 0xfd,
    0x06, 0x08, 0x24, 0xf3, 0xe3, 0x02, 0xef, 0x09, 0x12, 0x0b, 0x06, 0x0e, 0x07,
    0x0f, 0xf5, 0xf0, 0xf2, 0x07, 0xfe, 0x02, 0x0a, 0x18, 0x08, 0xf0, 0x10, 0x0f,
    0x04, 0xe2, 0xf5, 0xeb, 0x04, 0x01, 0x06, 0x05, 0x21, 0x04, 0x08, 0x0a, 0x05,
    0x01, 0x0a, 0x02, 0x08, 0x0a, 0xe0, 0x07, 0x0a, 0xf0, 0xff, 0x09, 0xc8, 0x0c,
    0x13, 0xde, 0x07, 0xdf, 0x08, 0x0e, 0xf7, 0xde, 0xc2, 0xfd, 0x05, 0x05, 0x0a,
    0x05, 0x20, 0xdd, 0xd1, 0xfe, 0x09, 0x09, 0x00, 0x03, 0x08, 0x06, 0xf3, 0x05,
    0xf7, 0x09, 0x0d, 0xfa, 0x0b, 0xf7, 0xff, 0xfb, 0x05, 0x07, 0x09, 0xce, 0xfd,
    0xf1, 0xc7, 0xfc, 0xfd, 0x04, 0xe4, 0x06, 0xf5, 0x04, 0x07, 0xf1, 0xf5, 0x02,
    0xfb, 0x11, 0xfe, 0x02, 0xf7, 0x08, 0xff, 0x09, 0x0c, 0x04, 0xf4, 0xe2, 0x04,
    0xea, 0xf7, 0x03, 0x0a, 0xcd, 0xf2, 0xf4, 0xfb, 0xf5, 0x07, 0x00, 0xff, 0x02,
    0xfa, 0xf2, 0x0e, 0xfe, 0xd9, 0x01, 0xfb, 0x04, 0x02, 0x07, 0x01, 0xfd, 0x09,
    0x05, 0xe4, 0xf4, 0x06, 0x03, 0xff, 0x08, 0x0b, 0xf6, 0x04, 0xfb, 0x06, 0xf1,
    0x2d, 0x04, 0xf3, 0x00, 0xfd, 0x00, 0x14, 0x06, 0xe8, 0x04, 0xfd, 0x09, 0x10,
    0xf0, 0xf5, 0xed, 0xe1, 0xfe, 0xef, 0x00, 0x07, 0xf6, 0x09, 0xfc, 0xf8, 0xf0,
    0xf4, 0xfe, 0xfe, 0xf3, 0xf1, 0x18, 0x05, 0x06, 0x11, 0x02, 0xf7, 0xf2, 0xec,
    0x04, 0x03, 0x00, 0xe7, 0xed, 0xed, 0x07, 0xed, 0x04, 0xe8, 0x02, 0xfd, 0x01,
    0xfa, 0xfc, 0x07, 0xf4, 0xf4, 0xfe, 0xe9, 0x01, 0xfe, 0x0a, 0xe4, 0x15, 0xff,
    0xff, 0x0d, 0x04, 0xf6, 0xec, 0xeb, 0xfd, 0x04, 0xff, 0x07, 0xe3, 0xf6, 0x03,
    0xf6, 0x06, 0xf4, 0x04, 0x0d, 0x00, 0xf4, 0x02, 0xf9, 0x1e, 0x08, 0xed, 0x0e,
    0xff, 0xf8, 0xff, 0xf5, 0xf7, 0xc6, 0xfe, 0x0d, 0x03, 0x14, 0xff, 0x0b, 0xf5,
    0xf7, 0x05, 0xfa, 0xfe, 0x0e, 0xf5, 0x08, 0xfe, 0xf2, 0x0e, 0x0c, 0x09, 0x0a,
    0x08, 0xff, 0xf6, 0x05, 0xf8, 0xfb, 0xf6, 0xfd, 0x01, 0x09, 0x02, 0xd4, 0xf5,
    0xff, 0x04, 0x06, 0x08, 0x03, 0x05, 0x13, 0x05, 0xf5, 0xfd, 0xf8, 0x09, 0x06,
    0x0e, 0x02, 0x00, 0xf7, 0xf3, 0xfe, 0xf8, 0xfa, 0x10, 0xfa, 0x07, 0xf9, 0xfc,
    0xfd, 0x00, 0x09, 0x08, 0x08, 0xfe, 0x06, 0x03, 0x12, 0x08, 0xfb, 0x03, 0x0a,
    0x0b, 0x05, 0xf2, 0xfd, 0xfc, 0x0b, 0x01, 0xd4, 0x06, 0xf7, 0x05, 0x10, 0x00,
    0x02, 0xf2, 0xfa, 0xfe, 0xf7, 0x08, 0x00, 0xf7, 0xfa, 0x07, 0xfd, 0xf9, 0xfc,
    0x00, 0xe5, 0xfd, 0xee, 0x09, 0x0c, 0x00, 0xfc, 0x04, 0xfa, 0x14, 0x01, 0x09,
    0xf0, 0x05, 0xf2, 0x02, 0x0d, 0x01, 0xfd, 0xf5, 0xf9, 0xf8, 0x08, 0xf9, 0xe7,
    0x06, 0x0a, 0x17, 0xe5, 0xef, 0xfe, 0x04, 0x12, 0xfc, 0x04, 0x06, 0x13, 0x0e,
    0xe2, 0x03, 0xee, 0x04, 0x08, 0x0f, 0xfb, 0xfe, 0xe6, 0xff, 0x11, 0x04, 0x02,
    0xfa, 0xf3, 0xf9, 0xfb, 0x0a, 0xfe, 0xfc, 0xf4, 0x12, 0xec, 0xfe, 0x01, 0xfe,
    0xfc, 0xfd, 0xec, 0x04, 0x0d, 0x04, 0xf1, 0x00, 0xf9, 0x10, 0xff, 0x12, 0x00,
    0x04, 0x07, 0x0b, 0x01, 0x06, 0x07, 0xea, 0xf7, 0x01, 0x05, 0x05, 0xf9, 0xf2,
    0xeb, 0x06, 0xf7, 0x00, 0x0f, 0xfd, 0xfc, 0x06, 0xff, 0xef, 0x05, 0x03, 0xde,
    0xe9, 0xeb, 0xfb, 0xc9, 0xdb, 0x03, 0x04, 0x06, 0x02, 0x03, 0x04, 0xfc, 0xee,
    0xf1, 0xfd, 0xf9, 0x09, 0x04, 0x09, 0xdd, 0x08, 0xe6, 0xfc, 0xfc, 0x04, 0xf5,
    0x01, 0xf7, 0xf5, 0x04, 0x02, 0x02, 0xf3, 0xf7, 0x0c, 0xfe, 0x18, 0x00, 0xfc,
    0x18, 0xfe, 0xf3, 0x01, 0x04, 0x16, 0x11, 0xfb, 0x09, 0xfc, 0x01, 0xdf, 0x02,
    0xe9, 0xe5, 0x04, 0xf9, 0xfe, 0x13, 0x0a, 0x0c, 0xf9, 0xf9, 0x02, 0xf8, 0x06,
    0x0c, 0xf0, 0x01, 0xf6, 0x05, 0xfb, 0x0c, 0x03, 0xed, 0x04, 0x00, 0x15, 0x01,
    0x0a, 0x0a, 0x00, 0xf1, 0x05, 0x08, 0xce, 0x28, 0xfe, 0x0f, 0xff, 0x16, 0x01,
    0x0e, 0x01, 0xff, 0x04, 0x04, 0x01, 0x0f, 0xda, 0x09, 0x05, 0xf9, 0xfa, 0x07,
    0x01, 0xef, 0xff, 0x09, 0x17, 0x0c, 0x01, 0x09, 0xff, 0x06, 0xf4, 0xfa, 0xe4,
    0xbc, 0x09, 0x0e, 0x05, 0x0f, 0x0e, 0x13, 0x03, 0xf1, 0xf5, 0x07, 0x01, 0x0f,
    0xf5, 0x01, 0xf5, 0xfa, 0x13, 0xf0, 0x0b, 0x00, 0xff, 0x06, 0x03, 0xf9, 0xfa,
    0xf9, 0x0a, 0x00, 0xf1, 0xef, 0xf1, 0xe7, 0x00, 0xfc, 0xfd, 0xf0, 0x07, 0xfd,
    0xf7, 0xf6, 0x06, 0xfa, 0xfa, 0xf8, 0x0a, 0xea, 0xf5, 0x00, 0x0f, 0x08, 0xff,
    0x08, 0x0b, 0xfb, 0xfe, 0x03, 0xef, 0xf4, 0x12, 0x09, 0xd9, 0xf0, 0xf7, 0xd2,
    0x00, 0xf8, 0x01, 0x05, 0xfd, 0x05, 0x06, 0x07, 0xfd, 0xf3, 0x05, 0xf0, 0x09,
    0x04, 0x04, 0x07, 0xfc, 0xed, 0xf5, 0xed, 0xe5, 0x03, 0x0b, 0xf8, 0x03, 0x0a,
    0xfd, 0xe9, 0xf9, 0xfd, 0xfb, 0x00, 0xfe, 0xf5, 0xfe, 0xfc, 0x14, 0x07, 0x03,
    0x0a, 0x05, 0x02, 0x04, 0x01, 0xf8, 0x03, 0xef, 0xe3, 0x0d, 0x08, 0x01, 0xff,
    0x01, 0xeb, 0xf5, 0xf5, 0xf5, 0xf3, 0x0c, 0x0b, 0xf4, 0xeb, 0x08, 0x06, 0xfa,
    0xf7, 0x00, 0xff, 0xee, 0xfd, 0xf8, 0x1a, 0xf9, 0xe8, 0xff, 0xed, 0xf6, 0x0b,
    0x07, 0xe5, 0xff, 0x02, 0x06, 0x06, 0xf0, 0xf4, 0xed, 0xfa, 0xf7, 0xec, 0x0e,
    0x0b, 0x03, 0xfc, 0x07, 0x05, 0xfc, 0xfc, 0xfc, 0xfb, 0xed, 0xf3, 0x09, 0xfe,
    0x00, 0xfc, 0xfc, 0x04, 0xfe, 0x04, 0x24, 0xfe, 0xfa, 0x10, 0xfe, 0xf4, 0xf8,
    0x03, 0x04, 0x0d, 0x03, 0x0a, 0xfa, 0x04, 0xe9, 0x03, 0xf3, 0xd4, 0x01, 0x01,
    0x03, 0x07, 0x01, 0x0f, 0x01, 0xfe, 0xf4, 0xfe, 0x01, 0x0c, 0x05, 0x03, 0xfa,
    0xfb, 0xfb, 0xf8, 0x07, 0x07, 0xf2, 0x02, 0xf9, 0x02, 0xfa, 0x00, 0xfc, 0x02,
    0x00, 0x01, 0x03, 0x0e, 0xff, 0x08, 0xff, 0x06, 0xff, 0x06, 0xf9, 0x02, 0x05,
    0xf7, 0xfb, 0xfd, 0x04, 0xfb, 0xd5, 0x04, 0x04, 0x15, 0xf8, 0x02, 0x18, 0x02,
    0x08, 0xfc, 0x08, 0x01, 0x09, 0x07, 0x04, 0x02, 0xf9, 0x08, 0xff, 0x0d, 0xfd,
    0x11, 0x08, 0x07, 0xfc, 0xfa, 0xf8, 0x01, 0x02, 0x0f, 0xf4, 0x04, 0xfa, 0xe3,
    0x15, 0xfa, 0x06, 0x07, 0x02, 0xfc, 0x0d, 0xf7, 0xfd, 0xf1, 0x09, 0xfb, 0x09,
    0xf9, 0xfe, 0x01, 0x02, 0xfe, 0xfb, 0x02, 0xf9, 0xf5, 0x01, 0xff, 0x02, 0xf3,
    0xfd, 0xef, 0xfb, 0xf8, 0xfc, 0xf5, 0xff, 0x10, 0x04, 0x12, 0x0e, 0xff, 0xfa,
    0xfe, 0xfa, 0x04, 0xf0, 0xfa, 0xfe, 0x07, 0x05, 0x07, 0xdf, 0x05, 0x01, 0x0e,
    0xfa, 0x13, 0xfb, 0xfc, 0x06, 0xee, 0x05, 0xf9, 0xfa, 0x0a, 0x11, 0xf4, 0x0d,
    0xf8, 0xfd, 0x0c, 0x05, 0x04, 0x00, 0xee, 0xf9, 0xf7, 0xfb, 0x05, 0xf7, 0xf3,
    0x00, 0x01, 0xff, 0x05, 0x01, 0x0b, 0xef, 0xf4, 0xfb, 0x02, 0x00, 0xf4, 0x02,
    0xf1, 0xfd, 0x01, 0xff, 0xff, 0x01, 0x05, 0x06, 0x0b, 0xfa, 0xfb, 0xf3, 0x09,
    0xf4, 0xf6, 0x07, 0x0c, 0xf4, 0xe7, 0x09, 0x0f, 0x0d, 0x0e, 0x03, 0x0c, 0xeb,
    0x05, 0xef, 0xf3, 0xfe, 0xcf, 0xfb, 0xf6, 0xfe, 0xeb, 0xf7, 0xfe, 0xff, 0xfc,
    0x08, 0x0f, 0xef, 0x01, 0xf6, 0x04, 0xfd, 0xf5, 0x07, 0x05, 0x12, 0xfc, 0x07,
    0x0a, 0x00, 0x00, 0x00, 0xf8, 0xf4, 0x06, 0x02, 0xfe, 0x09, 0xfe, 0xff, 0xff,
    0x09, 0xfa, 0xfe, 0x06, 0xf3, 0x19, 0xfb, 0xf4, 0x06, 0x08, 0x06, 0x12, 0x01,
    0x0c, 0xf5, 0xfe, 0xe0, 0x05, 0xf0, 0xaa, 0x02, 0x04, 0x01, 0x07, 0x10, 0x1a,
    0x04, 0x08, 0xf7, 0x04, 0xfe, 0x0b, 0x08, 0x03, 0xf0, 0x00, 0xe6, 0x17, 0xfb,
    0xed, 0x10, 0x05, 0x09, 0x12, 0x06, 0x0a, 0xff, 0xf9, 0x03, 0x07, 0xd9, 0x0c,
    0xf5, 0x05, 0x00, 0x07, 0x04, 0x0f, 0xf8, 0x00, 0xee, 0x00, 0x00, 0x10, 0x05,
    0x08, 0xf7, 0xfe, 0xfa, 0x07, 0x05, 0xf5, 0x05, 0x07, 0x05, 0x0d, 0xff, 0x06,
    0xf8, 0x08, 0xf0, 0x05, 0xeb, 0xd2, 0x03, 0x02, 0xff, 0x09, 0x0f, 0x0c, 0x08,
    0x02, 0xf7, 0x02, 0x03, 0x01, 0x05, 0x05, 0x04, 0x0b, 0xfb, 0xf8, 0x05, 0xf9,
    0xd5, 0x04, 0xf6, 0x03, 0xf9, 0xf7, 0x03, 0x00, 0xf9, 0xf5, 0xf6, 0xdc, 0xfd,
    0x0d, 0x01, 0xe7, 0x07, 0xfc, 0x04, 0x0a, 0xfd, 0xee, 0xfa, 0xfa, 0x07, 0x00,
    0xfb, 0x05, 0x12, 0x00, 0x04, 0xf6, 0xf1, 0x08, 0xf5, 0x0f, 0x07, 0xf9, 0x10,
    0x06, 0xea, 0xfa, 0xfa, 0xd7, 0xfe, 0xef, 0x01, 0xf6, 0xf6, 0xfc, 0xff, 0xfc,
    0xf9, 0x08, 0x06, 0xf3, 0x0a, 0x05, 0xff, 0x04, 0xf4, 0x0e, 0xf1, 0xf5, 0x0d,
    0x07, 0x10, 0xe9, 0x07, 0x1d, 0xfa, 0xfb, 0x03, 0x08, 0xf1, 0x07, 0x08, 0x01,
    0x04, 0x15, 0xf1, 0x01, 0x0c, 0x0a, 0xf3, 0xfe, 0x06, 0x0d, 0xeb, 0xf9, 0xf1,
    0xf8, 0x08, 0x03, 0xfa, 0x0a, 0x09, 0x03, 0xf8, 0x06, 0x0d, 0xff, 0x04, 0x06,
    0x08, 0x11, 0x02, 0x04, 0x02, 0x03, 0x02, 0x0c, 0xfb, 0xf7, 0xff, 0xee, 0x02,
    0xf4, 0x05, 0xfc, 0x01, 0x08, 0x03, 0xdb, 0x0e, 0x03, 0x01, 0x10, 0xf4, 0x00,
    0xeb, 0xff, 0x00, 0x03, 0x07, 0xf4, 0x0c, 0x0e, 0x05, 0x06, 0xf0, 0xfa, 0xfc,
    0x08, 0xf8, 0xf8, 0x00, 0xf5, 0x06, 0xfe, 0x01, 0xfa, 0x09, 0x0a, 0x10, 0x02,
    0x04, 0x05, 0x0c, 0xfe, 0xf5, 0x00, 0x03, 0x0c, 0xfa, 0x08, 0xf2, 0xff, 0xf6,
    0xfd, 0xf0, 0xc5, 0x09, 0xf6, 0x00, 0xf6, 0x13, 0x05, 0x01, 0x08, 0xed, 0x03,
    0xfd, 0x07, 0x02, 0x01, 0x01, 0x05, 0x09, 0x01, 0x13, 0xfd, 0xc0, 0xff, 0xd6,
    0x11, 0xfd, 0xee, 0x01, 0x03, 0x01, 0xfd, 0x05, 0x05, 0xee, 0xef, 0xff, 0xec,
    0x02, 0xfc, 0xef, 0xfb, 0x01, 0x01, 0xf8, 0xe6, 0x14, 0xde, 0xdf, 0x05, 0xff,
    0x06, 0x04, 0xf4, 0x18, 0xfc, 0x00, 0x05, 0x0c, 0xfe, 0xfd, 0xff, 0x16, 0x12,
    0xf3, 0x03, 0xf3, 0x0f, 0x00, 0x09, 0x0f, 0xff, 0xf5, 0xf7, 0xf7, 0x05, 0xfc,
    0x06, 0xf6, 0xf1, 0xe5, 0xe1, 0x08, 0xfa, 0x0c, 0xfb, 0xec, 0x03, 0xeb, 0x02,
    0xfa, 0xeb, 0x06, 0x07, 0xff, 0xec, 0xfb, 0xee, 0xfa, 0x0a, 0xfd, 0xea, 0xfa,
    0xf3, 0xfe, 0x10, 0x04, 0x01, 0xfe, 0xf9, 0x05, 0xfe, 0x0c, 0xfd, 0x05, 0x02,
    0x04, 0x15, 0xed, 0xff, 0xf3, 0xfd, 0x03, 0xf8, 0xf5, 0xf9, 0x05, 0x15, 0x0b,
    0x01, 0xe0, 0xf3, 0x02, 0xf0, 0xf6, 0x0a, 0xec, 0xfb, 0x04, 0x01, 0x09, 0xec,
    0x0a, 0x0b, 0xf6, 0xec, 0x05, 0x01, 0xe9, 0xfe, 0xee, 0x06, 0xf4, 0x04, 0xfb,
    0xf3, 0x05, 0x07, 0xff, 0xfb, 0x08, 0xfa, 0xfd, 0x00, 0xff, 0xef, 0xf6, 0xf4,
    0xfc, 0x12, 0xfd, 0xf3, 0x06, 0x02, 0x08, 0x08, 0x07, 0x01, 0x0b, 0x02, 0x09,
    0x01, 0xfc, 0xfc, 0xe1, 0x0c, 0xff, 0xe5, 0x07, 0xf8, 0xfb, 0xef, 0x04, 0x05,
    0xf6, 0xff, 0xfe, 0x04, 0xf5, 0xfe, 0xfa, 0xf3, 0x07, 0xf3, 0xf8, 0xf7, 0x05,
    0x0c, 0x15, 0xfe, 0x09, 0xf8, 0x0b, 0x03, 0xf0, 0xfd, 0xe5, 0x17, 0x01, 0xf0,
    0x06, 0x07, 0x03, 0xfc, 0x03, 0x09, 0xf4, 0xec, 0x03, 0xf6, 0xdd, 0x02, 0xf6,
    0xfb, 0x09, 0x03, 0xf5, 0xf2, 0xff, 0xea, 0xff, 0x05, 0xff, 0x07, 0x07, 0xfa,
    0xf5, 0x07, 0x0a, 0x0b, 0x01, 0x14, 0xf0, 0x01, 0xe4, 0xfc, 0xf2, 0xf7, 0x01,
    0xf3, 0x02, 0x03, 0x0a, 0x12, 0x08, 0x0a, 0xee, 0x08, 0xf7, 0x09, 0xfc, 0xf7,
    0xf0, 0x08, 0xfa, 0x0f, 0x03, 0xfd, 0x0d, 0xf8, 0x11, 0x07, 0xfd, 0x10, 0xfc,
    0xf9, 0x08, 0xf8, 0xf2, 0x04, 0xfa, 0x09, 0xff, 0x07, 0xfd, 0x0d, 0xfd, 0x07,
    0xed, 0x04, 0xf5, 0x02, 0xe7, 0xf9, 0xf4, 0xfe, 0x02, 0x01, 0x16, 0xfe, 0xee,
    0x03, 0x0e, 0x08, 0x03, 0x10, 0xf0, 0xff, 0xf6, 0xfd, 0xe4, 0xff, 0x06, 0xf1,
    0xff, 0x0f, 0x0d, 0x04, 0x03, 0x03, 0xf6, 0x04, 0xfc, 0x08, 0xff, 0xf5, 0xe7,
    0xfa, 0x09, 0x07, 0x04, 0xfc, 0xee, 0xfb, 0xfd, 0x04, 0xf6, 0xf0, 0x03, 0x0c,
    0x13, 0xf2, 0xfa, 0xfc, 0x0e, 0x0b, 0x02, 0xfe, 0xf7, 0xf5, 0xfc, 0x02, 0xf0,
    0xe6, 0xf3, 0xec, 0x0b, 0x0f, 0xf7, 0x00, 0x04, 0xfd, 0xf4, 0x05, 0xef, 0xf6,
    0xe6, 0x09, 0x09, 0xe2, 0xfe, 0x18, 0xfb, 0xe8, 0xfe, 0x0c, 0x0f, 0x04, 0xff,
    0xf7, 0xef, 0xff, 0xf3, 0x06, 0x01, 0xf8, 0xf0, 0xee, 0x0d, 0x13, 0xee, 0xfd,
    0x07, 0x06, 0xec, 0xe5, 0x1b, 0x14, 0x1b, 0xe4, 0x04, 0x23, 0xf0, 0xfd, 0x04,
    0x01, 0xf9, 0xfe, 0x09, 0x13, 0x00, 0x04, 0x27, 0xdd, 0x0c, 0xff, 0x06, 0x01,
    0x0c, 0x15, 0xfa, 0xea, 0x05, 0xfc, 0x05, 0xfa, 0xfc, 0xf2, 0x03, 0x00, 0xf0,
    0x02, 0xfe, 0xf4, 0x03, 0x0e, 0xf7, 0xf3, 0x0c, 0x0f, 0xfd, 0x07, 0xfc, 0xf2,
    0x1b, 0xf6, 0xfa, 0x01, 0x14, 0xed, 0x07, 0xf2, 0x10, 0x06, 0x16, 0xe0, 0x08,
    0xfb, 0xfd, 0x06, 0xf7, 0x03, 0x04, 0x08, 0xff, 0xf7, 0x05, 0x05, 0xfd, 0x0a,
    0x09, 0x12, 0xf8, 0xfd, 0x00, 0xfd, 0x04, 0xfe, 0x00, 0x00, 0x16, 0xf9, 0x03,
    0xed, 0x03, 0x0c, 0x19, 0x05, 0xfb, 0x09, 0x05, 0xfa, 0xfa, 0x06, 0xff, 0x0b,
    0xfd, 0x07, 0xfa, 0x01, 0xe4, 0x08, 0xe1, 0xd6, 0x00, 0xf7, 0xfe, 0xfd, 0xef,
    0x10, 0x04, 0x0b, 0xe0, 0x00, 0xff, 0x02, 0x0a, 0xf6, 0x04, 0xfd, 0xf5, 0x02,
    0x04, 0x10, 0xec, 0xf7, 0xe7, 0x06, 0x01, 0xe7, 0x07, 0xff, 0xfa, 0x0b, 0x01,
    0x05, 0xf2, 0xf4, 0x04, 0xf2, 0xe5, 0x01, 0xe6, 0x04, 0x09, 0xfe, 0xb6, 0xde,
    0x02, 0xff, 0xeb, 0x02, 0xfa, 0x09, 0x19, 0x01, 0x12, 0xee, 0x22, 0x04, 0xf4,
    0x12, 0x02, 0xf9, 0x0c, 0x02, 0xf2, 0x0e, 0xf4, 0x00, 0x01, 0x03, 0x0e, 0x01,
    0xf4, 0x05, 0xf3, 0x07, 0xfa, 0x0c, 0xde, 0xe7, 0xff, 0xcb, 0x0b, 0xfa, 0x04,
    0xfe, 0xef, 0xec, 0xed, 0x0a, 0x00, 0xe0, 0x0b, 0x11, 0x08, 0xf7, 0x02, 0x0c,
    0x0e, 0x12, 0x02, 0x01, 0xeb, 0x05, 0xf3, 0x00, 0x04, 0xf2, 0xfa, 0xde, 0x0b,
    0x29, 0xf6, 0x00, 0xfd, 0xfe, 0x0a, 0x0e, 0xb0, 0x00, 0xfb, 0x03, 0xfe, 0xe3,
    0x02, 0xf2, 0xf6, 0x04, 0x07, 0xff, 0xee, 0xf2, 0x05, 0xf3, 0xc1, 0x0a, 0xf9,
    0xfd, 0x06, 0x05, 0xef, 0xe1, 0xfc, 0x1e, 0x16, 0xfa, 0xfc, 0x03, 0xe3, 0x00,
    0xe7, 0xfa, 0xf3, 0x19, 0xfd, 0xd1, 0xfa, 0x03, 0x06, 0xf4, 0x06, 0x07, 0x04,
    0x07, 0x03, 0x02, 0x25, 0xe4, 0xed, 0xfc, 0x07, 0xe9, 0xeb, 0xe3, 0x07, 0xff,
    0xf4, 0x03, 0x03, 0xfa, 0xfd, 0x0e, 0x03, 0xfc, 0xf2, 0x03, 0xfa, 0xef, 0x07,
    0x0b, 0x02, 0x01, 0x00, 0x15, 0xea, 0xfb, 0xfe, 0xfa, 0xe6, 0xff, 0xf8, 0x06,
    0x0c, 0xec, 0x09, 0xf1, 0x04, 0x11, 0x16, 0x04, 0x00, 0xfa, 0x04, 0x0d, 0xe9,
    0xf8, 0xf1, 0x0b, 0x01, 0xea, 0x06, 0x0c, 0xfe, 0xfd, 0x0a, 0x14, 0xf2, 0x00,
    0x02, 0xf8, 0xe5, 0x05, 0xef, 0x00, 0x16, 0xfc, 0xed, 0xe0, 0x04, 0x01, 0x05,
    0x07, 0x01, 0x05, 0x05, 0xf7, 0x05, 0x0a, 0x07, 0xfe, 0xff, 0x11, 0xf6, 0xfe,
    0xed, 0x05, 0xef, 0xf0, 0xfa, 0xf4, 0xfd, 0x05, 0xf3, 0x18, 0x0d, 0x08, 0xf1,
    0xfd, 0x06, 0x0b, 0x05, 0xf6, 0x01, 0x03, 0xfc, 0x16, 0x04, 0xf5, 0x0e, 0x11,
    0x14, 0x0f, 0xfe, 0x15, 0xfd, 0xf8, 0xfe, 0x09, 0xdb, 0xf3, 0xf6, 0x06, 0xfe,
    0x09, 0x00, 0x10, 0x0b, 0xfd, 0xd9, 0x04, 0xff, 0x19, 0x06, 0xe4, 0xff, 0x03,
    0x02, 0x07, 0x0f, 0xff, 0x09, 0x0d, 0x06, 0x04, 0x00, 0x13, 0x02, 0xf7, 0xff,
    0x04, 0xdf, 0xfb, 0xfa, 0xff, 0xff, 0xfe, 0xe9, 0x18, 0x07, 0x06, 0xe8, 0x01,
    0x07, 0x0b, 0x04, 0xf0, 0x06, 0xfd, 0xff, 0x06, 0x01, 0x0a, 0xf8, 0xe9, 0xe2,
    0x10, 0xf0, 0xe6, 0x09, 0x0c, 0x09, 0xe6, 0xff, 0x0b, 0x03, 0x00, 0xff, 0xfc,
    0xfc, 0x09, 0xec, 0x0c, 0xff, 0xdf, 0xe9, 0xe8, 0x03, 0x06, 0xf8, 0x02, 0xf8,
    0x03, 0x00, 0x0d, 0xfd, 0xee, 0x02, 0x13, 0xff, 0xdf, 0xfe, 0x1e, 0x03, 0xea,
    0xfc, 0x01, 0xf6, 0x06, 0xfd, 0x05, 0x00, 0xff, 0xe6, 0x01, 0xf5, 0xe8, 0xf1,
    0xf8, 0x01, 0xec, 0xf3, 0xfd, 0xfd, 0x03, 0xeb, 0xf3, 0x0d, 0x0c, 0x0d, 0xf0,
    0x00, 0x0d, 0xfe, 0xfe, 0x00, 0xf4, 0xf0, 0x06, 0x0f, 0x0d, 0xfc, 0x08, 0x21,
    0xd6, 0x08, 0x16, 0xec, 0xfa, 0xe1, 0x09, 0xf4, 0xea, 0x0d, 0xfc, 0x0e, 0xef,
    0xed, 0xf7, 0xfb, 0xf4, 0xf3, 0x02, 0xfd, 0xe9, 0x09, 0x0c, 0xf6, 0xfd, 0x08,
    0x0b, 0x01, 0xf1, 0x01, 0x05, 0xe8, 0xf2, 0x01, 0x06, 0x08, 0xf4, 0x09, 0xf2,
    0x03, 0x09, 0x05, 0xfa, 0x06, 0x03, 0x02, 0xf8, 0x00, 0xef, 0xf6, 0xf5, 0xfd,
    0xf8, 0x00, 0x06, 0xfd, 0x06, 0x0e, 0x05, 0xfe, 0xf0, 0x04, 0x05, 0xf9, 0x11,
    0x09, 0x00, 0x03, 0x03, 0x0b, 0xf6, 0x07, 0x07, 0x0a, 0x01, 0x01, 0xfb, 0x0e,
    0xe2, 0xff, 0x06, 0x09, 0x01, 0x09, 0x0a, 0xf7, 0xfe, 0xf2, 0x03, 0xf1, 0xf7,
    0x03, 0x07, 0x03, 0xe9, 0x07, 0x0f, 0x04, 0x0d, 0xf4, 0xfd, 0x00, 0x08, 0x05,
    0x04, 0x01, 0x03, 0x01, 0x0a, 0xf1, 0x09, 0xe8, 0xf9, 0xe1, 0x09, 0x07, 0xec,
    0x04, 0xfe, 0xf6, 0x0c, 0x04, 0x07, 0xe8, 0xe7, 0xfd, 0xf1, 0xf3, 0xfc, 0xf1,
    0xff, 0x06, 0x05, 0xeb, 0xf4, 0x12, 0xf6, 0xef, 0x00, 0xfe, 0x0a, 0x05, 0x05,
    0x06, 0x09, 0x0b, 0x09, 0xef, 0x17, 0xf7, 0x03, 0x03, 0xf9, 0xee, 0xf5, 0xfb,
    0x03, 0x00, 0x05, 0x09, 0x08, 0x00, 0xff, 0xec, 0xfe, 0x02, 0x13, 0x13, 0xf4,
    0x07, 0xcf, 0xfc, 0x00, 0xfc, 0xfe, 0xf2, 0xfb, 0xfb, 0x10, 0xf7, 0xe6, 0x01,
    0x14, 0x08, 0xf6, 0x0a, 0x0d, 0x09, 0xff, 0x03, 0x00, 0xf6, 0xf9, 0xf1, 0x02,
    0x0a, 0xed, 0xf8, 0xe8, 0x06, 0xf9, 0xf5, 0x02, 0xfd, 0x02, 0x0e, 0xfe, 0xd6,
    0xfd, 0xf2, 0x05, 0x05, 0xde, 0x00, 0xed, 0xf8, 0x04, 0xfd, 0x02, 0x05, 0xef,
    0xfe, 0xf7, 0xf6, 0x0a, 0xd9, 0xf5, 0x04, 0x04, 0xdf, 0xd8, 0xfe, 0xf9, 0xef,
    0xf5, 0x03, 0xf8, 0xef, 0x04, 0xf0, 0xea, 0xf9, 0x0b, 0x01, 0xe6, 0x06, 0x10,
    0x04, 0xf8, 0x0d, 0x0b, 0x02, 0x01, 0x04, 0xfd, 0xfc, 0xf1, 0xd6, 0xfd, 0x02,
    0xd6, 0xe6, 0xe4, 0xf8, 0xf3, 0xf3, 0xff, 0x0a, 0x04, 0xff, 0x04, 0x01, 0xfb,
    0xed, 0xf9, 0xff, 0xea, 0x07, 0x00, 0x03, 0x01, 0xfb, 0x08, 0xf4, 0xef, 0x04,
    0x03, 0xfb, 0x08, 0xff, 0xf6, 0x04, 0xef, 0x08, 0xf3, 0x03, 0x09, 0x0a, 0x02,
    0x00, 0x07, 0xff, 0x0a, 0xfa, 0xf6, 0xfb, 0x05, 0x01, 0xfa, 0x05, 0x03, 0xfa,
    0xff, 0x07, 0x04, 0xf0, 0xf6, 0xfe, 0x04, 0xf8, 0x05, 0xf1, 0xf9, 0x08, 0xfe,
    0xfb, 0xf9, 0x00, 0xeb, 0x03, 0x01, 0x01, 0x00, 0x05, 0xe1, 0x09, 0x08, 0x0e,
    0xf6, 0x07, 0x15, 0xf1, 0xfa, 0xf9, 0xf9, 0xed, 0xfc, 0x01, 0x0b, 0x02, 0xfd,
    0x0e, 0x0b, 0x07, 0x09, 0xf4, 0xfd, 0x04, 0x0b, 0x02, 0xfe, 0x09, 0xfe, 0x03,
    0x05, 0x0b, 0xf9, 0x08, 0x0f, 0x0e, 0x00, 0xf1, 0x11, 0xef, 0xfd, 0x02, 0xfc,
    0xf4, 0xe2, 0x09, 0x0d, 0x02, 0xf3, 0x1a, 0xf1, 0x09, 0x11, 0xeb, 0x00, 0xfe,
    0x13, 0x08, 0xee, 0x02, 0x03, 0x00, 0xfe, 0x0d, 0xe6, 0x06, 0x0c, 0x08, 0xfc,
    0x08, 0x10, 0xf2, 0x00, 0xfb, 0xf2, 0xdb, 0xfa, 0x0a, 0x09, 0xfc, 0xfd, 0x06,
    0x08, 0x04, 0x0a, 0xe8, 0x01, 0x02, 0x0b, 0x0b, 0xff, 0x0b, 0x09, 0xf4, 0x06,
    0xfc, 0x0c, 0xfa, 0xf4, 0xbb, 0x05, 0x03, 0xea, 0xff, 0x08, 0x0a, 0xe4, 0x05,
    0x04, 0xf4, 0x04, 0xfe, 0x06, 0x02, 0xff, 0xea, 0xff, 0x03, 0xf6, 0xff, 0xe2,
    0x02, 0xdd, 0x03, 0x07, 0x02, 0xff, 0xf2, 0x12, 0xf6, 0xfe, 0xf3, 0x10, 0xf8,
    0xfa, 0x0a, 0x0c, 0x08, 0xea, 0xfc, 0xff, 0xf7, 0xfe, 0x01, 0xfe, 0xf0, 0xfc,
    0xf9, 0x0b, 0xf7, 0xfe, 0x1b, 0xed, 0x14, 0x20, 0xf4, 0xf7, 0x09, 0x09, 0x09,
    0xfd, 0x0b, 0x09, 0x11, 0x0e, 0xfd, 0x1a, 0xf5, 0x11, 0x0a, 0xf3, 0xf8, 0x05,
    0x0f, 0xf9, 0x03, 0x00, 0x0f, 0xf5, 0x0c, 0x07, 0xf4, 0x00, 0xdc, 0x0f, 0xe6,
    0xf5, 0x02, 0xf4, 0x03, 0x07, 0xdf, 0x08, 0x00, 0x00, 0x00, 0x01, 0x0a, 0xf0,
    0x04, 0xfc, 0x05, 0x0a, 0xfc, 0x00, 0xf9, 0x04, 0xfd, 0x03, 0xf7, 0xf4, 0xf5,
    0x02, 0xfe, 0xf8, 0x00, 0xf6, 0x0e, 0x0c, 0x00, 0x01, 0xfa, 0xea, 0xf1, 0xf2,
    0xfa, 0xff, 0x00, 0xf4, 0x01, 0x02, 0xf9, 0xf9, 0xfe, 0x04, 0x06, 0x0e, 0xf9,
    0xfe, 0x04, 0xf6, 0xe4, 0x02, 0x04, 0x06, 0x09, 0x01, 0x00, 0xfb, 0x15, 0x0a,
    0x0c, 0x02, 0x09, 0x00, 0x02, 0xf3, 0xfb, 0x08, 0x00, 0xf2, 0x07, 0x06, 0x00,
    0x09, 0xf7, 0x01, 0xec, 0xf8, 0x06, 0xfd, 0xff, 0xf4, 0xe6, 0x05, 0x05, 0x08,
    0xf2, 0xfc, 0x01, 0x05, 0x05, 0xfc, 0x04, 0x08, 0xf4, 0x09, 0x0e, 0xff, 0xf8,
    0x02, 0xec, 0x00, 0x0b, 0xf9, 0x06, 0xfe, 0xfd, 0x05, 0x0b, 0x0b, 0xf6, 0xfa,
    0x04, 0xfb, 0xd4, 0x15, 0xfc, 0x02, 0x06, 0x06, 0x06, 0xf7, 0x0d, 0x0b, 0xf8,
    0xf6, 0x14, 0x10, 0x0d, 0x02, 0x04, 0x00, 0x2a, 0xfa, 0xf5, 0x17, 0xfd, 0xf1,
    0x09, 0xde, 0x11, 0xea, 0x16, 0x0c, 0x00, 0x06, 0x0d, 0xf0, 0xf3, 0x07, 0xf6,
    0xff, 0xef, 0x12, 0xf3, 0xf0, 0x07, 0xea, 0xf5, 0xf6, 0xff, 0x09, 0xf9, 0x05,
    0xe8, 0x08, 0xfe, 0xe2, 0xfa, 0x04, 0x01, 0x0f, 0x0e, 0x0b, 0x05, 0x02, 0xfe,
    0x05, 0xf7, 0xfd, 0xf1, 0xf8, 0x00, 0xf3, 0xf2, 0xd6, 0x07, 0xe2, 0xff, 0xff,
    0xe9, 0xed, 0x11, 0xf8, 0xe0, 0x02, 0xf4, 0x01, 0x02, 0xe5, 0xf4, 0xf1, 0xfd,
    0xfe, 0xf9, 0x06, 0xec, 0xf6, 0x02, 0xee, 0xff, 0x0e, 0xee, 0xfa, 0x0e, 0x07,
    0x07, 0xec, 0x02, 0x08, 0xfc, 0xff, 0xf0, 0xfb, 0x0a, 0xfe, 0xff, 0x03, 0xf7,
    0xf7, 0x02, 0xd1, 0x03, 0xfb, 0xff, 0x00, 0x0a, 0x02, 0xf4, 0x06, 0x01, 0x08,
    0xfe, 0x02, 0xf0, 0x01, 0xfe, 0xdf, 0xc8, 0xe9, 0x04, 0xe5, 0xef, 0xff, 0xf7,
    0xf7, 0xf6, 0xfc, 0xf4, 0x00, 0xf3, 0x00, 0x07, 0xe4, 0x02, 0x03, 0xea, 0x03,
    0xf9, 0x0e, 0xef, 0x03, 0xfc, 0xe6, 0xf6, 0x05, 0x02, 0x02, 0x09, 0xfa, 0x0e,
    0x00, 0x17, 0x12, 0xfb, 0x05, 0x06, 0xfd, 0xf8, 0x08, 0xff, 0xf6, 0xf3, 0xfb,
    0x04, 0xf5, 0x05, 0x05, 0x06, 0x10, 0xf6, 0x06, 0xfa, 0xf7, 0xfc, 0xf3, 0xef,
    0x08, 0x01, 0xff, 0x0a, 0xfc, 0x0e, 0xf7, 0x14, 0x15, 0x0e, 0x02, 0x0c, 0x00,
    0x0a, 0xe0, 0x02, 0x08, 0x0e, 0x06, 0xfc, 0x0c, 0xfc, 0x0c, 0xfc, 0xfb, 0xf5,
    0x02, 0x06, 0x01, 0x00, 0xf2, 0x04, 0xfc, 0x0c, 0x08, 0x0a, 0xfc, 0xf7, 0x07,
    0x03, 0xf7, 0xff, 0xf5, 0x12, 0x0d, 0x09, 0xf2, 0x05, 0x0b, 0x1b, 0x09, 0xf6,
    0x0d, 0xfb, 0x15, 0x01, 0xeb, 0xf1, 0xed, 0x0d, 0x07, 0x03, 0xfc, 0x0f, 0xe7,
    0x05, 0x08, 0xfc, 0xff, 0xec, 0x12, 0xed, 0xe6, 0xfa, 0xff, 0x0e, 0x03, 0x15,
    0xe5, 0x04, 0x06, 0x0f, 0x05, 0x00, 0x0c, 0xff, 0x09, 0xfc, 0xfc, 0xe9, 0xff,
    0x03, 0x03, 0xfe, 0xf4, 0x0b, 0xf8, 0x04, 0x0a, 0xfa, 0xff, 0xfe, 0x0f, 0x0d,
    0x02, 0x00, 0x01, 0x08, 0x11, 0xf7, 0x06, 0x03, 0x0e, 0xfa, 0x00, 0xd0, 0xfe,
    0xf4, 0x01, 0x0b, 0x0e, 0x00, 0xf2, 0xfa, 0xf0, 0xfc, 0x08, 0x01, 0xfe, 0xea,
    0xe9, 0xfd, 0xf3, 0x01, 0xf9, 0x11, 0xfd, 0xed, 0x03, 0x00, 0x1e, 0xfb, 0x07,
    0xff, 0x03, 0xee, 0x03, 0xf0, 0xf6, 0x0b, 0x00, 0x08, 0xf7, 0x02, 0xf8, 0xe2,
    0x00, 0xff, 0x0a, 0x07, 0x02, 0xec, 0x06, 0xfe, 0x06, 0xfd, 0xfa, 0x12, 0x00,
    0xf2, 0xfd, 0x03, 0xfa, 0x1e, 0x0a, 0x07, 0xf3, 0xfe, 0xfd, 0x02, 0x0e, 0x04,
    0xfe, 0xff, 0x03, 0xfb, 0x01, 0x12, 0x0a, 0xff, 0x02, 0x11, 0xfa, 0xf3, 0x08,
    0xfe, 0xfe, 0xff, 0x0c, 0xe3, 0xfa, 0x07, 0x00, 0x0b, 0x04, 0xe7, 0xf6, 0x02,
    0x03, 0x08, 0xfa, 0x03, 0x00, 0xfa, 0xf5, 0x01, 0xfb, 0x14, 0x02, 0xfb, 0xfe,
    0xfe, 0x06, 0xfe, 0xe3, 0xfe, 0xea, 0x04, 0x04, 0x11, 0x0d, 0x0d, 0x07, 0xfd,
    0xf2, 0xf7, 0xfd, 0xee, 0x02, 0xff, 0xfa, 0xfa, 0xeb, 0x07, 0xff, 0x03, 0xf6,
    0xfc, 0xfe, 0x07, 0x0a, 0xf4, 0x03, 0xfe, 0x0b, 0xe7, 0xef, 0x08, 0x03, 0x16,
    0x03, 0x0d, 0xfd, 0xfa, 0x13, 0x0b, 0xfe, 0x00, 0xed, 0x00, 0xe0, 0xf4, 0x0b,
    0x10, 0x01, 0x0b, 0x0f, 0x03, 0x00, 0x02, 0xfa, 0xfd, 0xfd, 0x0e, 0x03, 0x03,
    0xf4, 0xf1, 0x05, 0x0a, 0x12, 0xeb, 0x02, 0xfd, 0x06, 0xff, 0x03, 0x07, 0xfb,
    0xf9, 0x06, 0xfb, 0x07, 0xfe, 0xf3, 0xf4, 0x00, 0xfb, 0xf7, 0x00, 0xfc, 0xff,
    0x05, 0x01, 0x02, 0xeb, 0xfc, 0x00, 0x04, 0xe7, 0x13, 0xf7, 0x09, 0xf9, 0xfd,
    0xf3, 0x01, 0x0b, 0xff, 0xfa, 0xf8, 0xe4, 0xf2, 0x08, 0x07, 0x05, 0x09, 0x10,
    0x0a, 0xe7, 0x11, 0xf9, 0x0a, 0xf3, 0xec, 0x05, 0xea, 0x09, 0x03, 0xfc, 0xfd,
    0x04, 0x08, 0x00, 0xf4, 0xf6, 0xf6, 0xfe, 0x0c, 0x20, 0xec, 0xfd, 0x02, 0x0e,
    0x09, 0xf2, 0x06, 0x0c, 0xf3, 0xdf, 0x09, 0xdd, 0xf9, 0xf5, 0xfb, 0x09, 0x09,
    0x06, 0xf7, 0xe4, 0xf7, 0xfc, 0x03, 0xf8, 0xf9, 0xcd, 0x03, 0x08, 0xf1, 0x01,
    0xed, 0x0c, 0x02, 0xf7, 0x01, 0xed, 0x07, 0x18, 0x00, 0xd5, 0x01, 0xf8, 0x04,
    0x03, 0xe3, 0x01, 0xee, 0xfc, 0x00, 0xfa, 0x09, 0xdc, 0x05, 0x03, 0x01, 0xee,
    0x14, 0xe8, 0x00, 0x05, 0xfb, 0xdd, 0xf4, 0x06, 0x0b, 0xe8, 0x00, 0x0d, 0x16,
    0xed, 0xf1, 0x05, 0xfd, 0xef, 0x08, 0xfe, 0x06, 0xf1, 0xfb, 0x06, 0x09, 0x0b,
    0x05, 0xf4, 0x01, 0xfd, 0x01, 0xfd, 0xe7, 0xd6, 0xf1, 0x0e, 0xe4, 0x0a, 0xec,
    0xfd, 0xf7, 0xfc, 0x01, 0xf4, 0x05, 0x06, 0x02, 0xfd, 0xfc, 0xf9, 0xed, 0x02,
    0xec, 0x12, 0xfc, 0xfe, 0x0f, 0xfd, 0x0a, 0xe4, 0xfc, 0x00, 0x04, 0xea, 0x05,
    0x02, 0x08, 0xfb, 0xd9, 0x19, 0xf6, 0xf5, 0x17, 0xff, 0xfe, 0xfc, 0x03, 0x06,
    0xf7, 0xce, 0xfc, 0xf5, 0xf1, 0x04, 0xf3, 0x0c, 0x08, 0xfb, 0x01, 0x01, 0x03,
    0xf2, 0xff, 0x02, 0xf8, 0xec, 0xff, 0x05, 0x02, 0x0a, 0x03, 0x07, 0xfb, 0x0c,
    0x0a, 0xfe, 0xfa, 0xfe, 0xef, 0xfd, 0xe5, 0xf5, 0x02, 0x0d, 0x01, 0x02, 0x0b,
    0x0a, 0x03, 0x01, 0xfd, 0xf8, 0x01, 0x08, 0x00, 0xff, 0xf9, 0xfc, 0x0c, 0x08,
    0x10, 0xf0, 0xfc, 0xf7, 0x0a, 0x02, 0xf7, 0x03, 0xf7, 0x09, 0xea, 0x11, 0x05,
    0x0c, 0x0c, 0x0b, 0x0c, 0xf1, 0x1a, 0xfb, 0xfe, 0xfe, 0xfa, 0xf1, 0xf8, 0x10,
    0x05, 0xfd, 0xfb, 0x16, 0xf9, 0xfe, 0x04, 0xf3, 0xfc, 0xfa, 0x14, 0xfc, 0xee,
    0x02, 0x08, 0xf5, 0xe1, 0x0c, 0xeb, 0x07, 0x01, 0x0b, 0xfe, 0x00, 0x0e, 0x11,
    0x06, 0xf9, 0xfc, 0xe1, 0x00, 0x07, 0x03, 0x00, 0x00, 0x01, 0x0b, 0x02, 0x09,
    0xdf, 0xf3, 0xf3, 0x10, 0x06, 0xf0, 0xfd, 0x00, 0xe5, 0x18, 0x08, 0x17, 0xf9,
    0x06, 0xfd, 0x0c, 0xf8, 0xfe, 0x0c, 0xf5, 0xe9, 0x10, 0x02, 0xfe, 0xfa, 0xf7,
    0xff, 0x00, 0xf8, 0x04, 0x00, 0x0c, 0xfe, 0xf4, 0x07, 0xfe, 0x12, 0xf1, 0xe9,
    0x03, 0xff, 0x13, 0x07, 0x03, 0x02, 0x05, 0xfe, 0x08, 0xe5, 0xf4, 0x0a, 0x04,
    0x00, 0x07, 0xfe, 0xf4, 0xf4, 0xef, 0xfe, 0x02, 0xf9, 0xfa, 0xfe, 0xf9, 0xfb,
    0xfc, 0x03, 0xf8, 0x0b, 0x01, 0xfd, 0x01, 0xff, 0x04, 0x19, 0x0b, 0x08, 0xec,
    0xf5, 0x13, 0x01, 0x09, 0x00, 0xf5, 0xfc, 0x01, 0xfa, 0x04, 0x06, 0x00, 0xfe,
    0x02, 0x07, 0x06, 0xfc, 0x06, 0xfa, 0x04, 0xf0, 0x0a, 0xe8, 0xfe, 0x07, 0x00,
    0xfa, 0xe2, 0xa2, 0xf4, 0xf6, 0x01, 0x07, 0x14, 0x00, 0xfc, 0xf7, 0x03, 0x07,
    0x03, 0x05, 0x05, 0x05, 0xfd, 0x03, 0x08, 0xd5, 0xd3, 0xf3, 0xf2, 0x00, 0xf9,
    0xfb, 0xfa, 0x22, 0x01, 0xf6, 0xfb, 0x0d, 0x03, 0xd1, 0xff, 0xf5, 0xfc, 0xf5,
    0xf6, 0x02, 0xf7, 0xf8, 0xf8, 0x08, 0xff, 0x0a, 0x05, 0xf4, 0xfc, 0xfe, 0xfb,
    0xf0, 0xef, 0x06, 0xfe, 0xfc, 0x00, 0x0b, 0xf8, 0x15, 0x07, 0x03, 0x00, 0x0e,
    0xd7, 0xba, 0x01, 0xfe, 0x00, 0x01, 0xfb, 0x0c, 0x06, 0x04, 0x11, 0x0a, 0xff,
    0xd9, 0x07, 0x08, 0x04, 0x01, 0x00, 0xda, 0xf3, 0x07, 0x0d, 0xe9, 0xfe, 0x06,
    0x0c, 0xf3, 0x0a, 0xfa, 0xfa, 0x06, 0xfd, 0xee, 0x05, 0xff, 0xed, 0xee, 0x0d,
    0x01, 0xfa, 0x0d, 0xf2, 0x05, 0xf9, 0xfb, 0xfe, 0xf2, 0x03, 0x00, 0x03, 0xf7,
    0xfe, 0xe7, 0x02, 0xfb, 0x02, 0x0c, 0xf0, 0x09, 0x13, 0x0b, 0xfb, 0xfc, 0x01,
    0xfd, 0x05, 0x00, 0xff, 0xff, 0x03, 0xf2, 0x0a, 0xe3, 0x0a, 0xf6, 0xe7, 0x07,
    0xe7, 0xff, 0x08, 0xfe, 0xff, 0x09, 0x05, 0xf8, 0x18, 0xff, 0x03, 0xf3, 0x04,
    0xf9, 0xf1, 0x02, 0xef, 0xec, 0x09, 0xed, 0x07, 0xee, 0x0c, 0xff, 0x06, 0xf4,
    0x03, 0x06, 0xf5, 0xfc, 0x15, 0x0e, 0xfb, 0xf4, 0x00, 0xfd, 0x01, 0xec, 0xfb,
    0x00, 0xf8, 0x00, 0xfb, 0x04, 0xf8, 0x0b, 0xfc, 0xfc, 0xfd, 0xfd, 0x09, 0x05,
    0x0e, 0xf6, 0xce, 0xe8, 0x12, 0x05, 0xe9, 0x04, 0xe0, 0x07, 0xfb, 0xf7, 0x02,
    0xdc, 0x01, 0xff, 0x0b, 0xec, 0x0e, 0xca, 0xf3, 0x04, 0x05, 0xe8, 0xdf, 0xef,
    0xfe, 0x02, 0xf7, 0xec, 0xf9, 0xd9, 0xfa, 0x03, 0x10, 0x07, 0x0a, 0x01, 0xf5,
    0x05, 0xf8, 0x04, 0x0b, 0x0b, 0x02, 0xfc, 0xfe, 0x02, 0x0f, 0xfc, 0xd6, 0x04,
    0xf5, 0xfa, 0xef, 0x02, 0x00, 0x23, 0xf8, 0x05, 0x03, 0x12, 0x09, 0xfb, 0x08,
    0xff, 0xd3, 0x00, 0xfa, 0x06, 0xf9, 0x10, 0x05, 0x03, 0xfe, 0xf8, 0x05, 0xda,
    0x00, 0x02, 0x02, 0xfe, 0x05, 0xf2, 0xf2, 0xfa, 0xfb, 0x12, 0xf1, 0x0d, 0x0d,
    0xf7, 0x00, 0x10, 0x0e, 0xfc, 0xf9, 0xfe, 0x06, 0xf6, 0x05, 0x04, 0xe0, 0x10,
    0xf3, 0x01, 0xfa, 0xfd, 0x03, 0xf2, 0xfe, 0xfc, 0x01, 0xd7, 0x05, 0x07, 0x08,
    0x12, 0xfd, 0x18, 0xfc, 0x00, 0x01, 0x03, 0xf2, 0x15, 0xe2, 0xbc, 0xf8, 0xff,
    0xfb, 0x02, 0xf5, 0x02, 0x12, 0xf5, 0x0e, 0x09, 0xfa, 0xdf, 0x05, 0x07, 0x06,
    0x01, 0xfa, 0xe7, 0xf6, 0x07, 0x10, 0x08, 0x05, 0xfb, 0x09, 0xe5, 0x05, 0xfd,
    0xfa, 0x05, 0xfb, 0x07, 0x09, 0x09, 0xfb, 0xfe, 0x0b, 0xff, 0x0d, 0xf8, 0x0e,
    0xfd, 0xfd, 0xe6, 0xfb, 0x02, 0x09, 0x03, 0x01, 0x0f, 0xff, 0xff, 0x16, 0xee,
    0x01, 0xf3, 0x01, 0xe4, 0xf7, 0xfa, 0x08, 0x0e, 0xed, 0xd9, 0xed, 0x0b, 0xfc,
    0x01, 0xe8, 0xff, 0x0e, 0x00, 0x0c, 0xfc, 0xfb, 0xc4, 0x02, 0x06, 0x08, 0xfe,
    0xf7, 0xff, 0xff, 0x09, 0x0d, 0xfd, 0xfc, 0xf9, 0x0a, 0xe3, 0xff, 0xf5, 0x06,
    0xe8, 0x28, 0xf1, 0x0c, 0xff, 0x05, 0x0d, 0x00, 0x00, 0xff, 0x06, 0xf3, 0xe2,
    0x12, 0xfa, 0xfa, 0xfe, 0xec, 0x02, 0xf5, 0xfe, 0x08, 0x02, 0xf8, 0xee, 0xf8,
    0xf2, 0x04, 0x18, 0xf4, 0xe5, 0x0b, 0x05, 0x14, 0xef, 0x0b, 0x04, 0xfd, 0x11,
    0xfa, 0xea, 0xed, 0x11, 0xfe, 0xf7, 0xfa, 0x12, 0xf1, 0x01, 0x00, 0x01, 0x02,
    0xfd, 0xef, 0x00, 0x02, 0x03, 0xfe, 0x0a, 0x01, 0x08, 0xfd, 0x06, 0x06, 0xf7,
    0xf4, 0x1e, 0xfe, 0x04, 0xec, 0xf3, 0x1f, 0xff, 0xef, 0x06, 0xfd, 0xfe, 0xeb,
    0xe1, 0xf8, 0x09, 0x0b, 0xfd, 0x0e, 0x0a, 0x1a, 0x02, 0x05, 0xe5, 0x04, 0x00,
    0x05, 0xe8, 0xe7, 0xf3, 0xfb, 0x03, 0x08, 0x99, 0xfe, 0x03, 0x1b, 0x09, 0xf6,
    0xf9, 0xfd, 0xfe, 0x01, 0xfc, 0x0e, 0x00, 0x06, 0xfd, 0xf3, 0x01, 0xff, 0xf9,
    0xb7, 0xff, 0xff, 0x0a, 0xf0, 0xf4, 0x01, 0x01, 0x0e, 0x0c, 0xe7, 0x08, 0xfb,
    0xb9, 0x1b, 0xec, 0xf5, 0xf9, 0x07, 0x02, 0xf3, 0xfc, 0xf5, 0x06, 0xfe, 0x1d,
    0x05, 0xff, 0xfb, 0xfc, 0x07, 0xe7, 0xc2, 0x05, 0x03, 0x1b, 0x02, 0x0e, 0x02,
    0x22, 0x03, 0x1c, 0xf8, 0x06, 0xf6, 0xce, 0xde, 0xff, 0xfe, 0x01, 0x1f, 0x06,
    0x0a, 0xf4, 0x1c, 0x0c, 0xfd, 0xd0, 0x01, 0x0c, 0x1a, 0x01, 0x0e, 0xff, 0xb2,
    0x03, 0x0e, 0xd6, 0xf3, 0x07, 0x07, 0xee, 0xfd, 0x04, 0xfc, 0x0f, 0x0f, 0xed,
    0x06, 0xf1, 0xe9, 0xc7, 0x05, 0x01, 0x08, 0xf7, 0xf6, 0x03, 0xf7, 0x18, 0x01,
    0xe2, 0xf7, 0x03, 0xf0, 0xf6, 0xe8, 0xf4, 0x14, 0xff, 0x07, 0x01, 0xfa, 0x03,
    0xe9, 0xf3, 0x03, 0xfb, 0xf5, 0x05, 0x08, 0x06, 0x08, 0xff, 0x04, 0x00, 0x09,
    0xfc, 0x11, 0xf6, 0xfe, 0xed, 0xde, 0x07, 0xfc, 0xfe, 0x1b, 0x0d, 0x0d, 0x03,
    0xfc, 0xba, 0xfa, 0xfa, 0x04, 0xfe, 0xea, 0xf2, 0xe3, 0xf5, 0x0f, 0xd1, 0x0c,
    0x05, 0x09, 0x0e, 0x01, 0xfe, 0xfc, 0xfc, 0xf8, 0xfb, 0x11, 0x0e, 0xfe, 0xfe,
    0xf0, 0xfc, 0x00, 0xeb, 0xe3, 0x00, 0xf9, 0x00, 0x0e, 0xfc, 0x01, 0x17, 0x01,
    0x19, 0x05, 0x11, 0x11, 0xeb, 0x02, 0xf8, 0xe1, 0xd7, 0x12, 0x07, 0x07, 0xf1,
    0xe4, 0xfe, 0x03, 0x05, 0x04, 0xf2, 0xf4, 0x02, 0xf0, 0x00, 0xff, 0xd5, 0xe6,
    0x02, 0xfd, 0xdf, 0xf6, 0x14, 0xf6, 0x04, 0xf9, 0x00, 0xf9, 0x81, 0xd1, 0xe6,
    0x0f, 0x14, 0xf3, 0x06, 0x00, 0xfe, 0xe7, 0xfe, 0x0a, 0xfd, 0x04, 0x08, 0xe3,
    0x00, 0xef, 0xcd, 0xb3, 0x0c, 0xf8, 0x02, 0xe0, 0x06, 0x07, 0xf9, 0x09, 0x0b,
    0x07, 0x0f, 0x10, 0xec, 0x0f, 0x04, 0xde, 0xe3, 0xf9, 0xfc, 0xea, 0x0d, 0x07,
    0xff, 0x00, 0x0c, 0x0a, 0xe4, 0x03, 0x01, 0x05, 0xf9, 0xf2, 0xf9, 0x12, 0x0e,
    0xf3, 0x0d, 0xf2, 0x03, 0x13, 0x03, 0xfe, 0x0c, 0x0e, 0xea, 0x06, 0x01, 0xd1,
    0xc6, 0x00, 0xfa, 0xdf, 0x0f, 0xea, 0x05, 0xfa, 0x04, 0x0c, 0xda, 0xf6, 0xfd,
    0xee, 0xf9, 0xeb, 0xf6, 0xe6, 0x22, 0xf3, 0x07, 0xf3, 0x1e, 0x13, 0x02, 0xf5,
    0x03, 0xe9, 0xc2, 0xee, 0xff, 0x01, 0x00, 0x06, 0x05, 0x10, 0xf1, 0x11, 0x12,
    0xf6, 0xe9, 0x01, 0x0c, 0x1d, 0xfe, 0x16, 0xf1, 0x9f, 0x07, 0x0e, 0xe9, 0x08,
    0x19, 0x03, 0xfb, 0xff, 0x02, 0x01, 0x07, 0xf7, 0x17, 0xff, 0x0b, 0xf9, 0xfd,
    0x1d, 0x0a, 0x09, 0xfd, 0x12, 0xfe, 0xfd, 0xd3, 0xf5, 0x0b, 0x0c, 0x01, 0x0c,
    0x0a, 0x14, 0xfc, 0x0e, 0xb9, 0xff, 0xfb, 0x04, 0xe0, 0xe1, 0xf6, 0x0b, 0xfc,
    0xfa, 0xe5, 0xda, 0x0c, 0x03, 0x03, 0x00, 0x00, 0x07, 0x07, 0x15, 0x03, 0xf9,
    0xbf, 0xff, 0x0a, 0x13, 0xfe, 0x18, 0x01, 0xdc, 0x05, 0x12, 0xce, 0xf2, 0x0d,
    0x0b, 0xfb, 0xf0, 0xf3, 0x7a, 0xff, 0xff, 0xff, 0x00, 0x00, 0x00, 0x09, 0x18,
    0x00, 0x00, 0x00, 0x03, 0x00, 0x00, 0x00, 0x08, 0x00, 0x00, 0x00, 0x18, 0x00,
    0x00, 0x00, 0x01, 0x00, 0x00, 0x00, 0x31, 0x00, 0x00, 0x00, 0x01, 0x00, 0x00,
    0x00, 0x00, 0x14, 0x00, 0x00, 0x04, 0x00, 0x06, 0x00, 0x04, 0x00, 0x00, 0x00,
    0x00, 0x00, 0x06, 0x00, 0x08, 0x00, 0x04, 0x00, 0x06, 0x00, 0x00, 0x00, 0x04,
    0x00, 0x00, 0x00, 0x40, 0x00, 0x00, 0x00, 0xcf, 0x3d, 0xcf, 0x3d, 0xcf, 0x3d,
    0xcf, 0x3d, 0xcf, 0x3d, 0xcf, 0x3d, 0xcf, 0x3d, 0xcf, 0x3d, 0xcf, 0x3d, 0xcf,
    0x3d, 0xcf, 0x3d, 0xcf, 0x3d, 0xcf, 0x3d, 0xcf, 0x3d, 0xcf, 0x3d, 0xcf, 0x3d,
    0xe0, 0xe1, 0xa8, 0x08, 0x29, 0xe2, 0x34, 0xdc, 0x20, 0xd2, 0x64, 0xa0, 0xa6,
    0xa9, 0x6e, 0xb7, 0xcb, 0x01, 0xe6, 0xc2, 0x95, 0xcd, 0xb4, 0xda, 0x78, 0xc1,
    0x84, 0xfb, 0x5f, 0xc7, 0xfe, 0xa7, 0x00, 0x00, 0x0e, 0x00, 0x18, 0x00, 0x08,
    0x00, 0x07, 0x00, 0x0c, 0x00, 0x10, 0x00, 0x14, 0x00, 0x0e, 0x00, 0x00, 0x00,
    0x00, 0x00, 0x00, 0x07, 0x18, 0x00, 0x00, 0x00, 0x02, 0x00, 0x00, 0x00, 0x08,
    0x00, 0x00, 0x00, 0x14, 0x00, 0x00, 0x00, 0x01, 0x00, 0x00, 0x00, 0x30, 0x00,
    0x00, 0x00, 0x01, 0x00, 0x00, 0x00, 0x20, 0x00, 0x00, 0x00, 0x58, 0xff, 0xff,
    0xff, 0x14, 0x00, 0x1c, 0x00, 0x08, 0x00, 0x07, 0x00, 0x0c, 0x00, 0x10, 0x00,
    0x14, 0x00, 0x00, 0x00, 0x00, 0x00, 0x18, 0x00, 0x14, 0x00, 0x00, 0x00, 0x00,
    0x00, 0x00, 0x09, 0x48, 0x00, 0x00, 0x00, 0x01, 0x00, 0x00, 0x00, 0x20, 0x00,
    0x00, 0x00, 0x5c, 0x00, 0x00, 0x00, 0x04, 0x00, 0x00, 0x00, 0x04, 0x00, 0x00,
    0x00, 0xff, 0xff, 0xff, 0xff, 0x04, 0x00, 0x00, 0x00, 0x18, 0x00, 0x00, 0x00,
    0x01, 0x00, 0x00, 0x00, 0x19, 0x00, 0x00, 0x00, 0x73, 0x65, 0x72, 0x76, 0x69,
    0x6e, 0x67, 0x5f, 0x64, 0x65, 0x66, 0x61, 0x75, 0x6c, 0x74, 0x5f, 0x69, 0x6e,
    0x70, 0x75, 0x74, 0x5f, 0x32, 0x3a, 0x30, 0x00, 0x00, 0x00, 0x04, 0x00, 0x00,
    0x00, 0x01, 0x00, 0x00, 0x00, 0x04, 0x00, 0x00, 0x00, 0x18, 0x00, 0x00, 0x00,
    0x01, 0x00, 0x00, 0x00, 0x0c, 0x00, 0x0c, 0x00, 0x00, 0x00, 0x00, 0x00, 0x04,
    0x00, 0x08, 0x00, 0x0c, 0x00, 0x00, 0x00, 0x14, 0x00, 0x00, 0x00, 0x04, 0x00,
    0x00, 0x00, 0x01, 0x00, 0x00, 0x00, 0x7f, 0x00, 0x00, 0x00, 0x00, 0x00, 0x00,
    0x00, 0x01, 0x00, 0x00, 0x00, 0x2a, 0x53, 0xcc, 0x3d, 0x04, 0x00, 0x04, 0x00,
    0x04, 0x00, 0x00, 0x00,
};

const int vnr_model_data_len = 13888;
