// This is a TensorFlow Lite model file that has been converted into a C data
// array using the convert_tflite_to_c_source() tool.

#if( USE_SWMEM == 1)
__attribute__((section(".SwMem_data")))
#elif( USE_EXTMEM == 1)
__attribute__((section(".ExtMem_data")))
#endif
const unsigned char vnr_model_data[] __attribute__((aligned(4))) = {
    0x20, 0x00, 0x00, 0x00, 0x54, 0x46, 0x4c, 0x33, 0x00, 0x00, 0x00, 0x00, 0x14,
    0x00, 0x20, 0x00, 0x04, 0x00, 0x08, 0x00, 0x0c, 0x00, 0x10, 0x00, 0x14, 0x00,
    0x00, 0x00, 0x18, 0x00, 0x1c, 0x00, 0x14, 0x00, 0x00, 0x00, 0x03, 0x00, 0x00,
    0x00, 0x70, 0x00, 0x00, 0x00, 0x64, 0x00, 0x00, 0x00, 0xc4, 0x01, 0x00, 0x00,
    0x0c, 0x00, 0x00, 0x00, 0x08, 0x01, 0x00, 0x00, 0x70, 0x00, 0x00, 0x00, 0x13,
    0x00, 0x00, 0x00, 0xf0, 0x2b, 0x00, 0x00, 0xec, 0x2b, 0x00, 0x00, 0x78, 0x2a,
    0x00, 0x00, 0x30, 0x1a, 0x00, 0x00, 0x74, 0x19, 0x00, 0x00, 0x38, 0x11, 0x00,
    0x00, 0xfc, 0x0f, 0x00, 0x00, 0x40, 0x09, 0x00, 0x00, 0xf4, 0x08, 0x00, 0x00,
    0xcc, 0x2b, 0x00, 0x00, 0xc8, 0x2b, 0x00, 0x00, 0x08, 0x06, 0x00, 0x00, 0xc0,
    0x2b, 0x00, 0x00, 0x60, 0x04, 0x00, 0x00, 0xb8, 0x2b, 0x00, 0x00, 0xb4, 0x2b,
    0x00, 0x00, 0xb0, 0x2b, 0x00, 0x00, 0x50, 0x01, 0x00, 0x00, 0xe4, 0x00, 0x00,
    0x00, 0x01, 0x00, 0x00, 0x00, 0x84, 0x01, 0x00, 0x00, 0x04, 0x00, 0x00, 0x00,
    0x2c, 0x08, 0x00, 0x00, 0xbc, 0x03, 0x00, 0x00, 0xe0, 0x02, 0x00, 0x00, 0x24,
    0x02, 0x00, 0x00, 0x01, 0x00, 0x00, 0x00, 0x10, 0x00, 0x00, 0x00, 0x0c, 0x00,
    0x14, 0x00, 0x10, 0x00, 0x0c, 0x00, 0x08, 0x00, 0x04, 0x00, 0x0c, 0x00, 0x00,
    0x00, 0x10, 0x00, 0x00, 0x00, 0x14, 0x00, 0x00, 0x00, 0x24, 0x00, 0x00, 0x00,
    0x28, 0x00, 0x00, 0x00, 0x00, 0x00, 0x00, 0x00, 0x00, 0x00, 0x00, 0x00, 0x0f,
    0x00, 0x00, 0x00, 0x73, 0x65, 0x72, 0x76, 0x69, 0x6e, 0x67, 0x5f, 0x64, 0x65,
    0x66, 0x61, 0x75, 0x6c, 0x74, 0x00, 0x01, 0x00, 0x00, 0x00, 0x14, 0x00, 0x00,
    0x00, 0x01, 0x00, 0x00, 0x00, 0x30, 0x00, 0x00, 0x00, 0x08, 0x00, 0x0c, 0x00,
    0x08, 0x00, 0x04, 0x00, 0x08, 0x00, 0x00, 0x00, 0x0f, 0x00, 0x00, 0x00, 0x04,
    0x00, 0x00, 0x00, 0x12, 0x00, 0x00, 0x00, 0x71, 0x75, 0x61, 0x6e, 0x74, 0x5f,
    0x61, 0x63, 0x74, 0x69, 0x76, 0x61, 0x74, 0x69, 0x6f, 0x6e, 0x5f, 0x34, 0x00,
    0x00, 0x6e, 0xd6, 0xff, 0xff, 0x04, 0x00, 0x00, 0x00, 0x07, 0x00, 0x00, 0x00,
    0x69, 0x6e, 0x70, 0x75, 0x74, 0x5f, 0x32, 0x00, 0x02, 0x00, 0x00, 0x00, 0x70,
    0x00, 0x00, 0x00, 0x04, 0x00, 0x00, 0x00, 0xa0, 0xff, 0xff, 0xff, 0x08, 0x00,
    0x00, 0x00, 0x12, 0x00, 0x00, 0x00, 0x11, 0x00, 0x00, 0x00, 0x78, 0x63, 0x6f,
    0x72, 0x65, 0x53, 0x68, 0x61, 0x72, 0x65, 0x64, 0x43, 0x6f, 0x6e, 0x66, 0x69,
    0x67, 0x00, 0x00, 0x00, 0xb2, 0xd6, 0xff, 0xff, 0x04, 0x00, 0x00, 0x00, 0x30,
    0x00, 0x00, 0x00, 0x00, 0x00, 0x00, 0x00, 0x01, 0x00, 0x00, 0x00, 0x00, 0x00,
    0x00, 0x00, 0x00, 0x00, 0x00, 0x00, 0x01, 0x00, 0x00, 0x00, 0x00, 0x00, 0x00,
    0x00, 0x00, 0x00, 0x00, 0x00, 0x01, 0x00, 0x00, 0x00, 0x07, 0x00, 0x00, 0x00,
    0x01, 0x00, 0x00, 0x00, 0xae, 0x00, 0x7a, 0x75, 0x5f, 0x79, 0x7f, 0x4a, 0x08,
    0x00, 0x0c, 0x00, 0x04, 0x00, 0x08, 0x00, 0x08, 0x00, 0x00, 0x00, 0x08, 0x00,
    0x00, 0x00, 0x11, 0x00, 0x00, 0x00, 0x13, 0x00, 0x00, 0x00, 0x6d, 0x69, 0x6e,
    0x5f, 0x72, 0x75, 0x6e, 0x74, 0x69, 0x6d, 0x65, 0x5f, 0x76, 0x65, 0x72, 0x73,
    0x69, 0x6f, 0x6e, 0x00, 0x1a, 0xd7, 0xff, 0xff, 0x04, 0x00, 0x00, 0x00, 0x10,
    0x00, 0x00, 0x00, 0x31, 0x2e, 0x31, 0x34, 0x2e, 0x30, 0x00, 0x00, 0x00, 0x00,
    0x00, 0x00, 0x00, 0x00, 0x00, 0x00, 0x0f, 0x00, 0x00, 0x00, 0x4d, 0x4c, 0x49,
    0x52, 0x20, 0x43, 0x6f, 0x6e, 0x76, 0x65, 0x72, 0x74, 0x65, 0x64, 0x2e, 0x00,
    0x00, 0x00, 0x0e, 0x00, 0x18, 0x00, 0x04, 0x00, 0x08, 0x00, 0x0c, 0x00, 0x10,
    0x00, 0x14, 0x00, 0x0e, 0x00, 0x00, 0x00, 0x4c, 0x00, 0x00, 0x00, 0x40, 0x00,
    0x00, 0x00, 0x34, 0x00, 0x00, 0x00, 0x14, 0x00, 0x00, 0x00, 0x04, 0x00, 0x00,
    0x00, 0x04, 0x00, 0x00, 0x00, 0x6d, 0x61, 0x69, 0x6e, 0x00, 0x00, 0x00, 0x00,
    0x06, 0x00, 0x00, 0x00, 0xc0, 0x05, 0x00, 0x00, 0x8c, 0x04, 0x00, 0x00, 0x10,
    0x03, 0x00, 0x00, 0xb8, 0x01, 0x00, 0x00, 0x10, 0x01, 0x00, 0x00, 0x58, 0x00,
    0x00, 0x00, 0x01, 0x00, 0x00, 0x00, 0x0f, 0x00, 0x00, 0x00, 0x01, 0x00, 0x00,
    0x00, 0x00, 0x00, 0x00, 0x00, 0x10, 0x00, 0x00, 0x00, 0x34, 0x29, 0x00, 0x00,
    0xf0, 0x28, 0x00, 0x00, 0x18, 0x28, 0x00, 0x00, 0xdc, 0x17, 0x00, 0x00, 0x20,
    0x17, 0x00, 0x00, 0xe4, 0x0e, 0x00, 0x00, 0xa8, 0x0d, 0x00, 0x00, 0xec, 0x06,
    0x00, 0x00, 0x60, 0x06, 0x00, 0x00, 0xf4, 0x04, 0x00, 0x00, 0xf4, 0x03, 0x00,
    0x00, 0x74, 0x03, 0x00, 0x00, 0x68, 0x02, 0x00, 0x00, 0xcc, 0x01, 0x00, 0x00,
    0xf0, 0x00, 0x00, 0x00, 0x34, 0x00, 0x00, 0x00, 0x56, 0xff, 0xff, 0xff, 0x03,
    0x00, 0x00, 0x00, 0x10, 0x00, 0x00, 0x00, 0x04, 0x00, 0x00, 0x00, 0x01, 0x00,
    0x00, 0x00, 0x0f, 0x00, 0x00, 0x00, 0x01, 0x00, 0x00, 0x00, 0x0e, 0x00, 0x00,
    0x00, 0x7c, 0xfe, 0xff, 0xff, 0x0e, 0x00, 0x00, 0x00, 0x00, 0x00, 0x00, 0x0e,
    0x02, 0x00, 0x00, 0x00, 0x50, 0xd7, 0xff, 0xff, 0x00, 0x00, 0x00, 0x09, 0x40,
    0x00, 0x00, 0x00, 0x10, 0x00, 0x00, 0x00, 0x18, 0x00, 0x00, 0x00, 0x40, 0x00,
    0x00, 0x00, 0x04, 0x00, 0x00, 0x00, 0x02, 0x00, 0x00, 0x00, 0xff, 0xff, 0xff,
    0xff, 0x01, 0x00, 0x00, 0x00, 0x19, 0x00, 0x00, 0x00, 0x53, 0x74, 0x61, 0x74,
    0x65, 0x66, 0x75, 0x6c, 0x50, 0x61, 0x72, 0x74, 0x69, 0x74, 0x69, 0x6f, 0x6e,
    0x65, 0x64, 0x43, 0x61, 0x6c, 0x6c, 0x3a, 0x30, 0x00, 0x00, 0x00, 0x02, 0x00,
    0x00, 0x00, 0x01, 0x00, 0x00, 0x00, 0x01, 0x00, 0x00, 0x00, 0x2c, 0xd7, 0xff,
    0xff, 0x18, 0x00, 0x00, 0x00, 0x04, 0x00, 0x00, 0x00, 0x01, 0x00, 0x00, 0x00,
    0x80, 0xff, 0xff, 0xff, 0xff, 0xff, 0xff, 0xff, 0x00, 0x00, 0x00, 0x00, 0x01,
    0x00, 0x00, 0x00, 0x00, 0x00, 0x80, 0x3b, 0x00, 0x00, 0x0a, 0x00, 0x10, 0x00,
    0x04, 0x00, 0x08, 0x00, 0x0c, 0x00, 0x0a, 0x00, 0x00, 0x00, 0x02, 0x00, 0x00,
    0x00, 0x10, 0x00, 0x00, 0x00, 0x04, 0x00, 0x00, 0x00, 0x01, 0x00, 0x00, 0x00,
    0x0e, 0x00, 0x00, 0x00, 0x02, 0x00, 0x00, 0x00, 0x0d, 0x00, 0x00, 0x00, 0x07,
    0x00, 0x00, 0x00, 0x34, 0xff, 0xff, 0xff, 0x16, 0x00, 0x00, 0x00, 0x00, 0x00,
    0x00, 0x16, 0x01, 0x00, 0x00, 0x00, 0x08, 0xd8, 0xff, 0xff, 0x00, 0x00, 0x00,
    0x09, 0x28, 0x00, 0x00, 0x00, 0x0f, 0x00, 0x00, 0x00, 0x18, 0x00, 0x00, 0x00,
    0x28, 0x00, 0x00, 0x00, 0x04, 0x00, 0x00, 0x00, 0x02, 0x00, 0x00, 0x00, 0xff,
    0xff, 0xff, 0xff, 0x01, 0x00, 0x00, 0x00, 0x01, 0x00, 0x00, 0x00, 0x44, 0x00,
    0x00, 0x00, 0x02, 0x00, 0x00, 0x00, 0x01, 0x00, 0x00, 0x00, 0x01, 0x00, 0x00,
    0x00, 0xcc, 0xd7, 0xff, 0xff, 0x18, 0x00, 0x00, 0x00, 0x04, 0x00, 0x00, 0x00,
    0x01, 0x00, 0x00, 0x00, 0xee, 0xff, 0xff, 0xff, 0xff, 0xff, 0xff, 0xff, 0x00,
    0x00, 0x00, 0x00, 0x01, 0x00, 0x00, 0x00, 0x2f, 0x3c, 0x89, 0x3d, 0x00, 0x00,
    0x0e, 0x00, 0x1a, 0x00, 0x08, 0x00, 0x0c, 0x00, 0x10, 0x00, 0x07, 0x00, 0x14,
    0x00, 0x0e, 0x00, 0x00, 0x00, 0x00, 0x00, 0x00, 0x01, 0x01, 0x00, 0x00, 0x00,
    0x30, 0x00, 0x00, 0x00, 0x24, 0x00, 0x00, 0x00, 0x10, 0x00, 0x00, 0x00, 0x00,
    0x00, 0x0a, 0x00, 0x10, 0x00, 0x0f, 0x00, 0x04, 0x00, 0x08, 0x00, 0x0a, 0x00,
    0x00, 0x00, 0x01, 0x00, 0x00, 0x00, 0x01, 0x00, 0x00, 0x00, 0x00, 0x00, 0x00,
    0x01, 0x01, 0x00, 0x00, 0x00, 0x0d, 0x00, 0x00, 0x00, 0x03, 0x00, 0x00, 0x00,
    0x0b, 0x00, 0x00, 0x00, 0x0c, 0x00, 0x00, 0x00, 0x0a, 0x00, 0x00, 0x00, 0x0c,
    0x00, 0x10, 0x00, 0x0b, 0x00, 0x00, 0x00, 0x0c, 0x00, 0x04, 0x00, 0x0c, 0x00,
    0x00, 0x00, 0x03, 0x00, 0x00, 0x00, 0x00, 0x00, 0x00, 0x03, 0x03, 0x00, 0x00,
    0x00, 0xe0, 0xd8, 0xff, 0xff, 0x00, 0x00, 0x00, 0x09, 0x30, 0x00, 0x00, 0x00,
    0x0e, 0x00, 0x00, 0x00, 0x20, 0x00, 0x00, 0x00, 0x38, 0x00, 0x00, 0x00, 0x04,
    0x00, 0x00, 0x00, 0x04, 0x00, 0x00, 0x00, 0xff, 0xff, 0xff, 0xff, 0x01, 0x00,
    0x00, 0x00, 0x01, 0x00, 0x00, 0x00, 0x01, 0x00, 0x00, 0x00, 0x01, 0x00, 0x00,
    0x00, 0x43, 0x00, 0x00, 0x00, 0x04, 0x00, 0x00, 0x00, 0x01, 0x00, 0x00, 0x00,
    0x01, 0x00, 0x00, 0x00, 0x01, 0x00, 0x00, 0x00, 0x01, 0x00, 0x00, 0x00, 0xb4,
    0xd8, 0xff, 0xff, 0x14, 0x00, 0x00, 0x00, 0x04, 0x00, 0x00, 0x00, 0x01, 0x00,
    0x00, 0x00, 0xee, 0xff, 0xff, 0xff, 0xff, 0xff, 0xff, 0xff, 0x01, 0x00, 0x00,
    0x00, 0x2f, 0x3c, 0x89, 0x3d, 0x1a, 0xda, 0xff, 0xff, 0x04, 0x00, 0x00, 0x00,
    0x20, 0x00, 0x00, 0x00, 0x58, 0x3e, 0x37, 0xc5, 0x38, 0x63, 0xaa, 0xa6, 0x88,
    0x67, 0x5b, 0xbc, 0x42, 0xbf, 0x1d, 0xa6, 0xc8, 0x31, 0x9f, 0x3b, 0x4e, 0x35,
    0xc1, 0xe8, 0x3e, 0x63, 0x44, 0xad, 0x82, 0x69, 0xc6, 0x14, 0xb2, 0xd9, 0xff,
    0xff, 0x00, 0x00, 0x00, 0x09, 0x18, 0x00, 0x00, 0x00, 0x0d, 0x00, 0x00, 0x00,
    0x08, 0x00, 0x00, 0x00, 0x20, 0x00, 0x00, 0x00, 0x01, 0x00, 0x00, 0x00, 0x42,
    0x00, 0x00, 0x00, 0x04, 0x00, 0x00, 0x00, 0x01, 0x00, 0x00, 0x00, 0x01, 0x00,
    0x00, 0x00, 0x01, 0x00, 0x00, 0x00, 0x20, 0x00, 0x00, 0x00, 0x34, 0xd9, 0xff,
    0xff, 0x14, 0x00, 0x00, 0x00, 0x04, 0x00, 0x00, 0x00, 0x01, 0x00, 0x00, 0x00,
    0x00, 0x00, 0x00, 0x00, 0x00, 0x00, 0x00, 0x00, 0x01, 0x00, 0x00, 0x00, 0x3f,
    0xfe, 0x70, 0x39, 0x68, 0xfd, 0xff, 0xff, 0xa0, 0x00, 0x00, 0x00, 0x94, 0x00,
    0x00, 0x00, 0x04, 0x00, 0x00, 0x00, 0x87, 0x00, 0x00, 0x00, 0x6b, 0x74, 0x00,
    0x6d, 0x70, 0x00, 0x08, 0x80, 0x00, 0x00, 0x00, 0x80, 0x00, 0x00, 0x00, 0x00,
    0x61, 0x67, 0x67, 0x70, 0x00, 0x18, 0x00, 0x08, 0x00, 0x00, 0x00, 0x00, 0x00,
    0x00, 0x00, 0x00, 0x00, 0x00, 0x03, 0x00, 0x00, 0x00, 0x00, 0x00, 0x00, 0x00,
    0x00, 0x00, 0x00, 0x00, 0x00, 0x6f, 0x74, 0x70, 0x00, 0x08, 0x20, 0x00, 0x00,
    0x00, 0x01, 0x00, 0xfb, 0xff, 0x00, 0x73, 0x63, 0x72, 0x61, 0x74, 0x63, 0x68,
    0x00, 0x61, 0x6b, 0x70, 0x00, 0x20, 0x00, 0x00, 0x00, 0x00, 0x01, 0x00, 0x00,
    0x00, 0x00, 0x00, 0x00, 0x00, 0x01, 0x00, 0x00, 0x00, 0x02, 0x00, 0x00, 0x00,
    0x00, 0x00, 0x00, 0x00, 0x00, 0x00, 0x00, 0x00, 0x20, 0x00, 0x00, 0x00, 0x00,
    0x01, 0x22, 0x14, 0x06, 0x5f, 0x2b, 0x71, 0x6f, 0x44, 0x37, 0x06, 0x01, 0x06,
    0x62, 0x0d, 0x00, 0x74, 0x48, 0x00, 0x14, 0x28, 0x04, 0x14, 0x14, 0x04, 0x0c,
    0x24, 0x01, 0x00, 0x01, 0x00, 0x00, 0x00, 0x0b, 0x00, 0x00, 0x00, 0x03, 0x00,
    0x00, 0x00, 0x09, 0x00, 0x00, 0x00, 0x02, 0x00, 0x00, 0x00, 0x01, 0x00, 0x00,
    0x00, 0x80, 0xda, 0xff, 0xff, 0x00, 0x00, 0x00, 0x09, 0x30, 0x00, 0x00, 0x00,
    0x0c, 0x00, 0x00, 0x00, 0x20, 0x00, 0x00, 0x00, 0x38, 0x00, 0x00, 0x00, 0x04,
    0x00, 0x00, 0x00, 0x04, 0x00, 0x00, 0x00, 0xff, 0xff, 0xff, 0xff, 0x01, 0x00,
    0x00, 0x00, 0x01, 0x00, 0x00, 0x00, 0x20, 0x00, 0x00, 0x00, 0x01, 0x00, 0x00,
    0x00, 0x41, 0x00, 0x00, 0x00, 0x04, 0x00, 0x00, 0x00, 0x01, 0x00, 0x00, 0x00,
    0x01, 0x00, 0x00, 0x00, 0x01, 0x00, 0x00, 0x00, 0x20, 0x00, 0x00, 0x00, 0x54,
    0xda, 0xff, 0xff, 0x14, 0x00, 0x00, 0x00, 0x04, 0x00, 0x00, 0x00, 0x01, 0x00,
    0x00, 0x00, 0x80, 0xff, 0xff, 0xff, 0xff, 0xff, 0xff, 0xff, 0x01, 0x00, 0x00,
    0x00, 0xd8, 0xb0, 0x83, 0x3e, 0xba, 0xdb, 0xff, 0xff, 0x04, 0x00, 0x00, 0x00,
    0x04, 0x00, 0x00, 0x00, 0x2b, 0xf7, 0xff, 0xff, 0x36, 0xdb, 0xff, 0xff, 0x00,
    0x00, 0x00, 0x02, 0x18, 0x00, 0x00, 0x00, 0x0b, 0x00, 0x00, 0x00, 0x08, 0x00,
    0x00, 0x00, 0x14, 0x00, 0x00, 0x00, 0x01, 0x00, 0x00, 0x00, 0x39, 0x00, 0x00,
    0x00, 0x01, 0x00, 0x00, 0x00, 0x01, 0x00, 0x00, 0x00, 0xac, 0xda, 0xff, 0xff,
    0x14, 0x00, 0x00, 0x00, 0x04, 0x00, 0x00, 0x00, 0x01, 0x00, 0x00, 0x00, 0x00,
    0x00, 0x00, 0x00, 0x00, 0x00, 0x00, 0x00, 0x01, 0x00, 0x00, 0x00, 0x29, 0xf1,
    0x77, 0x38, 0xe0, 0xfe, 0xff, 0xff, 0xa0, 0x00, 0x00, 0x00, 0x94, 0x00, 0x00,
    0x00, 0x04, 0x00, 0x00, 0x00, 0x87, 0x00, 0x00, 0x00, 0x6b, 0x74, 0x00, 0x6d,
    0x70, 0x00, 0x08, 0x00, 0x01, 0x00, 0x00, 0x40, 0x00, 0x00, 0x00, 0x00, 0x61,
    0x67, 0x67, 0x70, 0x00, 0x18, 0x00, 0x04, 0x00, 0x00, 0x00, 0x00, 0x00, 0x00,
    0x00, 0x00, 0x00, 0x00, 0x01, 0x00, 0x00, 0x00, 0x00, 0x00, 0x00, 0x00, 0xc0,
    0x00, 0x00, 0x00, 0x00, 0x6f, 0x74, 0x70, 0x00, 0x08, 0x20, 0x00, 0x00, 0x00,
    0x03, 0x00, 0xf9, 0xff, 0x00, 0x73, 0x63, 0x72, 0x61, 0x74, 0x63, 0x68, 0x00,
    0x61, 0x6b, 0x70, 0x00, 0x20, 0x00, 0x00, 0x00, 0x00, 0x01, 0x00, 0x00, 0x00,
    0x00, 0x00, 0x00, 0x00, 0x04, 0x00, 0x00, 0x00, 0x02, 0x00, 0x00, 0x00, 0x00,
    0x00, 0x00, 0x00, 0x00, 0x00, 0x00, 0x00, 0x20, 0x00, 0x00, 0x00, 0x00, 0x01,
    0x22, 0x14, 0x06, 0x5f, 0x2b, 0x71, 0x6f, 0x44, 0x37, 0x06, 0x01, 0x06, 0x62,
    0x0d, 0x00, 0x74, 0x48, 0x00, 0x14, 0x28, 0x04, 0x14, 0x14, 0x04, 0x0c, 0x24,
    0x01, 0x00, 0x01, 0x00, 0x00, 0x00, 0x09, 0x00, 0x00, 0x00, 0x03, 0x00, 0x00,
    0x00, 0x08, 0x00, 0x00, 0x00, 0x04, 0x00, 0x00, 0x00, 0x03, 0x00, 0x00, 0x00,
    0xf8, 0xdb, 0xff, 0xff, 0x00, 0x00, 0x00, 0x09, 0x30, 0x00, 0x00, 0x00, 0x0a,
    0x00, 0x00, 0x00, 0x20, 0x00, 0x00, 0x00, 0x38, 0x00, 0x00, 0x00, 0x04, 0x00,
    0x00, 0x00, 0x04, 0x00, 0x00, 0x00, 0xff, 0xff, 0xff, 0xff, 0x01, 0x00, 0x00,
    0x00, 0x04, 0x00, 0x00, 0x00, 0x20, 0x00, 0x00, 0x00, 0x01, 0x00, 0x00, 0x00,
    0x38, 0x00, 0x00, 0x00, 0x04, 0x00, 0x00, 0x00, 0x01, 0x00, 0x00, 0x00, 0x01,
    0x00, 0x00, 0x00, 0x04, 0x00, 0x00, 0x00, 0x20, 0x00, 0x00, 0x00, 0xcc, 0xdb,
    0xff, 0xff, 0x14, 0x00, 0x00, 0x00, 0x04, 0x00, 0x00, 0x00, 0x01, 0x00, 0x00,
    0x00, 0x80, 0xff, 0xff, 0xff, 0xff, 0xff, 0xff, 0xff, 0x01, 0x00, 0x00, 0x00,
    0x3e, 0x27, 0x4b, 0x3e, 0x10, 0x00, 0x10, 0x00, 0x00, 0x00, 0x04, 0x00, 0x08,
    0x00, 0x00, 0x00, 0x00, 0x00, 0x0c, 0x00, 0x10, 0x00, 0x00, 0x00, 0xa8, 0x00,
    0x00, 0x00, 0x9c, 0x00, 0x00, 0x00, 0x04, 0x00, 0x00, 0x00, 0x8f, 0x00, 0x00,
    0x00, 0x6b, 0x74, 0x00, 0x6d, 0x70, 0x00, 0x20, 0x60, 0x00, 0x00, 0x00, 0x18,
    0x00, 0x00, 0x00, 0x00, 0x00, 0x00, 0x00, 0x00, 0x00, 0x00, 0x00, 0x00, 0x00,
    0x00, 0x00, 0x08, 0x00, 0x00, 0x00, 0xf8, 0xff, 0xff, 0xff, 0x48, 0x00, 0x00,
    0x00, 0x00, 0x61, 0x67, 0x67, 0x70, 0x00, 0x08, 0x40, 0x00, 0x00, 0x00, 0x18,
    0x00, 0x00, 0x00, 0x00, 0x6f, 0x74, 0x70, 0x00, 0x08, 0x40, 0x00, 0x00, 0x00,
    0x03, 0x00, 0xfa, 0xff, 0x00, 0x73, 0x63, 0x72, 0x61, 0x74, 0x63, 0x68, 0x00,
    0x61, 0x6b, 0x70, 0x00, 0x20, 0x00, 0x00, 0x00, 0x00, 0x01, 0x00, 0x00, 0x00,
    0x00, 0x00, 0x00, 0x00, 0x04, 0x00, 0x00, 0x00, 0x04, 0x00, 0x00, 0x00, 0x00,
    0x00, 0x00, 0x00, 0x00, 0x00, 0x00, 0x00, 0x40, 0x00, 0x00, 0x00, 0x00, 0x01,
    0x22, 0x14, 0x06, 0x4f, 0x2b, 0x79, 0x77, 0x44, 0x37, 0x06, 0x01, 0x06, 0x52,
    0x0d, 0x01, 0x7c, 0x48, 0x40, 0x14, 0x28, 0x04, 0x14, 0x14, 0x04, 0x0c, 0x24,
    0x01, 0x00, 0x01, 0x00, 0x00, 0x00, 0x08, 0x00, 0x00, 0x00, 0x03, 0x00, 0x00,
    0x00, 0x00, 0x00, 0x00, 0x00, 0x06, 0x00, 0x00, 0x00, 0x05, 0x00, 0x00, 0x00,
    0x0c, 0x00, 0x10, 0x00, 0x0f, 0x00, 0x08, 0x00, 0x00, 0x00, 0x04, 0x00, 0x0c,
    0x00, 0x00, 0x00, 0x20, 0x00, 0x00, 0x00, 0x08, 0x00, 0x00, 0x00, 0x00, 0x00,
    0x00, 0x20, 0x0c, 0x00, 0x00, 0x00, 0x58, 0x43, 0x5f, 0x63, 0x6f, 0x6e, 0x76,
    0x32, 0x64, 0x5f, 0x76, 0x32, 0x00, 0x00, 0x00, 0x00, 0x60, 0xdd, 0xff, 0xff,
    0x00, 0x00, 0x00, 0x09, 0x30, 0x00, 0x00, 0x00, 0x09, 0x00, 0x00, 0x00, 0x20,
    0x00, 0x00, 0x00, 0x38, 0x00, 0x00, 0x00, 0x04, 0x00, 0x00, 0x00, 0x04, 0x00,
    0x00, 0x00, 0xff, 0xff, 0xff, 0xff, 0x01, 0x00, 0x00, 0x00, 0x04, 0x00, 0x00,
    0x00, 0x40, 0x00, 0x00, 0x00, 0x01, 0x00, 0x00, 0x00, 0x37, 0x00, 0x00, 0x00,
    0x04, 0x00, 0x00, 0x00, 0x01, 0x00, 0x00, 0x00, 0x01, 0x00, 0x00, 0x00, 0x04,
    0x00, 0x00, 0x00, 0x40, 0x00, 0x00, 0x00, 0x34, 0xdd, 0xff, 0xff, 0x14, 0x00,
    0x00, 0x00, 0x04, 0x00, 0x00, 0x00, 0x01, 0x00, 0x00, 0x00, 0x80, 0xff, 0xff,
    0xff, 0xff, 0xff, 0xff, 0xff, 0x01, 0x00, 0x00, 0x00, 0xcc, 0xea, 0x1d, 0x3e,
    0x9a, 0xde, 0xff, 0xff, 0x04, 0x00, 0x00, 0x00, 0x10, 0x00, 0x00, 0x00, 0xff,
    0xff, 0xff, 0xff, 0xff, 0xff, 0xff, 0xff, 0x01, 0x00, 0x00, 0x00, 0x00, 0x00,
    0x00, 0x00, 0x22, 0xde, 0xff, 0xff, 0x00, 0x00, 0x00, 0x04, 0x18, 0x00, 0x00,
    0x00, 0x08, 0x00, 0x00, 0x00, 0x08, 0x00, 0x00, 0x00, 0x14, 0x00, 0x00, 0x00,
    0x01, 0x00, 0x00, 0x00, 0x36, 0x00, 0x00, 0x00, 0x01, 0x00, 0x00, 0x00, 0x02,
    0x00, 0x00, 0x00, 0x6c, 0xdd, 0xff, 0xff, 0xe2, 0xde, 0xff, 0xff, 0x04, 0x00,
    0x00, 0x00, 0x80, 0x06, 0x00, 0x00, 0xf1, 0x13, 0x16, 0xf8, 0x1a, 0x2e, 0x17,
    0x05, 0xc3, 0x8a, 0xf5, 0x77, 0x28, 0xcc, 0x4f, 0xf7, 0x81, 0x32, 0x28, 0xc3,
    0x22, 0x0b, 0x4d, 0x9e, 0xf5, 0x0f, 0x02, 0x0a, 0xff, 0xec, 0x0e, 0x13, 0xf8,
    0xf6, 0x13, 0xf1, 0xea, 0xf5, 0xd9, 0x15, 0x3e, 0x3e, 0x0b, 0x15, 0xc6, 0x81,
    0xdf, 0x74, 0xf9, 0xc3, 0x7f, 0xa3, 0x1c, 0xfa, 0x16, 0x03, 0xfd, 0xfe, 0xfa,
    0xf6, 0x08, 0x0d, 0xe8, 0xfb, 0x2a, 0xdf, 0xfb, 0xfd, 0x18, 0xe6, 0xf3, 0x18,
    0xa1, 0x15, 0x69, 0xc6, 0xf0, 0xcc, 0x6c, 0x17, 0x30, 0xeb, 0xb5, 0x3a, 0x7f,
    0xd9, 0x8c, 0x5f, 0x09, 0x90, 0x5b, 0x05, 0x98, 0x55, 0xe9, 0x06, 0xe3, 0x27,
    0xe4, 0x1d, 0x52, 0x42, 0x0d, 0x16, 0x31, 0x42, 0x23, 0xb1, 0x81, 0xeb, 0xfd,
    0xd6, 0xf5, 0x08, 0xf2, 0x03, 0x1d, 0xe8, 0x2f, 0xf5, 0xfa, 0xfe, 0xc0, 0x05,
    0x7f, 0xe9, 0xc9, 0x5d, 0xb5, 0x48, 0xd8, 0x13, 0x0d, 0xf2, 0x2b, 0xfc, 0xf4,
    0xf2, 0xe0, 0xfd, 0x10, 0x10, 0xfb, 0xef, 0x04, 0x02, 0xfb, 0x02, 0x00, 0xf6,
    0x01, 0xef, 0x01, 0xec, 0xf4, 0xf9, 0x27, 0x1b, 0x28, 0x5a, 0xc1, 0x81, 0x0c,
    0xfe, 0x0a, 0x09, 0xec, 0x2c, 0xee, 0xf0, 0x53, 0xab, 0x1f, 0x22, 0x87, 0x7d,
    0xba, 0x25, 0x12, 0xec, 0x32, 0x10, 0x42, 0xe1, 0xcb, 0x25, 0xcb, 0x01, 0x81,
    0x3e, 0x6e, 0x69, 0x0e, 0xe3, 0x18, 0x33, 0xe3, 0x1d, 0x30, 0xdf, 0x01, 0xff,
    0x0c, 0xfd, 0x0c, 0xe0, 0xc6, 0x23, 0x98, 0x81, 0xf8, 0x02, 0x0e, 0x57, 0xf1,
    0x79, 0xf6, 0xf4, 0xef, 0xf7, 0x05, 0x17, 0x00, 0xf2, 0x1d, 0xfd, 0xfe, 0xf2,
    0x0c, 0xe7, 0x18, 0x36, 0xb6, 0xe3, 0x4f, 0x19, 0xbd, 0x81, 0x2f, 0x3e, 0x0a,
    0x09, 0xfd, 0xfa, 0xc4, 0x38, 0x2b, 0xd9, 0xac, 0x7f, 0xcb, 0xeb, 0x38, 0xc3,
    0x30, 0xf7, 0x09, 0xe6, 0x16, 0x00, 0xf4, 0xfc, 0x00, 0x09, 0xa5, 0x2f, 0x29,
    0x07, 0x14, 0x00, 0x00, 0xce, 0xca, 0xdc, 0xe5, 0xe6, 0xe5, 0xad, 0x83, 0x11,
    0xfb, 0x08, 0x7f, 0x41, 0x41, 0x58, 0xbd, 0x77, 0xee, 0xfc, 0x03, 0xfd, 0x03,
    0x06, 0xed, 0xfb, 0x11, 0x01, 0x16, 0x27, 0xf2, 0x81, 0xf7, 0x3d, 0xfd, 0xfa,
    0x19, 0xde, 0x06, 0x10, 0x05, 0x05, 0x09, 0x01, 0xef, 0x0a, 0x09, 0x01, 0xc8,
    0xe9, 0x0e, 0x0d, 0x10, 0x13, 0x1a, 0x0b, 0xf1, 0xeb, 0x04, 0x16, 0x37, 0x81,
    0x0b, 0x22, 0x12, 0xed, 0x3d, 0x75, 0xd4, 0xc5, 0x2c, 0x31, 0xed, 0x25, 0xd0,
    0x1f, 0xd1, 0x53, 0xed, 0x7f, 0xf7, 0x78, 0x2a, 0x24, 0xde, 0x12, 0x1e, 0x5d,
    0x00, 0x42, 0xfc, 0xff, 0xf9, 0xd7, 0xd4, 0xf5, 0x34, 0xfe, 0x02, 0x11, 0xf4,
    0x01, 0xee, 0xd7, 0x1c, 0xdd, 0x0d, 0xae, 0x81, 0x1e, 0x69, 0xe7, 0xd8, 0xf6,
    0x9c, 0xfd, 0xd0, 0x01, 0xd2, 0x17, 0x9b, 0xc1, 0xd4, 0xaf, 0xa0, 0x01, 0x10,
    0xc3, 0x0a, 0x7f, 0xdc, 0xc8, 0x44, 0x0c, 0x54, 0xfe, 0xf3, 0x7c, 0xc9, 0x26,
    0xde, 0xe2, 0x03, 0xcd, 0x00, 0x14, 0xec, 0x00, 0x1f, 0xfc, 0x17, 0x22, 0xf8,
    0x22, 0x4a, 0x88, 0x2d, 0x2e, 0x12, 0xab, 0x81, 0x56, 0xf6, 0x23, 0x08, 0x10,
    0x09, 0xf4, 0x1c, 0x0d, 0xec, 0xf6, 0xf7, 0xfe, 0x0a, 0xfb, 0xe8, 0xf8, 0xe1,
    0x52, 0x0f, 0x25, 0xed, 0xfc, 0x81, 0x04, 0x06, 0xfd, 0x00, 0x05, 0xfa, 0xdb,
    0x1d, 0x02, 0x08, 0xd1, 0x3d, 0xf0, 0xbf, 0x7f, 0x96, 0x49, 0xd5, 0xf0, 0x1b,
    0xff, 0xef, 0x01, 0x09, 0x0a, 0xfe, 0x0c, 0xfc, 0x05, 0x06, 0xc3, 0xfe, 0x60,
    0xc3, 0x26, 0xae, 0x7f, 0xab, 0xee, 0x67, 0xad, 0x35, 0xd1, 0x15, 0x0e, 0xf7,
    0xed, 0xff, 0x0f, 0xf0, 0x04, 0xfe, 0x00, 0xfc, 0x04, 0xf6, 0xff, 0x00, 0x06,
    0x0f, 0x0a, 0x24, 0xf2, 0x81, 0x13, 0x49, 0xdd, 0x0d, 0xf8, 0x05, 0x00, 0xf9,
    0x13, 0x38, 0x6c, 0x67, 0x4d, 0x6d, 0x66, 0xae, 0x5d, 0x39, 0x18, 0xbc, 0x7f,
    0x35, 0xb5, 0x74, 0x2e, 0xa3, 0xd6, 0xd8, 0xd6, 0x69, 0x6a, 0x0b, 0x76, 0xe4,
    0x2e, 0x18, 0x5b, 0x53, 0x05, 0x81, 0xb1, 0x04, 0xfd, 0x14, 0x07, 0xfb, 0xed,
    0x1f, 0xf9, 0x06, 0xf4, 0xf5, 0x19, 0xf9, 0xeb, 0x28, 0xf7, 0x4a, 0x5a, 0x1e,
    0x4b, 0x0c, 0xe8, 0x21, 0x2c, 0x2c, 0x47, 0x5e, 0x03, 0xf5, 0xae, 0xea, 0x3f,
    0xb2, 0x69, 0x62, 0xcd, 0xf5, 0xf7, 0x16, 0x7f, 0xff, 0xfa, 0xeb, 0xd4, 0x06,
    0xf7, 0x01, 0xb7, 0x81, 0x3b, 0x6b, 0x01, 0x09, 0x12, 0x00, 0x2b, 0xf0, 0x18,
    0xec, 0xf8, 0x13, 0x10, 0xf0, 0x00, 0xf6, 0x11, 0x4c, 0xdd, 0xd3, 0x2e, 0x1e,
    0x26, 0x26, 0x29, 0x56, 0xf6, 0x85, 0x81, 0x2d, 0x02, 0xf1, 0x29, 0xf6, 0xd4,
    0x0e, 0xfd, 0x17, 0xff, 0x4b, 0x81, 0xe0, 0x35, 0xd2, 0x25, 0xf2, 0x06, 0xfa,
    0xf2, 0x06, 0x00, 0x07, 0x07, 0xdf, 0x09, 0x1d, 0xeb, 0x05, 0xf3, 0x09, 0x07,
    0xeb, 0x10, 0xa9, 0x7f, 0xc0, 0x35, 0x95, 0x04, 0x40, 0x22, 0x05, 0x03, 0x05,
    0x0d, 0x06, 0xe2, 0x16, 0x1b, 0xf3, 0x25, 0xac, 0xd5, 0x34, 0x08, 0x13, 0xeb,
    0xd2, 0x06, 0x33, 0x49, 0x85, 0x7f, 0xa7, 0x07, 0x18, 0x1b, 0x01, 0x0e, 0x14,
    0x06, 0xe5, 0x12, 0xfa, 0xc5, 0x2d, 0x18, 0x2b, 0x8e, 0xff, 0x2f, 0x15, 0xfb,
    0xcf, 0xae, 0xce, 0xe4, 0xa5, 0xcf, 0x03, 0xfe, 0xf7, 0x48, 0x44, 0x57, 0x7f,
    0x1c, 0x41, 0x5c, 0x0f, 0xe7, 0x18, 0xf1, 0x16, 0xff, 0x06, 0xd4, 0xce, 0xbb,
    0xf5, 0x3f, 0x28, 0x33, 0x14, 0x1b, 0x24, 0xe1, 0x1f, 0x37, 0x22, 0x14, 0x04,
    0xfe, 0x6b, 0x81, 0xa6, 0xf9, 0x17, 0xe6, 0x05, 0x07, 0xf4, 0xe8, 0x03, 0x33,
    0xd1, 0xb6, 0x7f, 0xc9, 0xf1, 0x3a, 0xc5, 0x2a, 0xef, 0x09, 0x06, 0x00, 0xf7,
    0x04, 0x08, 0xff, 0xff, 0xfc, 0xe0, 0xd6, 0x09, 0x08, 0x00, 0x04, 0xee, 0xdc,
    0x0d, 0x4d, 0xfa, 0xe5, 0xf9, 0xf2, 0x7f, 0xdf, 0xe4, 0x3b, 0xbc, 0x06, 0x0d,
    0xfb, 0x0d, 0x1a, 0x0d, 0xee, 0x18, 0xfe, 0x2e, 0x3c, 0x06, 0x33, 0x49, 0x20,
    0xb9, 0x81, 0xe6, 0x0d, 0x00, 0x0b, 0x1c, 0xe3, 0x0d, 0xf5, 0xc7, 0xf5, 0x48,
    0xe9, 0x4d, 0xff, 0x19, 0xff, 0x18, 0xd1, 0x2d, 0xef, 0xd6, 0x01, 0x3d, 0x0c,
    0x10, 0xe8, 0x09, 0xf4, 0x48, 0x0f, 0xfc, 0xf4, 0x69, 0x7f, 0x45, 0xfa, 0xe6,
    0xfb, 0xf2, 0x23, 0x23, 0x36, 0xfd, 0xe5, 0xe1, 0xe5, 0xda, 0xff, 0x1d, 0x22,
    0x10, 0x22, 0x18, 0xf2, 0xd8, 0x46, 0xf8, 0x81, 0x0d, 0x34, 0xf6, 0xe0, 0x31,
    0x7f, 0x0c, 0x14, 0x22, 0xde, 0x22, 0xfc, 0x0c, 0xe5, 0x1b, 0xf6, 0x21, 0x04,
    0xf0, 0xd6, 0xee, 0x02, 0xf5, 0xfa, 0x0f, 0xfc, 0xda, 0xd1, 0x43, 0xfd, 0x55,
    0x17, 0x64, 0x7f, 0xf6, 0x07, 0x75, 0x2b, 0x59, 0x6e, 0x43, 0xc5, 0x61, 0x56,
    0x13, 0xa3, 0x7a, 0x60, 0x00, 0xdc, 0x0c, 0xfb, 0x37, 0xff, 0x2e, 0x1b, 0xca,
    0xcd, 0xdf, 0x26, 0x1c, 0xff, 0xfe, 0xf7, 0x3c, 0x0d, 0x2d, 0x04, 0x00, 0x81,
    0xb9, 0x41, 0x3c, 0xab, 0xd6, 0x00, 0x23, 0xeb, 0x37, 0x67, 0xef, 0x25, 0x41,
    0x50, 0xfd, 0x07, 0xdf, 0x4c, 0x1c, 0xfa, 0xfb, 0x67, 0x26, 0x28, 0x7f, 0x1a,
    0x65, 0x2b, 0x0d, 0xf2, 0x04, 0x08, 0x06, 0x08, 0xf9, 0xf4, 0x03, 0xfc, 0x04,
    0xfc, 0xf4, 0xdd, 0x07, 0x00, 0xdc, 0x15, 0x10, 0x3b, 0x3e, 0x2c, 0xf6, 0x81,
    0x20, 0xf2, 0x28, 0xde, 0xe7, 0x52, 0x26, 0x37, 0xeb, 0x81, 0xaa, 0x68, 0x73,
    0xa7, 0xff, 0x21, 0xfe, 0x1b, 0xbe, 0xc6, 0x2f, 0xe0, 0x19, 0x05, 0x62, 0xf9,
    0x48, 0x43, 0x7f, 0xcd, 0x53, 0x3b, 0x23, 0xd9, 0x44, 0xe9, 0xf9, 0xda, 0x26,
    0x24, 0x33, 0x70, 0xfa, 0x4b, 0x06, 0xda, 0x09, 0xf6, 0x07, 0xf3, 0x04, 0xf9,
    0x00, 0x11, 0xfa, 0x05, 0xf0, 0xf7, 0x12, 0xef, 0xf3, 0x67, 0xe6, 0x81, 0x52,
    0x1a, 0xd1, 0xfe, 0x12, 0xf4, 0x11, 0xfb, 0x02, 0xf3, 0x05, 0xfe, 0xea, 0x04,
    0xff, 0xfc, 0x09, 0x07, 0xe9, 0xfc, 0x17, 0xfd, 0xdf, 0x4c, 0x48, 0xf2, 0xab,
    0x81, 0x08, 0x44, 0x3f, 0xe9, 0x09, 0x2b, 0x21, 0x34, 0x6a, 0x35, 0x3e, 0xa6,
    0x16, 0xeb, 0xd7, 0xf9, 0x16, 0x66, 0x4c, 0x11, 0x7f, 0xc7, 0x1c, 0xd4, 0x48,
    0x5c, 0x1b, 0x4e, 0x7f, 0xda, 0xfe, 0x15, 0xf0, 0x03, 0xf4, 0xff, 0xf6, 0x0a,
    0xfd, 0x0a, 0xf7, 0x02, 0xf3, 0x0b, 0xf8, 0xf7, 0x04, 0x01, 0xfb, 0x08, 0xf9,
    0x08, 0xe8, 0xf2, 0x07, 0xe1, 0x0b, 0x1a, 0xfc, 0xe9, 0xdc, 0xe8, 0x1f, 0x33,
    0xda, 0x30, 0x2c, 0x81, 0xbb, 0x2a, 0x40, 0xe3, 0xef, 0x1c, 0x19, 0xf1, 0x01,
    0x05, 0xf2, 0xf6, 0x11, 0xf5, 0xf0, 0x10, 0x1f, 0xb5, 0x75, 0x81, 0x60, 0xbc,
    0x2f, 0xf4, 0xf7, 0xfb, 0xfe, 0x0a, 0xf1, 0x0f, 0xf8, 0x0d, 0xa9, 0x4e, 0x33,
    0x26, 0x3f, 0x4a, 0x38, 0xb7, 0x81, 0x8f, 0xe7, 0x5b, 0x6a, 0x22, 0x06, 0x4c,
    0xa8, 0x83, 0x1d, 0x3f, 0xd2, 0xf1, 0xf2, 0x14, 0x03, 0xff, 0xf6, 0x05, 0x04,
    0xfa, 0xec, 0x0c, 0x10, 0x07, 0xcc, 0xe4, 0x7f, 0xbf, 0xfe, 0x0c, 0xf1, 0x1d,
    0xf6, 0xfe, 0x07, 0xf2, 0x04, 0x04, 0xeb, 0x0d, 0x02, 0xff, 0x34, 0x2c, 0xff,
    0xe3, 0xee, 0x36, 0x38, 0x0e, 0xf5, 0x2d, 0xbe, 0x81, 0x1a, 0xf1, 0x15, 0x03,
    0x02, 0xf9, 0xf3, 0x10, 0x25, 0x0b, 0x7f, 0x69, 0x31, 0xa9, 0x81, 0x09, 0x15,
    0xba, 0x1e, 0xc9, 0xf2, 0x22, 0x6e, 0xdb, 0xc2, 0x26, 0x1f, 0xe5, 0xe4, 0x08,
    0x14, 0xfc, 0x0b, 0xd6, 0xe6, 0x7f, 0xf3, 0xd7, 0x62, 0xe1, 0x14, 0xf1, 0x01,
    0xf5, 0x03, 0xfe, 0xea, 0x01, 0x05, 0x04, 0x05, 0x08, 0xf6, 0x09, 0xf9, 0x06,
    0x7f, 0xa3, 0xd6, 0xed, 0x07, 0xf1, 0x08, 0xff, 0xfe, 0x08, 0xee, 0x1e, 0xfb,
    0x06, 0xec, 0x16, 0x14, 0xe0, 0x1f, 0x08, 0xf5, 0x14, 0xe9, 0x03, 0xd2, 0x0f,
    0x15, 0x0b, 0xfa, 0x0d, 0xde, 0x1b, 0x15, 0xf7, 0xbd, 0x81, 0xf3, 0x29, 0x0a,
    0x3c, 0x24, 0xcb, 0x20, 0xe6, 0x19, 0x02, 0x15, 0xfe, 0x02, 0x0b, 0x00, 0xff,
    0x07, 0x19, 0xfc, 0xf6, 0xd5, 0x07, 0x64, 0x41, 0xa6, 0x81, 0x49, 0x02, 0xe4,
    0x39, 0xd2, 0x32, 0xf9, 0xbb, 0x51, 0xe4, 0xda, 0x7f, 0xe4, 0xbe, 0xad, 0x20,
    0x3c, 0xfd, 0x4d, 0x2a, 0x61, 0x75, 0x19, 0x0e, 0x40, 0x67, 0x79, 0x51, 0xe6,
    0x32, 0xab, 0x52, 0x3d, 0x46, 0xda, 0x18, 0x13, 0x0e, 0x03, 0x0f, 0x06, 0x18,
    0xf2, 0xed, 0x00, 0xfd, 0x07, 0xfc, 0xfc, 0x10, 0x07, 0x00, 0x05, 0x81, 0x09,
    0xbe, 0x13, 0x61, 0xf3, 0xcb, 0x28, 0xe9, 0x13, 0xe8, 0x39, 0x2c, 0x3e, 0x34,
    0x38, 0x28, 0x7f, 0xdf, 0x07, 0x19, 0xe6, 0xde, 0x96, 0x8e, 0x4d, 0xa9, 0xd7,
    0x4e, 0xde, 0xde, 0xcd, 0xd9, 0xf5, 0xed, 0xf3, 0xe9, 0xfe, 0xe8, 0x12, 0x00,
    0xef, 0xfc, 0x1a, 0x3e, 0x3f, 0xf9, 0x3a, 0xff, 0xf8, 0x54, 0x0b, 0x81, 0x01,
    0x06, 0xf0, 0x06, 0xec, 0x10, 0xe6, 0xff, 0xe1, 0xfc, 0xf6, 0xdc, 0x04, 0xec,
    0xe8, 0x23, 0x7f, 0x32, 0xf8, 0xf9, 0xda, 0x08, 0x1f, 0xf4, 0x1d, 0xf2, 0x0d,
    0xe3, 0xcc, 0xe4, 0x07, 0xfd, 0xc9, 0xc9, 0x0a, 0xfc, 0xfd, 0xe1, 0x48, 0x08,
    0x98, 0xf0, 0x78, 0x42, 0x45, 0x45, 0x1c, 0x7f, 0x00, 0x00, 0x00, 0x00, 0x00,
    0x00, 0x00, 0x00, 0x00, 0x00, 0x00, 0x00, 0x00, 0x00, 0x00, 0x00, 0x00, 0x00,
    0x00, 0x00, 0x00, 0x00, 0x00, 0x00, 0x00, 0x00, 0x00, 0x00, 0x00, 0x00, 0x00,
    0x00, 0x00, 0x00, 0x00, 0x00, 0x00, 0x00, 0x00, 0x00, 0x00, 0x00, 0x00, 0x00,
    0x00, 0x00, 0x00, 0x00, 0x00, 0x00, 0x00, 0x00, 0x00, 0x00, 0x00, 0x00, 0x00,
    0x00, 0x00, 0x00, 0x00, 0x00, 0x00, 0x00, 0x00, 0x00, 0x00, 0x00, 0x00, 0x00,
    0x00, 0x00, 0x00, 0x00, 0x00, 0x00, 0x00, 0x00, 0x00, 0x00, 0x00, 0x00, 0x00,
    0x00, 0x00, 0x00, 0x00, 0x00, 0x00, 0x00, 0x00, 0x00, 0x00, 0x00, 0x00, 0x00,
    0x00, 0x00, 0x00, 0x00, 0x00, 0x00, 0x00, 0x00, 0x00, 0x00, 0x00, 0x00, 0x00,
    0x00, 0x00, 0x00, 0x00, 0x00, 0x00, 0x00, 0x00, 0x00, 0x00, 0x00, 0x00, 0x00,
    0x00, 0x00, 0x00, 0x00, 0x00, 0x00, 0xda, 0xe4, 0xff, 0xff, 0x00, 0x00, 0x00,
    0x09, 0x18, 0x00, 0x00, 0x00, 0x07, 0x00, 0x00, 0x00, 0x08, 0x00, 0x00, 0x00,
    0x14, 0x00, 0x00, 0x00, 0x01, 0x00, 0x00, 0x00, 0x35, 0x00, 0x00, 0x00, 0x01,
    0x00, 0x00, 0x00, 0x80, 0x06, 0x00, 0x00, 0x24, 0xe4, 0xff, 0xff, 0x9a, 0xe5,
    0xff, 0xff, 0x04, 0x00, 0x00, 0x00, 0x00, 0x01, 0x00, 0x00, 0xd5, 0x0e, 0xd0,
    0x05, 0xf7, 0x2d, 0x7a, 0x35, 0x8f, 0x14, 0xbc, 0x31, 0x9e, 0x23, 0x81, 0x1e,
    0x0f, 0x0d, 0x1d, 0x2d, 0x0f, 0x34, 0x5d, 0x22, 0xe7, 0x19, 0x28, 0x39, 0x35,
    0x21, 0xcf, 0x1c, 0x3f, 0x00, 0x31, 0xfa, 0xa3, 0xfd, 0x41, 0xff, 0xc4, 0xfd,
    0x00, 0xfd, 0xcf, 0xfe, 0x05, 0xfd, 0xdd, 0xfc, 0xf2, 0xfd, 0x7f, 0xfb, 0x04,
    0xfa, 0x1c, 0xfc, 0xc8, 0xfd, 0x5f, 0xfd, 0xae, 0xfc, 0x33, 0x18, 0x6b, 0x19,
    0x6a, 0x25, 0xe2, 0x27, 0x3e, 0x31, 0x95, 0x24, 0xea, 0x28, 0x5c, 0x04, 0x98,
    0x29, 0x42, 0x04, 0x7b, 0x36, 0xbb, 0x27, 0xb1, 0x30, 0x65, 0x1d, 0x78, 0x18,
    0xdf, 0x11, 0x32, 0xfc, 0xb5, 0xf8, 0x93, 0xfb, 0x8e, 0xfc, 0x4e, 0x00, 0x0e,
    0xfb, 0x27, 0xff, 0x0d, 0xfb, 0x67, 0xfb, 0x00, 0xfa, 0xb8, 0xfe, 0x6d, 0xfd,
    0xf5, 0xfd, 0xa9, 0xfd, 0x5c, 0xff, 0xa6, 0x02, 0xba, 0x7f, 0xc3, 0x04, 0x1e,
    0x26, 0x42, 0x2d, 0x3e, 0x06, 0x78, 0x1d, 0x37, 0x28, 0x48, 0x08, 0x10, 0x19,
    0x82, 0x04, 0x8a, 0x44, 0x48, 0x26, 0x14, 0x08, 0x10, 0x24, 0x03, 0x34, 0x42,
    0x39, 0x04, 0xf5, 0x7c, 0xfa, 0x3b, 0xfe, 0xbe, 0xfd, 0xa7, 0xf9, 0x46, 0xfc,
    0xad, 0xfd, 0x50, 0xf7, 0xb5, 0xfc, 0xc4, 0xf9, 0xff, 0xf2, 0x41, 0xfc, 0x2d,
    0xfa, 0x26, 0xfb, 0x57, 0xfc, 0x82, 0xfd, 0x8c, 0x1a, 0xa3, 0x2b, 0xe4, 0x1a,
    0x63, 0x14, 0x26, 0x24, 0x7c, 0x04, 0xeb, 0x22, 0xab, 0x28, 0x71, 0x32, 0xf9,
    0x42, 0x71, 0x20, 0x01, 0x2a, 0xaa, 0x40, 0xef, 0x17, 0xb0, 0x2e, 0x55, 0x22,
    0x69, 0xf8, 0xb9, 0xfc, 0x1a, 0x00, 0x05, 0xfb, 0x83, 0xfd, 0x1c, 0xfa, 0xf8,
    0xfc, 0x5a, 0xff, 0xf9, 0xfd, 0x2e, 0xf9, 0xe0, 0xf9, 0xc5, 0xfb, 0x5d, 0xfd,
    0x04, 0xfc, 0x0e, 0xfe, 0xad, 0xff, 0x12, 0xe6, 0xff, 0xff, 0x00, 0x00, 0x00,
    0x07, 0x18, 0x00, 0x00, 0x00, 0x06, 0x00, 0x00, 0x00, 0x08, 0x00, 0x00, 0x00,
    0x14, 0x00, 0x00, 0x00, 0x01, 0x00, 0x00, 0x00, 0x34, 0x00, 0x00, 0x00, 0x01,
    0x00, 0x00, 0x00, 0x80, 0x00, 0x00, 0x00, 0x5c, 0xe5, 0xff, 0xff, 0xd2, 0xe6,
    0xff, 0xff, 0x04, 0x00, 0x00, 0x00, 0x00, 0x08, 0x00, 0x00, 0x00, 0xff, 0x00,
    0xdc, 0xfa, 0xfa, 0x11, 0xd3, 0xcd, 0xf1, 0xfa, 0xfe, 0x01, 0xcf, 0xfa, 0xe9,
    0x14, 0xc4, 0xd2, 0x19, 0xd1, 0xcc, 0xb4, 0xf6, 0xdd, 0xf3, 0x3a, 0xe0, 0xfb,
    0x01, 0xe2, 0xf9, 0xdc, 0x02, 0xf0, 0xc5, 0x0f, 0x0b, 0xe7, 0x08, 0x10, 0x04,
    0x1b, 0x81, 0x24, 0x00, 0x0c, 0xfc, 0x08, 0x08, 0xfe, 0xf9, 0x07, 0x1a, 0x0c,
    0x05, 0xe7, 0x0c, 0xdd, 0x09, 0xf2, 0x03, 0xfa, 0xff, 0xfb, 0xfd, 0xfe, 0xfd,
    0x03, 0x06, 0xf6, 0xf6, 0x07, 0x03, 0xf8, 0xec, 0xf3, 0xff, 0x01, 0xf9, 0xe6,
    0x07, 0xfe, 0xfa, 0x05, 0xf8, 0x0e, 0xf9, 0xff, 0xfb, 0xf9, 0x03, 0x00, 0xfa,
    0x02, 0x0b, 0x13, 0x0c, 0x10, 0xd3, 0xe2, 0xf8, 0xd6, 0xf2, 0x0b, 0x0d, 0x0b,
    0x19, 0xe1, 0x10, 0x09, 0xdb, 0xff, 0xb4, 0x0c, 0x0d, 0x11, 0xe4, 0xf5, 0x08,
    0x07, 0x0a, 0xd9, 0x08, 0xf4, 0x02, 0x11, 0x0a, 0x0d, 0x03, 0xd8, 0x01, 0xe7,
    0x00, 0x36, 0x81, 0x8d, 0xf0, 0x00, 0x16, 0x02, 0x10, 0x04, 0xf0, 0x01, 0x39,
    0x12, 0xea, 0x0d, 0xf5, 0xee, 0xfd, 0x06, 0x06, 0x0e, 0xe4, 0xff, 0x0b, 0x2b,
    0xf7, 0x1b, 0xe0, 0x14, 0x7d, 0xee, 0xd4, 0xc3, 0xfa, 0xfc, 0x11, 0xf9, 0xe8,
    0xff, 0x01, 0x1c, 0xe3, 0xeb, 0x0d, 0xe1, 0x0a, 0xbd, 0xec, 0xb6, 0x05, 0x03,
    0xfd, 0xc0, 0x0e, 0xc5, 0x15, 0x03, 0x45, 0x16, 0xf7, 0x1b, 0x0f, 0x00, 0xee,
    0x03, 0xfe, 0xe8, 0x0b, 0xfd, 0xe9, 0x0c, 0x05, 0x02, 0x10, 0x0f, 0xf4, 0x0f,
    0x01, 0x1e, 0xf6, 0xe4, 0x0b, 0x02, 0xf7, 0x0d, 0xe8, 0xd4, 0x07, 0x19, 0xf9,
    0x51, 0x05, 0x0f, 0x05, 0xe7, 0x69, 0x0b, 0xfc, 0xf8, 0xe5, 0x05, 0x06, 0xff,
    0xf4, 0xea, 0x0d, 0x05, 0xdb, 0xf1, 0x08, 0x05, 0xf8, 0x26, 0xee, 0xf9, 0x17,
    0x09, 0x73, 0x7f, 0x0d, 0x0a, 0x0d, 0x07, 0xfd, 0xeb, 0xdf, 0x00, 0xf1, 0x34,
    0x17, 0x01, 0xf5, 0xfe, 0xf7, 0xec, 0x05, 0x04, 0x37, 0x0b, 0x01, 0xfa, 0x09,
    0xe4, 0x0c, 0x0a, 0xfe, 0x09, 0x09, 0x81, 0x0d, 0xda, 0x03, 0x06, 0x0e, 0xe7,
    0xfd, 0xf4, 0x0b, 0xeb, 0x0c, 0xdc, 0xa5, 0x09, 0x3c, 0xea, 0xfd, 0xe7, 0xf7,
    0x0a, 0xf8, 0xde, 0xe3, 0xdd, 0xf6, 0x0a, 0xf9, 0xfe, 0xf8, 0xf2, 0x06, 0x14,
    0x08, 0x00, 0x36, 0x06, 0xfd, 0x1f, 0x03, 0xf4, 0xf9, 0x05, 0xef, 0x06, 0x10,
    0x81, 0xc8, 0x1e, 0x03, 0xfc, 0x00, 0xde, 0xfa, 0x17, 0x08, 0xf1, 0xf5, 0x0c,
    0xfc, 0x0f, 0xfd, 0x0b, 0xf9, 0xe2, 0xf6, 0xae, 0x0f, 0x01, 0xfb, 0xf9, 0x0f,
    0xb6, 0xd3, 0x55, 0x0c, 0xdf, 0xf6, 0xc6, 0x20, 0xba, 0xc9, 0x68, 0x00, 0x10,
    0xe5, 0x1f, 0x27, 0xaf, 0x81, 0xd9, 0x16, 0xd9, 0xf1, 0x43, 0xf3, 0xe2, 0xe1,
    0x07, 0xfd, 0xf2, 0xe8, 0x05, 0x05, 0x53, 0xf3, 0x04, 0xfb, 0x36, 0x1d, 0x26,
    0xec, 0xd0, 0xca, 0xe5, 0xda, 0x1f, 0xf5, 0x31, 0x08, 0xc9, 0xf8, 0x06, 0xac,
    0xe5, 0xf3, 0xdb, 0x06, 0xe2, 0x81, 0x93, 0xf4, 0x2a, 0x02, 0x06, 0xfe, 0x18,
    0xfa, 0xf0, 0x00, 0x81, 0xfe, 0xdf, 0x02, 0xfe, 0x07, 0xfa, 0xf3, 0xfb, 0x1c,
    0x0e, 0xf5, 0xb6, 0x02, 0xdc, 0x0f, 0xf5, 0xfe, 0x05, 0xfb, 0xe6, 0xf8, 0xfe,
    0x04, 0xae, 0xf7, 0x02, 0xee, 0x11, 0x01, 0x9c, 0x06, 0x0c, 0xbd, 0xc0, 0xea,
    0xcc, 0x38, 0xc9, 0x04, 0xf0, 0xe4, 0x16, 0xe0, 0xcc, 0xf8, 0x81, 0x04, 0x29,
    0xe5, 0x54, 0x05, 0xeb, 0xff, 0x12, 0xf0, 0xde, 0xfe, 0xfb, 0xfe, 0xb4, 0xdd,
    0xcb, 0x08, 0xc1, 0xb0, 0xd5, 0xdf, 0x14, 0xef, 0xe6, 0xff, 0x09, 0x08, 0xe4,
    0xf3, 0xed, 0x05, 0xf3, 0xce, 0x07, 0x00, 0xfc, 0x03, 0xea, 0xff, 0x04, 0x0a,
    0x03, 0xf2, 0x04, 0xff, 0x0a, 0x00, 0xf5, 0xf9, 0x08, 0x02, 0xf0, 0xfb, 0x04,
    0x01, 0xf5, 0x34, 0x81, 0xf0, 0x07, 0x04, 0xee, 0xfa, 0x0a, 0x09, 0x19, 0xf8,
    0xc8, 0x09, 0x43, 0x1a, 0x0b, 0x13, 0xf5, 0x0a, 0xff, 0xf7, 0x1a, 0xfe, 0xf8,
    0xfa, 0x01, 0x0d, 0xd7, 0x00, 0x02, 0xf6, 0x09, 0xef, 0x10, 0x16, 0xe6, 0x05,
    0x04, 0x06, 0x0e, 0x03, 0xe3, 0x26, 0x09, 0x0b, 0xef, 0x29, 0x10, 0x13, 0x10,
    0x01, 0xfe, 0x05, 0xfd, 0xfb, 0x0b, 0xf9, 0xff, 0x0d, 0xfb, 0x04, 0x81, 0xfb,
    0x02, 0xf5, 0x02, 0x05, 0xfb, 0x00, 0x0b, 0xb4, 0xe9, 0x04, 0xfc, 0x04, 0x05,
    0xf8, 0xff, 0xdf, 0x03, 0xfb, 0x07, 0x06, 0xfa, 0x0b, 0x0f, 0x04, 0x04, 0x18,
    0x09, 0xf2, 0x02, 0x07, 0x04, 0x30, 0x03, 0x04, 0x11, 0x0f, 0xb5, 0xff, 0xf8,
    0x0f, 0x1c, 0x02, 0x2a, 0x0c, 0xf4, 0x03, 0xf2, 0xca, 0x05, 0xf9, 0xfe, 0x81,
    0x0d, 0xfb, 0xcd, 0x0b, 0x09, 0x01, 0xfe, 0xf8, 0xd3, 0x03, 0xf7, 0xfa, 0x03,
    0xf2, 0xf6, 0xf3, 0xa9, 0x01, 0xf9, 0xfe, 0xc0, 0x04, 0x10, 0x17, 0x0c, 0x00,
    0xf6, 0x19, 0xfc, 0x19, 0xdb, 0xe1, 0xed, 0xf0, 0x18, 0xd3, 0xed, 0x0c, 0x0b,
    0xfe, 0x00, 0x13, 0xed, 0x1e, 0xe1, 0xf5, 0xfc, 0xe6, 0xf5, 0x0a, 0xe4, 0x18,
    0x13, 0x02, 0xed, 0x81, 0xe9, 0xeb, 0x01, 0x52, 0xfa, 0x01, 0xe8, 0x91, 0x91,
    0x05, 0xff, 0x0a, 0x02, 0xf6, 0xf7, 0xff, 0xec, 0x08, 0xfc, 0x02, 0x08, 0x02,
    0xeb, 0xda, 0x12, 0x01, 0xf7, 0xe6, 0x0e, 0xf8, 0xfa, 0x1d, 0x81, 0xfa, 0xe6,
    0x19, 0xfd, 0x06, 0xda, 0x05, 0x35, 0xf1, 0xf1, 0x16, 0x04, 0x19, 0xf5, 0x08,
    0x06, 0xef, 0x38, 0x01, 0x17, 0x06, 0x55, 0x55, 0xf2, 0xaa, 0x0b, 0xfc, 0x0c,
    0x0b, 0x20, 0x02, 0xfd, 0xfc, 0xfd, 0x0c, 0x64, 0xfe, 0x70, 0x14, 0x03, 0x03,
    0xe0, 0x1c, 0x0c, 0xf3, 0x01, 0xf5, 0xee, 0xfa, 0xe7, 0x15, 0x0c, 0x04, 0x0e,
    0xfd, 0xef, 0x10, 0xf1, 0x09, 0xeb, 0xff, 0x14, 0xee, 0xee, 0xe3, 0x04, 0x07,
    0x0d, 0xf4, 0xfa, 0xf9, 0xd9, 0xfb, 0x1b, 0x1e, 0xfd, 0xec, 0x02, 0x0c, 0xf1,
    0xf9, 0xab, 0xff, 0xfd, 0xf8, 0xf8, 0x09, 0x81, 0x11, 0x08, 0xd4, 0xaf, 0x01,
    0x0e, 0xff, 0xfc, 0xf8, 0xfe, 0xfc, 0x01, 0xf8, 0xf4, 0x0d, 0xfc, 0xfb, 0xdb,
    0xcc, 0xf9, 0xfe, 0x0e, 0xf9, 0x10, 0x00, 0x02, 0xfd, 0x01, 0x02, 0x00, 0x14,
    0xc1, 0xdb, 0x0e, 0x1a, 0x0f, 0xfc, 0xdd, 0xf9, 0xfb, 0x08, 0x05, 0x0c, 0xf7,
    0x02, 0xf5, 0xfb, 0x03, 0x16, 0x08, 0x26, 0x12, 0x13, 0xeb, 0xf9, 0x0d, 0xf5,
    0xfd, 0x35, 0xee, 0x37, 0xd3, 0xdf, 0xe6, 0x02, 0x29, 0x08, 0x08, 0xfd, 0x3e,
    0xcf, 0x14, 0xe5, 0xd5, 0x05, 0xe9, 0xe4, 0xd3, 0x36, 0xfa, 0x01, 0x3c, 0xbf,
    0x03, 0xaa, 0x4d, 0xfb, 0x14, 0x08, 0xb3, 0xc3, 0xf1, 0xe3, 0xdf, 0xd7, 0x8d,
    0xd6, 0x02, 0x15, 0x34, 0x03, 0x9a, 0xff, 0xf7, 0xe8, 0xe0, 0xc0, 0xc0, 0xbe,
    0xe8, 0x26, 0xff, 0x06, 0x07, 0x0d, 0x01, 0x09, 0x0f, 0x04, 0x11, 0xfd, 0x09,
    0xfc, 0xfb, 0x00, 0xe6, 0xf9, 0x14, 0x00, 0xf5, 0x0a, 0xf5, 0xfd, 0xf8, 0x06,
    0xf4, 0xfc, 0x03, 0x11, 0xff, 0xfc, 0xe9, 0x01, 0xfb, 0xeb, 0xe7, 0xee, 0x0b,
    0x31, 0x15, 0x01, 0xec, 0x14, 0xf0, 0xc8, 0x05, 0xf0, 0x1e, 0x07, 0x07, 0xf7,
    0x43, 0xaa, 0xfc, 0xe7, 0x1e, 0x2d, 0xc6, 0x86, 0x06, 0xb8, 0x28, 0x19, 0x02,
    0xda, 0x81, 0xfb, 0xef, 0x05, 0x02, 0xfc, 0xe3, 0x03, 0x0d, 0xfe, 0xf5, 0x0d,
    0xfc, 0xed, 0xe5, 0x0e, 0xd2, 0x0c, 0x06, 0xc8, 0x0d, 0xfd, 0xfc, 0xfe, 0xed,
    0x01, 0x02, 0xe7, 0xc8, 0x07, 0xe3, 0xfe, 0xf9, 0x03, 0xe7, 0x0a, 0xe9, 0xf2,
    0xfd, 0xfd, 0x08, 0x0e, 0xff, 0x05, 0x07, 0x13, 0x02, 0x0c, 0x0d, 0xe6, 0x07,
    0x09, 0x0a, 0xfd, 0xde, 0x06, 0xcb, 0xfd, 0xfe, 0xfb, 0xfd, 0x00, 0x11, 0xec,
    0x0a, 0x0f, 0xfa, 0xd9, 0x08, 0xf2, 0x16, 0xfe, 0xe3, 0xfa, 0x04, 0xe8, 0xd4,
    0xfd, 0x05, 0xe4, 0x0e, 0x81, 0x0a, 0x16, 0xe9, 0xea, 0x02, 0x00, 0x12, 0xfb,
    0x19, 0xf6, 0x13, 0x03, 0x0d, 0xe6, 0x21, 0xff, 0x01, 0xfc, 0x06, 0xf8, 0x0c,
    0x05, 0xfd, 0x0c, 0xcc, 0xa4, 0xbb, 0x9b, 0xfb, 0xd7, 0x0b, 0xfa, 0xd9, 0xf1,
    0xfd, 0xd4, 0xe7, 0x0a, 0xdc, 0x07, 0xfe, 0xec, 0xf1, 0x0c, 0xfd, 0x02, 0xf7,
    0xff, 0x0c, 0xd1, 0xd5, 0xc4, 0xfc, 0x1f, 0x0b, 0xff, 0x25, 0x9d, 0xd0, 0x14,
    0xec, 0xde, 0x21, 0x94, 0xfd, 0x04, 0x23, 0x7f, 0xfa, 0x0e, 0xfb, 0x0f, 0x60,
    0x0e, 0xf1, 0xf2, 0xdc, 0x0d, 0x15, 0xfd, 0x21, 0x07, 0xff, 0xf6, 0x29, 0xf0,
    0xe5, 0x04, 0xdc, 0x00, 0x03, 0x04, 0x0c, 0x2b, 0x13, 0x60, 0xc7, 0xd9, 0xf5,
    0xee, 0xe8, 0x01, 0xf5, 0xea, 0x57, 0xdb, 0x01, 0x21, 0x81, 0x1f, 0x07, 0x04,
    0x03, 0x03, 0xf7, 0xfe, 0x0b, 0x0a, 0xe5, 0xf6, 0x00, 0x1c, 0x12, 0xf9, 0xff,
    0x03, 0x07, 0x81, 0xf5, 0x07, 0xde, 0xfb, 0xf0, 0xfc, 0xef, 0x05, 0x08, 0x01,
    0xf1, 0x04, 0xfc, 0xfc, 0x0c, 0x02, 0xec, 0x03, 0xf6, 0xeb, 0x05, 0xf0, 0xf1,
    0xf5, 0xb9, 0x81, 0xf4, 0xf5, 0xfe, 0xe3, 0xa2, 0xbd, 0xb1, 0xe1, 0x08, 0xa1,
    0xf7, 0x01, 0xc4, 0xfe, 0x00, 0xe0, 0xf5, 0xfb, 0x06, 0x02, 0xfb, 0xfd, 0x05,
    0x04, 0xf4, 0x09, 0x04, 0x06, 0x01, 0x02, 0x0b, 0x10, 0x03, 0x07, 0x06, 0x07,
    0xfe, 0x81, 0x07, 0x09, 0xff, 0x09, 0xf0, 0x07, 0x06, 0x01, 0x07, 0x03, 0x02,
    0x01, 0xfe, 0xf3, 0x1b, 0x0e, 0x09, 0x06, 0x0b, 0x21, 0xf0, 0x07, 0xf1, 0x00,
    0x44, 0xcc, 0xfd, 0xc6, 0xea, 0xdc, 0xcd, 0x0e, 0x41, 0xdf, 0x0a, 0xfb, 0x22,
    0xf0, 0xeb, 0xf4, 0x10, 0x28, 0xdf, 0xf2, 0x08, 0x05, 0xef, 0xfa, 0xa0, 0x2b,
    0x16, 0x0c, 0xf7, 0xb6, 0xf7, 0x81, 0xec, 0x06, 0xf3, 0x09, 0x00, 0x22, 0xff,
    0x0a, 0xea, 0x0f, 0x04, 0x18, 0xf1, 0xfc, 0xfd, 0x0d, 0xf7, 0xf6, 0x0a, 0xfe,
    0xde, 0x01, 0x16, 0x04, 0x19, 0x09, 0x02, 0x01, 0xfb, 0xf8, 0xc8, 0x01, 0x04,
    0x0f, 0xe9, 0xf7, 0x00, 0xca, 0xfb, 0xd8, 0xf4, 0x0f, 0xfa, 0x0b, 0xba, 0x01,
    0x07, 0x0b, 0x0d, 0xde, 0xf5, 0xf9, 0xe6, 0xf8, 0xc1, 0x09, 0xfc, 0x01, 0xf1,
    0x2f, 0x1a, 0xde, 0x0c, 0xfb, 0x18, 0xfa, 0x02, 0xf2, 0x09, 0x07, 0xe0, 0xb6,
    0x16, 0xf4, 0xea, 0x05, 0xdd, 0x00, 0xff, 0x02, 0x09, 0x24, 0x0e, 0xce, 0xf9,
    0xf5, 0x19, 0x06, 0xe3, 0x10, 0x17, 0xfd, 0xce, 0x26, 0x21, 0x14, 0xd7, 0x14,
    0x1c, 0x00, 0xd6, 0xf5, 0x0c, 0x8f, 0x0c, 0x0a, 0x0e, 0x03, 0xf5, 0x01, 0x07,
    0xfc, 0x21, 0xf9, 0xff, 0x03, 0xcc, 0xfc, 0xd4, 0xde, 0x15, 0x89, 0xfe, 0x1a,
    0xa1, 0x5c, 0x45, 0xca, 0x61, 0xcf, 0xf6, 0xd3, 0x28, 0xcd, 0xf7, 0x0d, 0x10,
    0xe0, 0xfe, 0xe7, 0x38, 0xeb, 0xf7, 0x08, 0x81, 0x13, 0xd9, 0x63, 0xdf, 0xd1,
    0xf8, 0x07, 0x92, 0xea, 0x07, 0xf7, 0xf4, 0xda, 0x16, 0xd4, 0x1b, 0xf8, 0x0c,
    0x05, 0x81, 0xe6, 0xe0, 0x27, 0xfd, 0x0e, 0x11, 0xf1, 0xfa, 0x0a, 0x0a, 0xf1,
    0xc9, 0xf6, 0xe3, 0xbf, 0xeb, 0x0a, 0xef, 0x0b, 0x28, 0x00, 0xf2, 0xd4, 0x81,
    0xa8, 0x01, 0x0d, 0xe1, 0xff, 0x03, 0xe8, 0xe9, 0x04, 0xf4, 0x06, 0xfd, 0xeb,
    0xed, 0x00, 0x02, 0xfe, 0xe1, 0x08, 0x03, 0x04, 0x09, 0xe3, 0xef, 0xf0, 0xdd,
    0xfb, 0x03, 0x0c, 0xfa, 0xfe, 0xfe, 0x04, 0xcb, 0xfd, 0xfb, 0x0c, 0xf9, 0xfe,
    0xdd, 0xf6, 0x1a, 0x01, 0x13, 0x0d, 0x0f, 0x08, 0xf8, 0xfb, 0x08, 0x07, 0x81,
    0x02, 0xfb, 0xf8, 0xf6, 0x00, 0x05, 0xfb, 0x20, 0x07, 0xfc, 0x13, 0xf8, 0x0b,
    0x11, 0xf4, 0x02, 0x10, 0x03, 0x8e, 0xfb, 0xf4, 0x38, 0xf8, 0xe6, 0x22, 0x0e,
    0x0b, 0xf1, 0xd5, 0xed, 0xf2, 0x0e, 0x28, 0x01, 0xf9, 0xda, 0x32, 0x09, 0x01,
    0x0a, 0x00, 0xff, 0xd0, 0xfe, 0xf6, 0x02, 0xff, 0x81, 0x81, 0x0c, 0xdf, 0x25,
    0xdf, 0xf5, 0x09, 0x00, 0xfa, 0xfa, 0xfb, 0xd6, 0xf8, 0x0a, 0xde, 0xec, 0xa8,
    0xd3, 0xd0, 0xd8, 0x08, 0xf3, 0x09, 0xff, 0xf4, 0xfa, 0xe8, 0x1e, 0x1c, 0x17,
    0x15, 0xf2, 0x0d, 0xf8, 0xe3, 0xfa, 0x0a, 0x3a, 0xeb, 0x18, 0x23, 0xeb, 0xff,
    0xdd, 0xdb, 0x01, 0x0d, 0x0d, 0xa9, 0xca, 0x5a, 0xdb, 0x2c, 0x01, 0xf4, 0x34,
    0x30, 0x1b, 0x12, 0xfd, 0x03, 0x4c, 0xe8, 0xce, 0x23, 0xf9, 0xe7, 0x93, 0xde,
    0x2e, 0xe1, 0xbb, 0xaf, 0x3d, 0x0d, 0x29, 0x41, 0xf6, 0xd5, 0x0a, 0xfd, 0x1c,
    0xfb, 0x05, 0x32, 0xf7, 0xf8, 0xff, 0x0e, 0x03, 0xff, 0x04, 0xfc, 0x0c, 0x04,
    0x00, 0x03, 0xf6, 0xec, 0xfe, 0xf1, 0xf8, 0xfe, 0x04, 0x04, 0x09, 0x05, 0x12,
    0x05, 0xeb, 0x03, 0xea, 0xdc, 0xf8, 0xfc, 0xe3, 0x09, 0x00, 0xff, 0x06, 0xf3,
    0x02, 0xeb, 0xf2, 0x01, 0xf7, 0x00, 0xbb, 0xf9, 0xff, 0xc2, 0xcd, 0xf3, 0x9b,
    0xf8, 0x01, 0xd2, 0xe5, 0xff, 0xf1, 0x00, 0x01, 0xde, 0xa3, 0xc0, 0xf8, 0xd6,
    0xeb, 0x0b, 0x01, 0xfb, 0x01, 0x0b, 0x01, 0x06, 0x01, 0x03, 0x04, 0x02, 0x0a,
    0xf3, 0xff, 0x0b, 0xf3, 0x03, 0xdd, 0xf1, 0xdf, 0x02, 0x03, 0x01, 0x05, 0x00,
    0x04, 0x03, 0x05, 0x10, 0x07, 0x03, 0x08, 0xf9, 0x10, 0x08, 0x21, 0x0e, 0x10,
    0xee, 0xf8, 0x01, 0x81, 0xee, 0x15, 0x14, 0x0b, 0xec, 0x0e, 0x0f, 0x26, 0xef,
    0x09, 0xf7, 0x0b, 0xf2, 0x95, 0xfc, 0x03, 0x3c, 0xe6, 0xde, 0x11, 0xdb, 0xfa,
    0xf8, 0xff, 0xf8, 0xd1, 0xf3, 0x06, 0xfc, 0x05, 0xfb, 0x09, 0x02, 0x05, 0x20,
    0xfe, 0x1f, 0x08, 0xf7, 0xf5, 0x2f, 0x13, 0xec, 0xfc, 0xf9, 0x03, 0x0d, 0x06,
    0xfc, 0xff, 0xd2, 0x09, 0x0e, 0x02, 0xe7, 0xf1, 0xf9, 0xee, 0x0c, 0x05, 0xdc,
    0x08, 0x03, 0x07, 0x04, 0xf6, 0xc4, 0xfa, 0x1c, 0xf7, 0x03, 0xdb, 0xee, 0xfc,
    0x08, 0x08, 0x09, 0x00, 0xf5, 0xd0, 0xf3, 0x07, 0x11, 0x01, 0x81, 0xc6, 0x17,
    0x08, 0xf5, 0x20, 0x19, 0xff, 0xfe, 0x0a, 0x08, 0xfd, 0x0b, 0xe9, 0x05, 0x00,
    0x05, 0x07, 0x2e, 0x81, 0x00, 0xea, 0xcc, 0xf8, 0xff, 0x0c, 0x08, 0x0a, 0x19,
    0x08, 0xfa, 0xe7, 0x04, 0x40, 0x01, 0x06, 0x06, 0xee, 0xfb, 0x04, 0x01, 0x2c,
    0x07, 0xe5, 0xfb, 0xff, 0x81, 0xf4, 0xf6, 0x24, 0x07, 0x15, 0xd6, 0xe7, 0x13,
    0xe3, 0x08, 0xfa, 0xf2, 0xfa, 0xe6, 0xf7, 0x1c, 0xf7, 0x09, 0x09, 0x1a, 0x24,
    0x1e, 0xab, 0x97, 0x17, 0xdc, 0x2c, 0x17, 0x15, 0xee, 0x5e, 0xa9, 0x17, 0xf4,
    0x7a, 0x40, 0x28, 0x9b, 0xd4, 0x2a, 0x2f, 0xec, 0xd2, 0xd1, 0x13, 0x31, 0x00,
    0xf2, 0xcf, 0x04, 0x3d, 0x87, 0x0d, 0x17, 0x99, 0xa7, 0xff, 0xf9, 0xb5, 0x08,
    0xc6, 0x05, 0x01, 0xec, 0x01, 0xf1, 0x0a, 0x04, 0x03, 0xd5, 0xee, 0x03, 0x9e,
    0x03, 0xd3, 0xf9, 0x03, 0x15, 0xfb, 0xf2, 0xc2, 0x00, 0x03, 0xee, 0xf5, 0xf5,
    0xe0, 0x15, 0x02, 0xfb, 0xd0, 0xfc, 0xe8, 0xf7, 0xf2, 0xf3, 0x08, 0x00, 0x26,
    0xca, 0x59, 0xf7, 0xef, 0x0f, 0xaa, 0xfc, 0x08, 0xda, 0xff, 0xfd, 0xf1, 0x02,
    0x21, 0x02, 0xee, 0xf8, 0x4a, 0xee, 0xff, 0xff, 0x00, 0x00, 0x00, 0x09, 0x18,
    0x00, 0x00, 0x00, 0x05, 0x00, 0x00, 0x00, 0x08, 0x00, 0x00, 0x00, 0x14, 0x00,
    0x00, 0x00, 0x01, 0x00, 0x00, 0x00, 0x33, 0x00, 0x00, 0x00, 0x01, 0x00, 0x00,
    0x00, 0x00, 0x08, 0x00, 0x00, 0x94, 0xed, 0xff, 0xff, 0x0a, 0xef, 0xff, 0xff,
    0x04, 0x00, 0x00, 0x00, 0x80, 0x00, 0x00, 0x00, 0x41, 0x2a, 0x03, 0x07, 0x3c,
    0x1d, 0x71, 0x0b, 0x4e, 0x09, 0x7e, 0x18, 0x72, 0x11, 0x7a, 0x13, 0xa8, 0x08,
    0xbc, 0x10, 0xe7, 0x07, 0xa1, 0x10, 0x17, 0x12, 0x90, 0x14, 0x96, 0x0e, 0xbb,
    0x0d, 0x0f, 0xd9, 0x35, 0xfa, 0x99, 0xf4, 0x20, 0xf3, 0xec, 0xfb, 0xf2, 0xf4,
    0x6b, 0xf5, 0xe0, 0xfb, 0x6f, 0x06, 0xc3, 0xf9, 0xc6, 0xfa, 0x3e, 0xf8, 0x78,
    0xfb, 0x8b, 0xf8, 0x55, 0xfe, 0x60, 0xf7, 0x6c, 0x12, 0xe8, 0x08, 0x7d, 0x06,
    0x5b, 0x0f, 0x5c, 0x13, 0x52, 0x10, 0x74, 0x0d, 0xfc, 0x0a, 0xc4, 0x18, 0xbc,
    0x4a, 0x72, 0x19, 0xf7, 0x06, 0xa7, 0x08, 0x4a, 0x12, 0x2e, 0x0e, 0x1a, 0x1b,
    0x03, 0xf4, 0x22, 0xf6, 0xfe, 0xfc, 0xb5, 0xfb, 0x30, 0xfc, 0xcd, 0xf5, 0x44,
    0xfb, 0xc6, 0xfc, 0x7b, 0xfd, 0x52, 0x92, 0x28, 0xf8, 0x52, 0xff, 0x0e, 0xfe,
    0x65, 0xeb, 0xc7, 0xfb, 0x6b, 0xf7, 0x02, 0xef, 0xff, 0xff, 0x00, 0x00, 0x00,
    0x07, 0x18, 0x00, 0x00, 0x00, 0x04, 0x00, 0x00, 0x00, 0x08, 0x00, 0x00, 0x00,
    0x14, 0x00, 0x00, 0x00, 0x01, 0x00, 0x00, 0x00, 0x32, 0x00, 0x00, 0x00, 0x01,
    0x00, 0x00, 0x00, 0x40, 0x00, 0x00, 0x00, 0x4c, 0xee, 0xff, 0xff, 0xc2, 0xef,
    0xff, 0xff, 0x04, 0x00, 0x00, 0x00, 0x00, 0x10, 0x00, 0x00, 0x08, 0xfe, 0xf8,
    0x08, 0xfc, 0x02, 0xf6, 0x01, 0x07, 0xfb, 0xfe, 0xfc, 0xf7, 0x01, 0x00, 0xfe,
    0x03, 0x08, 0x06, 0xfc, 0xfc, 0xfd, 0xfe, 0xf7, 0x00, 0xfe, 0xfe, 0xff, 0xf8,
    0x04, 0xfd, 0x01, 0xff, 0x01, 0x01, 0xfd, 0x03, 0xfc, 0xfb, 0x02, 0xfa, 0x02,
    0x04, 0x03, 0x03, 0x04, 0x04, 0x02, 0x00, 0xfc, 0xfc, 0x01, 0xfe, 0x03, 0x03,
    0x06, 0x00, 0xfb, 0x04, 0x04, 0x04, 0x01, 0x01, 0x02, 0x05, 0xfe, 0xfe, 0x07,
    0xfd, 0x04, 0x06, 0xfe, 0x05, 0xf9, 0xf9, 0xf8, 0xfd, 0xff, 0x00, 0xfa, 0x08,
    0x04, 0x05, 0xf3, 0x04, 0xf9, 0xfb, 0xf8, 0x01, 0xff, 0xfe, 0xfc, 0xfb, 0x04,
    0xfb, 0xfe, 0xfc, 0x01, 0x05, 0xfe, 0x02, 0xfd, 0xfc, 0x02, 0xfb, 0x03, 0x04,
    0x03, 0x00, 0xfd, 0x04, 0x05, 0xff, 0xfe, 0xfd, 0x01, 0xfc, 0x00, 0x04, 0x06,
    0x02, 0xf7, 0x03, 0x03, 0x01, 0xfb, 0x04, 0x04, 0xf5, 0xfb, 0xfa, 0x07, 0xff,
    0x07, 0x07, 0xfd, 0x06, 0x00, 0xfa, 0xfd, 0xfe, 0x00, 0xfb, 0xf8, 0x04, 0x03,
    0x03, 0xf9, 0x03, 0xfc, 0xf9, 0xff, 0x00, 0xff, 0xff, 0xfb, 0xfb, 0x03, 0xfc,
    0xfe, 0xff, 0x03, 0x08, 0xfc, 0x02, 0xfd, 0xfc, 0x06, 0xf8, 0x04, 0x03, 0x06,
    0x05, 0x10, 0x06, 0x00, 0xfa, 0xf6, 0xf8, 0x05, 0x00, 0x09, 0x03, 0x03, 0xfa,
    0xf2, 0x04, 0x04, 0x05, 0xfd, 0x00, 0x05, 0x03, 0x07, 0x09, 0xfd, 0x02, 0xfe,
    0xfe, 0x05, 0xf8, 0x00, 0x02, 0x02, 0x04, 0x15, 0x02, 0x01, 0xf5, 0xfc, 0xfc,
    0xfd, 0xfb, 0x00, 0xfe, 0x00, 0xed, 0xf7, 0xfb, 0x05, 0x04, 0x00, 0x02, 0x01,
    0xf9, 0x01, 0xfb, 0x0a, 0x01, 0x01, 0x08, 0xfb, 0xf8, 0xff, 0xf7, 0xfd, 0xfe,
    0xf1, 0xfc, 0x01, 0x04, 0x01, 0x05, 0xfa, 0x02, 0x04, 0xfe, 0xfe, 0xfb, 0x05,
    0xfb, 0xf6, 0xfc, 0x02, 0xff, 0xf4, 0xfa, 0xf2, 0x04, 0x09, 0xff, 0x03, 0xf4,
    0xfb, 0xf7, 0xfd, 0xff, 0xf6, 0x02, 0x03, 0xff, 0xf6, 0x03, 0x08, 0x04, 0xfb,
    0xf5, 0x07, 0xf5, 0xfe, 0xed, 0x00, 0x02, 0xfd, 0xf1, 0x07, 0xff, 0x02, 0xfe,
    0xfe, 0xfc, 0x07, 0xfd, 0x03, 0x0b, 0xfd, 0x05, 0x02, 0x00, 0xfa, 0xfc, 0x00,
    0xfe, 0xfd, 0x03, 0x05, 0x04, 0xfd, 0x00, 0x00, 0xfd, 0xfd, 0xf6, 0xfd, 0xff,
    0xfe, 0xfe, 0x01, 0x01, 0xfe, 0x02, 0x02, 0x00, 0xfb, 0x03, 0xff, 0xfe, 0xfd,
    0xfc, 0xfe, 0x01, 0x02, 0x00, 0xf4, 0x04, 0x04, 0xfb, 0xff, 0x00, 0x01, 0xfe,
    0x00, 0x02, 0x07, 0x06, 0x9a, 0x00, 0x00, 0x00, 0xf1, 0x03, 0x02, 0x01, 0x00,
    0x01, 0xf8, 0x00, 0xff, 0xfc, 0xfc, 0xf8, 0x02, 0x00, 0x00, 0xfc, 0xf4, 0xfe,
    0x05, 0xf6, 0x01, 0x03, 0xfa, 0xfd, 0x01, 0xfe, 0x04, 0x03, 0xeb, 0x01, 0xff,
    0xfd, 0xf6, 0x00, 0x00, 0xf6, 0xff, 0xf6, 0xf3, 0xf9, 0x0a, 0xec, 0xf6, 0x03,
    0x06, 0x01, 0xff, 0xf9, 0x02, 0xfc, 0xfc, 0x02, 0x05, 0xff, 0xff, 0x02, 0x05,
    0xfc, 0x00, 0xf6, 0x00, 0x02, 0x00, 0xfd, 0x03, 0x01, 0xff, 0xfb, 0x02, 0x03,
    0xfb, 0x02, 0xfe, 0xfe, 0x01, 0xf9, 0x02, 0x02, 0x02, 0x01, 0xfd, 0x05, 0x01,
    0xfb, 0xfb, 0xfe, 0x02, 0xff, 0x03, 0x01, 0x04, 0xfe, 0xf9, 0x01, 0x02, 0x02,
    0xff, 0x02, 0x04, 0xfc, 0xfb, 0x00, 0xfc, 0xff, 0xfc, 0xfb, 0x00, 0xfb, 0xff,
    0x01, 0xfa, 0xff, 0xd1, 0xff, 0xff, 0x0b, 0x09, 0xfe, 0xfe, 0xfc, 0x03, 0xff,
    0x01, 0x0b, 0xbf, 0x08, 0xf4, 0x02, 0xf7, 0x01, 0x03, 0xfc, 0x03, 0x03, 0xfc,
    0x03, 0xfd, 0xfe, 0x04, 0xfa, 0x03, 0x03, 0x02, 0x00, 0x03, 0x03, 0x06, 0xff,
    0xff, 0xfb, 0x01, 0xfd, 0x03, 0x02, 0x02, 0xfe, 0xfd, 0x01, 0x03, 0x03, 0xfe,
    0x03, 0x04, 0x08, 0xfe, 0x00, 0x08, 0xfb, 0x04, 0x02, 0x01, 0x06, 0xff, 0xfd,
    0xfd, 0x00, 0x00, 0xfe, 0xf9, 0x02, 0x07, 0x04, 0xfd, 0xfe, 0xff, 0xfc, 0xf9,
    0xff, 0xff, 0xfa, 0xff, 0xff, 0x02, 0xfb, 0x00, 0xfc, 0x01, 0x04, 0xfb, 0x02,
    0xfe, 0xfc, 0x03, 0xfa, 0x03, 0x03, 0xff, 0x01, 0x00, 0x02, 0x05, 0xfe, 0xfd,
    0xfd, 0x02, 0xfe, 0x04, 0x03, 0x06, 0x01, 0xfd, 0x01, 0x01, 0x02, 0xf7, 0x03,
    0x02, 0x04, 0xfe, 0xfe, 0x07, 0x00, 0x05, 0x04, 0xfe, 0x07, 0xfd, 0xfa, 0xf8,
    0xfc, 0xfe, 0x01, 0xfc, 0x04, 0x02, 0x01, 0xff, 0x02, 0xfd, 0xfb, 0xf9, 0x00,
    0x00, 0xfd, 0xfb, 0xfe, 0x03, 0xfc, 0xfe, 0xfd, 0x01, 0x01, 0xfc, 0x02, 0xfc,
    0x00, 0x01, 0xfe, 0x01, 0x00, 0x01, 0x02, 0xff, 0x03, 0x01, 0xfe, 0xfe, 0xff,
    0x00, 0xfe, 0x02, 0x03, 0x04, 0x00, 0xdc, 0x03, 0x02, 0x03, 0xfd, 0x01, 0x04,
    0xfb, 0xfc, 0xfd, 0x06, 0x00, 0x03, 0x07, 0xfe, 0x02, 0xfd, 0xfe, 0xff, 0xfa,
    0x00, 0xfe, 0xf9, 0x04, 0x03, 0x01, 0xff, 0x02, 0xfb, 0xfb, 0xfb, 0x02, 0x01,
    0x01, 0xfd, 0xfd, 0x01, 0xfd, 0xfd, 0xff, 0x00, 0x00, 0xfd, 0xff, 0xff, 0xfd,
    0x02, 0xfb, 0xff, 0x01, 0xfd, 0xfe, 0x03, 0xfe, 0xff, 0x02, 0x03, 0xff, 0xff,
    0xfd, 0x05, 0xfc, 0xf9, 0xf7, 0xfd, 0x00, 0xfb, 0x02, 0xfd, 0x01, 0x05, 0x02,
    0x03, 0x02, 0xf9, 0xff, 0x00, 0xfe, 0x01, 0xfb, 0xfd, 0x04, 0xff, 0x00, 0x06,
    0x02, 0x02, 0x01, 0x01, 0x01, 0xfe, 0xff, 0xff, 0xfb, 0x07, 0xfe, 0xf1, 0x02,
    0x02, 0x01, 0x03, 0x00, 0x00, 0xfa, 0x02, 0xfd, 0x0a, 0xff, 0xff, 0x0b, 0xfd,
    0xfe, 0xfd, 0xfc, 0xfd, 0xfe, 0xf6, 0x05, 0x02, 0x02, 0x02, 0x04, 0xf6, 0x04,
    0x02, 0xfa, 0x00, 0xff, 0x05, 0xfe, 0xf1, 0x00, 0x03, 0xfc, 0xfb, 0xf9, 0xf8,
    0xfa, 0x04, 0xfc, 0x05, 0x01, 0xfd, 0xfd, 0xff, 0x03, 0xfb, 0xfe, 0x01, 0xff,
    0xfc, 0x06, 0x05, 0x07, 0xfa, 0xfd, 0x07, 0xfe, 0x03, 0xf6, 0x00, 0x02, 0xfe,
    0xf7, 0x00, 0x01, 0x01, 0xfa, 0xfd, 0xfa, 0x06, 0xfe, 0x02, 0x07, 0x01, 0x04,
    0x02, 0xfe, 0xfb, 0xfd, 0xff, 0xfe, 0xfa, 0x04, 0x03, 0x02, 0xff, 0x01, 0xfd,
    0xfc, 0xff, 0xfd, 0x00, 0x01, 0xfe, 0xfd, 0x02, 0xfd, 0x00, 0xff, 0x02, 0x07,
    0xfb, 0x02, 0xfc, 0xfe, 0x02, 0xf8, 0x02, 0x00, 0x03, 0x00, 0x09, 0x05, 0x06,
    0xf8, 0xf8, 0xff, 0x03, 0xff, 0x01, 0x02, 0xff, 0x02, 0xfe, 0x03, 0x03, 0x05,
    0x00, 0xfe, 0x03, 0xff, 0x03, 0x02, 0xfb, 0x03, 0xff, 0xfe, 0x00, 0xfc, 0x02,
    0x00, 0x04, 0x05, 0xfc, 0x04, 0x03, 0xfc, 0xfa, 0x00, 0x01, 0xff, 0xff, 0x03,
    0x01, 0x08, 0xf5, 0x01, 0x02, 0x03, 0xfd, 0x01, 0x00, 0x00, 0xfe, 0xf7, 0xfe,
    0xfb, 0x08, 0xf2, 0xfb, 0x03, 0x01, 0x01, 0xfd, 0xfe, 0xff, 0xff, 0x00, 0x03,
    0x03, 0xfe, 0xff, 0x02, 0xfc, 0xfa, 0xfb, 0xfe, 0x01, 0xff, 0xfe, 0xfd, 0x02,
    0xfe, 0x00, 0xfe, 0x02, 0x01, 0xfb, 0xff, 0xfe, 0xfe, 0x01, 0xfb, 0x00, 0x02,
    0x01, 0x00, 0x02, 0x02, 0x04, 0xff, 0xfc, 0xfd, 0x01, 0xfd, 0x03, 0x01, 0x06,
    0xff, 0xfb, 0x03, 0x00, 0x02, 0xfa, 0x06, 0x03, 0x00, 0xfe, 0x04, 0xfb, 0xff,
    0xfc, 0x02, 0x00, 0xfc, 0x03, 0x03, 0x02, 0x03, 0xfa, 0x01, 0x05, 0xfb, 0xff,
    0xff, 0x01, 0xff, 0x03, 0x01, 0x03, 0x04, 0x02, 0x05, 0x00, 0x02, 0x01, 0x05,
    0x03, 0xff, 0x02, 0x02, 0xfc, 0x03, 0xfc, 0xfc, 0x03, 0xfa, 0x01, 0x01, 0x03,
    0xff, 0x02, 0x03, 0x02, 0xfd, 0xfb, 0xff, 0x01, 0xfc, 0x05, 0x00, 0x07, 0xff,
    0xfc, 0x04, 0x02, 0xff, 0xfe, 0x02, 0x03, 0x07, 0xfe, 0xfc, 0x09, 0xfd, 0x06,
    0xff, 0xff, 0x08, 0xfe, 0xff, 0xfb, 0xfb, 0x00, 0xff, 0xfe, 0x03, 0x08, 0x03,
    0xfb, 0xfe, 0xff, 0xfd, 0xf8, 0x00, 0x01, 0xfe, 0xfe, 0xfc, 0x01, 0xfd, 0x00,
    0xfb, 0x00, 0x02, 0xfb, 0x01, 0xfe, 0xfd, 0x03, 0xfd, 0xff, 0x02, 0x02, 0xff,
    0xfe, 0x01, 0x02, 0xfe, 0x01, 0xfe, 0x01, 0xfd, 0x03, 0x01, 0x04, 0x00, 0xfd,
    0x01, 0x00, 0x01, 0xfb, 0x04, 0x02, 0x05, 0xff, 0xfc, 0x07, 0xfe, 0x01, 0x08,
    0x01, 0x07, 0x03, 0xfc, 0xfd, 0xfc, 0xff, 0x00, 0xfa, 0x04, 0x01, 0x03, 0xfa,
    0x02, 0xfc, 0xfc, 0xfb, 0x02, 0xff, 0x00, 0xfd, 0xfe, 0x03, 0xfb, 0xfe, 0x00,
    0x02, 0x01, 0xfc, 0x00, 0xfe, 0xfd, 0x04, 0xfb, 0x02, 0x03, 0x02, 0x03, 0xff,
    0x03, 0x04, 0xfd, 0xfc, 0xfd, 0x01, 0xfe, 0x02, 0x01, 0x01, 0xfe, 0xfd, 0x02,
    0x02, 0x01, 0xfe, 0xfe, 0x04, 0xf8, 0xff, 0xff, 0x06, 0xfd, 0x04, 0x07, 0x00,
    0x04, 0xff, 0xfd, 0xff, 0xff, 0x00, 0xfd, 0xf9, 0x05, 0x02, 0x03, 0xfd, 0x02,
    0xfb, 0xff, 0xfb, 0x02, 0x00, 0xfd, 0xfc, 0xfa, 0x01, 0x00, 0xfd, 0xfc, 0x03,
    0x04, 0xfd, 0x02, 0xfe, 0xfb, 0x02, 0xfb, 0x00, 0x02, 0x01, 0xfe, 0x07, 0x03,
    0x03, 0xfe, 0x00, 0xff, 0xfe, 0xff, 0x02, 0x00, 0x03, 0x02, 0xfb, 0x04, 0xff,
    0x01, 0x02, 0xff, 0x02, 0xfe, 0x01, 0x05, 0xf9, 0x04, 0xfd, 0xfe, 0x06, 0xfb,
    0x03, 0x02, 0x03, 0x03, 0x05, 0x01, 0x05, 0xfb, 0xf3, 0x00, 0xff, 0x00, 0x02,
    0x01, 0x07, 0x0b, 0xf3, 0x02, 0x03, 0x03, 0x01, 0xff, 0x01, 0xf7, 0x00, 0xfa,
    0x04, 0x02, 0xfc, 0x0b, 0x00, 0xfe, 0xfe, 0xfe, 0xf9, 0xff, 0xf7, 0x00, 0xfe,
    0x05, 0x01, 0x04, 0xfc, 0x01, 0xff, 0xfa, 0x02, 0xfe, 0x05, 0xfc, 0xf3, 0xfe,
    0x02, 0xff, 0x00, 0xfc, 0xf5, 0xf8, 0x09, 0x00, 0x01, 0xfc, 0xfc, 0xfa, 0x01,
    0xff, 0xfe, 0xfe, 0x00, 0xfd, 0xfa, 0x02, 0x04, 0x03, 0xf9, 0xfa, 0x06, 0xfb,
    0x01, 0xf9, 0xff, 0x02, 0xff, 0xf9, 0x04, 0x00, 0xfe, 0xfa, 0xfe, 0xf9, 0x06,
    0xfe, 0x03, 0x05, 0xf9, 0x06, 0xff, 0xff, 0xfb, 0x01, 0xfe, 0xfa, 0xfc, 0x02,
    0x04, 0x03, 0xff, 0x01, 0xfc, 0xfe, 0xfd, 0xff, 0x03, 0x00, 0x00, 0xff, 0x00,
    0x00, 0xfd, 0xf9, 0xfe, 0xf6, 0x02, 0xff, 0xff, 0xff, 0xfe, 0xf3, 0x02, 0x01,
    0xf9, 0xfe, 0x08, 0x03, 0xfa, 0x07, 0x01, 0xfc, 0x00, 0xff, 0xfe, 0xfe, 0xfb,
    0xe9, 0xfe, 0xfa, 0xff, 0xfe, 0x04, 0xfc, 0x02, 0xfe, 0x01, 0x04, 0xfb, 0xff,
    0xfd, 0x00, 0x01, 0xfa, 0x04, 0x00, 0x05, 0x02, 0x00, 0x02, 0x05, 0x01, 0xfe,
    0xff, 0x01, 0xfc, 0x02, 0x02, 0x01, 0x01, 0x03, 0x02, 0x02, 0x03, 0x03, 0x05,
    0x02, 0xf8, 0x00, 0xf7, 0x00, 0xf8, 0x07, 0xf0, 0xfb, 0xf6, 0xfe, 0x00, 0xff,
    0xfa, 0xfd, 0x01, 0x01, 0x03, 0x03, 0x00, 0xff, 0x02, 0xfb, 0xfc, 0xf6, 0xfc,
    0xff, 0x02, 0xfe, 0xfe, 0x01, 0xfe, 0xff, 0x00, 0x04, 0x04, 0xfb, 0x00, 0xfd,
    0xff, 0x01, 0xfc, 0x02, 0x02, 0x03, 0x02, 0x01, 0x03, 0x06, 0xfa, 0xfc, 0xfe,
    0x00, 0xfb, 0x03, 0x01, 0x02, 0x00, 0xfe, 0x02, 0x01, 0x02, 0xfd, 0x01, 0x02,
    0x01, 0x04, 0x04, 0xf8, 0x02, 0xfe, 0x00, 0x02, 0xfb, 0x00, 0x04, 0x03, 0x02,
    0x03, 0x04, 0x05, 0xff, 0x01, 0xfe, 0x01, 0xff, 0x03, 0xff, 0xf9, 0xfd, 0x05,
    0x01, 0x05, 0x02, 0x02, 0x05, 0x00, 0x00, 0x02, 0x02, 0xfd, 0x01, 0xfc, 0x00,
    0x01, 0xfc, 0x03, 0x02, 0x01, 0x01, 0x01, 0x03, 0x04, 0xfb, 0xfe, 0xfc, 0xff,
    0xfe, 0x03, 0x00, 0x03, 0xfe, 0xfd, 0x02, 0x01, 0x03, 0xfa, 0x03, 0x03, 0x09,
    0xfe, 0xfb, 0x08, 0xfc, 0x06, 0xff, 0x01, 0x08, 0x00, 0xfd, 0xfe, 0xfb, 0x01,
    0xfa, 0xfb, 0x02, 0x08, 0x05, 0xfc, 0xfb, 0xfb, 0xfc, 0xfc, 0x01, 0x02, 0xfb,
    0x00, 0xfd, 0x02, 0xf9, 0xfd, 0xfe, 0x01, 0x04, 0xfa, 0x01, 0xff, 0xfa, 0x02,
    0xfa, 0x03, 0x01, 0x01, 0xff, 0x01, 0x01, 0x02, 0xfc, 0xf4, 0xfd, 0x02, 0xfe,
    0x03, 0x01, 0x03, 0xfe, 0xf4, 0x03, 0x02, 0x03, 0xfd, 0x01, 0x03, 0x06, 0x00,
    0xfa, 0x09, 0xfb, 0x05, 0x09, 0x01, 0x05, 0x00, 0xf7, 0xfb, 0xfb, 0xfe, 0xfd,
    0xfc, 0x05, 0x01, 0x04, 0xf6, 0x02, 0xfc, 0xf9, 0xfb, 0x02, 0x01, 0xff, 0xfa,
    0xfd, 0x03, 0xf9, 0x01, 0xfb, 0x04, 0x05, 0xfb, 0x04, 0xfc, 0xfc, 0x01, 0xfa,
    0x03, 0x03, 0x03, 0x01, 0x06, 0x05, 0x05, 0xfd, 0xfd, 0xfd, 0x02, 0xfd, 0x06,
    0x00, 0x02, 0xfe, 0xfd, 0x02, 0x03, 0x04, 0xfd, 0x04, 0x02, 0xf5, 0xfa, 0xfc,
    0x07, 0xff, 0x04, 0x0a, 0xfc, 0x09, 0xfe, 0xfc, 0xfd, 0xfc, 0x00, 0xfe, 0xf5,
    0x04, 0x03, 0x01, 0xfa, 0x02, 0xfc, 0xf6, 0xfb, 0x00, 0xfe, 0xfd, 0xfd, 0xf9,
    0x02, 0xfa, 0xfc, 0xfd, 0x05, 0xff, 0xfa, 0x01, 0xfe, 0xfb, 0x03, 0xf7, 0x00,
    0x00, 0x02, 0x01, 0xe9, 0x03, 0x04, 0xff, 0xf8, 0x00, 0x01, 0xfd, 0x00, 0x00,
    0x05, 0x09, 0xa1, 0x01, 0x03, 0x01, 0xd2, 0x03, 0x02, 0xf7, 0xf9, 0x01, 0xff,
    0xfe, 0xfe, 0xfa, 0xff, 0xf9, 0xff, 0xff, 0xfc, 0xfd, 0xd3, 0xfd, 0x01, 0x0c,
    0x0b, 0x00, 0xfc, 0xfe, 0x01, 0xf9, 0xf7, 0x07, 0xaf, 0x07, 0xf6, 0x00, 0xf9,
    0x03, 0x03, 0xfd, 0x00, 0xfd, 0x06, 0xff, 0xfc, 0x07, 0xff, 0xfe, 0xfc, 0xf7,
    0xfd, 0xfd, 0xef, 0xfc, 0xfd, 0x04, 0x01, 0x04, 0xf7, 0x03, 0x03, 0xf6, 0x00,
    0xfe, 0x05, 0xfe, 0xef, 0xfd, 0xff, 0x05, 0xfd, 0xf4, 0xf4, 0x05, 0x07, 0x01,
    0x03, 0xf8, 0xfc, 0xfa, 0x03, 0xfe, 0xfe, 0x04, 0x01, 0xff, 0xfd, 0x05, 0x09,
    0x06, 0xf9, 0xf6, 0x07, 0xfc, 0x00, 0xee, 0xfe, 0x01, 0x01, 0xf8, 0x05, 0x03,
    0xff, 0xf9, 0xfc, 0xfd, 0x07, 0x01, 0x03, 0x08, 0xfa, 0x06, 0x00, 0xff, 0xfe,
    0x02, 0x00, 0xfd, 0xfd, 0x05, 0x05, 0x07, 0xfb, 0x00, 0xff, 0xfe, 0xfd, 0xf7,
    0x00, 0x00, 0x01, 0xfc, 0x00, 0x01, 0x00, 0xfe, 0x02, 0x06, 0xfc, 0x03, 0xfa,
    0xfe, 0x03, 0xf9, 0x06, 0x05, 0x03, 0x02, 0x03, 0x05, 0x06, 0xff, 0xf7, 0xfb,
    0x01, 0xfd, 0x07, 0x01, 0x05, 0x05, 0xf6, 0x00, 0x01, 0x06, 0xfe, 0x04, 0x04,
    0xfb, 0x00, 0xfc, 0xff, 0x01, 0xf9, 0xff, 0x03, 0xfb, 0x02, 0x04, 0x01, 0xfe,
    0x10, 0xfc, 0xf6, 0x03, 0x00, 0xf0, 0x03, 0xfd, 0x05, 0xfc, 0xfb, 0xea, 0xfe,
    0xfe, 0x03, 0x01, 0x04, 0x01, 0x02, 0xfc, 0xfd, 0xf8, 0xf6, 0xf2, 0x0c, 0xe7,
    0xf9, 0x00, 0xfa, 0xfa, 0xff, 0xf7, 0xff, 0xff, 0xfe, 0x05, 0x06, 0x00, 0x00,
    0x05, 0xf9, 0xfc, 0xf5, 0xf6, 0xff, 0xfc, 0xfd, 0xfd, 0x03, 0xfc, 0x00, 0xfd,
    0x03, 0x05, 0xfd, 0x03, 0xfd, 0xfd, 0x01, 0xf9, 0x03, 0x04, 0x01, 0x02, 0x02,
    0x02, 0x03, 0xff, 0xff, 0xfc, 0x01, 0xfe, 0x04, 0x02, 0x02, 0x00, 0xfe, 0x05,
    0x03, 0x03, 0xfe, 0x04, 0x02, 0x04, 0x05, 0x03, 0xfd, 0x04, 0x03, 0xfe, 0x02,
    0xf5, 0x05, 0x03, 0x02, 0x01, 0x11, 0x00, 0x06, 0xe9, 0xfc, 0xfd, 0x03, 0xfd,
    0xfe, 0xfe, 0xf6, 0xf0, 0xf3, 0xfc, 0x08, 0x00, 0x02, 0x01, 0xfc, 0xff, 0x02,
    0x01, 0xfc, 0x02, 0xfc, 0xfe, 0x01, 0xfa, 0x04, 0x01, 0x01, 0xff, 0xff, 0x01,
    0x05, 0xfb, 0xf7, 0xfe, 0x00, 0xff, 0x04, 0x01, 0x01, 0xff, 0xfc, 0x00, 0x01,
    0x04, 0xfc, 0x03, 0x01, 0xfc, 0x03, 0x05, 0xfd, 0x03, 0xfc, 0xfc, 0x04, 0xf8,
    0x01, 0x04, 0x04, 0x03, 0x04, 0x05, 0xff, 0xff, 0xfb, 0xfc, 0x03, 0xfe, 0x02,
    0x02, 0xfb, 0x01, 0xfe, 0x01, 0x01, 0x05, 0x00, 0xff, 0x04, 0x04, 0xfc, 0xf6,
    0xfb, 0xfc, 0x08, 0x0b, 0xfe, 0x03, 0xff, 0xfc, 0xfc, 0xfb, 0x01, 0xfc, 0xfd,
    0x03, 0x04, 0x01, 0xfd, 0x02, 0xfe, 0xfe, 0xf9, 0xff, 0x00, 0xfc, 0xfb, 0xfa,
    0x00, 0xf7, 0xfb, 0x00, 0x01, 0x03, 0xfd, 0x03, 0xf9, 0xff, 0x05, 0xfb, 0x04,
    0x02, 0x04, 0x02, 0x10, 0x06, 0x03, 0xff, 0xf5, 0xfd, 0x00, 0xfc, 0x04, 0x03,
    0x01, 0xfc, 0xff, 0x04, 0x04, 0x01, 0xff, 0x03, 0x04, 0x08, 0xfc, 0xff, 0x03,
    0x01, 0x06, 0x05, 0x04, 0x02, 0x07, 0xff, 0xfd, 0xf8, 0x05, 0xfc, 0xe6, 0x02,
    0x06, 0xfe, 0xfc, 0xfd, 0x02, 0xfa, 0xfb, 0x81, 0x00, 0x03, 0xfc, 0x04, 0x08,
    0xff, 0x01, 0x07, 0xf8, 0xfd, 0x07, 0xfc, 0x05, 0x06, 0xfe, 0x09, 0x02, 0xf8,
    0xff, 0xfd, 0x02, 0xfd, 0xf5, 0x04, 0x03, 0x02, 0xfb, 0x03, 0xfd, 0xfb, 0xf8,
    0x01, 0x00, 0xff, 0xfb, 0xfe, 0x02, 0xfa, 0x00, 0x00, 0x03, 0x04, 0xf9, 0x02,
    0xfd, 0xfc, 0xff, 0xfb, 0x03, 0x01, 0x03, 0x02, 0xf4, 0x01, 0x08, 0xff, 0xfe,
    0xfe, 0x00, 0xfd, 0x03, 0xff, 0x04, 0x00, 0x04, 0x02, 0x02, 0x01, 0xc7, 0x03,
    0x02, 0x02, 0x01, 0xfd, 0xfe, 0x03, 0xfb, 0x00, 0x04, 0xf5, 0x01, 0x02, 0xfd,
    0xfe, 0x18, 0x02, 0x02, 0xfe, 0x03, 0xfc, 0xfb, 0xfe, 0x02, 0xfd, 0xfa, 0xf1,
    0xfb, 0x00, 0x04, 0x05, 0x02, 0x00, 0x01, 0xfe, 0x01, 0x01, 0xf8, 0x00, 0xfd,
    0xfd, 0x02, 0xfc, 0x03, 0x04, 0x01, 0x01, 0xea, 0x02, 0x04, 0xfe, 0xf9, 0xfd,
    0x02, 0xff, 0x02, 0x02, 0x06, 0x0a, 0x86, 0x05, 0xff, 0x03, 0xe7, 0x03, 0x03,
    0xf7, 0xfe, 0xfb, 0x06, 0xfd, 0x06, 0x09, 0xfd, 0x05, 0xfe, 0x00, 0xfd, 0xfa,
    0x01, 0xfc, 0xf9, 0x06, 0x05, 0x02, 0xff, 0x02, 0xfc, 0xfa, 0xfa, 0xff, 0xff,
    0x01, 0xfd, 0xfc, 0x03, 0xfd, 0xff, 0x07, 0xfd, 0xfa, 0x05, 0xfd, 0x06, 0x08,
    0xfd, 0x04, 0x03, 0xff, 0xfd, 0xfa, 0x05, 0xfd, 0xf8, 0x06, 0x06, 0xff, 0xfa,
    0xff, 0x09, 0xf9, 0xff, 0xe2, 0xfe, 0xff, 0xff, 0xfc, 0x05, 0xf4, 0xfd, 0xfc,
    0x01, 0xfe, 0xff, 0x00, 0xfe, 0xff, 0x03, 0xf9, 0x00, 0x04, 0x01, 0xff, 0x0c,
    0x01, 0xfe, 0xfe, 0xfd, 0xfc, 0x03, 0xfc, 0x05, 0x01, 0x03, 0xeb, 0xf7, 0x00,
    0x03, 0x03, 0x01, 0x04, 0x05, 0xf6, 0xfe, 0x00, 0xfe, 0x00, 0xfc, 0xfd, 0xfc,
    0xf6, 0x03, 0x04, 0x01, 0xff, 0x06, 0x03, 0xfb, 0x05, 0x02, 0xfe, 0xfe, 0xfd,
    0x05, 0x00, 0xfc, 0xfe, 0xfd, 0x04, 0x00, 0x03, 0x02, 0x04, 0x04, 0xfe, 0x02,
    0x03, 0xfd, 0x03, 0xfd, 0xfb, 0x02, 0xf8, 0x02, 0x02, 0x03, 0x04, 0x02, 0x03,
    0x05, 0xfb, 0xfb, 0xff, 0x04, 0xfe, 0x01, 0x03, 0x07, 0x00, 0xfc, 0x03, 0x01,
    0x03, 0xfb, 0x04, 0x03, 0x07, 0xfe, 0xf9, 0x01, 0xf8, 0x02, 0x05, 0xfc, 0x01,
    0x01, 0xff, 0xfd, 0xf9, 0xf7, 0xf7, 0xfc, 0x06, 0x03, 0x04, 0xfd, 0x04, 0x03,
    0xeb, 0x00, 0xf9, 0x01, 0xfd, 0xff, 0xfa, 0x03, 0xfb, 0xf7, 0xfa, 0x02, 0x01,
    0xfb, 0x02, 0xfc, 0xfc, 0x03, 0xf7, 0x03, 0x04, 0x02, 0x02, 0xf6, 0x03, 0x0a,
    0xfa, 0xf8, 0xfe, 0x05, 0xfd, 0x03, 0x04, 0x06, 0x0f, 0xa8, 0x06, 0x01, 0x04,
    0xf6, 0x04, 0x01, 0x06, 0xff, 0xf8, 0x01, 0xf8, 0x08, 0x0b, 0xfe, 0x0a, 0xfe,
    0xf5, 0xfe, 0xfa, 0xfd, 0xfa, 0xfa, 0x03, 0x03, 0x06, 0xfd, 0x05, 0xf7, 0xf8,
    0xf6, 0x01, 0x08, 0xf8, 0xfd, 0xfe, 0xeb, 0xf6, 0xf9, 0xfd, 0xff, 0x04, 0xfb,
    0x01, 0xfc, 0xfb, 0x04, 0xfc, 0x01, 0x03, 0x01, 0x02, 0x03, 0x02, 0x02, 0xfe,
    0x00, 0xfe, 0x02, 0xfd, 0x02, 0x01, 0x05, 0xff, 0xfa, 0x01, 0x01, 0x02, 0xfb,
    0x01, 0x04, 0x05, 0xfe, 0xfa, 0x00, 0xfc, 0x05, 0x08, 0xfe, 0x06, 0xfe, 0xfd,
    0xfb, 0xf9, 0xfd, 0xfd, 0xfd, 0xff, 0x03, 0x02, 0xfc, 0x02, 0xfa, 0xfc, 0xfa,
    0x02, 0x03, 0xfe, 0xfa, 0x00, 0x02, 0xfb, 0xfc, 0xff, 0x02, 0x00, 0xfd, 0x00,
    0xfe, 0xfc, 0x04, 0xfc, 0x03, 0x03, 0x01, 0x02, 0xf7, 0x00, 0x02, 0x02, 0x08,
    0xff, 0xfe, 0xff, 0x06, 0x00, 0x01, 0xfe, 0xfd, 0x02, 0x00, 0xff, 0xfe, 0xfd,
    0xff, 0x04, 0xfc, 0xfb, 0x07, 0xff, 0x06, 0x08, 0x02, 0x04, 0x02, 0xff, 0xff,
    0xfb, 0xfe, 0xfd, 0xf7, 0x05, 0x02, 0x01, 0xfb, 0xff, 0xff, 0xfa, 0x00, 0xd9,
    0xff, 0xff, 0xfc, 0xff, 0x03, 0x02, 0x01, 0x05, 0xfc, 0xfe, 0x03, 0xfd, 0x04,
    0x07, 0xfe, 0x05, 0x02, 0x00, 0xfe, 0xfe, 0xfe, 0xfd, 0xf8, 0x04, 0x03, 0x03,
    0xfd, 0x01, 0x00, 0xfd, 0xf8, 0x00, 0x01, 0x00, 0x00, 0xff, 0x02, 0xfd, 0xfd,
    0xff, 0x02, 0x03, 0xfe, 0x01, 0xfd, 0xfe, 0x01, 0xfc, 0x02, 0x02, 0x00, 0x01,
    0xfe, 0x02, 0x03, 0xfc, 0xff, 0xff, 0xfe, 0xfe, 0x04, 0x03, 0xfd, 0x00, 0xff,
    0x04, 0x02, 0x02, 0x03, 0x00, 0x02, 0xff, 0x04, 0x02, 0xf8, 0x01, 0xf9, 0xfe,
    0x05, 0xfa, 0x02, 0x02, 0x04, 0x07, 0x06, 0x03, 0x07, 0xf2, 0xe9, 0xfd, 0x03,
    0xfc, 0x04, 0x05, 0x08, 0x08, 0xfa, 0x04, 0x04, 0x04, 0xfd, 0x01, 0x02, 0xfd,
    0x01, 0x01, 0xff, 0xfd, 0xfe, 0xfe, 0xfe, 0xfb, 0x04, 0x02, 0xfe, 0xfb, 0x01,
    0x05, 0xfd, 0x03, 0x06, 0x00, 0x00, 0xff, 0x00, 0x01, 0x01, 0x01, 0xff, 0x01,
    0xff, 0xff, 0x04, 0x04, 0x02, 0xf2, 0xff, 0xfe, 0x09, 0x01, 0x03, 0x0a, 0xfd,
    0x06, 0x02, 0xfe, 0xfd, 0xfe, 0xfe, 0xfb, 0xfc, 0x03, 0x05, 0x00, 0xfb, 0x03,
    0xfc, 0xfb, 0xf7, 0x00, 0x02, 0x00, 0x00, 0xfa, 0x02, 0xfe, 0xfe, 0x05, 0xfd,
    0xfb, 0x07, 0xfd, 0x06, 0x03, 0xfd, 0x02, 0x02, 0xff, 0xfd, 0xff, 0xfb, 0xfc,
    0xfb, 0x03, 0x07, 0x00, 0xfb, 0x02, 0x06, 0xfb, 0xff, 0xf2, 0x00, 0x00, 0xff,
    0xff, 0x00, 0xff, 0x02, 0x00, 0x01, 0x05, 0xfc, 0x01, 0xfd, 0x00, 0x03, 0xfb,
    0x02, 0x02, 0x04, 0x04, 0x09, 0x03, 0x03, 0x01, 0xf9, 0xfe, 0x01, 0x00, 0x03,
    0x01, 0x00, 0x02, 0xfa, 0x06, 0x01, 0x03, 0x01, 0x05, 0x06, 0x02, 0x05, 0x03,
    0xf9, 0x02, 0xfd, 0xff, 0x05, 0xfa, 0x00, 0x03, 0x03, 0x04, 0xf6, 0x04, 0x06,
    0xf6, 0xee, 0xfe, 0x01, 0xfc, 0x03, 0x01, 0x09, 0x05, 0x8b, 0x03, 0x00, 0x01,
    0xe8, 0x04, 0x01, 0xfe, 0x02, 0x04, 0xfe, 0x02, 0xff, 0xfb, 0x03, 0xfb, 0x02,
    0x03, 0x02, 0x03, 0xfe, 0x01, 0x03, 0xfe, 0xfe, 0xfe, 0x01, 0xfe, 0x03, 0x02,
    0x01, 0x01, 0xff, 0x01, 0x00, 0x03, 0xfb, 0x04, 0x03, 0x04, 0xfd, 0xf6, 0xfe,
    0xfa, 0xfd, 0x02, 0xfe, 0xf9, 0xfc, 0x01, 0xfd, 0xf8, 0xf8, 0xfc, 0xfc, 0x03,
    0x01, 0x04, 0x00, 0x02, 0x00, 0xf2, 0x02, 0xff, 0x03, 0xfd, 0xfe, 0xff, 0x04,
    0xfd, 0xfa, 0x00, 0x00, 0xfc, 0x00, 0x00, 0xfd, 0xff, 0xfd, 0xf9, 0x01, 0x01,
    0xff, 0x00, 0x07, 0x01, 0xf9, 0x03, 0xff, 0xff, 0xff, 0x00, 0xfe, 0x03, 0xf6,
    0xeb, 0x01, 0x01, 0x00, 0xff, 0x03, 0x03, 0x03, 0x06, 0xff, 0xfd, 0xfc, 0xfc,
    0x04, 0x06, 0xff, 0x03, 0xfe, 0xfb, 0xff, 0xfa, 0x00, 0xfb, 0xfe, 0x04, 0x03,
    0x03, 0xfc, 0x03, 0xfb, 0xfc, 0xf7, 0x02, 0x08, 0xfb, 0xfd, 0xfe, 0xf5, 0xfd,
    0xfe, 0xff, 0x01, 0x02, 0xfd, 0x00, 0xff, 0xfd, 0x02, 0xfb, 0x01, 0x03, 0x01,
    0x01, 0x02, 0x02, 0x04, 0xfd, 0xfb, 0xfe, 0x01, 0xfe, 0x01, 0x02, 0x04, 0x00,
    0xff, 0x02, 0x00, 0x00, 0xfe, 0x01, 0x01, 0x04, 0xfe, 0xf8, 0x05, 0xfb, 0x06,
    0x04, 0x01, 0xff, 0xfd, 0xff, 0xfe, 0xff, 0x00, 0xfc, 0xfe, 0x00, 0x02, 0x01,
    0xff, 0x03, 0xfc, 0xfa, 0xf9, 0x03, 0x04, 0xfc, 0xfc, 0xff, 0x01, 0xf7, 0xff,
    0xfd, 0x03, 0x05, 0xf9, 0x02, 0xfd, 0xff, 0x02, 0xfd, 0x01, 0x01, 0x00, 0x00,
    0xed, 0x03, 0x05, 0xfc, 0xee, 0xfe, 0x00, 0xfe, 0x01, 0x01, 0x09, 0x04, 0xb2,
    0x04, 0xfe, 0x03, 0xd9, 0x04, 0x01, 0x04, 0xfb, 0xfe, 0x01, 0xfd, 0x06, 0x08,
    0x03, 0x07, 0xff, 0x01, 0xfb, 0xf6, 0xfe, 0xfe, 0xfc, 0x02, 0x06, 0x01, 0xfa,
    0x01, 0xfa, 0xfb, 0x01, 0xda, 0xfd, 0xfb, 0xfc, 0xfd, 0x02, 0xfb, 0xfb, 0x05,
    0xfc, 0x00, 0x02, 0xfb, 0x06, 0x06, 0xfd, 0x07, 0xfe, 0xfd, 0xfe, 0xfb, 0x00,
    0xfe, 0xfa, 0x02, 0x02, 0x01, 0xfe, 0x03, 0xfb, 0xfc, 0xf5, 0x01, 0x02, 0xff,
    0xfc, 0x00, 0x03, 0xfd, 0xfd, 0xfd, 0x02, 0x03, 0xfb, 0x05, 0xff, 0xfd, 0x03,
    0xfc, 0x01, 0x02, 0x04, 0x00, 0xff, 0x03, 0x01, 0xfe, 0xfd, 0xff, 0x03, 0xfc,
    0x05, 0x01, 0x04, 0xff, 0xf8, 0x04, 0x01, 0x00, 0x02, 0x01, 0x04, 0xfc, 0xff,
    0xfd, 0x01, 0xfd, 0xfe, 0xfe, 0x00, 0xfc, 0x01, 0xff, 0xfc, 0xf5, 0xf2, 0xff,
    0xfa, 0x04, 0x08, 0x00, 0xfc, 0x01, 0xff, 0xf7, 0xfd, 0xff, 0xfc, 0xff, 0xf8,
    0xfe, 0xfb, 0xfe, 0x01, 0xff, 0x01, 0x04, 0xfc, 0x00, 0xfd, 0xfe, 0x01, 0xfe,
    0x02, 0x02, 0x01, 0x02, 0x04, 0x04, 0x05, 0xf5, 0xf4, 0x00, 0x02, 0xff, 0x01,
    0x00, 0x09, 0x00, 0xe9, 0x02, 0x02, 0x04, 0x00, 0x04, 0x03, 0xfb, 0xfe, 0xfc,
    0x08, 0xfe, 0x04, 0x06, 0xfe, 0x06, 0x02, 0xfc, 0xfe, 0xff, 0x01, 0xfd, 0xfc,
    0x02, 0x05, 0x00, 0xfa, 0x01, 0xff, 0xfe, 0xfa, 0x01, 0x01, 0x01, 0xfe, 0xfd,
    0x01, 0xff, 0xfb, 0x06, 0x01, 0xf7, 0x08, 0xfe, 0x06, 0x02, 0xfc, 0xff, 0xff,
    0x00, 0xfc, 0xfb, 0xfc, 0xfd, 0xfb, 0x05, 0x05, 0xff, 0xfb, 0x03, 0x03, 0xfd,
    0xfe, 0xf9, 0x00, 0xfd, 0xfe, 0xfe, 0x02, 0xf6, 0xfe, 0xff, 0x01, 0xff, 0xfb,
    0x01, 0xff, 0xfc, 0x00, 0xfd, 0x02, 0x01, 0xff, 0x02, 0x02, 0x00, 0x01, 0xfe,
    0xfe, 0x03, 0x00, 0x00, 0x00, 0x00, 0xff, 0x05, 0xf7, 0x03, 0x00, 0xff, 0x02,
    0xff, 0x01, 0x01, 0x01, 0x01, 0xfd, 0x01, 0xfd, 0x00, 0x04, 0xfd, 0x05, 0x00,
    0x00, 0x01, 0xfc, 0x00, 0x01, 0x03, 0x03, 0xfe, 0x01, 0x00, 0x01, 0x02, 0x02,
    0x01, 0x02, 0x03, 0x00, 0x02, 0xfe, 0xff, 0x04, 0xff, 0x01, 0x03, 0xfc, 0x02,
    0x00, 0xff, 0x01, 0xfd, 0x01, 0x01, 0x01, 0x01, 0xff, 0x01, 0x04, 0xfd, 0xff,
    0xff, 0x02, 0xfe, 0x04, 0x01, 0x05, 0x00, 0xdd, 0x02, 0x03, 0x03, 0xfa, 0x03,
    0x01, 0x05, 0xfe, 0xf9, 0x03, 0xfd, 0xfd, 0x03, 0xff, 0x01, 0xff, 0x01, 0xfd,
    0xf8, 0xf8, 0x00, 0xfb, 0x05, 0x01, 0x04, 0x03, 0x04, 0x03, 0xfa, 0xfc, 0xff,
    0x03, 0x00, 0xfc, 0x00, 0x03, 0xfd, 0x01, 0xfd, 0x01, 0x06, 0xfd, 0x03, 0xfb,
    0xfe, 0x05, 0xfc, 0x03, 0x01, 0x02, 0x03, 0x09, 0x01, 0x02, 0xfb, 0xfe, 0xfb,
    0x02, 0xff, 0xff, 0x03, 0x02, 0xf8, 0xfd, 0x02, 0x03, 0x03, 0xfd, 0x03, 0x02,
    0x06, 0xfe, 0xfd, 0x01, 0xfd, 0x03, 0x04, 0xff, 0x01, 0xfe, 0xfc, 0x01, 0xfd,
    0xff, 0xfd, 0xfd, 0x04, 0x00, 0x03, 0xfb, 0x02, 0xfd, 0xfa, 0xfa, 0x02, 0x0e,
    0xfa, 0xfd, 0xfe, 0xf4, 0xfc, 0xff, 0xfd, 0x02, 0x03, 0xfb, 0x01, 0xfc, 0xfd,
    0x02, 0xfa, 0x01, 0xff, 0x02, 0xfe, 0xfa, 0x02, 0x04, 0xfb, 0xfe, 0xfe, 0x01,
    0xfd, 0x05, 0x00, 0x09, 0xfe, 0xb8, 0x04, 0x02, 0x03, 0xfa, 0x03, 0x02, 0x06,
    0xfc, 0xf6, 0xf8, 0xfb, 0x06, 0x06, 0x01, 0x07, 0xfc, 0xfe, 0xfd, 0xfc, 0x01,
    0xfe, 0xfc, 0x01, 0x01, 0x05, 0xfe, 0x04, 0xf7, 0xff, 0xfa, 0x01, 0xfd, 0xfb,
    0xfa, 0xfd, 0x00, 0xf8, 0xfd, 0xfa, 0x02, 0xfe, 0xff, 0xfd, 0xff, 0xfd, 0xff,
    0xfa, 0x03, 0x04, 0x02, 0xfd, 0x07, 0x01, 0x00, 0xfa, 0x03, 0xfd, 0x01, 0xf9,
    0x03, 0x05, 0xfe, 0xff, 0x00, 0x02, 0x01, 0x02, 0x05, 0xff, 0x04, 0x04, 0xf9,
    0xfa, 0x04, 0xfd, 0x08, 0x01, 0xfd, 0xff, 0xfb, 0xfc, 0xfb, 0xfa, 0x03, 0xfe,
    0xfa, 0x03, 0x08, 0x00, 0xfd, 0x00, 0x00, 0xfc, 0x00, 0x88, 0xfe, 0xff, 0xf8,
    0xfc, 0x05, 0xfa, 0x00, 0x09, 0xf8, 0xfe, 0x0c, 0xf9, 0x04, 0x06, 0xfd, 0x06,
    0xfd, 0xfb, 0xfc, 0xfb, 0x01, 0xfe, 0xf4, 0x03, 0x03, 0x04, 0xfb, 0x03, 0xfc,
    0xfe, 0xf9, 0x03, 0xff, 0x00, 0xf9, 0xfe, 0x01, 0xfd, 0xfd, 0xfc, 0x00, 0x05,
    0xfe, 0x02, 0xfd, 0xfe, 0x04, 0xf9, 0x00, 0x04, 0x02, 0x01, 0x07, 0x04, 0x03,
    0xfe, 0xfd, 0xfb, 0x02, 0xfd, 0x04, 0x02, 0x04, 0xfe, 0xfd, 0x04, 0x04, 0x04,
    0x05, 0x04, 0x03, 0xf9, 0xff, 0x02, 0xfd, 0x01, 0xfe, 0xfc, 0x02, 0xff, 0x01,
    0x04, 0xff, 0x00, 0xe8, 0xff, 0x03, 0x04, 0xfb, 0xfd, 0x02, 0xfe, 0x02, 0xfe,
    0x05, 0x06, 0xd2, 0x07, 0xff, 0x00, 0xfa, 0x03, 0x03, 0x01, 0x05, 0x02, 0xfb,
    0x01, 0x01, 0xfe, 0x01, 0xf9, 0x05, 0x02, 0x00, 0x04, 0x0b, 0x01, 0x04, 0xfd,
    0x01, 0xfd, 0x01, 0xff, 0x01, 0x00, 0xfe, 0xee, 0xfe, 0xff, 0x04, 0xff, 0x03,
    0xfd, 0xfe, 0xf4, 0xfe, 0xfb, 0x07, 0x00, 0x07, 0x08, 0xfe, 0x05, 0x01, 0xff,
    0xfe, 0xf8, 0x01, 0xfe, 0xfa, 0x04, 0x04, 0x01, 0xfe, 0x03, 0xf9, 0xfa, 0xf7,
    0xff, 0x01, 0xff, 0xfc, 0xf9, 0x01, 0xfd, 0xfe, 0x06, 0xfe, 0xf7, 0x01, 0xfd,
    0x05, 0x06, 0x00, 0x07, 0xfc, 0xfe, 0xff, 0xf7, 0x02, 0xfe, 0xf9, 0x05, 0x06,
    0x03, 0xfe, 0x03, 0x03, 0xfe, 0xfe, 0xdf, 0xfc, 0xfb, 0xfc, 0x01, 0x04, 0xfd,
    0xfb, 0x00, 0x03, 0x01, 0xf9, 0x00, 0xfe, 0xfe, 0x01, 0xf9, 0x02, 0xff, 0xff,
    0xff, 0xed, 0xff, 0x02, 0xfe, 0xfd, 0xff, 0xfc, 0xfd, 0x02, 0x00, 0x06, 0x0b,
    0xfd, 0x03, 0xff, 0x02, 0xc0, 0xff, 0x02, 0xff, 0x04, 0x02, 0xfb, 0x02, 0xff,
    0xfc, 0x03, 0xfc, 0x03, 0x06, 0x04, 0x03, 0x0a, 0x02, 0x03, 0xef, 0xfe, 0xff,
    0x02, 0xfd, 0x06, 0x02, 0x04, 0xfc, 0x02, 0x03, 0x05, 0x02, 0x01, 0x01, 0x02,
    0xfd, 0x03, 0x04, 0xfb, 0x02, 0xfe, 0xfe, 0x03, 0xf9, 0x01, 0x04, 0x02, 0x05,
    0x03, 0x02, 0x02, 0xfc, 0xfd, 0xfd, 0x03, 0xfd, 0x04, 0xff, 0x02, 0xfe, 0x01,
    0x01, 0x02, 0x02, 0x00, 0x02, 0x04, 0x08, 0xfd, 0xfb, 0xf3, 0xf8, 0xff, 0x03,
    0xfc, 0xfb, 0xfa, 0xfb, 0xff, 0xf9, 0xf1, 0xfd, 0xfa, 0x03, 0x02, 0x04, 0xfe,
    0x03, 0x05, 0xee, 0xff, 0xfc, 0x04, 0x01, 0xff, 0xfe, 0x00, 0xfe, 0xfc, 0x00,
    0x03, 0x02, 0xfb, 0x02, 0xfb, 0xfc, 0x03, 0xf9, 0x03, 0x03, 0x04, 0x03, 0xfc,
    0x02, 0x06, 0xff, 0xf9, 0xff, 0x01, 0xfe, 0x02, 0x01, 0x06, 0x07, 0xcb, 0x02,
    0xfe, 0x04, 0xf7, 0x04, 0x00, 0x08, 0xfd, 0xf9, 0x03, 0xf9, 0x03, 0x09, 0xfe,
    0x08, 0xfb, 0xf6, 0xfc, 0xfd, 0xfb, 0xfa, 0xfd, 0x08, 0x01, 0x05, 0xfa, 0x06,
    0xf8, 0xfa, 0xfa, 0x03, 0x0c, 0xfc, 0xfb, 0xfd, 0xe9, 0xfa, 0xfd, 0x3a, 0xff,
    0xff, 0xff, 0x00, 0x00, 0x00, 0x09, 0x18, 0x00, 0x00, 0x00, 0x03, 0x00, 0x00,
    0x00, 0x08, 0x00, 0x00, 0x00, 0x18, 0x00, 0x00, 0x00, 0x01, 0x00, 0x00, 0x00,
    0x31, 0x00, 0x00, 0x00, 0x01, 0x00, 0x00, 0x00, 0x00, 0x10, 0x00, 0x00, 0x04,
    0x00, 0x06, 0x00, 0x04, 0x00, 0x00, 0x00, 0x00, 0x00, 0x06, 0x00, 0x08, 0x00,
    0x04, 0x00, 0x06, 0x00, 0x00, 0x00, 0x04, 0x00, 0x00, 0x00, 0x80, 0x00, 0x00,
    0x00, 0x5e, 0x33, 0x5e, 0x33, 0x5e, 0x33, 0x5e, 0x33, 0x5e, 0x33, 0x5e, 0x33,
    0x5e, 0x33, 0x5e, 0x33, 0x5e, 0x33, 0x5e, 0x33, 0x5e, 0x33, 0x5e, 0x33, 0x5e,
    0x33, 0x5e, 0x33, 0x5e, 0x33, 0x5e, 0x33, 0x1c, 0xff, 0x03, 0xe6, 0x44, 0x01,
    0xb9, 0xbe, 0xc4, 0xe9, 0xb7, 0xde, 0xa2, 0xee, 0xb9, 0xd1, 0x52, 0xd5, 0x52,
    0xdb, 0xf6, 0xdc, 0xad, 0xdc, 0x11, 0xfe, 0x37, 0xe7, 0x47, 0xfc, 0x23, 0xec,
    0x5e, 0x33, 0x5e, 0x33, 0x5e, 0x33, 0x5e, 0x33, 0x5e, 0x33, 0x5e, 0x33, 0x5e,
    0x33, 0x5e, 0x33, 0x5e, 0x33, 0x5e, 0x33, 0x5e, 0x33, 0x5e, 0x33, 0x5e, 0x33,
    0x5e, 0x33, 0x5e, 0x33, 0x5e, 0x33, 0x0a, 0xd3, 0x7f, 0xdf, 0xc1, 0xcc, 0xed,
    0x01, 0x77, 0xe8, 0xe1, 0xed, 0x73, 0xe0, 0x50, 0xe6, 0x99, 0xdd, 0x93, 0xde,
    0xcb, 0xfc, 0x0b, 0xea, 0x74, 0xaa, 0x1f, 0xe7, 0x92, 0xd8, 0xdb, 0xef, 0x00,
    0x00, 0x0e, 0x00, 0x18, 0x00, 0x08, 0x00, 0x07, 0x00, 0x0c, 0x00, 0x10, 0x00,
    0x14, 0x00, 0x0e, 0x00, 0x00, 0x00, 0x00, 0x00, 0x00, 0x07, 0x18, 0x00, 0x00,
    0x00, 0x02, 0x00, 0x00, 0x00, 0x08, 0x00, 0x00, 0x00, 0x14, 0x00, 0x00, 0x00,
    0x01, 0x00, 0x00, 0x00, 0x30, 0x00, 0x00, 0x00, 0x01, 0x00, 0x00, 0x00, 0x40,
    0x00, 0x00, 0x00, 0x58, 0xff, 0xff, 0xff, 0x14, 0x00, 0x1c, 0x00, 0x08, 0x00,
    0x07, 0x00, 0x0c, 0x00, 0x10, 0x00, 0x14, 0x00, 0x00, 0x00, 0x00, 0x00, 0x18,
    0x00, 0x14, 0x00, 0x00, 0x00, 0x00, 0x00, 0x00, 0x09, 0x48, 0x00, 0x00, 0x00,
    0x01, 0x00, 0x00, 0x00, 0x20, 0x00, 0x00, 0x00, 0x5c, 0x00, 0x00, 0x00, 0x04,
    0x00, 0x00, 0x00, 0x04, 0x00, 0x00, 0x00, 0xff, 0xff, 0xff, 0xff, 0x01, 0x00,
    0x00, 0x00, 0x04, 0x00, 0x00, 0x00, 0x18, 0x00, 0x00, 0x00, 0x19, 0x00, 0x00,
    0x00, 0x73, 0x65, 0x72, 0x76, 0x69, 0x6e, 0x67, 0x5f, 0x64, 0x65, 0x66, 0x61,
    0x75, 0x6c, 0x74, 0x5f, 0x69, 0x6e, 0x70, 0x75, 0x74, 0x5f, 0x32, 0x3a, 0x30,
    0x00, 0x00, 0x00, 0x04, 0x00, 0x00, 0x00, 0x01, 0x00, 0x00, 0x00, 0x01, 0x00,
    0x00, 0x00, 0x04, 0x00, 0x00, 0x00, 0x18, 0x00, 0x00, 0x00, 0x0c, 0x00, 0x0c,
    0x00, 0x00, 0x00, 0x00, 0x00, 0x04, 0x00, 0x08, 0x00, 0x0c, 0x00, 0x00, 0x00,
    0x14, 0x00, 0x00, 0x00, 0x04, 0x00, 0x00, 0x00, 0x01, 0x00, 0x00, 0x00, 0x7f,
    0x00, 0x00, 0x00, 0x00, 0x00, 0x00, 0x00, 0x01, 0x00, 0x00, 0x00, 0xa3, 0x36,
    0x16, 0x3e, 0x04, 0x00, 0x04, 0x00, 0x04, 0x00, 0x00, 0x00,
};

const int vnr_model_data_len = 11320;