// This is a TensorFlow Lite model file that has been converted into a C data
// array using the convert_tflite_to_c_source() tool.

#if( USE_SWMEM == 1)
__attribute__((section(".SwMem_data")))
#elif( USE_EXTMEM == 1)
__attribute__((section(".ExtMem_data")))
#endif
const unsigned char vnr_model_data[] __attribute__((aligned(4))) = {
    0x20, 0x00, 0x00, 0x00, 0x54, 0x46, 0x4c, 0x33, 0x00, 0x00, 0x00, 0x00, 0x14,
    0x00, 0x20, 0x00, 0x04, 0x00, 0x08, 0x00, 0x0c, 0x00, 0x10, 0x00, 0x14, 0x00,
    0x00, 0x00, 0x18, 0x00, 0x1c, 0x00, 0x14, 0x00, 0x00, 0x00, 0x03, 0x00, 0x00,
    0x00, 0x70, 0x00, 0x00, 0x00, 0x64, 0x00, 0x00, 0x00, 0xb4, 0x01, 0x00, 0x00,
    0x0c, 0x00, 0x00, 0x00, 0xf8, 0x00, 0x00, 0x00, 0x70, 0x00, 0x00, 0x00, 0x13,
    0x00, 0x00, 0x00, 0xe0, 0x2b, 0x00, 0x00, 0xdc, 0x2b, 0x00, 0x00, 0x68, 0x2a,
    0x00, 0x00, 0x20, 0x1a, 0x00, 0x00, 0x64, 0x19, 0x00, 0x00, 0x28, 0x11, 0x00,
    0x00, 0xec, 0x0f, 0x00, 0x00, 0x30, 0x09, 0x00, 0x00, 0xe4, 0x08, 0x00, 0x00,
    0xbc, 0x2b, 0x00, 0x00, 0xb8, 0x2b, 0x00, 0x00, 0xf8, 0x05, 0x00, 0x00, 0xb0,
    0x2b, 0x00, 0x00, 0x50, 0x04, 0x00, 0x00, 0xa8, 0x2b, 0x00, 0x00, 0xa4, 0x2b,
    0x00, 0x00, 0xa0, 0x2b, 0x00, 0x00, 0x40, 0x01, 0x00, 0x00, 0xd4, 0x00, 0x00,
    0x00, 0x01, 0x00, 0x00, 0x00, 0x74, 0x01, 0x00, 0x00, 0x04, 0x00, 0x00, 0x00,
    0x1c, 0x08, 0x00, 0x00, 0xac, 0x03, 0x00, 0x00, 0xd0, 0x02, 0x00, 0x00, 0x14,
    0x02, 0x00, 0x00, 0x01, 0x00, 0x00, 0x00, 0x10, 0x00, 0x00, 0x00, 0x00, 0x00,
    0x0a, 0x00, 0x10, 0x00, 0x0c, 0x00, 0x08, 0x00, 0x04, 0x00, 0x0a, 0x00, 0x00,
    0x00, 0x0c, 0x00, 0x00, 0x00, 0x1c, 0x00, 0x00, 0x00, 0x20, 0x00, 0x00, 0x00,
    0x0f, 0x00, 0x00, 0x00, 0x73, 0x65, 0x72, 0x76, 0x69, 0x6e, 0x67, 0x5f, 0x64,
    0x65, 0x66, 0x61, 0x75, 0x6c, 0x74, 0x00, 0x01, 0x00, 0x00, 0x00, 0x14, 0x00,
    0x00, 0x00, 0x01, 0x00, 0x00, 0x00, 0x2c, 0x00, 0x00, 0x00, 0x08, 0x00, 0x0c,
    0x00, 0x08, 0x00, 0x04, 0x00, 0x08, 0x00, 0x00, 0x00, 0x0f, 0x00, 0x00, 0x00,
    0x04, 0x00, 0x00, 0x00, 0x0c, 0x00, 0x00, 0x00, 0x61, 0x63, 0x74, 0x69, 0x76,
    0x61, 0x74, 0x69, 0x6f, 0x6e, 0x5f, 0x32, 0x00, 0x00, 0x00, 0x00, 0x6e, 0xd6,
    0xff, 0xff, 0x04, 0x00, 0x00, 0x00, 0x07, 0x00, 0x00, 0x00, 0x69, 0x6e, 0x70,
    0x75, 0x74, 0x5f, 0x31, 0x00, 0x02, 0x00, 0x00, 0x00, 0x70, 0x00, 0x00, 0x00,
    0x04, 0x00, 0x00, 0x00, 0xa0, 0xff, 0xff, 0xff, 0x08, 0x00, 0x00, 0x00, 0x12,
    0x00, 0x00, 0x00, 0x11, 0x00, 0x00, 0x00, 0x78, 0x63, 0x6f, 0x72, 0x65, 0x53,
    0x68, 0x61, 0x72, 0x65, 0x64, 0x43, 0x6f, 0x6e, 0x66, 0x69, 0x67, 0x00, 0x00,
    0x00, 0xb2, 0xd6, 0xff, 0xff, 0x04, 0x00, 0x00, 0x00, 0x30, 0x00, 0x00, 0x00,
    0x6e, 0x87, 0xfa, 0x23, 0x00, 0x00, 0x00, 0x00, 0x00, 0x00, 0x00, 0x00, 0x01,
    0x00, 0x00, 0x00, 0x00, 0x00, 0x00, 0x00, 0x00, 0x00, 0x00, 0x00, 0x02, 0x00,
    0x00, 0x00, 0x00, 0x00, 0x00, 0x00, 0x00, 0x00, 0x00, 0x00, 0x01, 0x00, 0x00,
    0x00, 0x08, 0x00, 0x00, 0x00, 0x01, 0x00, 0x00, 0x00, 0x08, 0x00, 0x0c, 0x00,
    0x04, 0x00, 0x08, 0x00, 0x08, 0x00, 0x00, 0x00, 0x08, 0x00, 0x00, 0x00, 0x11,
    0x00, 0x00, 0x00, 0x13, 0x00, 0x00, 0x00, 0x6d, 0x69, 0x6e, 0x5f, 0x72, 0x75,
    0x6e, 0x74, 0x69, 0x6d, 0x65, 0x5f, 0x76, 0x65, 0x72, 0x73, 0x69, 0x6f, 0x6e,
    0x00, 0x1a, 0xd7, 0xff, 0xff, 0x04, 0x00, 0x00, 0x00, 0x10, 0x00, 0x00, 0x00,
    0x31, 0x2e, 0x31, 0x34, 0x2e, 0x30, 0x00, 0x00, 0x00, 0x00, 0x00, 0x00, 0x00,
    0x00, 0x00, 0x00, 0x0f, 0x00, 0x00, 0x00, 0x4d, 0x4c, 0x49, 0x52, 0x20, 0x43,
    0x6f, 0x6e, 0x76, 0x65, 0x72, 0x74, 0x65, 0x64, 0x2e, 0x00, 0x00, 0x00, 0x0e,
    0x00, 0x18, 0x00, 0x04, 0x00, 0x08, 0x00, 0x0c, 0x00, 0x10, 0x00, 0x14, 0x00,
    0x0e, 0x00, 0x00, 0x00, 0x4c, 0x00, 0x00, 0x00, 0x40, 0x00, 0x00, 0x00, 0x34,
    0x00, 0x00, 0x00, 0x14, 0x00, 0x00, 0x00, 0x04, 0x00, 0x00, 0x00, 0x04, 0x00,
    0x00, 0x00, 0x6d, 0x61, 0x69, 0x6e, 0x00, 0x00, 0x00, 0x00, 0x06, 0x00, 0x00,
    0x00, 0xc0, 0x05, 0x00, 0x00, 0x8c, 0x04, 0x00, 0x00, 0x10, 0x03, 0x00, 0x00,
    0xb8, 0x01, 0x00, 0x00, 0x10, 0x01, 0x00, 0x00, 0x58, 0x00, 0x00, 0x00, 0x01,
    0x00, 0x00, 0x00, 0x0f, 0x00, 0x00, 0x00, 0x01, 0x00, 0x00, 0x00, 0x00, 0x00,
    0x00, 0x00, 0x10, 0x00, 0x00, 0x00, 0x34, 0x29, 0x00, 0x00, 0xf0, 0x28, 0x00,
    0x00, 0x18, 0x28, 0x00, 0x00, 0xdc, 0x17, 0x00, 0x00, 0x20, 0x17, 0x00, 0x00,
    0xe4, 0x0e, 0x00, 0x00, 0xa8, 0x0d, 0x00, 0x00, 0xec, 0x06, 0x00, 0x00, 0x60,
    0x06, 0x00, 0x00, 0xf4, 0x04, 0x00, 0x00, 0xf4, 0x03, 0x00, 0x00, 0x74, 0x03,
    0x00, 0x00, 0x68, 0x02, 0x00, 0x00, 0xcc, 0x01, 0x00, 0x00, 0xf0, 0x00, 0x00,
    0x00, 0x34, 0x00, 0x00, 0x00, 0x56, 0xff, 0xff, 0xff, 0x03, 0x00, 0x00, 0x00,
    0x10, 0x00, 0x00, 0x00, 0x04, 0x00, 0x00, 0x00, 0x01, 0x00, 0x00, 0x00, 0x0f,
    0x00, 0x00, 0x00, 0x01, 0x00, 0x00, 0x00, 0x0e, 0x00, 0x00, 0x00, 0x7c, 0xfe,
    0xff, 0xff, 0x0e, 0x00, 0x00, 0x00, 0x00, 0x00, 0x00, 0x0e, 0x02, 0x00, 0x00,
    0x00, 0x50, 0xd7, 0xff, 0xff, 0x00, 0x00, 0x00, 0x09, 0x40, 0x00, 0x00, 0x00,
    0x10, 0x00, 0x00, 0x00, 0x18, 0x00, 0x00, 0x00, 0x40, 0x00, 0x00, 0x00, 0x04,
    0x00, 0x00, 0x00, 0x02, 0x00, 0x00, 0x00, 0xff, 0xff, 0xff, 0xff, 0x01, 0x00,
    0x00, 0x00, 0x19, 0x00, 0x00, 0x00, 0x53, 0x74, 0x61, 0x74, 0x65, 0x66, 0x75,
    0x6c, 0x50, 0x61, 0x72, 0x74, 0x69, 0x74, 0x69, 0x6f, 0x6e, 0x65, 0x64, 0x43,
    0x61, 0x6c, 0x6c, 0x3a, 0x30, 0x00, 0x00, 0x00, 0x02, 0x00, 0x00, 0x00, 0x01,
    0x00, 0x00, 0x00, 0x01, 0x00, 0x00, 0x00, 0x2c, 0xd7, 0xff, 0xff, 0x18, 0x00,
    0x00, 0x00, 0x04, 0x00, 0x00, 0x00, 0x01, 0x00, 0x00, 0x00, 0x80, 0xff, 0xff,
    0xff, 0xff, 0xff, 0xff, 0xff, 0x00, 0x00, 0x00, 0x00, 0x01, 0x00, 0x00, 0x00,
    0x00, 0x00, 0x80, 0x3b, 0x00, 0x00, 0x0a, 0x00, 0x10, 0x00, 0x04, 0x00, 0x08,
    0x00, 0x0c, 0x00, 0x0a, 0x00, 0x00, 0x00, 0x02, 0x00, 0x00, 0x00, 0x10, 0x00,
    0x00, 0x00, 0x04, 0x00, 0x00, 0x00, 0x01, 0x00, 0x00, 0x00, 0x0e, 0x00, 0x00,
    0x00, 0x02, 0x00, 0x00, 0x00, 0x0d, 0x00, 0x00, 0x00, 0x07, 0x00, 0x00, 0x00,
    0x34, 0xff, 0xff, 0xff, 0x16, 0x00, 0x00, 0x00, 0x00, 0x00, 0x00, 0x16, 0x01,
    0x00, 0x00, 0x00, 0x08, 0xd8, 0xff, 0xff, 0x00, 0x00, 0x00, 0x09, 0x28, 0x00,
    0x00, 0x00, 0x0f, 0x00, 0x00, 0x00, 0x18, 0x00, 0x00, 0x00, 0x28, 0x00, 0x00,
    0x00, 0x04, 0x00, 0x00, 0x00, 0x02, 0x00, 0x00, 0x00, 0xff, 0xff, 0xff, 0xff,
    0x01, 0x00, 0x00, 0x00, 0x01, 0x00, 0x00, 0x00, 0x44, 0x00, 0x00, 0x00, 0x02,
    0x00, 0x00, 0x00, 0x01, 0x00, 0x00, 0x00, 0x01, 0x00, 0x00, 0x00, 0xcc, 0xd7,
    0xff, 0xff, 0x18, 0x00, 0x00, 0x00, 0x04, 0x00, 0x00, 0x00, 0x01, 0x00, 0x00,
    0x00, 0x1f, 0x00, 0x00, 0x00, 0x00, 0x00, 0x00, 0x00, 0x00, 0x00, 0x00, 0x00,
    0x01, 0x00, 0x00, 0x00, 0x6b, 0x03, 0x30, 0x3e, 0x00, 0x00, 0x0e, 0x00, 0x1a,
    0x00, 0x08, 0x00, 0x0c, 0x00, 0x10, 0x00, 0x07, 0x00, 0x14, 0x00, 0x0e, 0x00,
    0x00, 0x00, 0x00, 0x00, 0x00, 0x01, 0x01, 0x00, 0x00, 0x00, 0x30, 0x00, 0x00,
    0x00, 0x24, 0x00, 0x00, 0x00, 0x10, 0x00, 0x00, 0x00, 0x00, 0x00, 0x0a, 0x00,
    0x10, 0x00, 0x0f, 0x00, 0x04, 0x00, 0x08, 0x00, 0x0a, 0x00, 0x00, 0x00, 0x01,
    0x00, 0x00, 0x00, 0x01, 0x00, 0x00, 0x00, 0x00, 0x00, 0x00, 0x01, 0x01, 0x00,
    0x00, 0x00, 0x0d, 0x00, 0x00, 0x00, 0x03, 0x00, 0x00, 0x00, 0x0b, 0x00, 0x00,
    0x00, 0x0c, 0x00, 0x00, 0x00, 0x0a, 0x00, 0x00, 0x00, 0x0c, 0x00, 0x10, 0x00,
    0x0b, 0x00, 0x00, 0x00, 0x0c, 0x00, 0x04, 0x00, 0x0c, 0x00, 0x00, 0x00, 0x03,
    0x00, 0x00, 0x00, 0x00, 0x00, 0x00, 0x03, 0x03, 0x00, 0x00, 0x00, 0xe0, 0xd8,
    0xff, 0xff, 0x00, 0x00, 0x00, 0x09, 0x30, 0x00, 0x00, 0x00, 0x0e, 0x00, 0x00,
    0x00, 0x20, 0x00, 0x00, 0x00, 0x38, 0x00, 0x00, 0x00, 0x04, 0x00, 0x00, 0x00,
    0x04, 0x00, 0x00, 0x00, 0xff, 0xff, 0xff, 0xff, 0x01, 0x00, 0x00, 0x00, 0x01,
    0x00, 0x00, 0x00, 0x01, 0x00, 0x00, 0x00, 0x01, 0x00, 0x00, 0x00, 0x43, 0x00,
    0x00, 0x00, 0x04, 0x00, 0x00, 0x00, 0x01, 0x00, 0x00, 0x00, 0x01, 0x00, 0x00,
    0x00, 0x01, 0x00, 0x00, 0x00, 0x01, 0x00, 0x00, 0x00, 0xb4, 0xd8, 0xff, 0xff,
    0x14, 0x00, 0x00, 0x00, 0x04, 0x00, 0x00, 0x00, 0x01, 0x00, 0x00, 0x00, 0x1f,
    0x00, 0x00, 0x00, 0x00, 0x00, 0x00, 0x00, 0x01, 0x00, 0x00, 0x00, 0x6b, 0x03,
    0x30, 0x3e, 0x1a, 0xda, 0xff, 0xff, 0x04, 0x00, 0x00, 0x00, 0x20, 0x00, 0x00,
    0x00, 0xbb, 0xe1, 0x49, 0xb7, 0xb8, 0xbd, 0x40, 0x4e, 0xd1, 0xa8, 0x34, 0xae,
    0xd6, 0x96, 0x15, 0x9d, 0x39, 0xd2, 0xbc, 0xd5, 0x5f, 0xc0, 0x4c, 0xa4, 0xa9,
    0x37, 0x81, 0xe4, 0x5d, 0x4c, 0x58, 0x24, 0xb2, 0xd9, 0xff, 0xff, 0x00, 0x00,
    0x00, 0x09, 0x18, 0x00, 0x00, 0x00, 0x0d, 0x00, 0x00, 0x00, 0x08, 0x00, 0x00,
    0x00, 0x20, 0x00, 0x00, 0x00, 0x01, 0x00, 0x00, 0x00, 0x42, 0x00, 0x00, 0x00,
    0x04, 0x00, 0x00, 0x00, 0x01, 0x00, 0x00, 0x00, 0x01, 0x00, 0x00, 0x00, 0x01,
    0x00, 0x00, 0x00, 0x20, 0x00, 0x00, 0x00, 0x34, 0xd9, 0xff, 0xff, 0x14, 0x00,
    0x00, 0x00, 0x04, 0x00, 0x00, 0x00, 0x01, 0x00, 0x00, 0x00, 0x00, 0x00, 0x00,
    0x00, 0x00, 0x00, 0x00, 0x00, 0x01, 0x00, 0x00, 0x00, 0x8a, 0x27, 0x95, 0x39,
    0x68, 0xfd, 0xff, 0xff, 0xa0, 0x00, 0x00, 0x00, 0x94, 0x00, 0x00, 0x00, 0x04,
    0x00, 0x00, 0x00, 0x87, 0x00, 0x00, 0x00, 0x6b, 0x74, 0x00, 0x6d, 0x70, 0x00,
    0x08, 0x80, 0x00, 0x00, 0x00, 0x80, 0x00, 0x00, 0x00, 0x00, 0x61, 0x67, 0x67,
    0x70, 0x00, 0x18, 0x00, 0x08, 0x00, 0x00, 0x00, 0x00, 0x00, 0x00, 0x00, 0x00,
    0x00, 0x00, 0x03, 0x00, 0x00, 0x00, 0x00, 0x00, 0x00, 0x00, 0x00, 0x00, 0x00,
    0x00, 0x00, 0x6f, 0x74, 0x70, 0x00, 0x08, 0x20, 0x00, 0x00, 0x00, 0x01, 0x00,
    0xfc, 0xff, 0x00, 0x73, 0x63, 0x72, 0x61, 0x74, 0x63, 0x68, 0x00, 0x61, 0x6b,
    0x70, 0x00, 0x20, 0x00, 0x00, 0x00, 0x00, 0x01, 0x00, 0x00, 0x00, 0x00, 0x00,
    0x00, 0x00, 0x01, 0x00, 0x00, 0x00, 0x02, 0x00, 0x00, 0x00, 0x00, 0x00, 0x00,
    0x00, 0x00, 0x00, 0x00, 0x00, 0x20, 0x00, 0x00, 0x00, 0x00, 0x01, 0x22, 0x14,
    0x06, 0x5f, 0x2b, 0x71, 0x6f, 0x44, 0x37, 0x06, 0x01, 0x06, 0x62, 0x0d, 0x00,
    0x74, 0x48, 0x00, 0x14, 0x28, 0x04, 0x14, 0x14, 0x04, 0x0c, 0x24, 0x01, 0x00,
    0x01, 0x00, 0x00, 0x00, 0x0b, 0x00, 0x00, 0x00, 0x03, 0x00, 0x00, 0x00, 0x09,
    0x00, 0x00, 0x00, 0x02, 0x00, 0x00, 0x00, 0x01, 0x00, 0x00, 0x00, 0x80, 0xda,
    0xff, 0xff, 0x00, 0x00, 0x00, 0x09, 0x30, 0x00, 0x00, 0x00, 0x0c, 0x00, 0x00,
    0x00, 0x20, 0x00, 0x00, 0x00, 0x38, 0x00, 0x00, 0x00, 0x04, 0x00, 0x00, 0x00,
    0x04, 0x00, 0x00, 0x00, 0xff, 0xff, 0xff, 0xff, 0x01, 0x00, 0x00, 0x00, 0x01,
    0x00, 0x00, 0x00, 0x20, 0x00, 0x00, 0x00, 0x01, 0x00, 0x00, 0x00, 0x41, 0x00,
    0x00, 0x00, 0x04, 0x00, 0x00, 0x00, 0x01, 0x00, 0x00, 0x00, 0x01, 0x00, 0x00,
    0x00, 0x01, 0x00, 0x00, 0x00, 0x20, 0x00, 0x00, 0x00, 0x54, 0xda, 0xff, 0xff,
    0x14, 0x00, 0x00, 0x00, 0x04, 0x00, 0x00, 0x00, 0x01, 0x00, 0x00, 0x00, 0x80,
    0xff, 0xff, 0xff, 0xff, 0xff, 0xff, 0xff, 0x01, 0x00, 0x00, 0x00, 0x1d, 0x97,
    0x4b, 0x3f, 0xba, 0xdb, 0xff, 0xff, 0x04, 0x00, 0x00, 0x00, 0x04, 0x00, 0x00,
    0x00, 0x61, 0x03, 0x00, 0x00, 0x36, 0xdb, 0xff, 0xff, 0x00, 0x00, 0x00, 0x02,
    0x18, 0x00, 0x00, 0x00, 0x0b, 0x00, 0x00, 0x00, 0x08, 0x00, 0x00, 0x00, 0x14,
    0x00, 0x00, 0x00, 0x01, 0x00, 0x00, 0x00, 0x39, 0x00, 0x00, 0x00, 0x01, 0x00,
    0x00, 0x00, 0x01, 0x00, 0x00, 0x00, 0xac, 0xda, 0xff, 0xff, 0x14, 0x00, 0x00,
    0x00, 0x04, 0x00, 0x00, 0x00, 0x01, 0x00, 0x00, 0x00, 0x00, 0x00, 0x00, 0x00,
    0x00, 0x00, 0x00, 0x00, 0x01, 0x00, 0x00, 0x00, 0xcb, 0x3c, 0x6d, 0x39, 0xe0,
    0xfe, 0xff, 0xff, 0xa0, 0x00, 0x00, 0x00, 0x94, 0x00, 0x00, 0x00, 0x04, 0x00,
    0x00, 0x00, 0x87, 0x00, 0x00, 0x00, 0x6b, 0x74, 0x00, 0x6d, 0x70, 0x00, 0x08,
    0x00, 0x01, 0x00, 0x00, 0x40, 0x00, 0x00, 0x00, 0x00, 0x61, 0x67, 0x67, 0x70,
    0x00, 0x18, 0x00, 0x04, 0x00, 0x00, 0x00, 0x00, 0x00, 0x00, 0x00, 0x00, 0x00,
    0x00, 0x01, 0x00, 0x00, 0x00, 0x00, 0x00, 0x00, 0x00, 0xc0, 0x00, 0x00, 0x00,
    0x00, 0x6f, 0x74, 0x70, 0x00, 0x08, 0x20, 0x00, 0x00, 0x00, 0x03, 0x00, 0xf9,
    0xff, 0x00, 0x73, 0x63, 0x72, 0x61, 0x74, 0x63, 0x68, 0x00, 0x61, 0x6b, 0x70,
    0x00, 0x20, 0x00, 0x00, 0x00, 0x00, 0x01, 0x00, 0x00, 0x00, 0x00, 0x00, 0x00,
    0x00, 0x04, 0x00, 0x00, 0x00, 0x02, 0x00, 0x00, 0x00, 0x00, 0x00, 0x00, 0x00,
    0x00, 0x00, 0x00, 0x00, 0x20, 0x00, 0x00, 0x00, 0x00, 0x01, 0x22, 0x14, 0x06,
    0x5f, 0x2b, 0x71, 0x6f, 0x44, 0x37, 0x06, 0x01, 0x06, 0x62, 0x0d, 0x00, 0x74,
    0x48, 0x00, 0x14, 0x28, 0x04, 0x14, 0x14, 0x04, 0x0c, 0x24, 0x01, 0x00, 0x01,
    0x00, 0x00, 0x00, 0x09, 0x00, 0x00, 0x00, 0x03, 0x00, 0x00, 0x00, 0x08, 0x00,
    0x00, 0x00, 0x04, 0x00, 0x00, 0x00, 0x03, 0x00, 0x00, 0x00, 0xf8, 0xdb, 0xff,
    0xff, 0x00, 0x00, 0x00, 0x09, 0x30, 0x00, 0x00, 0x00, 0x0a, 0x00, 0x00, 0x00,
    0x20, 0x00, 0x00, 0x00, 0x38, 0x00, 0x00, 0x00, 0x04, 0x00, 0x00, 0x00, 0x04,
    0x00, 0x00, 0x00, 0xff, 0xff, 0xff, 0xff, 0x01, 0x00, 0x00, 0x00, 0x04, 0x00,
    0x00, 0x00, 0x20, 0x00, 0x00, 0x00, 0x01, 0x00, 0x00, 0x00, 0x38, 0x00, 0x00,
    0x00, 0x04, 0x00, 0x00, 0x00, 0x01, 0x00, 0x00, 0x00, 0x01, 0x00, 0x00, 0x00,
    0x04, 0x00, 0x00, 0x00, 0x20, 0x00, 0x00, 0x00, 0xcc, 0xdb, 0xff, 0xff, 0x14,
    0x00, 0x00, 0x00, 0x04, 0x00, 0x00, 0x00, 0x01, 0x00, 0x00, 0x00, 0x80, 0xff,
    0xff, 0xff, 0xff, 0xff, 0xff, 0xff, 0x01, 0x00, 0x00, 0x00, 0x3b, 0x93, 0xaa,
    0x3e, 0x10, 0x00, 0x10, 0x00, 0x00, 0x00, 0x04, 0x00, 0x08, 0x00, 0x00, 0x00,
    0x00, 0x00, 0x0c, 0x00, 0x10, 0x00, 0x00, 0x00, 0xa8, 0x00, 0x00, 0x00, 0x9c,
    0x00, 0x00, 0x00, 0x04, 0x00, 0x00, 0x00, 0x8f, 0x00, 0x00, 0x00, 0x6b, 0x74,
    0x00, 0x6d, 0x70, 0x00, 0x20, 0x60, 0x00, 0x00, 0x00, 0x18, 0x00, 0x00, 0x00,
    0x00, 0x00, 0x00, 0x00, 0x00, 0x00, 0x00, 0x00, 0x00, 0x00, 0x00, 0x00, 0x08,
    0x00, 0x00, 0x00, 0xf8, 0xff, 0xff, 0xff, 0x48, 0x00, 0x00, 0x00, 0x00, 0x61,
    0x67, 0x67, 0x70, 0x00, 0x08, 0x40, 0x00, 0x00, 0x00, 0x18, 0x00, 0x00, 0x00,
    0x00, 0x6f, 0x74, 0x70, 0x00, 0x08, 0x40, 0x00, 0x00, 0x00, 0x03, 0x00, 0xfb,
    0xff, 0x00, 0x73, 0x63, 0x72, 0x61, 0x74, 0x63, 0x68, 0x00, 0x61, 0x6b, 0x70,
    0x00, 0x20, 0x00, 0x00, 0x00, 0x00, 0x01, 0x00, 0x00, 0x00, 0x00, 0x00, 0x00,
    0x00, 0x04, 0x00, 0x00, 0x00, 0x04, 0x00, 0x00, 0x00, 0x00, 0x00, 0x00, 0x00,
    0x00, 0x00, 0x00, 0x00, 0x40, 0x00, 0x00, 0x00, 0x00, 0x01, 0x22, 0x14, 0x06,
    0x4f, 0x2b, 0x79, 0x77, 0x44, 0x37, 0x06, 0x01, 0x06, 0x52, 0x0d, 0x01, 0x7c,
    0x48, 0x40, 0x14, 0x28, 0x04, 0x14, 0x14, 0x04, 0x0c, 0x24, 0x01, 0x00, 0x01,
    0x00, 0x00, 0x00, 0x08, 0x00, 0x00, 0x00, 0x03, 0x00, 0x00, 0x00, 0x00, 0x00,
    0x00, 0x00, 0x06, 0x00, 0x00, 0x00, 0x05, 0x00, 0x00, 0x00, 0x0c, 0x00, 0x10,
    0x00, 0x0f, 0x00, 0x08, 0x00, 0x00, 0x00, 0x04, 0x00, 0x0c, 0x00, 0x00, 0x00,
    0x20, 0x00, 0x00, 0x00, 0x08, 0x00, 0x00, 0x00, 0x00, 0x00, 0x00, 0x20, 0x0c,
    0x00, 0x00, 0x00, 0x58, 0x43, 0x5f, 0x63, 0x6f, 0x6e, 0x76, 0x32, 0x64, 0x5f,
    0x76, 0x32, 0x00, 0x00, 0x00, 0x00, 0x60, 0xdd, 0xff, 0xff, 0x00, 0x00, 0x00,
    0x09, 0x30, 0x00, 0x00, 0x00, 0x09, 0x00, 0x00, 0x00, 0x20, 0x00, 0x00, 0x00,
    0x38, 0x00, 0x00, 0x00, 0x04, 0x00, 0x00, 0x00, 0x04, 0x00, 0x00, 0x00, 0xff,
    0xff, 0xff, 0xff, 0x01, 0x00, 0x00, 0x00, 0x04, 0x00, 0x00, 0x00, 0x40, 0x00,
    0x00, 0x00, 0x01, 0x00, 0x00, 0x00, 0x37, 0x00, 0x00, 0x00, 0x04, 0x00, 0x00,
    0x00, 0x01, 0x00, 0x00, 0x00, 0x01, 0x00, 0x00, 0x00, 0x04, 0x00, 0x00, 0x00,
    0x40, 0x00, 0x00, 0x00, 0x34, 0xdd, 0xff, 0xff, 0x14, 0x00, 0x00, 0x00, 0x04,
    0x00, 0x00, 0x00, 0x01, 0x00, 0x00, 0x00, 0x80, 0xff, 0xff, 0xff, 0xff, 0xff,
    0xff, 0xff, 0x01, 0x00, 0x00, 0x00, 0x0c, 0xe8, 0x76, 0x3e, 0x9a, 0xde, 0xff,
    0xff, 0x04, 0x00, 0x00, 0x00, 0x10, 0x00, 0x00, 0x00, 0xff, 0xff, 0xff, 0xff,
    0xff, 0xff, 0xff, 0xff, 0x01, 0x00, 0x00, 0x00, 0x00, 0x00, 0x00, 0x00, 0x22,
    0xde, 0xff, 0xff, 0x00, 0x00, 0x00, 0x04, 0x18, 0x00, 0x00, 0x00, 0x08, 0x00,
    0x00, 0x00, 0x08, 0x00, 0x00, 0x00, 0x14, 0x00, 0x00, 0x00, 0x01, 0x00, 0x00,
    0x00, 0x36, 0x00, 0x00, 0x00, 0x01, 0x00, 0x00, 0x00, 0x02, 0x00, 0x00, 0x00,
    0x6c, 0xdd, 0xff, 0xff, 0xe2, 0xde, 0xff, 0xff, 0x04, 0x00, 0x00, 0x00, 0x80,
    0x06, 0x00, 0x00, 0xf5, 0x13, 0xed, 0x0c, 0xfa, 0xfe, 0xea, 0xfa, 0x42, 0x0e,
    0x17, 0x17, 0xea, 0x81, 0x9e, 0xfa, 0x2e, 0x35, 0x52, 0x60, 0xbf, 0xa6, 0xe6,
    0x3b, 0xde, 0x4b, 0x81, 0x4e, 0xc2, 0x1b, 0x40, 0x50, 0x1a, 0x31, 0x29, 0x13,
    0x0d, 0xfd, 0xf0, 0x21, 0xdf, 0xfe, 0xa3, 0xf5, 0x3a, 0xff, 0xe7, 0x0b, 0x37,
    0x4a, 0x1e, 0x5e, 0xdb, 0xfd, 0x1f, 0xfa, 0xd4, 0x16, 0x23, 0x20, 0xed, 0x35,
    0xbd, 0x53, 0xd7, 0xfb, 0x7f, 0x46, 0x5b, 0x11, 0x42, 0xf3, 0x06, 0xfc, 0x02,
    0x16, 0x00, 0x0b, 0x06, 0xec, 0xf3, 0x09, 0xf4, 0xf7, 0x0b, 0xd4, 0xd6, 0x23,
    0x81, 0x93, 0x44, 0x46, 0x07, 0x55, 0xf2, 0x22, 0x49, 0xad, 0x9c, 0x81, 0xd0,
    0x3e, 0x45, 0x24, 0x28, 0xf6, 0x39, 0xb9, 0xd1, 0x68, 0x5b, 0x0d, 0x44, 0x0b,
    0x4a, 0x56, 0xf4, 0xb4, 0xf9, 0xbc, 0xef, 0x1e, 0x0e, 0x04, 0x0e, 0x3a, 0x0a,
    0x15, 0xda, 0x81, 0x86, 0xf8, 0x43, 0x29, 0x18, 0x2a, 0x06, 0xea, 0x00, 0xdb,
    0x20, 0xdb, 0x1d, 0x0d, 0xfa, 0x0b, 0x00, 0xfa, 0x0b, 0x10, 0xff, 0xfe, 0x09,
    0x0f, 0x16, 0x05, 0x1c, 0xfd, 0x81, 0x04, 0x26, 0xdf, 0x19, 0xef, 0x00, 0x1c,
    0xeb, 0x09, 0xce, 0x7e, 0x5f, 0x68, 0x69, 0x59, 0xdf, 0xcd, 0x7f, 0xc1, 0x57,
    0xf0, 0x62, 0xdf, 0xf1, 0x06, 0x5c, 0x52, 0x5b, 0x06, 0x7f, 0xb4, 0x7c, 0x03,
    0xfe, 0x00, 0x0d, 0x08, 0xe6, 0xea, 0x06, 0x3d, 0x28, 0xd5, 0xc2, 0x11, 0x7f,
    0x8f, 0xe5, 0x1f, 0xfd, 0x49, 0xbc, 0xc4, 0x09, 0xc7, 0xe8, 0x77, 0x2e, 0x97,
    0x7f, 0xae, 0xfd, 0x14, 0x09, 0x08, 0xfd, 0xf5, 0x03, 0xff, 0x03, 0xf1, 0xf7,
    0x06, 0x10, 0xfa, 0xfd, 0xf0, 0x0b, 0xfa, 0x06, 0x03, 0x29, 0xc1, 0x34, 0xb2,
    0x31, 0x3f, 0x2f, 0x1b, 0xec, 0x0c, 0x09, 0xfa, 0x2d, 0x1e, 0x10, 0xbf, 0x3f,
    0xfc, 0x8a, 0x25, 0xcb, 0x81, 0x33, 0x2b, 0xf5, 0x0e, 0xea, 0x06, 0x02, 0x0b,
    0xf5, 0xf2, 0x0d, 0x0f, 0x00, 0xfc, 0x29, 0xe2, 0x12, 0x49, 0xc2, 0xb1, 0x35,
    0x4c, 0xe4, 0x81, 0xea, 0x4d, 0x25, 0x70, 0x6e, 0x18, 0x70, 0x52, 0x07, 0x7c,
    0xe3, 0x61, 0x7f, 0xc9, 0xf5, 0xe2, 0xa8, 0x7d, 0xb7, 0x99, 0x19, 0x6b, 0x58,
    0x03, 0xef, 0x5d, 0x29, 0x55, 0xfa, 0x4a, 0x5a, 0xba, 0x12, 0xef, 0x7c, 0xac,
    0xfc, 0x44, 0x50, 0xd9, 0xba, 0x7f, 0x3c, 0x51, 0x9c, 0x3f, 0x2d, 0x34, 0xb1,
    0x54, 0xfc, 0x0e, 0xf9, 0xef, 0x15, 0x2f, 0xf7, 0xf4, 0xcf, 0x06, 0x3d, 0x23,
    0xcb, 0x42, 0xf1, 0x81, 0x0b, 0x21, 0xfd, 0xfc, 0x20, 0xe1, 0x10, 0xf9, 0xff,
    0xf8, 0xf8, 0xf3, 0xf1, 0xf8, 0xfa, 0xf0, 0x03, 0x04, 0x10, 0x10, 0xf9, 0x4e,
    0xfa, 0x81, 0x05, 0x18, 0x20, 0xe8, 0xe2, 0xf1, 0x14, 0x08, 0xfa, 0x08, 0x01,
    0x00, 0xff, 0x05, 0xfe, 0xf9, 0xf9, 0xfe, 0x28, 0x37, 0xd3, 0x81, 0x24, 0x3b,
    0xe8, 0x11, 0x01, 0xe9, 0x0e, 0xf5, 0x13, 0xfc, 0x05, 0xf2, 0xf6, 0xf2, 0x07,
    0xfe, 0xfe, 0xe6, 0x06, 0xe5, 0xf2, 0x0a, 0x20, 0xca, 0xe4, 0xf9, 0xf4, 0x51,
    0x11, 0x77, 0x52, 0x33, 0x81, 0x88, 0x08, 0xef, 0x07, 0xd6, 0xeb, 0xed, 0xe5,
    0xcf, 0x81, 0x67, 0x38, 0x14, 0xfd, 0x11, 0x0d, 0x41, 0xd4, 0x22, 0x04, 0xce,
    0x0f, 0x0b, 0x16, 0xfa, 0x06, 0x04, 0xbe, 0x1b, 0x13, 0xf3, 0x1b, 0xd8, 0xd7,
    0xf5, 0x08, 0xf8, 0xd6, 0xa9, 0xaa, 0xeb, 0x34, 0x25, 0x4f, 0x47, 0x09, 0x2f,
    0xcc, 0x7f, 0xfe, 0x18, 0x68, 0x69, 0xde, 0xc3, 0x47, 0xa5, 0x2c, 0x77, 0x7f,
    0x34, 0x3b, 0x4b, 0x7f, 0x6c, 0x23, 0x75, 0xe1, 0x02, 0x3a, 0xff, 0x70, 0xdf,
    0x7f, 0xc2, 0xf4, 0x0e, 0xef, 0x0a, 0xfb, 0xfb, 0xf8, 0x05, 0xfe, 0x07, 0xf6,
    0x03, 0xf6, 0x09, 0x04, 0xf2, 0x0d, 0xfe, 0xf9, 0x14, 0xf5, 0xff, 0x63, 0x70,
    0x40, 0x57, 0xd0, 0xe7, 0x43, 0x7f, 0x71, 0xe5, 0xef, 0x7b, 0xe6, 0xd5, 0x78,
    0x45, 0x7c, 0x31, 0xd3, 0x3c, 0x2e, 0x13, 0x3f, 0xa7, 0x03, 0x07, 0x27, 0x46,
    0x78, 0x2b, 0x90, 0x81, 0xb1, 0xde, 0x26, 0x21, 0x13, 0xe2, 0x3c, 0x0c, 0xf5,
    0x13, 0xe8, 0x1f, 0xed, 0xc5, 0x40, 0xf0, 0x0b, 0xfc, 0x70, 0x57, 0xa9, 0x40,
    0x44, 0x07, 0x7f, 0x43, 0x0b, 0xcb, 0x74, 0xc4, 0xad, 0x78, 0x95, 0x02, 0x3f,
    0x0f, 0x33, 0x4a, 0x6e, 0x47, 0x01, 0xfd, 0xf7, 0x07, 0xee, 0xc2, 0x59, 0x2c,
    0xdc, 0xa1, 0x7f, 0xfb, 0xad, 0x51, 0xcc, 0x13, 0x04, 0xe6, 0x21, 0x0b, 0xf4,
    0xfc, 0xef, 0x13, 0xee, 0x22, 0x2c, 0x2d, 0x0e, 0xe3, 0x2d, 0x13, 0xd7, 0xeb,
    0x09, 0x0d, 0xf9, 0x14, 0xf0, 0xfd, 0xfc, 0x47, 0xfd, 0xf3, 0xe0, 0xfc, 0x81,
    0x05, 0xfa, 0xf2, 0x81, 0xc4, 0xf8, 0xe5, 0xa5, 0xc2, 0xcf, 0xec, 0x0a, 0x1a,
    0xee, 0xd9, 0xfa, 0x44, 0x1d, 0xff, 0x12, 0x29, 0x3c, 0x18, 0xeb, 0x0e, 0xf7,
    0x1b, 0xfb, 0xf8, 0x0f, 0x24, 0x07, 0x18, 0x1b, 0x33, 0x38, 0xe8, 0x81, 0xbd,
    0x1a, 0xfb, 0xfa, 0x1f, 0xf5, 0x08, 0x06, 0xe0, 0x32, 0xe4, 0xe2, 0x14, 0x74,
    0x55, 0xd5, 0xc1, 0x28, 0x71, 0x62, 0x0a, 0x28, 0x1d, 0x02, 0xe1, 0x54, 0xdc,
    0xea, 0x7f, 0x2c, 0xea, 0x65, 0xe1, 0x10, 0x6f, 0xff, 0x0c, 0xdf, 0xfe, 0xfb,
    0xd2, 0xc5, 0xf2, 0xf8, 0xaf, 0x81, 0x99, 0x5a, 0xb4, 0x1e, 0x48, 0x63, 0x22,
    0x63, 0xfe, 0x07, 0x2e, 0x3e, 0x07, 0xfc, 0x00, 0x01, 0x08, 0xfd, 0x04, 0xfe,
    0x02, 0x06, 0xfd, 0xf9, 0x0c, 0x0f, 0xff, 0xf6, 0x23, 0x03, 0xc0, 0xcb, 0xb0,
    0xfe, 0x7f, 0x0b, 0x0a, 0x07, 0xfc, 0x19, 0xe5, 0xac, 0x5b, 0x37, 0xae, 0xdb,
    0x7f, 0xf1, 0x98, 0x74, 0xaa, 0x2d, 0x02, 0xfc, 0xfe, 0xf4, 0xf9, 0xed, 0x0b,
    0x0b, 0x07, 0xe1, 0x18, 0x64, 0x7f, 0xe6, 0x19, 0x44, 0xcc, 0x1b, 0xe3, 0x1f,
    0xee, 0x00, 0xfe, 0xed, 0x0c, 0xe6, 0xd8, 0xfd, 0x0f, 0xfc, 0xf3, 0x01, 0x15,
    0xcf, 0x70, 0x81, 0x48, 0xf2, 0x4f, 0x19, 0xff, 0xcc, 0xc0, 0xd7, 0x35, 0x34,
    0x13, 0xe8, 0x21, 0x18, 0xce, 0xdc, 0x45, 0xd0, 0xbd, 0x24, 0x14, 0xfc, 0x10,
    0x00, 0xf1, 0xec, 0x07, 0x0a, 0x00, 0x0d, 0x03, 0x00, 0x0f, 0xff, 0xf3, 0x05,
    0x16, 0xff, 0x10, 0x21, 0x81, 0x1b, 0xfa, 0x04, 0x0b, 0x26, 0x6a, 0x44, 0xd7,
    0x72, 0x2c, 0x74, 0xc9, 0x74, 0x2d, 0xc3, 0x19, 0xc7, 0xbf, 0xb8, 0x30, 0x79,
    0x1c, 0x7e, 0x51, 0xe2, 0x3d, 0xd6, 0x7f, 0x01, 0x0f, 0x3e, 0x48, 0x3e, 0xd5,
    0x81, 0xdc, 0x1b, 0xed, 0x00, 0xf1, 0xfd, 0xe7, 0x41, 0xf2, 0xf8, 0x07, 0x0d,
    0xeb, 0xfd, 0x08, 0x17, 0xfc, 0xff, 0xfe, 0xfc, 0x01, 0xf6, 0x02, 0xfc, 0x03,
    0x07, 0x0b, 0x0e, 0xfc, 0xf2, 0xfa, 0xa1, 0x1b, 0x7f, 0xe1, 0xd6, 0x05, 0x02,
    0xf7, 0x14, 0xfa, 0x0a, 0xec, 0x2a, 0x90, 0x04, 0xf5, 0x40, 0x20, 0x1b, 0x03,
    0x0e, 0x1d, 0x39, 0xf8, 0xf1, 0x40, 0xf4, 0xc9, 0x4e, 0x07, 0x81, 0xdb, 0x1e,
    0x0a, 0x7f, 0x12, 0xbd, 0xbe, 0x22, 0xeb, 0x17, 0xfe, 0xf2, 0xfe, 0x0e, 0xff,
    0xf5, 0x0f, 0x10, 0xe2, 0x10, 0x04, 0x0d, 0x08, 0xde, 0x12, 0xe1, 0x00, 0x0c,
    0xec, 0xf1, 0x13, 0xf3, 0x01, 0xf5, 0xf3, 0x13, 0xd9, 0xe4, 0xf9, 0x1f, 0x5c,
    0xe1, 0x3a, 0x61, 0x81, 0x38, 0xb6, 0xeb, 0x12, 0x04, 0xf6, 0x08, 0xf6, 0xf7,
    0x03, 0xe9, 0xf8, 0x1d, 0xfc, 0x0f, 0xf3, 0x09, 0xf7, 0x03, 0x09, 0x13, 0xf4,
    0x0a, 0xdb, 0xee, 0x7f, 0xd3, 0xee, 0x0c, 0x13, 0xfb, 0xee, 0x17, 0x02, 0xe8,
    0xf7, 0xf0, 0x17, 0xdd, 0xed, 0x29, 0x25, 0xe7, 0xe1, 0x48, 0xf3, 0xe7, 0xf6,
    0x19, 0x03, 0x47, 0x0e, 0x44, 0x7f, 0xe7, 0x33, 0xdc, 0xf0, 0xc2, 0x0c, 0xda,
    0xb9, 0x9b, 0x35, 0x38, 0xa5, 0x15, 0x04, 0x33, 0x3c, 0x7f, 0x48, 0x1c, 0xe8,
    0xc6, 0x26, 0xe9, 0xfc, 0xed, 0x1d, 0x50, 0x81, 0x2a, 0xce, 0x45, 0xee, 0x04,
    0xfa, 0xda, 0xff, 0x1b, 0x1c, 0xd1, 0x17, 0x39, 0xba, 0x0c, 0x0d, 0x09, 0xf9,
    0xed, 0x0c, 0xf5, 0x4c, 0xe3, 0x1d, 0xbd, 0x7f, 0x79, 0x4c, 0xf9, 0x70, 0x1a,
    0xfd, 0x42, 0xb7, 0x15, 0xfb, 0xae, 0x12, 0x0d, 0x32, 0x79, 0x4c, 0x34, 0x78,
    0x09, 0x04, 0xef, 0x0a, 0x7f, 0x30, 0xfa, 0x26, 0x40, 0x25, 0xda, 0xd6, 0xca,
    0xe2, 0x02, 0xcf, 0x02, 0xf9, 0x12, 0xdf, 0xf9, 0xf2, 0x2d, 0xf1, 0x7d, 0x00,
    0x1d, 0xf9, 0x7f, 0x31, 0x66, 0xa6, 0x7f, 0xdc, 0xdb, 0xf1, 0xe6, 0x19, 0x13,
    0x12, 0xcc, 0x6f, 0xe9, 0x6d, 0x6f, 0x05, 0x3d, 0x0f, 0x06, 0xf8, 0x00, 0xf8,
    0xf1, 0x25, 0xda, 0xbc, 0x7f, 0xd7, 0xd0, 0x6c, 0xa4, 0x51, 0xcb, 0x25, 0xed,
    0x0e, 0xf7, 0x05, 0xfe, 0xfd, 0x0c, 0xfa, 0x61, 0x71, 0x7f, 0x49, 0x38, 0xef,
    0x66, 0xe1, 0x39, 0x22, 0x1e, 0xdb, 0xe1, 0x54, 0x4e, 0x25, 0xf0, 0xd4, 0x33,
    0x23, 0xba, 0x1e, 0x6f, 0xee, 0x7f, 0x39, 0xd3, 0xe7, 0x36, 0x12, 0xf4, 0x64,
    0xf8, 0x36, 0xfe, 0x3b, 0x15, 0x40, 0x02, 0xea, 0xc8, 0xed, 0x2e, 0x46, 0x54,
    0xff, 0x35, 0x1e, 0x06, 0x03, 0xe9, 0xe5, 0x2c, 0x01, 0xce, 0x11, 0x37, 0xad,
    0x7d, 0x81, 0x61, 0xcb, 0x29, 0x09, 0xdf, 0x0c, 0xe9, 0x0e, 0xf2, 0x11, 0x13,
    0xf6, 0x04, 0xfb, 0x0f, 0xf5, 0x1c, 0x2e, 0x22, 0xeb, 0xb8, 0xa3, 0x13, 0x60,
    0x0e, 0xec, 0x35, 0xfc, 0x81, 0x19, 0x1d, 0x08, 0x0b, 0xf3, 0x0b, 0xf6, 0xe3,
    0x4a, 0x3e, 0x93, 0x3c, 0x6a, 0x9a, 0x4a, 0x65, 0xd3, 0x18, 0x7f, 0x76, 0xfa,
    0x6e, 0xc4, 0x4c, 0x4e, 0x3a, 0x40, 0x6c, 0x27, 0x70, 0x30, 0x17, 0xde, 0xe4,
    0x38, 0x7f, 0xf9, 0xa6, 0xd9, 0x23, 0x4a, 0x27, 0xed, 0x0e, 0x04, 0x03, 0x13,
    0x05, 0xdf, 0x20, 0xa5, 0x1c, 0x20, 0xd0, 0xd7, 0x73, 0x4c, 0xe3, 0x37, 0x18,
    0x87, 0xe7, 0xf6, 0x72, 0x25, 0xc2, 0x0d, 0x4d, 0x55, 0x1c, 0xe5, 0x48, 0xfb,
    0x1a, 0x71, 0x61, 0x74, 0x7f, 0xf3, 0x06, 0x01, 0xf9, 0xfb, 0x10, 0xef, 0xdc,
    0x57, 0xbd, 0x53, 0xa1, 0x4e, 0xf7, 0xc4, 0x7f, 0xb3, 0x19, 0xe6, 0x08, 0xfb,
    0x09, 0xf8, 0x11, 0xf6, 0xf3, 0x11, 0xdd, 0xe9, 0x02, 0x01, 0x1d, 0xec, 0x01,
    0x09, 0xfe, 0x11, 0xf4, 0x81, 0x11, 0x4c, 0xde, 0xa0, 0xef, 0xf2, 0x38, 0xb7,
    0xfb, 0x1e, 0x24, 0xdd, 0xbf, 0x7f, 0x1d, 0xac, 0x4f, 0x1c, 0xd4, 0x19, 0xfb,
    0xf3, 0x16, 0xef, 0xf7, 0x08, 0x06, 0x02, 0xf7, 0x07, 0xfe, 0x0d, 0xe8, 0xff,
    0x28, 0xad, 0x0d, 0x53, 0x81, 0x38, 0xeb, 0x01, 0xf6, 0x1a, 0x01, 0xfa, 0x1a,
    0x1d, 0xcb, 0xef, 0x46, 0xc5, 0xfe, 0x18, 0x1e, 0x04, 0xc5, 0x12, 0xfe, 0x02,
    0x06, 0x05, 0xfb, 0x02, 0x03, 0x07, 0x07, 0xf1, 0xf8, 0x00, 0x22, 0xdd, 0x30,
    0xf0, 0xcd, 0x22, 0xf7, 0xd3, 0x14, 0x42, 0x38, 0x81, 0xfb, 0x06, 0x0e, 0x03,
    0x05, 0x0d, 0xfb, 0x1b, 0x1e, 0x08, 0xd8, 0x81, 0xd8, 0x44, 0x16, 0x17, 0x07,
    0xe7, 0x1f, 0xf5, 0xfe, 0xe9, 0x10, 0xfc, 0x98, 0x11, 0x7f, 0x07, 0xfa, 0xfb,
    0x03, 0xf9, 0xef, 0x1c, 0x10, 0x06, 0xf6, 0x18, 0x06, 0x01, 0xf2, 0x14, 0xf4,
    0x09, 0xec, 0x0e, 0x04, 0x12, 0x00, 0x00, 0x00, 0x00, 0x00, 0x00, 0x00, 0x00,
    0x00, 0x00, 0x00, 0x00, 0x00, 0x00, 0x00, 0x00, 0x00, 0x00, 0x00, 0x00, 0x00,
    0x00, 0x00, 0x00, 0x00, 0x00, 0x00, 0x00, 0x00, 0x00, 0x00, 0x00, 0x00, 0x00,
    0x00, 0x00, 0x00, 0x00, 0x00, 0x00, 0x00, 0x00, 0x00, 0x00, 0x00, 0x00, 0x00,
    0x00, 0x00, 0x00, 0x00, 0x00, 0x00, 0x00, 0x00, 0x00, 0x00, 0x00, 0x00, 0x00,
    0x00, 0x00, 0x00, 0x00, 0x00, 0x00, 0x00, 0x00, 0x00, 0x00, 0x00, 0x00, 0x00,
    0x00, 0x00, 0x00, 0x00, 0x00, 0x00, 0x00, 0x00, 0x00, 0x00, 0x00, 0x00, 0x00,
    0x00, 0x00, 0x00, 0x00, 0x00, 0x00, 0x00, 0x00, 0x00, 0x00, 0x00, 0x00, 0x00,
    0x00, 0x00, 0x00, 0x00, 0x00, 0x00, 0x00, 0x00, 0x00, 0x00, 0x00, 0x00, 0x00,
    0x00, 0x00, 0x00, 0x00, 0x00, 0x00, 0x00, 0x00, 0x00, 0x00, 0x00, 0x00, 0x00,
    0x00, 0x00, 0x00, 0xda, 0xe4, 0xff, 0xff, 0x00, 0x00, 0x00, 0x09, 0x18, 0x00,
    0x00, 0x00, 0x07, 0x00, 0x00, 0x00, 0x08, 0x00, 0x00, 0x00, 0x14, 0x00, 0x00,
    0x00, 0x01, 0x00, 0x00, 0x00, 0x35, 0x00, 0x00, 0x00, 0x01, 0x00, 0x00, 0x00,
    0x80, 0x06, 0x00, 0x00, 0x24, 0xe4, 0xff, 0xff, 0x9a, 0xe5, 0xff, 0xff, 0x04,
    0x00, 0x00, 0x00, 0x00, 0x01, 0x00, 0x00, 0x0b, 0x27, 0xe4, 0x2a, 0x58, 0x04,
    0xfa, 0x03, 0x17, 0x21, 0x39, 0x18, 0x81, 0x33, 0x63, 0x1e, 0xc0, 0x03, 0x83,
    0x2f, 0x6f, 0x21, 0xe8, 0x14, 0x2b, 0x1e, 0xc6, 0x05, 0xc2, 0x1b, 0xa3, 0x1b,
    0xb8, 0xfd, 0x30, 0xfb, 0x5f, 0xf9, 0xa8, 0xf8, 0xc2, 0xfb, 0xd9, 0xf9, 0x81,
    0xfb, 0x98, 0xfb, 0x45, 0xf8, 0xd7, 0xfa, 0xb1, 0xfb, 0x3c, 0xf9, 0x8d, 0xfc,
    0x5e, 0xf8, 0x27, 0xf8, 0x01, 0xfc, 0x54, 0x2c, 0x32, 0x15, 0x83, 0x05, 0x30,
    0x2a, 0x48, 0x12, 0x9b, 0x17, 0x3f, 0x2b, 0xcd, 0x03, 0xc2, 0x1d, 0x77, 0x04,
    0x03, 0x5d, 0x89, 0x03, 0x98, 0x1b, 0x5a, 0x28, 0x2e, 0x16, 0xa3, 0x32, 0x54,
    0xfb, 0x1f, 0xfc, 0xf6, 0xf7, 0xc1, 0xf9, 0x88, 0x00, 0xa0, 0xfa, 0x22, 0xfb,
    0x1f, 0xf9, 0x23, 0xfa, 0x93, 0xf7, 0x63, 0xf8, 0x48, 0xf8, 0xac, 0xfa, 0xf7,
    0xfc, 0x59, 0xfc, 0xf4, 0xfb, 0x85, 0x23, 0x9c, 0x05, 0x0e, 0x30, 0xb7, 0x09,
    0xe2, 0x29, 0x15, 0x3c, 0xac, 0x24, 0x54, 0x26, 0x9c, 0x1f, 0x69, 0x31, 0x53,
    0x2b, 0xd5, 0x04, 0x42, 0x30, 0x58, 0x20, 0xfb, 0x37, 0x28, 0x26, 0xae, 0xf7,
    0x72, 0xf7, 0x99, 0xfb, 0xc5, 0xfb, 0xbf, 0xf1, 0x5d, 0xf9, 0x91, 0xfb, 0x6c,
    0xfb, 0x65, 0xf9, 0x2f, 0xfc, 0xd6, 0xf9, 0x0d, 0xf8, 0x71, 0xfb, 0x08, 0xfb,
    0x30, 0xf1, 0x2a, 0xfb, 0xaa, 0x2d, 0x6a, 0x2b, 0xea, 0x23, 0x07, 0x24, 0x14,
    0x3d, 0x48, 0x11, 0xad, 0x2a, 0xeb, 0x03, 0x20, 0x1d, 0xd6, 0x03, 0x68, 0x26,
    0x68, 0x29, 0xe6, 0x04, 0x15, 0x05, 0x36, 0x2c, 0xe6, 0x03, 0x29, 0xf7, 0xae,
    0xfb, 0xd4, 0xfb, 0x8a, 0xfb, 0x6d, 0xf7, 0xf8, 0xfd, 0xb8, 0xfa, 0xa6, 0xf8,
    0x51, 0xf9, 0xf5, 0xf7, 0xe9, 0xfa, 0x5f, 0xfb, 0xed, 0xf8, 0xcd, 0xf7, 0x39,
    0xfb, 0x2d, 0xf9, 0x12, 0xe6, 0xff, 0xff, 0x00, 0x00, 0x00, 0x07, 0x18, 0x00,
    0x00, 0x00, 0x06, 0x00, 0x00, 0x00, 0x08, 0x00, 0x00, 0x00, 0x14, 0x00, 0x00,
    0x00, 0x01, 0x00, 0x00, 0x00, 0x34, 0x00, 0x00, 0x00, 0x01, 0x00, 0x00, 0x00,
    0x80, 0x00, 0x00, 0x00, 0x5c, 0xe5, 0xff, 0xff, 0xd2, 0xe6, 0xff, 0xff, 0x04,
    0x00, 0x00, 0x00, 0x00, 0x08, 0x00, 0x00, 0x04, 0x05, 0xff, 0x02, 0x81, 0x08,
    0x01, 0x07, 0x02, 0x09, 0x01, 0x09, 0xcf, 0x00, 0x03, 0xf5, 0xf9, 0x0a, 0xff,
    0x04, 0x02, 0x05, 0x00, 0xfe, 0x00, 0x04, 0x04, 0x01, 0xff, 0xff, 0xfd, 0xf1,
    0x00, 0xe9, 0x04, 0x00, 0xe0, 0x25, 0xfc, 0xef, 0xfc, 0xf8, 0x00, 0x06, 0xfd,
    0xfd, 0x02, 0x08, 0xf5, 0xfe, 0x00, 0xed, 0x04, 0xfb, 0xfd, 0x01, 0x00, 0x04,
    0xfa, 0x04, 0xeb, 0x09, 0x06, 0x03, 0xb3, 0x00, 0x06, 0x02, 0xce, 0xe6, 0x03,
    0xd0, 0xf1, 0xd2, 0x07, 0xef, 0x10, 0xf5, 0x12, 0xe2, 0xc1, 0x0a, 0x03, 0x02,
    0x01, 0x81, 0xcd, 0x0a, 0xfd, 0xf1, 0xf4, 0xf2, 0xf8, 0xef, 0xe4, 0xe1, 0xf3,
    0xfa, 0xf8, 0x01, 0xfd, 0x0c, 0x0c, 0x00, 0xfc, 0xfd, 0xf9, 0x32, 0xfa, 0x00,
    0x0f, 0xd1, 0x81, 0x02, 0xfd, 0xfc, 0x0c, 0x16, 0x0c, 0xfa, 0x07, 0x05, 0x10,
    0xfc, 0x05, 0x0e, 0xe9, 0xe6, 0x03, 0x02, 0x00, 0x02, 0x01, 0xf8, 0x81, 0x01,
    0xfd, 0x05, 0xff, 0x00, 0x01, 0x01, 0x09, 0x03, 0x01, 0x01, 0x01, 0x00, 0xff,
    0x00, 0x01, 0x01, 0xfd, 0x00, 0x9c, 0xfd, 0xf6, 0xf9, 0x00, 0x00, 0x15, 0x1f,
    0xfd, 0x04, 0xcf, 0x04, 0xfc, 0xf9, 0x07, 0x1c, 0x98, 0xde, 0xfd, 0xf6, 0x18,
    0x0e, 0xed, 0x81, 0x09, 0xe4, 0xba, 0xff, 0xd7, 0x00, 0xf2, 0x06, 0xf6, 0xfc,
    0x0d, 0xd2, 0xf3, 0x29, 0x07, 0xe4, 0xf3, 0x12, 0xef, 0xfd, 0xff, 0xce, 0xf1,
    0x81, 0xf4, 0x12, 0xf7, 0xf3, 0x0b, 0xf6, 0x1a, 0xed, 0xf3, 0x59, 0x06, 0x03,
    0xe5, 0xf6, 0xf5, 0x0d, 0xfd, 0xfa, 0x3e, 0xf5, 0x07, 0xdb, 0x0c, 0xec, 0x05,
    0xfc, 0x02, 0xd0, 0xfd, 0xfa, 0xff, 0xfa, 0xfa, 0xfb, 0x03, 0xfb, 0xf6, 0x00,
    0x01, 0x01, 0x02, 0xee, 0x02, 0xf7, 0xf9, 0x03, 0xf6, 0xfc, 0x04, 0x02, 0xff,
    0xfb, 0xff, 0xfc, 0xf2, 0xb6, 0x03, 0xf9, 0xf4, 0xec, 0x1a, 0xfe, 0x0e, 0x24,
    0x7f, 0x24, 0xe3, 0xf1, 0x30, 0x20, 0x1b, 0xe4, 0x02, 0xfe, 0xfb, 0xff, 0x1a,
    0xf1, 0xf5, 0x09, 0xeb, 0xfe, 0x00, 0xee, 0x0b, 0x19, 0x07, 0xf5, 0xfc, 0x06,
    0x07, 0x02, 0xf9, 0x24, 0xfb, 0xfb, 0xf9, 0xff, 0x08, 0x03, 0x01, 0x04, 0xff,
    0xfb, 0x02, 0x04, 0xff, 0xfe, 0x04, 0xfe, 0xfe, 0x03, 0xfe, 0x03, 0xf9, 0x06,
    0x17, 0xf2, 0x2b, 0x20, 0x01, 0xf9, 0x11, 0x23, 0x06, 0xf8, 0xf2, 0x75, 0xf5,
    0xf9, 0x51, 0x01, 0xf9, 0xdf, 0x06, 0x24, 0xe9, 0x81, 0x03, 0x0a, 0x08, 0xf6,
    0xe9, 0xfa, 0xfe, 0xf9, 0xea, 0x02, 0x03, 0xea, 0x06, 0xfe, 0xff, 0xfc, 0x00,
    0x03, 0x07, 0x07, 0xfd, 0x02, 0xfb, 0xfc, 0xf7, 0xff, 0xe5, 0x01, 0x04, 0x00,
    0xfd, 0x04, 0xfe, 0x02, 0x02, 0x01, 0x00, 0xfd, 0xf5, 0x00, 0x03, 0x81, 0xfe,
    0x02, 0x81, 0x96, 0xef, 0x08, 0xc5, 0x40, 0x0c, 0x53, 0x02, 0xb8, 0xec, 0x47,
    0xf5, 0xef, 0x38, 0x07, 0x39, 0x45, 0x10, 0xf1, 0xf6, 0x02, 0xbe, 0x01, 0x1b,
    0x06, 0xfd, 0x09, 0x11, 0xdd, 0x0b, 0x5e, 0xb2, 0x1e, 0xea, 0xe6, 0x26, 0x2a,
    0x14, 0x09, 0xe7, 0x23, 0x13, 0xea, 0xeb, 0xf0, 0x15, 0xfe, 0x0f, 0x9e, 0x01,
    0x1f, 0x7f, 0x07, 0xf1, 0xf5, 0x08, 0x06, 0x04, 0xf6, 0xe9, 0xb8, 0x05, 0x11,
    0xd0, 0x34, 0xf4, 0xed, 0x08, 0x40, 0x20, 0x09, 0x0e, 0x30, 0x0e, 0xd5, 0xf0,
    0x06, 0x3d, 0x06, 0x05, 0x89, 0xf5, 0x2f, 0xd8, 0x0f, 0xfb, 0x14, 0xff, 0xfe,
    0x18, 0x1c, 0xd6, 0xc0, 0x08, 0x0a, 0x0a, 0x07, 0xf5, 0x04, 0x03, 0x00, 0x08,
    0x01, 0x01, 0x17, 0x0c, 0x1c, 0x01, 0x07, 0x06, 0x0d, 0x01, 0xf1, 0xfe, 0xf8,
    0xf7, 0x10, 0x12, 0xf5, 0x04, 0xf9, 0xfa, 0x07, 0x10, 0xe5, 0x04, 0x24, 0x08,
    0xfd, 0xfd, 0xff, 0xfd, 0xf2, 0x03, 0x01, 0xf2, 0x00, 0x02, 0x02, 0x14, 0xff,
    0x02, 0x04, 0x00, 0xfe, 0x10, 0xf5, 0x08, 0xfd, 0xff, 0x02, 0x02, 0x01, 0x01,
    0xf9, 0xff, 0x01, 0xfe, 0x00, 0x81, 0xff, 0xf7, 0x02, 0xeb, 0xfc, 0x02, 0x02,
    0x06, 0xfe, 0x06, 0x06, 0xff, 0x11, 0xec, 0xee, 0x00, 0xf1, 0x07, 0xee, 0xf6,
    0xdc, 0x0a, 0x02, 0x02, 0x01, 0xfb, 0x0a, 0xfa, 0xfc, 0x06, 0x03, 0xf7, 0xf2,
    0x05, 0xfb, 0x18, 0x00, 0xcb, 0x0c, 0x05, 0xd5, 0x04, 0xff, 0x96, 0x08, 0xec,
    0x02, 0x03, 0xec, 0xc3, 0xf9, 0x13, 0xbd, 0x11, 0xf0, 0xde, 0xef, 0x0b, 0x0e,
    0xf2, 0xff, 0xed, 0xff, 0x0e, 0xfd, 0x0b, 0xfe, 0x3a, 0xe7, 0xd1, 0xf0, 0xf6,
    0xa8, 0x05, 0x02, 0xdc, 0x07, 0xf7, 0xfa, 0x04, 0xf1, 0x12, 0x23, 0x15, 0x06,
    0x0b, 0x00, 0x15, 0xfd, 0xf5, 0x10, 0x00, 0xff, 0x05, 0x07, 0xfc, 0x00, 0xfd,
    0x02, 0xfe, 0x02, 0x02, 0xbc, 0xfe, 0x01, 0x01, 0xfe, 0x03, 0x0d, 0x02, 0xfc,
    0xfe, 0x04, 0x04, 0xef, 0x05, 0x03, 0xfe, 0xfe, 0xfd, 0x01, 0xfc, 0xfc, 0xfe,
    0xfe, 0xf8, 0x02, 0x21, 0xef, 0xe9, 0x0f, 0x03, 0x33, 0xc2, 0xfe, 0xe4, 0xf4,
    0x0b, 0x0c, 0x22, 0xa4, 0xf8, 0x26, 0xfd, 0x1b, 0x0b, 0xc5, 0xd3, 0x15, 0xf4,
    0xf6, 0x24, 0xf7, 0xea, 0xdc, 0x05, 0xfa, 0xeb, 0x0e, 0xf8, 0x12, 0xf5, 0xf3,
    0xfa, 0xff, 0x2a, 0x05, 0xf9, 0xef, 0x27, 0xf3, 0x0d, 0xfb, 0xff, 0xf6, 0x02,
    0xfe, 0xfb, 0xd9, 0xf1, 0x08, 0xe9, 0x00, 0x05, 0x06, 0x61, 0xdc, 0x0b, 0xf8,
    0xcc, 0x0b, 0x81, 0xfb, 0x02, 0x05, 0xfe, 0x0f, 0xf5, 0x05, 0xbd, 0x03, 0xfa,
    0xff, 0xf8, 0xf7, 0xfd, 0xfe, 0x03, 0xfb, 0x06, 0xf9, 0xf8, 0x0a, 0xf9, 0x02,
    0xe4, 0xfb, 0xf6, 0xfb, 0x00, 0xfe, 0xf9, 0xfe, 0x3b, 0xfd, 0xcc, 0xe4, 0x34,
    0xc8, 0xe6, 0xfa, 0xf9, 0x17, 0xec, 0x19, 0x2d, 0xdc, 0x04, 0xf0, 0xfb, 0xf4,
    0xfb, 0x67, 0x0f, 0x05, 0xee, 0xeb, 0xfc, 0x12, 0xd0, 0xe7, 0x0d, 0x01, 0x0a,
    0xeb, 0xf1, 0xfa, 0xfb, 0xf7, 0x81, 0xf4, 0xef, 0x04, 0x04, 0xf1, 0xfb, 0x02,
    0xf3, 0x01, 0x02, 0x04, 0xff, 0x01, 0x13, 0x00, 0x00, 0xfb, 0xfe, 0x01, 0x0a,
    0xfe, 0x00, 0x0b, 0xfc, 0x01, 0xf9, 0x02, 0x8c, 0x07, 0x10, 0xf7, 0xe1, 0xe7,
    0xf4, 0xdd, 0x07, 0x02, 0xf6, 0x0e, 0xf5, 0x25, 0xf6, 0x08, 0x09, 0xbb, 0xbf,
    0x46, 0x24, 0xe7, 0x10, 0xec, 0x18, 0xf9, 0x08, 0x21, 0xe8, 0xf0, 0x1a, 0xfa,
    0x05, 0x01, 0xfc, 0xfd, 0x05, 0xfb, 0xff, 0xf9, 0x13, 0x04, 0x00, 0xfe, 0xfa,
    0xff, 0xfa, 0xff, 0xe8, 0x09, 0xfd, 0x05, 0xfd, 0x12, 0xea, 0xfd, 0xf7, 0x00,
    0x02, 0xf9, 0x03, 0xfc, 0xf0, 0xff, 0xf6, 0x0c, 0x23, 0x1b, 0xa6, 0xd1, 0x0b,
    0x01, 0xe4, 0xff, 0xef, 0xf7, 0xff, 0x4a, 0x09, 0x0c, 0xf7, 0x5a, 0xdf, 0x1c,
    0xe1, 0x0b, 0xe4, 0xf5, 0x14, 0x13, 0xe0, 0xbc, 0x13, 0xf2, 0xab, 0x17, 0xf3,
    0xf6, 0x11, 0xe9, 0x2a, 0xb6, 0x2a, 0xfb, 0x24, 0x06, 0x0a, 0xfc, 0x38, 0x10,
    0xed, 0x06, 0x04, 0x17, 0x2d, 0xe7, 0xef, 0xe0, 0xec, 0x0c, 0xe8, 0x01, 0x1d,
    0xcf, 0xf4, 0x08, 0xee, 0x17, 0x4a, 0x13, 0x14, 0xf7, 0x7f, 0xfb, 0x16, 0x03,
    0x5a, 0x0a, 0x10, 0xea, 0x03, 0x19, 0x23, 0x10, 0x07, 0x0a, 0xf9, 0x14, 0x24,
    0xdb, 0x14, 0xf0, 0x13, 0x1e, 0x17, 0x1b, 0xef, 0x0d, 0x0a, 0x13, 0x01, 0x00,
    0xfd, 0xf1, 0x81, 0xe8, 0xed, 0xfa, 0x11, 0x03, 0x09, 0x00, 0x1a, 0x04, 0xfb,
    0xee, 0xf4, 0x88, 0x0a, 0xfc, 0xe8, 0x17, 0x05, 0xfb, 0x0c, 0xf5, 0x01, 0xf1,
    0xfb, 0x08, 0xfd, 0xf9, 0x0c, 0xf6, 0xfd, 0xfb, 0xfe, 0x0a, 0xf5, 0xf5, 0xfc,
    0x00, 0xd6, 0x0e, 0xe8, 0x00, 0x0c, 0xfa, 0x81, 0xfd, 0xff, 0xf6, 0xfc, 0x03,
    0xe9, 0xfb, 0xed, 0x04, 0x00, 0x05, 0xff, 0xfa, 0x06, 0xf1, 0x03, 0xfe, 0xfe,
    0xf6, 0x1b, 0xf9, 0x0f, 0xfb, 0x03, 0x21, 0xfb, 0x00, 0xfe, 0x05, 0x0d, 0xfe,
    0x01, 0xfd, 0x0a, 0x38, 0xf7, 0xf7, 0x01, 0x0a, 0x34, 0xfa, 0xfa, 0x04, 0xed,
    0xf1, 0x08, 0xe2, 0xf1, 0x1b, 0x09, 0xf9, 0x05, 0xff, 0x07, 0x17, 0x03, 0xe4,
    0xfd, 0x0e, 0xfb, 0xfe, 0x0a, 0xe6, 0x10, 0x81, 0x03, 0x06, 0xf8, 0x08, 0x00,
    0xf4, 0xed, 0xfe, 0xfa, 0xf8, 0xe6, 0xda, 0x04, 0x0d, 0x51, 0xeb, 0xf8, 0x15,
    0xfa, 0x3a, 0xf8, 0xf0, 0x00, 0xd6, 0xf4, 0xcf, 0xbf, 0x0f, 0x2a, 0x0f, 0x02,
    0xad, 0x0d, 0x09, 0xeb, 0x0f, 0x13, 0xef, 0x36, 0xfe, 0x08, 0xf5, 0x84, 0xfb,
    0xdf, 0x01, 0xfd, 0xf1, 0x06, 0x08, 0xf8, 0xe4, 0xff, 0x01, 0x01, 0xf3, 0x02,
    0x0e, 0x01, 0x02, 0x81, 0xff, 0x00, 0x0e, 0x01, 0xf1, 0x03, 0xfe, 0x02, 0xf8,
    0x02, 0x05, 0xfa, 0x01, 0x0b, 0x12, 0x07, 0x01, 0xdd, 0xcc, 0xfc, 0xfc, 0xbb,
    0xdb, 0xf4, 0xe3, 0x0d, 0xc6, 0x06, 0xe7, 0xe2, 0x00, 0xff, 0x1c, 0x3b, 0xe6,
    0x01, 0xff, 0xec, 0x4e, 0xef, 0x0a, 0x05, 0xff, 0xe8, 0x03, 0x81, 0x09, 0x1c,
    0xde, 0xe1, 0x32, 0xfb, 0x0d, 0xde, 0x2c, 0x09, 0x25, 0x16, 0x1a, 0x0e, 0x21,
    0x08, 0x17, 0x06, 0xd4, 0xd6, 0xd4, 0x1b, 0x04, 0x27, 0x09, 0x7f, 0xe2, 0x0a,
    0x1b, 0x09, 0x23, 0xd3, 0xff, 0x25, 0xff, 0x0d, 0x12, 0xf9, 0x06, 0x3e, 0x20,
    0x0c, 0xff, 0xfc, 0x93, 0x0f, 0xf5, 0x81, 0xf4, 0x2d, 0x0d, 0x22, 0xfe, 0x06,
    0xf0, 0x01, 0x06, 0x01, 0x05, 0xf4, 0xf4, 0xfe, 0x02, 0xaa, 0xec, 0x09, 0xf6,
    0xf1, 0x02, 0xff, 0x0f, 0xfc, 0xf0, 0xd2, 0xf9, 0xfd, 0x02, 0x08, 0xdd, 0xfb,
    0x05, 0xf7, 0x03, 0xc8, 0xcc, 0xf7, 0xfd, 0xef, 0xe1, 0x3c, 0x01, 0xfe, 0xf3,
    0x22, 0xf8, 0xca, 0x22, 0xe9, 0x09, 0x0c, 0xf9, 0x01, 0x00, 0xfb, 0x01, 0x00,
    0xfe, 0x07, 0x06, 0xfe, 0xfc, 0x06, 0x02, 0xfc, 0xfd, 0xf0, 0xfe, 0x03, 0xff,
    0xff, 0x04, 0xdb, 0x06, 0xfe, 0xfb, 0x14, 0xfc, 0xff, 0x08, 0xee, 0xfc, 0xf6,
    0xe8, 0x02, 0x05, 0xf9, 0x02, 0xef, 0xf1, 0x05, 0x0e, 0xf2, 0xfe, 0xfe, 0x00,
    0x0f, 0xf1, 0x05, 0x04, 0xff, 0x04, 0xff, 0x0f, 0xb7, 0xfe, 0xf7, 0x00, 0x00,
    0xfd, 0xfe, 0x02, 0xf1, 0xed, 0x0c, 0xac, 0x02, 0x00, 0xfd, 0xbf, 0xfa, 0xfb,
    0x00, 0xf6, 0xf2, 0xb0, 0xf8, 0x01, 0xac, 0xf7, 0xef, 0xca, 0x02, 0xc0, 0x08,
    0xf2, 0xe4, 0x02, 0xe0, 0xff, 0x03, 0xff, 0xe4, 0xf3, 0xfa, 0xf8, 0xfe, 0xfb,
    0xff, 0xfe, 0x02, 0x02, 0xfd, 0xff, 0x00, 0x08, 0x02, 0x02, 0x01, 0x00, 0x01,
    0x00, 0x03, 0x01, 0xfe, 0x00, 0x00, 0x01, 0xfd, 0x01, 0x01, 0x01, 0x81, 0x01,
    0xff, 0x01, 0x03, 0x01, 0x14, 0x0d, 0x00, 0xfb, 0x07, 0xed, 0xf9, 0x06, 0x04,
    0x03, 0x00, 0xf0, 0xfb, 0x03, 0xfd, 0x02, 0x07, 0x02, 0xfe, 0xfb, 0x02, 0x02,
    0xfd, 0x04, 0xfd, 0xfb, 0xfd, 0xfc, 0xf9, 0x02, 0x01, 0x0e, 0x0e, 0x7f, 0xf4,
    0xfb, 0x34, 0xf7, 0x07, 0xf2, 0xf1, 0xc8, 0x11, 0xe2, 0xe7, 0xfd, 0x11, 0x02,
    0x0d, 0xd6, 0xf7, 0xef, 0xf0, 0x0a, 0x04, 0x0f, 0xe7, 0x04, 0xf3, 0x0e, 0x15,
    0x00, 0xf9, 0xdd, 0x05, 0x10, 0x0b, 0x0d, 0xde, 0xc7, 0xff, 0xe8, 0x04, 0xbd,
    0x02, 0xff, 0x36, 0x08, 0x12, 0x07, 0xaa, 0xfe, 0x05, 0x0b, 0xff, 0xfc, 0xf9,
    0x0e, 0x09, 0xf6, 0xff, 0xfe, 0xe4, 0xfc, 0x0e, 0x0b, 0x06, 0x03, 0xea, 0x05,
    0x24, 0xdb, 0x08, 0xff, 0x05, 0xfa, 0xeb, 0xfd, 0x26, 0xf6, 0x05, 0xf3, 0xfc,
    0xf7, 0xfe, 0x02, 0x02, 0x0a, 0xfa, 0x03, 0x0c, 0x00, 0xf1, 0xee, 0x02, 0x00,
    0xf6, 0xfc, 0xde, 0x08, 0x00, 0xf2, 0x81, 0xf3, 0xff, 0xfe, 0x08, 0xf6, 0xec,
    0x04, 0x05, 0xff, 0xfe, 0x02, 0xfa, 0xf6, 0xf7, 0x07, 0xe7, 0xf8, 0x0b, 0x0a,
    0x0b, 0xf6, 0xfc, 0xef, 0xf9, 0x02, 0xf9, 0x05, 0x9f, 0xf5, 0x10, 0xf4, 0x09,
    0x21, 0x16, 0xfd, 0x19, 0x02, 0x9e, 0x0a, 0x28, 0xf0, 0x14, 0xf8, 0xf7, 0xe3,
    0x1c, 0x2c, 0x01, 0x0c, 0x0f, 0xf5, 0xc1, 0xf7, 0x09, 0xfe, 0xf9, 0x03, 0x0d,
    0xfe, 0x08, 0xf3, 0xd6, 0xfb, 0x2d, 0x81, 0xc9, 0x0a, 0xfe, 0xfd, 0xf6, 0xf1,
    0xef, 0xfc, 0xf5, 0x02, 0xf3, 0x17, 0xf3, 0xaa, 0xd5, 0xf7, 0xe7, 0xf1, 0xf0,
    0x14, 0xdc, 0xd6, 0x0b, 0xe7, 0xb4, 0x09, 0xa6, 0x01, 0x00, 0x10, 0x1b, 0x07,
    0x02, 0xfc, 0xdc, 0xfe, 0x05, 0x00, 0xdc, 0xff, 0xb2, 0x06, 0x00, 0x03, 0xfe,
    0x03, 0xf7, 0x03, 0x04, 0x07, 0xfc, 0x08, 0xf8, 0x0d, 0x05, 0x08, 0x08, 0x01,
    0xf6, 0xff, 0xe2, 0x05, 0x04, 0xb1, 0x06, 0x00, 0xb9, 0xf3, 0xf7, 0x0b, 0xae,
    0xfc, 0xe5, 0xfc, 0x06, 0xf8, 0xd0, 0xc2, 0x0b, 0xe6, 0xf8, 0xfe, 0xe0, 0xf4,
    0xea, 0xef, 0x0c, 0xf9, 0xfe, 0xfb, 0x21, 0xff, 0x07, 0xd9, 0x29, 0xbe, 0xfd,
    0xf0, 0x12, 0xed, 0xf1, 0x0e, 0x13, 0x0e, 0x19, 0x70, 0x02, 0xf4, 0x0d, 0xff,
    0xdc, 0x56, 0x6a, 0xf0, 0x40, 0xf8, 0x0f, 0x23, 0xf5, 0x2a, 0x75, 0xf1, 0xd3,
    0x04, 0xfe, 0xf9, 0x6f, 0xf7, 0x0f, 0xf4, 0x00, 0x07, 0xc0, 0xfc, 0x06, 0xf8,
    0xbc, 0xeb, 0xf4, 0x0f, 0xa9, 0x13, 0x14, 0xf9, 0x12, 0x0e, 0x01, 0x0d, 0x0f,
    0x0b, 0x09, 0xff, 0xf6, 0x0a, 0xe8, 0xfa, 0xfc, 0xdc, 0x7f, 0x3b, 0xef, 0xff,
    0xda, 0xf6, 0xf7, 0x0f, 0xd6, 0x03, 0x17, 0x3a, 0x19, 0x0c, 0xfa, 0xf4, 0x1a,
    0xe5, 0x5f, 0xf0, 0x07, 0x05, 0xed, 0x71, 0xf8, 0xfc, 0x6d, 0x03, 0x03, 0xfc,
    0x09, 0x06, 0x87, 0x81, 0x0d, 0x01, 0x0b, 0xf3, 0x04, 0xfe, 0x19, 0xf6, 0x10,
    0xf0, 0x03, 0x00, 0x01, 0x06, 0xfc, 0x16, 0xf1, 0xfc, 0xfe, 0xfb, 0x00, 0x10,
    0xfd, 0x01, 0xf8, 0xfd, 0xfb, 0x01, 0xf1, 0x01, 0x10, 0x0f, 0xfd, 0x03, 0x11,
    0xf1, 0xfb, 0x00, 0xca, 0xea, 0x13, 0x81, 0x02, 0xf8, 0x09, 0xe2, 0xfc, 0x04,
    0xf5, 0x01, 0xfa, 0x07, 0xe6, 0xf0, 0x03, 0x00, 0xfc, 0x03, 0x81, 0x02, 0xf5,
    0xff, 0xc2, 0xa2, 0xfb, 0xfe, 0xb9, 0xff, 0xc4, 0x01, 0x02, 0xf1, 0xa7, 0xef,
    0xfe, 0xf9, 0x04, 0xf8, 0xc6, 0x0f, 0xd4, 0x02, 0xe3, 0xff, 0xe1, 0xe1, 0xfe,
    0x02, 0xe8, 0xff, 0xfc, 0x00, 0x0f, 0xfc, 0xfe, 0xfa, 0xf9, 0xe7, 0x03, 0xfe,
    0xff, 0x01, 0x00, 0xfe, 0x00, 0xff, 0xfa, 0xff, 0xfa, 0xe8, 0xf7, 0xff, 0x01,
    0x00, 0x00, 0x02, 0x01, 0x03, 0x03, 0xfe, 0xff, 0xfe, 0x00, 0xfc, 0x04, 0x00,
    0x81, 0x14, 0x0f, 0x02, 0xfe, 0x0d, 0xfb, 0x06, 0x02, 0xfe, 0xff, 0xfd, 0x01,
    0x05, 0x08, 0x03, 0xf2, 0x02, 0x14, 0x00, 0xfe, 0xfe, 0x05, 0x13, 0x00, 0x00,
    0x04, 0xfe, 0x12, 0xfb, 0xdb, 0xca, 0x24, 0xd8, 0xd7, 0xf1, 0x07, 0x12, 0x51,
    0x0e, 0x00, 0x10, 0xf9, 0xf7, 0xf1, 0x12, 0x07, 0x37, 0xd3, 0xff, 0xe7, 0x0c,
    0x09, 0xee, 0x09, 0xf6, 0xee, 0xfd, 0xfb, 0x03, 0x03, 0xf9, 0xfc, 0xe5, 0x15,
    0x0f, 0x09, 0xfe, 0x32, 0x0b, 0xf7, 0xfe, 0xea, 0x0a, 0xf4, 0x0d, 0x03, 0x07,
    0x5c, 0x81, 0xd9, 0xef, 0x04, 0xf7, 0xf4, 0x03, 0x07, 0x0c, 0xf8, 0x03, 0xfa,
    0x0f, 0x4a, 0xee, 0xff, 0xff, 0x00, 0x00, 0x00, 0x09, 0x18, 0x00, 0x00, 0x00,
    0x05, 0x00, 0x00, 0x00, 0x08, 0x00, 0x00, 0x00, 0x14, 0x00, 0x00, 0x00, 0x01,
    0x00, 0x00, 0x00, 0x33, 0x00, 0x00, 0x00, 0x01, 0x00, 0x00, 0x00, 0x00, 0x08,
    0x00, 0x00, 0x94, 0xed, 0xff, 0xff, 0x0a, 0xef, 0xff, 0xff, 0x04, 0x00, 0x00,
    0x00, 0x80, 0x00, 0x00, 0x00, 0x41, 0x10, 0x9b, 0x05, 0xc5, 0x05, 0x9a, 0x06,
    0x96, 0x27, 0xe7, 0x08, 0x68, 0x1d, 0x23, 0x07, 0xa7, 0x25, 0x70, 0x09, 0xc1,
    0x0c, 0xe3, 0x37, 0x8e, 0x16, 0x68, 0x09, 0xdd, 0x1f, 0x21, 0x2c, 0x2d, 0xfc,
    0x66, 0x02, 0x0d, 0xff, 0x66, 0xfe, 0x93, 0xf6, 0xf5, 0xfd, 0xc6, 0xfa, 0x96,
    0xff, 0xf7, 0xef, 0x18, 0xfd, 0x2a, 0xf8, 0x9e, 0xed, 0xf2, 0xfb, 0x00, 0xf6,
    0xf2, 0xf5, 0x43, 0xf9, 0xef, 0x0c, 0xee, 0x08, 0x66, 0x20, 0x46, 0x47, 0x3e,
    0x4a, 0xc8, 0x1b, 0x9f, 0x1c, 0xe7, 0x0a, 0xe7, 0x0c, 0x3f, 0x05, 0x96, 0x0e,
    0x9d, 0x13, 0x23, 0x09, 0x56, 0x0e, 0xbf, 0x10, 0xdc, 0x24, 0xf1, 0xfc, 0x58,
    0xfe, 0xcb, 0xfd, 0x9a, 0xf1, 0xd0, 0x9b, 0x03, 0xf4, 0x02, 0xf8, 0xd5, 0x00,
    0x1c, 0xfc, 0x01, 0x03, 0x3c, 0xf2, 0xde, 0xf9, 0x35, 0xf8, 0x51, 0xfb, 0x82,
    0xfc, 0xbc, 0xf3, 0x02, 0xef, 0xff, 0xff, 0x00, 0x00, 0x00, 0x07, 0x18, 0x00,
    0x00, 0x00, 0x04, 0x00, 0x00, 0x00, 0x08, 0x00, 0x00, 0x00, 0x14, 0x00, 0x00,
    0x00, 0x01, 0x00, 0x00, 0x00, 0x32, 0x00, 0x00, 0x00, 0x01, 0x00, 0x00, 0x00,
    0x40, 0x00, 0x00, 0x00, 0x4c, 0xee, 0xff, 0xff, 0xc2, 0xef, 0xff, 0xff, 0x04,
    0x00, 0x00, 0x00, 0x00, 0x10, 0x00, 0x00, 0xff, 0xa8, 0x01, 0xfd, 0x02, 0xfe,
    0x03, 0x00, 0x07, 0xf7, 0x01, 0xff, 0x03, 0x02, 0x01, 0xf8, 0xff, 0xf5, 0x06,
    0xfe, 0xff, 0x03, 0xfb, 0x02, 0x00, 0xfd, 0x03, 0x03, 0x05, 0xfd, 0xfb, 0x03,
    0x03, 0x00, 0x06, 0x03, 0x01, 0x04, 0xfc, 0x09, 0x02, 0x08, 0x06, 0x03, 0xfe,
    0xfb, 0x05, 0x02, 0x07, 0x06, 0xff, 0x04, 0xf8, 0xf7, 0xf9, 0xfd, 0x05, 0xf3,
    0xfd, 0x0a, 0x08, 0x01, 0x06, 0xfc, 0xfa, 0xfe, 0xfe, 0xfb, 0xff, 0xfb, 0x0c,
    0xfe, 0x05, 0xff, 0xf6, 0xfd, 0x06, 0x09, 0xfd, 0xfd, 0xf7, 0x02, 0xf9, 0xfc,
    0xfe, 0x07, 0x05, 0xfe, 0xfe, 0x10, 0xf3, 0xff, 0xf6, 0x02, 0xfb, 0x0b, 0xfb,
    0xff, 0xfb, 0xfd, 0xf9, 0xfa, 0x02, 0xfa, 0x02, 0xfc, 0xfc, 0xfe, 0x05, 0x03,
    0xfa, 0xf9, 0xf9, 0xfe, 0xff, 0xfd, 0x04, 0xfe, 0xf9, 0x01, 0xfe, 0x0a, 0x04,
    0xfd, 0xfd, 0xfc, 0xfe, 0x03, 0xfd, 0xf7, 0x00, 0xf4, 0xfc, 0xfe, 0x05, 0xf3,
    0x04, 0xff, 0xfc, 0xf5, 0x02, 0x02, 0xfc, 0xfe, 0xfd, 0xfa, 0x04, 0xff, 0xfe,
    0x06, 0xfd, 0x02, 0x01, 0x01, 0xf9, 0x01, 0xff, 0xff, 0xce, 0x06, 0x02, 0x04,
    0xff, 0x01, 0x03, 0x03, 0xfb, 0x04, 0xf6, 0x04, 0x05, 0x01, 0xfd, 0xf7, 0x00,
    0x03, 0x05, 0x05, 0xfc, 0x02, 0x81, 0xfe, 0xfa, 0xfd, 0x02, 0xf5, 0xfc, 0xfe,
    0x02, 0x04, 0x05, 0xfc, 0xfd, 0x00, 0x00, 0xfd, 0xff, 0xfd, 0x04, 0xfd, 0x02,
    0xf6, 0xfc, 0xfb, 0x03, 0x00, 0xfd, 0xfc, 0xfd, 0xff, 0x05, 0x00, 0xfe, 0x02,
    0x03, 0x03, 0xfc, 0x09, 0x04, 0xfe, 0xff, 0xfe, 0xfe, 0x03, 0xfa, 0xf6, 0x00,
    0xfa, 0x05, 0xfb, 0x07, 0x00, 0x02, 0xfd, 0xfb, 0xfd, 0xff, 0x06, 0xfe, 0xfb,
    0xfd, 0xf7, 0xef, 0xfb, 0xff, 0x09, 0x02, 0xff, 0x02, 0xfa, 0x06, 0x04, 0x03,
    0xfa, 0xfe, 0x0b, 0x03, 0x09, 0xfa, 0x02, 0x01, 0x02, 0xfd, 0x00, 0xe8, 0x00,
    0x02, 0x05, 0x01, 0xfa, 0x05, 0x00, 0x02, 0xff, 0xfc, 0x02, 0xa1, 0x03, 0xfb,
    0xfb, 0x04, 0xf9, 0xfe, 0xf5, 0x02, 0x04, 0x01, 0xfd, 0x02, 0xfe, 0x03, 0x02,
    0x01, 0x03, 0xfb, 0x06, 0x01, 0x03, 0x04, 0x04, 0xfb, 0xfe, 0x07, 0x05, 0x03,
    0x02, 0xfa, 0x04, 0xfb, 0xff, 0xf8, 0xfb, 0x04, 0xf6, 0xfd, 0x04, 0x02, 0x05,
    0x03, 0xfd, 0x00, 0xef, 0x00, 0xff, 0x03, 0xfe, 0xfe, 0x00, 0x03, 0xfd, 0xff,
    0x01, 0x02, 0x01, 0xff, 0xfe, 0xfe, 0xff, 0x01, 0xfd, 0x00, 0x05, 0x02, 0x01,
    0xfc, 0x00, 0xf6, 0x00, 0xfc, 0xfe, 0x01, 0xf1, 0xfd, 0xfe, 0x01, 0xfc, 0x01,
    0xff, 0x07, 0x00, 0x01, 0xfd, 0xfc, 0xfd, 0x03, 0x01, 0xfc, 0xff, 0xfc, 0xf4,
    0x06, 0xfc, 0xfd, 0x04, 0x04, 0x02, 0xff, 0x0a, 0x06, 0xfd, 0xfd, 0xfe, 0xfe,
    0x06, 0xff, 0xfe, 0xdf, 0xfa, 0xfc, 0xfc, 0x07, 0xf8, 0x00, 0xfe, 0x00, 0xfc,
    0x03, 0xff, 0x03, 0x00, 0xf9, 0x01, 0xfb, 0xfe, 0x00, 0x01, 0x05, 0x00, 0x03,
    0xfb, 0x00, 0xfb, 0xed, 0x01, 0xfd, 0xfb, 0x03, 0xfe, 0x02, 0x02, 0x03, 0x04,
    0xfa, 0x03, 0xff, 0x04, 0x03, 0x04, 0xfd, 0xf9, 0x05, 0x03, 0x03, 0x02, 0xfc,
    0x04, 0xfd, 0xff, 0xf5, 0xfc, 0x03, 0xf6, 0xfb, 0x04, 0x03, 0x02, 0x02, 0xff,
    0xfa, 0xfd, 0xfc, 0xf9, 0xfc, 0x00, 0xfe, 0xfa, 0x06, 0xfd, 0xfc, 0x02, 0x06,
    0x05, 0xf7, 0xfb, 0xfa, 0x00, 0xf2, 0xfd, 0xff, 0x05, 0x03, 0xfe, 0xfc, 0x08,
    0xf4, 0x00, 0xfc, 0xfc, 0xfe, 0x00, 0xfc, 0xff, 0x02, 0xfb, 0xfe, 0xf9, 0x07,
    0xfe, 0xf8, 0xfb, 0xfa, 0xfa, 0x03, 0x04, 0xfc, 0xfb, 0xfa, 0x00, 0x07, 0xff,
    0xe7, 0x03, 0x08, 0x04, 0xfc, 0x0c, 0x05, 0xfc, 0xfb, 0xff, 0xfd, 0x07, 0xfe,
    0xe6, 0xff, 0xfe, 0xff, 0xfe, 0x03, 0x00, 0x02, 0xf6, 0x06, 0xfd, 0x01, 0x01,
    0xff, 0xfb, 0xfe, 0xf0, 0x07, 0xfd, 0x01, 0xff, 0xfd, 0x02, 0x03, 0x07, 0x04,
    0xfc, 0x01, 0x01, 0xfe, 0x05, 0xff, 0xf3, 0x01, 0xfc, 0xfd, 0xfe, 0xff, 0xf7,
    0x00, 0xfc, 0xff, 0xff, 0xfd, 0x05, 0x02, 0xfc, 0xfc, 0xf8, 0xfb, 0xfe, 0xfe,
    0x01, 0xe8, 0xfe, 0x03, 0xf0, 0x01, 0x02, 0xfb, 0x02, 0xf9, 0x07, 0xfc, 0xfe,
    0xff, 0xfc, 0x00, 0xfc, 0x03, 0x01, 0x02, 0x00, 0xf7, 0xf8, 0x06, 0x07, 0xff,
    0xff, 0xf8, 0x01, 0xfc, 0xfe, 0xff, 0x06, 0x01, 0xfe, 0xfe, 0x0c, 0xf9, 0xff,
    0xff, 0xff, 0xfd, 0x06, 0xfe, 0x01, 0xfc, 0xfc, 0xfd, 0xfa, 0x04, 0xfd, 0x02,
    0xfd, 0xfa, 0x01, 0x03, 0x03, 0xfe, 0xfb, 0x00, 0xff, 0x01, 0x00, 0x05, 0x01,
    0xf7, 0x01, 0xfb, 0xff, 0x03, 0xff, 0xfd, 0xfc, 0xff, 0x00, 0x00, 0xff, 0xfe,
    0xf9, 0xfc, 0xfe, 0x07, 0xf6, 0x01, 0xff, 0x00, 0xfa, 0x01, 0x00, 0xfd, 0xfc,
    0xff, 0xfd, 0x04, 0xff, 0xff, 0x06, 0x01, 0x01, 0x03, 0x03, 0xff, 0xff, 0xf9,
    0xfe, 0xe6, 0x06, 0x02, 0xfa, 0x01, 0x01, 0x02, 0x00, 0xfa, 0x00, 0xfe, 0x01,
    0x01, 0x03, 0xfd, 0x04, 0x00, 0x03, 0xff, 0xfd, 0xfa, 0x02, 0x00, 0x01, 0xfa,
    0xfd, 0x05, 0xf8, 0xfc, 0x01, 0x04, 0x03, 0xfe, 0x00, 0xfe, 0x00, 0xff, 0xfd,
    0xfd, 0xfc, 0x01, 0xfe, 0x03, 0xfe, 0xfd, 0xfb, 0x02, 0x03, 0xff, 0xfb, 0xff,
    0xfd, 0x06, 0x00, 0xff, 0x02, 0x04, 0x02, 0xfc, 0x07, 0x04, 0x00, 0xfd, 0xfc,
    0x00, 0x04, 0xfd, 0xfe, 0xfd, 0xf9, 0xff, 0xfc, 0x06, 0x01, 0xff, 0xff, 0xfd,
    0xfe, 0xff, 0x05, 0xfc, 0xfc, 0xfd, 0xf8, 0x01, 0xfc, 0x03, 0x07, 0x08, 0x00,
    0xfe, 0x11, 0x04, 0xff, 0x02, 0xfe, 0xff, 0x09, 0x03, 0x00, 0x02, 0x04, 0x01,
    0x05, 0xfb, 0x04, 0x04, 0x04, 0x04, 0x03, 0xff, 0xfc, 0x00, 0x04, 0x02, 0x05,
    0xfc, 0x04, 0xfd, 0xfd, 0xfa, 0xfe, 0x02, 0xf7, 0xfd, 0x07, 0x03, 0x03, 0x02,
    0xfb, 0x02, 0x00, 0x00, 0x02, 0x02, 0x00, 0xfc, 0x01, 0xfb, 0x01, 0x02, 0x02,
    0xfb, 0xff, 0x03, 0x01, 0x03, 0x01, 0xfb, 0x02, 0xfa, 0x00, 0xf9, 0xff, 0x03,
    0xfa, 0xfe, 0xfe, 0x02, 0x02, 0x02, 0xff, 0xfd, 0xf9, 0x00, 0xff, 0xfe, 0xff,
    0xfc, 0xff, 0xff, 0xfd, 0x02, 0xff, 0x01, 0x00, 0x01, 0xfd, 0x00, 0xfe, 0xff,
    0xfd, 0x03, 0x04, 0xfd, 0x01, 0x02, 0x05, 0xf8, 0xfd, 0xff, 0x01, 0x00, 0xfe,
    0xfe, 0x00, 0x01, 0xfe, 0xff, 0x00, 0x03, 0x00, 0x02, 0x00, 0xfc, 0xfa, 0x02,
    0x03, 0xff, 0xfd, 0xfb, 0xf7, 0x06, 0x00, 0xff, 0x01, 0x03, 0x00, 0xfe, 0x08,
    0x04, 0x01, 0xfc, 0xfd, 0xff, 0x05, 0xff, 0xff, 0xe4, 0xfa, 0xfe, 0xfd, 0x05,
    0xfb, 0x00, 0x00, 0x00, 0xfe, 0x02, 0x00, 0x04, 0xfe, 0xfa, 0x01, 0xff, 0xfe,
    0x02, 0x01, 0x03, 0x02, 0x00, 0xfd, 0x00, 0x01, 0xf5, 0xff, 0x00, 0xfd, 0x02,
    0x00, 0x01, 0x03, 0x03, 0x01, 0xfc, 0x03, 0xfe, 0x02, 0x01, 0x05, 0xfc, 0xfe,
    0x03, 0x02, 0x03, 0x01, 0xfd, 0x01, 0xfc, 0xff, 0xfa, 0xff, 0x03, 0xfa, 0xfe,
    0x00, 0x03, 0x02, 0x02, 0xfe, 0xfc, 0x00, 0xfd, 0xfe, 0xfc, 0xff, 0x05, 0xfa,
    0x03, 0xff, 0xf9, 0xfd, 0x04, 0x06, 0xff, 0xff, 0xfe, 0x00, 0xf5, 0x00, 0xff,
    0x03, 0x06, 0xfd, 0xfc, 0x0e, 0xfb, 0xff, 0xf9, 0x03, 0xfe, 0x07, 0xff, 0xff,
    0x01, 0xfc, 0xfe, 0xfa, 0x03, 0xfc, 0xfd, 0xfe, 0xfd, 0xfd, 0x03, 0x03, 0xfc,
    0xfc, 0xfd, 0xff, 0x09, 0xff, 0xef, 0x00, 0x06, 0x02, 0xfa, 0x06, 0x05, 0xfc,
    0xfc, 0x00, 0xfe, 0x06, 0xfe, 0xeb, 0xff, 0xfd, 0xfb, 0xfd, 0x03, 0x01, 0x01,
    0xff, 0x08, 0xfc, 0x04, 0x01, 0x00, 0xff, 0xfd, 0xf8, 0x03, 0xfd, 0x01, 0x04,
    0x02, 0x02, 0x05, 0x05, 0x04, 0xfd, 0xff, 0x02, 0xff, 0x01, 0x02, 0x02, 0x01,
    0x04, 0x02, 0x04, 0xfe, 0x04, 0x03, 0x04, 0x06, 0x02, 0xff, 0xf8, 0x07, 0x02,
    0x05, 0x03, 0xfe, 0x03, 0xfb, 0x01, 0xf9, 0xfe, 0x04, 0xfa, 0xfe, 0x04, 0x05,
    0x04, 0x01, 0xfb, 0xfe, 0xff, 0xff, 0xfc, 0x01, 0xf9, 0x0b, 0x00, 0xff, 0x00,
    0xfb, 0xfc, 0x05, 0x07, 0x01, 0xfd, 0xf8, 0x04, 0xfd, 0x00, 0xfe, 0x08, 0x03,
    0xfe, 0xfc, 0x0c, 0xfa, 0xfe, 0xfc, 0xff, 0xff, 0x04, 0xfe, 0x02, 0xfd, 0xff,
    0xfa, 0xfb, 0x05, 0xfb, 0x01, 0xfd, 0xfa, 0xfe, 0x04, 0x00, 0xfc, 0xfc, 0xfc,
    0xfd, 0xff, 0xff, 0x02, 0x00, 0x04, 0x00, 0xfd, 0x09, 0x02, 0x01, 0xfc, 0x00,
    0xfe, 0x05, 0xff, 0xff, 0x01, 0xfd, 0x00, 0x00, 0x07, 0xfd, 0x00, 0xfc, 0xfd,
    0xfc, 0x02, 0x00, 0xfa, 0xff, 0xfd, 0xf9, 0x05, 0x01, 0xff, 0x03, 0x00, 0x01,
    0xfe, 0x11, 0xfa, 0xfc, 0xfd, 0xfc, 0xe8, 0x07, 0x02, 0xfd, 0x04, 0x01, 0x02,
    0x02, 0xf9, 0x00, 0x02, 0x04, 0x01, 0x04, 0xff, 0xf7, 0x03, 0x03, 0x03, 0x01,
    0xfb, 0x02, 0xfb, 0xff, 0xfa, 0xfd, 0x03, 0xf8, 0xfd, 0x05, 0x05, 0x01, 0x02,
    0xfd, 0xff, 0x00, 0x00, 0xff, 0xfe, 0xfb, 0x06, 0xfc, 0x01, 0xfc, 0xfd, 0xff,
    0x04, 0x04, 0xfd, 0xfd, 0xff, 0xfd, 0x04, 0xfe, 0xfe, 0x01, 0x01, 0x01, 0xfc,
    0x04, 0x05, 0xfe, 0x00, 0xff, 0xff, 0x06, 0xfd, 0xfd, 0x00, 0xfd, 0x00, 0xff,
    0xfb, 0xfe, 0xfe, 0x00, 0xfd, 0xfb, 0xff, 0x04, 0xfc, 0xfe, 0xfc, 0xfd, 0x00,
    0xff, 0x01, 0x05, 0x03, 0x01, 0x00, 0xfc, 0x06, 0x02, 0xff, 0x00, 0x00, 0x07,
    0xff, 0xf0, 0x04, 0xfd, 0x01, 0xfd, 0xfe, 0xfd, 0x01, 0xfc, 0xfb, 0x03, 0xfe,
    0x05, 0x00, 0xfd, 0xfd, 0xfb, 0xf8, 0x00, 0xff, 0x01, 0xf7, 0xfb, 0x03, 0xf2,
    0xfe, 0x03, 0xfc, 0x02, 0xfa, 0x05, 0x02, 0x02, 0x00, 0x01, 0x01, 0x02, 0xfb,
    0x03, 0xec, 0x04, 0x03, 0x05, 0xfe, 0xef, 0x00, 0x02, 0x04, 0x05, 0xff, 0x01,
    0xb3, 0xfe, 0xf9, 0xfd, 0x02, 0xfb, 0xfe, 0xff, 0x05, 0x03, 0x02, 0xfd, 0xfe,
    0xf9, 0xff, 0xff, 0xfd, 0xfc, 0xfc, 0xff, 0xff, 0xfd, 0x02, 0x00, 0x00, 0x01,
    0xfe, 0xff, 0x00, 0xff, 0xfc, 0xff, 0x00, 0x04, 0xfd, 0x02, 0xfe, 0x08, 0xfa,
    0xfd, 0xff, 0x00, 0x01, 0xf9, 0xff, 0x00, 0x00, 0xfd, 0xfd, 0xff, 0x07, 0xff,
    0x03, 0xfe, 0xfc, 0xfe, 0x02, 0x03, 0xff, 0xff, 0xf9, 0xf7, 0x06, 0xfc, 0xff,
    0x03, 0x02, 0x01, 0xfc, 0x07, 0x05, 0xff, 0x00, 0xff, 0x00, 0x04, 0xff, 0x01,
    0xec, 0xfb, 0xfd, 0x00, 0x02, 0xfa, 0x02, 0x00, 0xfd, 0xfd, 0x01, 0x00, 0x03,
    0xfe, 0xfb, 0x02, 0xf9, 0xff, 0x01, 0xff, 0xf6, 0x01, 0x01, 0xf0, 0x00, 0xff,
    0xf3, 0x02, 0xfe, 0x00, 0x02, 0x00, 0xff, 0x02, 0x03, 0x02, 0xfc, 0x04, 0xf7,
    0x01, 0x01, 0x03, 0x00, 0x01, 0x01, 0x01, 0x02, 0x05, 0xfd, 0x02, 0xfd, 0xff,
    0xfd, 0xff, 0x03, 0xf9, 0xfc, 0xff, 0x02, 0x03, 0x02, 0xff, 0xfe, 0x00, 0xfc,
    0xfc, 0xfe, 0xfe, 0x01, 0xfc, 0x02, 0x00, 0xfd, 0xfe, 0x04, 0x04, 0xfd, 0xfe,
    0xff, 0x00, 0xf1, 0xff, 0x01, 0x04, 0x00, 0xfd, 0xfe, 0x03, 0xf6, 0xfd, 0xfb,
    0x00, 0xff, 0x07, 0xfe, 0x01, 0x01, 0xfc, 0x00, 0xfc, 0x04, 0xfe, 0xfe, 0xfe,
    0xfd, 0xfc, 0x03, 0x04, 0xfb, 0xfc, 0x00, 0xfe, 0x05, 0xfe, 0xf8, 0x00, 0x04,
    0x03, 0xfa, 0x0b, 0x03, 0xff, 0xfd, 0xfc, 0xff, 0x05, 0x00, 0xb8, 0x00, 0xfd,
    0xfc, 0xfd, 0x06, 0x00, 0x05, 0xfd, 0x01, 0xf7, 0x04, 0x06, 0xff, 0x00, 0xfc,
    0xf8, 0x04, 0xfe, 0x01, 0x02, 0xff, 0x01, 0xfc, 0x00, 0x01, 0x02, 0xf9, 0x00,
    0xfb, 0xfe, 0x02, 0x06, 0xfa, 0xfe, 0x01, 0x01, 0xfd, 0x02, 0xd9, 0x01, 0x02,
    0x03, 0xff, 0xfd, 0x02, 0x02, 0x01, 0x04, 0xfd, 0x00, 0xa1, 0x01, 0xfa, 0xfe,
    0x01, 0xfa, 0xfd, 0xf3, 0x01, 0x03, 0x03, 0xfd, 0xfc, 0xfe, 0xff, 0xfc, 0x00,
    0xfc, 0x06, 0xfd, 0x04, 0xfe, 0xf9, 0xfa, 0x05, 0x09, 0xfb, 0x00, 0xf8, 0x04,
    0xff, 0x00, 0xfc, 0x08, 0x05, 0xfc, 0xfe, 0x0f, 0xf7, 0xfe, 0xfb, 0xfe, 0x00,
    0x0a, 0xfe, 0x01, 0xfb, 0xff, 0xfa, 0xfa, 0x03, 0xfb, 0x02, 0xfe, 0xfd, 0xff,
    0x04, 0x03, 0xfa, 0xfd, 0xfb, 0xfc, 0x01, 0xff, 0x00, 0xff, 0xf4, 0x01, 0xfd,
    0x03, 0x04, 0xfd, 0xfd, 0x01, 0xfd, 0x04, 0xff, 0xf8, 0x01, 0xfc, 0x02, 0x00,
    0x03, 0xfb, 0x02, 0xf9, 0x00, 0x00, 0x04, 0x03, 0xfc, 0xf9, 0xfd, 0xfb, 0x0a,
    0x01, 0x01, 0x04, 0x02, 0xff, 0x00, 0xf3, 0xfd, 0x00, 0x00, 0xfe, 0xe6, 0x0c,
    0x02, 0x03, 0x01, 0x04, 0x04, 0x02, 0xfa, 0x06, 0xfb, 0x03, 0x03, 0x04, 0xff,
    0x01, 0x05, 0x03, 0x02, 0x03, 0xfb, 0x03, 0xf9, 0xfa, 0xfc, 0xff, 0x02, 0xf5,
    0xfe, 0x00, 0x01, 0x00, 0x02, 0xfa, 0xfd, 0x01, 0xff, 0xfd, 0xfe, 0xfb, 0x06,
    0xfb, 0x01, 0xf6, 0xfc, 0xfb, 0x02, 0x04, 0xfd, 0xfe, 0xfe, 0xfe, 0x08, 0xfe,
    0xfd, 0x02, 0x06, 0x03, 0xfc, 0x10, 0x04, 0x00, 0xfe, 0xfe, 0xfe, 0x06, 0xfd,
    0xf8, 0xff, 0x00, 0x00, 0xfe, 0x01, 0x01, 0x00, 0x00, 0xf9, 0xf8, 0xff, 0x06,
    0x01, 0xfc, 0xfb, 0xf9, 0xf9, 0x00, 0x00, 0x07, 0x06, 0x00, 0x03, 0x0f, 0x04,
    0x04, 0x00, 0xfd, 0x00, 0x08, 0x02, 0x00, 0x05, 0x04, 0x03, 0x04, 0xf9, 0x07,
    0xfc, 0x05, 0x04, 0x04, 0xfd, 0xf8, 0x01, 0x05, 0x08, 0x08, 0xfb, 0x03, 0xe0,
    0xf8, 0xfe, 0xfb, 0x01, 0xf3, 0xfd, 0x06, 0x04, 0x03, 0x06, 0xf9, 0x02, 0xfe,
    0x01, 0x02, 0x03, 0x03, 0xfb, 0x03, 0x00, 0x03, 0x05, 0x06, 0xff, 0x01, 0x02,
    0x01, 0x02, 0x02, 0xfd, 0x03, 0x01, 0xfb, 0xfa, 0xfd, 0x01, 0xf9, 0xfd, 0x01,
    0x05, 0x02, 0x03, 0xfd, 0xff, 0xf4, 0x00, 0xff, 0xfb, 0xff, 0xfa, 0xff, 0x01,
    0xfe, 0x02, 0x03, 0x02, 0x02, 0x01, 0xfd, 0xfe, 0xff, 0xfd, 0xff, 0x01, 0x06,
    0x03, 0x03, 0x01, 0x03, 0xfb, 0x03, 0xfd, 0xfd, 0x00, 0xf5, 0xfb, 0x00, 0x01,
    0xfc, 0xff, 0xff, 0x06, 0xfe, 0x02, 0xff, 0xfa, 0xfb, 0x04, 0x03, 0x00, 0xfe,
    0xfe, 0xf0, 0x08, 0xfa, 0x01, 0x02, 0x03, 0x02, 0xfc, 0x0b, 0x03, 0x00, 0xfc,
    0xfe, 0xfe, 0x04, 0xff, 0x00, 0xe4, 0xf9, 0xfc, 0xfb, 0x04, 0xf4, 0xfe, 0xfa,
    0xfe, 0xfe, 0x01, 0xff, 0x06, 0xfb, 0xfd, 0x01, 0xfa, 0xfe, 0xff, 0x01, 0x01,
    0x01, 0x03, 0xf3, 0xff, 0xf4, 0xf1, 0x01, 0xfd, 0xfe, 0x01, 0x00, 0x01, 0x01,
    0x04, 0x04, 0xfa, 0x04, 0xfb, 0x03, 0x05, 0x03, 0xff, 0xf7, 0x01, 0x02, 0x04,
    0x01, 0xfc, 0x03, 0xf9, 0xfe, 0xfc, 0xfe, 0x04, 0xf9, 0xfd, 0x01, 0x03, 0x03,
    0x02, 0xfe, 0xfd, 0xfe, 0xfa, 0xfe, 0xff, 0xfd, 0x02, 0xf9, 0x02, 0xff, 0xfe,
    0x00, 0x04, 0x04, 0xfb, 0xfa, 0xff, 0x02, 0xe5, 0xfb, 0xff, 0x05, 0x02, 0xfd,
    0x00, 0x0f, 0xf8, 0xff, 0x00, 0x00, 0x01, 0xff, 0xfc, 0x00, 0x00, 0xf8, 0x00,
    0xf8, 0x08, 0xfe, 0xfa, 0xfd, 0xfb, 0xfc, 0x02, 0x03, 0xfc, 0xfd, 0xfd, 0xff,
    0x08, 0xfe, 0xfa, 0x04, 0x09, 0x04, 0xfb, 0x0b, 0x04, 0xf8, 0xfc, 0xfe, 0xfe,
    0x05, 0x02, 0x00, 0xff, 0x01, 0x05, 0xff, 0xfc, 0x03, 0xf9, 0x02, 0x04, 0x05,
    0xfd, 0x00, 0xff, 0x02, 0x04, 0xff, 0xfb, 0x03, 0xf5, 0xfb, 0xf9, 0xfe, 0x02,
    0xf8, 0xfd, 0xff, 0x02, 0x03, 0x02, 0xfd, 0x00, 0xeb, 0x0b, 0xfd, 0x03, 0xfb,
    0xfd, 0x04, 0x05, 0x00, 0x01, 0xfe, 0x02, 0x00, 0x04, 0x01, 0x03, 0x02, 0xfc,
    0x03, 0xf7, 0xf9, 0xff, 0xfb, 0xfe, 0xf0, 0xfe, 0x10, 0x09, 0x00, 0x03, 0xf3,
    0x01, 0x03, 0xfb, 0x02, 0x01, 0x03, 0xfd, 0x03, 0xf3, 0x01, 0x04, 0x02, 0x00,
    0xf3, 0xfe, 0x01, 0x03, 0x02, 0xfd, 0x03, 0xe7, 0xff, 0xfa, 0xfe, 0x02, 0xfb,
    0xfe, 0xf7, 0x00, 0x04, 0x03, 0xfe, 0x01, 0xfd, 0x00, 0x04, 0x03, 0x01, 0xfa,
    0x04, 0xfd, 0x01, 0x04, 0x04, 0xfe, 0x01, 0x05, 0x04, 0x03, 0x03, 0xfe, 0x03,
    0xfb, 0x00, 0xfa, 0xfe, 0x03, 0xf9, 0xfd, 0xfd, 0x01, 0x01, 0x02, 0xfc, 0xfe,
    0x00, 0xf3, 0xff, 0x01, 0xfc, 0x06, 0xfa, 0xf8, 0xfa, 0xfd, 0xff, 0x02, 0x04,
    0xfa, 0xfa, 0xfd, 0x01, 0x02, 0xf9, 0xeb, 0xf9, 0x07, 0x04, 0xfb, 0x04, 0x06,
    0xfc, 0xfb, 0xfe, 0xff, 0xf9, 0xff, 0xf9, 0xfd, 0xfc, 0xff, 0xfc, 0xfa, 0x03,
    0xff, 0x00, 0x01, 0xfd, 0xfe, 0x03, 0xff, 0xfe, 0xfc, 0x01, 0xff, 0xfe, 0x03,
    0x03, 0xfb, 0x03, 0x01, 0x02, 0xfa, 0xfa, 0xf8, 0xff, 0xff, 0xf9, 0x02, 0xff,
    0x03, 0x02, 0x03, 0x02, 0xf7, 0x02, 0x00, 0x03, 0x03, 0x03, 0xfb, 0xfc, 0x03,
    0x03, 0x03, 0x02, 0xfc, 0x02, 0xfd, 0xff, 0xf5, 0xfb, 0x01, 0xf6, 0xfb, 0x02,
    0x01, 0x04, 0x01, 0xfd, 0xfd, 0xf6, 0x02, 0xfe, 0x03, 0xff, 0x07, 0xfd, 0x05,
    0xf6, 0x02, 0xfc, 0x03, 0xff, 0xfe, 0xfa, 0xfe, 0xf3, 0x07, 0x00, 0xfe, 0x08,
    0x00, 0x01, 0x03, 0x02, 0xfe, 0xff, 0xfa, 0x01, 0xe8, 0x0a, 0xfe, 0xfc, 0x01,
    0xff, 0x02, 0xfe, 0x03, 0xfd, 0x02, 0xfb, 0x00, 0xfe, 0x00, 0x03, 0x01, 0xff,
    0xfd, 0xf8, 0x08, 0xff, 0xfd, 0x04, 0x00, 0x03, 0x00, 0x02, 0x01, 0xfc, 0xfc,
    0xfd, 0xf5, 0x04, 0x01, 0xf0, 0x07, 0xff, 0x05, 0xff, 0xff, 0x05, 0x06, 0xfe,
    0xff, 0x03, 0xfd, 0x06, 0x04, 0x02, 0x01, 0xfd, 0xfb, 0x04, 0xfa, 0xfc, 0xf3,
    0xfb, 0x03, 0xef, 0xfb, 0x0d, 0x00, 0xff, 0xfb, 0x01, 0xfd, 0xff, 0x00, 0xfe,
    0xfe, 0xfe, 0x04, 0xff, 0x03, 0xfc, 0xfc, 0xfb, 0x01, 0x02, 0xfc, 0xfc, 0xfc,
    0xfc, 0x05, 0xff, 0xfe, 0x02, 0x03, 0x03, 0xfc, 0x0b, 0x04, 0xff, 0x00, 0xfe,
    0xfd, 0x06, 0x03, 0x09, 0xf7, 0xff, 0xff, 0x03, 0xfd, 0xfb, 0xea, 0x03, 0x01,
    0x03, 0xff, 0x02, 0x06, 0xff, 0x02, 0xfe, 0xfa, 0xff, 0x84, 0x02, 0xf7, 0xfe,
    0x04, 0xff, 0xfd, 0xef, 0xfc, 0x05, 0x00, 0x01, 0xfd, 0x00, 0xfe, 0xfd, 0x00,
    0xfc, 0x06, 0xfb, 0x01, 0xfe, 0xfb, 0xfc, 0x03, 0x04, 0xfd, 0xfe, 0xfa, 0xfb,
    0x03, 0xfc, 0x02, 0x04, 0x00, 0x01, 0xfb, 0x0a, 0x04, 0xff, 0x00, 0xff, 0xfd,
    0x04, 0xfe, 0xfe, 0xec, 0xfe, 0xfe, 0x02, 0x03, 0x00, 0xff, 0x01, 0xfc, 0x00,
    0xfe, 0x01, 0xfc, 0x03, 0xff, 0xfc, 0x00, 0xfc, 0xfe, 0x03, 0x05, 0x02, 0x00,
    0x00, 0x03, 0xfb, 0xff, 0xfd, 0xfe, 0xf2, 0xff, 0xfe, 0xff, 0xfc, 0xfd, 0xfc,
    0x02, 0xfb, 0x03, 0xfe, 0xf9, 0xfc, 0x05, 0x04, 0xfb, 0xfb, 0xfd, 0xfe, 0x07,
    0xfc, 0xfe, 0x01, 0x04, 0x02, 0xf8, 0x0a, 0x04, 0xff, 0xfd, 0xfd, 0xfd, 0x07,
    0x02, 0x00, 0x01, 0x03, 0x03, 0x03, 0xfb, 0x04, 0xf9, 0x03, 0x02, 0x05, 0xfd,
    0xfe, 0x03, 0x02, 0x03, 0x03, 0xfc, 0x02, 0xe5, 0xfa, 0xfa, 0xfe, 0x03, 0xf7,
    0xfd, 0x05, 0x04, 0x04, 0x03, 0xfe, 0x01, 0x02, 0x00, 0x02, 0x02, 0x01, 0xfa,
    0x03, 0xfd, 0x01, 0x03, 0x04, 0xff, 0xf8, 0x01, 0x02, 0x05, 0x02, 0xfc, 0x01,
    0xfa, 0xff, 0xf9, 0xfd, 0x01, 0xf9, 0xfe, 0x02, 0x05, 0x03, 0x01, 0xff, 0x00,
    0xff, 0x03, 0x03, 0x02, 0xff, 0x00, 0x07, 0xfd, 0x03, 0x06, 0x01, 0xfe, 0x00,
    0x04, 0x04, 0x03, 0x03, 0xfd, 0x03, 0xf5, 0xff, 0xf8, 0xff, 0x03, 0xf7, 0xfd,
    0xff, 0x04, 0x00, 0x01, 0xfd, 0x02, 0x06, 0xfe, 0x02, 0x02, 0x02, 0xfd, 0x00,
    0xfc, 0x02, 0x01, 0x03, 0xff, 0x04, 0x02, 0x00, 0x00, 0x01, 0xfb, 0x00, 0xf2,
    0x00, 0xfa, 0xff, 0x02, 0xf9, 0xff, 0xfd, 0x01, 0x03, 0x02, 0xfe, 0x02, 0x04,
    0xfd, 0x01, 0x02, 0x00, 0xfa, 0x04, 0xee, 0x02, 0x02, 0x03, 0xfe, 0xf1, 0x01,
    0x03, 0x04, 0x05, 0xfd, 0x03, 0xea, 0xfe, 0xfa, 0xfe, 0x04, 0xf8, 0xfd, 0xfc,
    0x03, 0x03, 0x03, 0xfe, 0x00, 0x00, 0xf9, 0x01, 0xff, 0xfd, 0x04, 0xfd, 0xfd,
    0xfe, 0xfe, 0xfd, 0x02, 0x06, 0xfc, 0xfa, 0xfd, 0xff, 0x03, 0xfa, 0xf8, 0xf9,
    0x04, 0x03, 0xfc, 0xfe, 0x03, 0xfc, 0xfd, 0xfe, 0xff, 0x00, 0xfe, 0xfd, 0xff,
    0xff, 0x00, 0xfd, 0xfe, 0xff, 0xfd, 0x03, 0x02, 0xfa, 0xff, 0x01, 0x01, 0xf9,
    0xf8, 0xfd, 0x00, 0xff, 0x06, 0x03, 0xfb, 0x03, 0x02, 0x08, 0xfb, 0xfc, 0xfc,
    0xff, 0xfe, 0xfc, 0x03, 0x00, 0x00, 0x00, 0x03, 0x03, 0xfa, 0x03, 0xf4, 0x03,
    0x03, 0x05, 0xff, 0xfd, 0x03, 0x01, 0x02, 0x02, 0xfc, 0x01, 0xf2, 0xfe, 0xfb,
    0xfe, 0x03, 0xf7, 0xfd, 0x02, 0x01, 0x02, 0x02, 0xfc, 0xfd, 0xfe, 0x01, 0xfd,
    0x01, 0xfd, 0x05, 0xfa, 0x02, 0xf6, 0x01, 0xfc, 0x03, 0xfd, 0xfe, 0xfb, 0x01,
    0xf2, 0x04, 0x00, 0x00, 0x05, 0xff, 0x01, 0x05, 0x04, 0xfb, 0xfd, 0xfe, 0xff,
    0xf3, 0x08, 0xfe, 0x01, 0x01, 0x00, 0xfe, 0x02, 0x03, 0xfa, 0x02, 0xfe, 0xfe,
    0xfd, 0x01, 0x00, 0xfd, 0x00, 0x00, 0xfa, 0x03, 0x00, 0xff, 0x03, 0x01, 0x02,
    0xff, 0x05, 0x04, 0xff, 0xfc, 0xff, 0xf7, 0x05, 0x03, 0x06, 0x03, 0x02, 0x01,
    0x03, 0xfd, 0x08, 0x00, 0x08, 0x04, 0x01, 0xfd, 0xf2, 0x06, 0x04, 0x04, 0x07,
    0x00, 0x06, 0xf9, 0xff, 0xfc, 0xfd, 0x05, 0xf6, 0xfe, 0x03, 0x03, 0x04, 0x08,
    0xfa, 0xfe, 0x00, 0x01, 0xff, 0xfd, 0xfe, 0x05, 0xfd, 0x01, 0xfe, 0xfb, 0xfc,
    0x02, 0x03, 0xfd, 0xfe, 0xfc, 0xfd, 0x05, 0x00, 0x00, 0x03, 0x03, 0x00, 0xfb,
    0x07, 0x03, 0xff, 0xfe, 0xfe, 0xff, 0x03, 0x02, 0x04, 0xfe, 0x06, 0x00, 0x01,
    0xfe, 0x03, 0x02, 0xfe, 0x02, 0x01, 0x00, 0xfd, 0x02, 0x02, 0x02, 0x03, 0xfd,
    0x03, 0xef, 0x02, 0xfb, 0xfe, 0x01, 0xfd, 0xff, 0xfd, 0x00, 0x01, 0x00, 0xff,
    0xfe, 0x00, 0x00, 0xfe, 0x01, 0xfe, 0x07, 0xfc, 0x02, 0xff, 0xfb, 0xfe, 0x04,
    0x04, 0xff, 0xfe, 0xf9, 0xfc, 0x05, 0xfe, 0x04, 0x03, 0x04, 0x00, 0xfa, 0x06,
    0x03, 0xff, 0xfd, 0x00, 0xff, 0x05, 0x00, 0x00, 0xea, 0x00, 0x00, 0xff, 0x00,
    0x01, 0x02, 0x00, 0x00, 0xfe, 0xfc, 0x01, 0x03, 0x00, 0xfd, 0xfc, 0x01, 0xfd,
    0x02, 0x02, 0x06, 0x02, 0x02, 0x00, 0x02, 0xff, 0xfd, 0xfe, 0x00, 0xf9, 0xfe,
    0x00, 0x00, 0xfd, 0xfd, 0xff, 0x05, 0xfc, 0x01, 0xff, 0xfc, 0xfc, 0x03, 0x02,
    0xfd, 0xfc, 0xfe, 0xff, 0x03, 0x00, 0xfd, 0x02, 0x04, 0x02, 0xf9, 0x09, 0x04,
    0x00, 0xfe, 0xfd, 0xfe, 0x05, 0x00, 0x00, 0x03, 0x00, 0x00, 0x02, 0xfb, 0x00,
    0x00, 0x02, 0x04, 0x01, 0xfe, 0xfd, 0x05, 0x01, 0x03, 0x01, 0xfc, 0x03, 0x02,
    0xfd, 0xf5, 0xff, 0x04, 0xfb, 0xfd, 0x04, 0x05, 0x03, 0x02, 0xfe, 0x02, 0x00,
    0x01, 0x02, 0x03, 0x03, 0xfa, 0x03, 0xfd, 0x05, 0x05, 0x04, 0xfe, 0xfd, 0x02,
    0x03, 0x02, 0x04, 0xfe, 0x03, 0xf8, 0xfd, 0xf9, 0xfd, 0x02, 0xf7, 0xfd, 0x03,
    0x04, 0x02, 0x02, 0xfd, 0x03, 0x06, 0xf8, 0x00, 0x02, 0x00, 0xfe, 0x04, 0xfe,
    0x00, 0x02, 0x03, 0xff, 0xf8, 0x01, 0x00, 0x04, 0x04, 0xfc, 0x03, 0xfa, 0xfe,
    0xf7, 0xff, 0x01, 0xfa, 0x00, 0x00, 0x01, 0x02, 0x05, 0xff, 0x02, 0x00, 0x01,
    0x03, 0x04, 0x02, 0xfc, 0x03, 0x00, 0x01, 0x04, 0x04, 0xfe, 0xfc, 0xfe, 0x02,
    0x01, 0x02, 0xfc, 0x02, 0xfa, 0x00, 0xfa, 0xfc, 0x04, 0xf9, 0xff, 0x02, 0x03,
    0x03, 0x02, 0x00, 0x03, 0x01, 0xfe, 0x02, 0x01, 0xff, 0xfa, 0x03, 0xfd, 0x01,
    0x04, 0x04, 0xfe, 0x02, 0x02, 0x03, 0x02, 0x01, 0xfd, 0x02, 0x00, 0xfe, 0xfd,
    0xfd, 0x00, 0xfa, 0xfe, 0x00, 0x03, 0x02, 0x03, 0xfd, 0xff, 0xff, 0xf8, 0xfe,
    0xfd, 0xff, 0x02, 0xfb, 0xf9, 0xfe, 0x02, 0xfd, 0x00, 0x03, 0x05, 0xfc, 0xfb,
    0x00, 0x02, 0xfb, 0xf9, 0xfa, 0x02, 0x03, 0xfd, 0x03, 0x02, 0x01, 0xfe, 0xff,
    0xff, 0xfe, 0x00, 0xff, 0xff, 0xfe, 0xff, 0xfe, 0xf9, 0x01, 0xfe, 0xff, 0x00,
    0xfd, 0xff, 0x03, 0x03, 0xfe, 0xf9, 0x00, 0x03, 0x00, 0x05, 0x03, 0x00, 0x02,
    0x03, 0xfe, 0xf7, 0xfd, 0xfa, 0xff, 0x00, 0xf9, 0x02, 0xff, 0x01, 0x03, 0x03,
    0x03, 0xfb, 0x03, 0x00, 0x03, 0x01, 0x04, 0xff, 0x02, 0x04, 0x03, 0x01, 0x01,
    0xfe, 0x00, 0x00, 0x00, 0xfd, 0xff, 0x03, 0xfa, 0xfe, 0x01, 0x03, 0x02, 0x01,
    0xfe, 0xfd, 0xfd, 0xff, 0xfc, 0xfe, 0xfd, 0x04, 0xf1, 0x02, 0xf8, 0x01, 0xfc,
    0x03, 0x02, 0xfe, 0xfd, 0x00, 0xf5, 0x05, 0xfe, 0xff, 0x05, 0xff, 0xff, 0x01,
    0x08, 0x00, 0xfd, 0xf9, 0xf8, 0xee, 0x09, 0xfe, 0x01, 0xff, 0xff, 0xff, 0x00,
    0x02, 0xf8, 0x01, 0xff, 0x02, 0xfd, 0xfe, 0x01, 0x00, 0xfe, 0x00, 0xfa, 0x04,
    0xfe, 0x00, 0x02, 0x01, 0x01, 0xfd, 0x00, 0x00, 0xfb, 0xfb, 0xfd, 0xf8, 0x04,
    0x01, 0x03, 0xfc, 0xfe, 0x01, 0xff, 0xfb, 0xfe, 0x02, 0x00, 0x02, 0x04, 0xff,
    0x04, 0x02, 0xfe, 0x00, 0xfb, 0xff, 0x01, 0xfa, 0x03, 0xfb, 0xfe, 0x01, 0xfe,
    0x00, 0xfb, 0x01, 0x03, 0xfe, 0x01, 0xfd, 0x01, 0xff, 0xfd, 0xff, 0xfe, 0x04,
    0xff, 0x01, 0xff, 0xfc, 0xfd, 0x02, 0x01, 0xfe, 0xff, 0xfd, 0xfe, 0x06, 0xfe,
    0x00, 0x03, 0x01, 0x01, 0xfc, 0x08, 0x03, 0xff, 0xfe, 0x00, 0xfd, 0x04, 0x02,
    0x00, 0x03, 0x03, 0x01, 0x04, 0xfd, 0x04, 0x00, 0x03, 0x03, 0xfe, 0xfe, 0xfc,
    0x03, 0x05, 0x02, 0x08, 0xfe, 0x01, 0xf0, 0xfc, 0xfb, 0xff, 0x02, 0xf6, 0xfe,
    0x01, 0x07, 0x01, 0x07, 0xfe, 0xfc, 0x00, 0x00, 0x00, 0xfe, 0xff, 0x04, 0xfd,
    0x03, 0xfc, 0xfc, 0xfc, 0x03, 0x04, 0xfd, 0x00, 0xfe, 0xfd, 0x05, 0xfe, 0x02,
    0x00, 0x02, 0x02, 0xfe, 0x0b, 0x02, 0x01, 0x01, 0xff, 0xfe, 0x05, 0x00, 0x00,
    0xed, 0x02, 0x00, 0xff, 0x03, 0xfe, 0x01, 0x01, 0xff, 0x01, 0xfc, 0x00, 0x00,
    0xff, 0xfb, 0xfb, 0x01, 0xfd, 0x01, 0x00, 0x01, 0x03, 0x02, 0xff, 0x02, 0xfe,
    0xfb, 0xff, 0xfe, 0xfa, 0xff, 0x02, 0xff, 0xff, 0xfb, 0xfd, 0x03, 0xfe, 0x01,
    0xfd, 0xfd, 0xfe, 0x02, 0x05, 0xfc, 0xfc, 0xfd, 0xff, 0x06, 0xfd, 0x01, 0x02,
    0x02, 0x02, 0xfd, 0x04, 0x04, 0xff, 0xfd, 0xff, 0xfe, 0x07, 0x02, 0xfe, 0x02,
    0x01, 0x04, 0x03, 0xfb, 0x06, 0x01, 0x02, 0x02, 0x01, 0xfd, 0xff, 0x03, 0x03,
    0x03, 0x01, 0xff, 0x04, 0xfc, 0xff, 0xf7, 0xfd, 0x03, 0xf9, 0xfe, 0x01, 0xff,
    0x03, 0xff, 0xff, 0x03, 0xfc, 0x01, 0x01, 0x03, 0x03, 0xfb, 0x02, 0x03, 0x01,
    0x04, 0x07, 0xfe, 0xfc, 0x05, 0xff, 0x05, 0x03, 0xfe, 0x02, 0xfe, 0xfe, 0xfa,
    0xfd, 0x03, 0xf6, 0xfc, 0x03, 0x04, 0x00, 0x02, 0xfc, 0x02, 0x09, 0xf5, 0xfe,
    0x02, 0x01, 0x00, 0xfc, 0xf5, 0xff, 0x02, 0x05, 0xfd, 0x03, 0xff, 0x01, 0x01,
    0xfc, 0xfe, 0x00, 0xc6, 0x03, 0xf7, 0xfe, 0x01, 0xfe, 0xfc, 0xeb, 0xfc, 0x05,
    0xff, 0x02, 0x02, 0xf2, 0x06, 0x00, 0x04, 0x02, 0xfa, 0x01, 0x06, 0x03, 0xfe,
    0x03, 0xfd, 0x02, 0x06, 0x01, 0x01, 0x00, 0xf9, 0x03, 0xfa, 0xfc, 0xf9, 0xf8,
    0x07, 0xf5, 0xfd, 0x0a, 0x09, 0x02, 0xff, 0x00, 0x03, 0xfb, 0x04, 0x00, 0x04,
    0x04, 0xfb, 0x01, 0x05, 0x02, 0x05, 0x02, 0xfd, 0xfa, 0x03, 0x02, 0x02, 0x01,
    0xfd, 0x03, 0xff, 0x00, 0xfa, 0xfa, 0x01, 0xf7, 0xfb, 0x09, 0x03, 0x03, 0x01,
    0xfe, 0xfd, 0x01, 0xf3, 0xff, 0x01, 0xfd, 0x05, 0xf9, 0xf6, 0xfe, 0xfe, 0xff,
    0x04, 0x03, 0xfc, 0xfb, 0xfb, 0x00, 0x01, 0xfb, 0xee, 0xf9, 0x05, 0x02, 0xfd,
    0x02, 0x05, 0xfc, 0xfb, 0x00, 0xff, 0xfb, 0x00, 0xfc, 0xfe, 0x03, 0xff, 0xfe,
    0xf1, 0x02, 0xff, 0x02, 0x01, 0xff, 0xff, 0x01, 0x04, 0xfd, 0xfb, 0xff, 0xfd,
    0xff, 0x02, 0x04, 0xfd, 0x02, 0x00, 0xff, 0xf3, 0xfb, 0xff, 0x02, 0x01, 0xfd,
    0x02, 0x01, 0x00, 0x00, 0x03, 0x01, 0xfd, 0x05, 0xfa, 0x02, 0x04, 0x03, 0xfd,
    0xf6, 0x01, 0x03, 0x04, 0x04, 0xfc, 0x02, 0xef, 0xfe, 0xfc, 0xfd, 0x01, 0xf9,
    0xfe, 0xfe, 0x04, 0x03, 0x02, 0xfb, 0xfb, 0xfa, 0x01, 0xfd, 0x00, 0xfd, 0x06,
    0xe1, 0x04, 0xf2, 0xff, 0xf8, 0x02, 0x03, 0xfe, 0xfd, 0xfe, 0xed, 0x06, 0xfc,
    0xfd, 0x08, 0xff, 0x01, 0x03, 0x0c, 0xfc, 0x02, 0xfa, 0xff, 0xd6, 0x08, 0xfd,
    0xfe, 0xff, 0x01, 0x01, 0xfe, 0x08, 0xfb, 0x02, 0xfb, 0xff, 0xfd, 0xfe, 0x03,
    0x00, 0xfd, 0xff, 0xf9, 0x05, 0xfd, 0x00, 0x06, 0xff, 0x03, 0xfd, 0x09, 0x02,
    0xfc, 0xf7, 0xfc, 0xf3, 0x06, 0x02, 0x07, 0xfb, 0x02, 0xff, 0x02, 0xfc, 0x00,
    0xca, 0x02, 0x00, 0x05, 0xfd, 0xf8, 0x02, 0x02, 0x03, 0x05, 0x00, 0x01, 0xa0,
    0x02, 0xfd, 0xfd, 0x01, 0xfd, 0xfe, 0xf4, 0x01, 0x04, 0x05, 0xff, 0xfd, 0x02,
    0x01, 0xfd, 0xfb, 0xfe, 0x05, 0xfa, 0x04, 0x00, 0xfb, 0xfb, 0x01, 0x03, 0xff,
    0xfd, 0xfd, 0xfc, 0x05, 0xfd, 0xff, 0x03, 0x02, 0x04, 0xfb, 0x0a, 0x05, 0xff,
    0xfc, 0xfd, 0xfb, 0x05, 0x01, 0xea, 0x09, 0xff, 0x04, 0xfe, 0xfb, 0x03, 0x03,
    0x03, 0xfc, 0x03, 0xfd, 0x02, 0xfe, 0xff, 0x03, 0x00, 0xfd, 0x05, 0xfa, 0xfc,
    0xff, 0xfd, 0x02, 0xe5, 0xfe, 0x0d, 0x06, 0xff, 0xff, 0xf1, 0xfc, 0x01, 0x01,
    0xff, 0xfe, 0xfd, 0x03, 0xfc, 0x01, 0xfd, 0xf9, 0xfa, 0x03, 0x05, 0xfe, 0xff,
    0xfa, 0xfb, 0x05, 0xfd, 0x01, 0x03, 0x00, 0x02, 0xfd, 0x0b, 0x04, 0x00, 0xfd,
    0xff, 0xff, 0x05, 0x00, 0x00, 0xeb, 0xff, 0x01, 0xff, 0x01, 0xff, 0xfe, 0xff,
    0xfe, 0xfc, 0xfa, 0x00, 0x02, 0x02, 0xff, 0xfa, 0xfe, 0xfd, 0xff, 0x02, 0x04,
    0x02, 0x02, 0x01, 0x04, 0xfa, 0xfd, 0xff, 0x00, 0xf5, 0xff, 0xff, 0x01, 0xfc,
    0xfc, 0xfd, 0x05, 0xfa, 0x00, 0xfd, 0xfb, 0xf9, 0x04, 0x04, 0xfd, 0xfc, 0xfc,
    0xfe, 0x04, 0xfe, 0xff, 0x00, 0x03, 0x03, 0xfb, 0x0c, 0x03, 0xff, 0x00, 0xff,
    0xfd, 0x07, 0x04, 0x02, 0xff, 0x02, 0x02, 0x02, 0xfa, 0x03, 0xf5, 0x05, 0x04,
    0x06, 0xfd, 0xf9, 0x02, 0x03, 0x04, 0x04, 0xfb, 0x02, 0x96, 0xff, 0xfa, 0xfd,
    0x05, 0xf7, 0xfc, 0xfc, 0x02, 0x02, 0x04, 0xfb, 0x3a, 0xff, 0xff, 0xff, 0x00,
    0x00, 0x00, 0x09, 0x18, 0x00, 0x00, 0x00, 0x03, 0x00, 0x00, 0x00, 0x08, 0x00,
    0x00, 0x00, 0x18, 0x00, 0x00, 0x00, 0x01, 0x00, 0x00, 0x00, 0x31, 0x00, 0x00,
    0x00, 0x01, 0x00, 0x00, 0x00, 0x00, 0x10, 0x00, 0x00, 0x04, 0x00, 0x06, 0x00,
    0x04, 0x00, 0x00, 0x00, 0x00, 0x00, 0x06, 0x00, 0x08, 0x00, 0x04, 0x00, 0x06,
    0x00, 0x00, 0x00, 0x04, 0x00, 0x00, 0x00, 0x80, 0x00, 0x00, 0x00, 0x5a, 0x3e,
    0x5a, 0x3e, 0x5a, 0x3e, 0x5a, 0x3e, 0x5a, 0x3e, 0x5a, 0x3e, 0x5a, 0x3e, 0x5a,
    0x3e, 0x5a, 0x3e, 0x5a, 0x3e, 0x5a, 0x3e, 0x5a, 0x3e, 0x5a, 0x3e, 0x5a, 0x3e,
    0x5a, 0x3e, 0x5a, 0x3e, 0x63, 0xdd, 0x9a, 0xcc, 0x36, 0xf9, 0x6a, 0xa4, 0x58,
    0xf1, 0xc8, 0xd3, 0x44, 0xe3, 0x0e, 0xca, 0x94, 0xeb, 0x65, 0xef, 0xed, 0xd1,
    0x12, 0xbf, 0x51, 0xcf, 0x92, 0xe9, 0xb5, 0xcd, 0x46, 0xbc, 0x5a, 0x3e, 0x5a,
    0x3e, 0x5a, 0x3e, 0x5a, 0x3e, 0x5a, 0x3e, 0x5a, 0x3e, 0x5a, 0x3e, 0x5a, 0x3e,
    0x5a, 0x3e, 0x5a, 0x3e, 0x5a, 0x3e, 0x5a, 0x3e, 0x5a, 0x3e, 0x5a, 0x3e, 0x5a,
    0x3e, 0x5a, 0x3e, 0x7a, 0xda, 0xa5, 0xeb, 0x7c, 0xce, 0x6a, 0xf4, 0xb4, 0xc3,
    0xd6, 0xef, 0x8a, 0xd1, 0x9a, 0xe1, 0xfb, 0xbd, 0xfb, 0xed, 0x9e, 0xce, 0xb2,
    0xbb, 0x6b, 0xef, 0xc7, 0xe7, 0xd9, 0xd6, 0xd5, 0xf2, 0x00, 0x00, 0x0e, 0x00,
    0x18, 0x00, 0x08, 0x00, 0x07, 0x00, 0x0c, 0x00, 0x10, 0x00, 0x14, 0x00, 0x0e,
    0x00, 0x00, 0x00, 0x00, 0x00, 0x00, 0x07, 0x18, 0x00, 0x00, 0x00, 0x02, 0x00,
    0x00, 0x00, 0x08, 0x00, 0x00, 0x00, 0x14, 0x00, 0x00, 0x00, 0x01, 0x00, 0x00,
    0x00, 0x30, 0x00, 0x00, 0x00, 0x01, 0x00, 0x00, 0x00, 0x40, 0x00, 0x00, 0x00,
    0x58, 0xff, 0xff, 0xff, 0x14, 0x00, 0x1c, 0x00, 0x08, 0x00, 0x07, 0x00, 0x0c,
    0x00, 0x10, 0x00, 0x14, 0x00, 0x00, 0x00, 0x00, 0x00, 0x18, 0x00, 0x14, 0x00,
    0x00, 0x00, 0x00, 0x00, 0x00, 0x09, 0x48, 0x00, 0x00, 0x00, 0x01, 0x00, 0x00,
    0x00, 0x20, 0x00, 0x00, 0x00, 0x5c, 0x00, 0x00, 0x00, 0x04, 0x00, 0x00, 0x00,
    0x04, 0x00, 0x00, 0x00, 0xff, 0xff, 0xff, 0xff, 0x01, 0x00, 0x00, 0x00, 0x04,
    0x00, 0x00, 0x00, 0x18, 0x00, 0x00, 0x00, 0x19, 0x00, 0x00, 0x00, 0x73, 0x65,
    0x72, 0x76, 0x69, 0x6e, 0x67, 0x5f, 0x64, 0x65, 0x66, 0x61, 0x75, 0x6c, 0x74,
    0x5f, 0x69, 0x6e, 0x70, 0x75, 0x74, 0x5f, 0x31, 0x3a, 0x30, 0x00, 0x00, 0x00,
    0x04, 0x00, 0x00, 0x00, 0x01, 0x00, 0x00, 0x00, 0x01, 0x00, 0x00, 0x00, 0x04,
    0x00, 0x00, 0x00, 0x18, 0x00, 0x00, 0x00, 0x0c, 0x00, 0x0c, 0x00, 0x00, 0x00,
    0x00, 0x00, 0x04, 0x00, 0x08, 0x00, 0x0c, 0x00, 0x00, 0x00, 0x14, 0x00, 0x00,
    0x00, 0x04, 0x00, 0x00, 0x00, 0x01, 0x00, 0x00, 0x00, 0x7f, 0x00, 0x00, 0x00,
    0x00, 0x00, 0x00, 0x00, 0x01, 0x00, 0x00, 0x00, 0xd5, 0x44, 0xea, 0x3d, 0x04,
    0x00, 0x04, 0x00, 0x04, 0x00, 0x00, 0x00,
};

const int vnr_model_data_len = 11304;