// This is a TensorFlow Lite model file that has been converted into a C data
// array using the convert_tflite_to_c_source() tool.

#if( USE_SWMEM == 1)
__attribute__((section(".SwMem_data")))
#elif( USE_EXTMEM == 1)
__attribute__((section(".ExtMem_data")))
#endif
const unsigned char vnr_model_data[] __attribute__((aligned(4))) = {
    0x20, 0x00, 0x00, 0x00, 0x54, 0x46, 0x4c, 0x33, 0x00, 0x00, 0x00, 0x00, 0x14,
    0x00, 0x20, 0x00, 0x04, 0x00, 0x08, 0x00, 0x0c, 0x00, 0x10, 0x00, 0x14, 0x00,
    0x00, 0x00, 0x18, 0x00, 0x1c, 0x00, 0x14, 0x00, 0x00, 0x00, 0x03, 0x00, 0x00,
    0x00, 0x6c, 0x00, 0x00, 0x00, 0x60, 0x00, 0x00, 0x00, 0x5c, 0x01, 0x00, 0x00,
    0x0c, 0x00, 0x00, 0x00, 0x04, 0x01, 0x00, 0x00, 0x6c, 0x00, 0x00, 0x00, 0x12,
    0x00, 0x00, 0x00, 0x08, 0x34, 0x00, 0x00, 0x04, 0x34, 0x00, 0x00, 0x90, 0x32,
    0x00, 0x00, 0x48, 0x22, 0x00, 0x00, 0x0c, 0x21, 0x00, 0x00, 0xd0, 0x10, 0x00,
    0x00, 0x14, 0x10, 0x00, 0x00, 0xd8, 0x08, 0x00, 0x00, 0x8c, 0x08, 0x00, 0x00,
    0xe4, 0x33, 0x00, 0x00, 0xe0, 0x33, 0x00, 0x00, 0xa0, 0x05, 0x00, 0x00, 0xd8,
    0x33, 0x00, 0x00, 0xf8, 0x03, 0x00, 0x00, 0xd0, 0x33, 0x00, 0x00, 0xcc, 0x33,
    0x00, 0x00, 0xc8, 0x33, 0x00, 0x00, 0xe8, 0x00, 0x00, 0x00, 0x01, 0x00, 0x00,
    0x00, 0x20, 0x01, 0x00, 0x00, 0x04, 0x00, 0x00, 0x00, 0xc8, 0x07, 0x00, 0x00,
    0x58, 0x03, 0x00, 0x00, 0x7c, 0x02, 0x00, 0x00, 0xc0, 0x01, 0x00, 0x00, 0x01,
    0x00, 0x00, 0x00, 0x10, 0x00, 0x00, 0x00, 0x0c, 0x00, 0x14, 0x00, 0x10, 0x00,
    0x0c, 0x00, 0x08, 0x00, 0x04, 0x00, 0x0c, 0x00, 0x00, 0x00, 0x10, 0x00, 0x00,
    0x00, 0x14, 0x00, 0x00, 0x00, 0x24, 0x00, 0x00, 0x00, 0x28, 0x00, 0x00, 0x00,
    0x00, 0x00, 0x00, 0x00, 0x00, 0x00, 0x00, 0x00, 0x0f, 0x00, 0x00, 0x00, 0x73,
    0x65, 0x72, 0x76, 0x69, 0x6e, 0x67, 0x5f, 0x64, 0x65, 0x66, 0x61, 0x75, 0x6c,
    0x74, 0x00, 0x01, 0x00, 0x00, 0x00, 0x14, 0x00, 0x00, 0x00, 0x01, 0x00, 0x00,
    0x00, 0x30, 0x00, 0x00, 0x00, 0x08, 0x00, 0x0c, 0x00, 0x08, 0x00, 0x04, 0x00,
    0x08, 0x00, 0x00, 0x00, 0x0f, 0x00, 0x00, 0x00, 0x04, 0x00, 0x00, 0x00, 0x12,
    0x00, 0x00, 0x00, 0x71, 0x75, 0x61, 0x6e, 0x74, 0x5f, 0x61, 0x63, 0x74, 0x69,
    0x76, 0x61, 0x74, 0x69, 0x6f, 0x6e, 0x5f, 0x38, 0x00, 0x00, 0x52, 0xce, 0xff,
    0xff, 0x04, 0x00, 0x00, 0x00, 0x07, 0x00, 0x00, 0x00, 0x69, 0x6e, 0x70, 0x75,
    0x74, 0x5f, 0x33, 0x00, 0x01, 0x00, 0x00, 0x00, 0x0c, 0x00, 0x00, 0x00, 0x08,
    0x00, 0x0c, 0x00, 0x04, 0x00, 0x08, 0x00, 0x08, 0x00, 0x00, 0x00, 0x08, 0x00,
    0x00, 0x00, 0x11, 0x00, 0x00, 0x00, 0x13, 0x00, 0x00, 0x00, 0x6d, 0x69, 0x6e,
    0x5f, 0x72, 0x75, 0x6e, 0x74, 0x69, 0x6d, 0x65, 0x5f, 0x76, 0x65, 0x72, 0x73,
    0x69, 0x6f, 0x6e, 0x00, 0x9a, 0xce, 0xff, 0xff, 0x04, 0x00, 0x00, 0x00, 0x10,
    0x00, 0x00, 0x00, 0x31, 0x2e, 0x31, 0x34, 0x2e, 0x30, 0x00, 0x00, 0x00, 0x00,
    0x00, 0x00, 0x00, 0x00, 0x00, 0x00, 0x0f, 0x00, 0x00, 0x00, 0x4d, 0x4c, 0x49,
    0x52, 0x20, 0x43, 0x6f, 0x6e, 0x76, 0x65, 0x72, 0x74, 0x65, 0x64, 0x2e, 0x00,
    0x00, 0x00, 0x0e, 0x00, 0x18, 0x00, 0x04, 0x00, 0x08, 0x00, 0x0c, 0x00, 0x10,
    0x00, 0x14, 0x00, 0x0e, 0x00, 0x00, 0x00, 0x4c, 0x00, 0x00, 0x00, 0x40, 0x00,
    0x00, 0x00, 0x34, 0x00, 0x00, 0x00, 0x14, 0x00, 0x00, 0x00, 0x04, 0x00, 0x00,
    0x00, 0x04, 0x00, 0x00, 0x00, 0x6d, 0x61, 0x69, 0x6e, 0x00, 0x00, 0x00, 0x00,
    0x06, 0x00, 0x00, 0x00, 0xc0, 0x05, 0x00, 0x00, 0x8c, 0x04, 0x00, 0x00, 0x10,
    0x03, 0x00, 0x00, 0xb8, 0x01, 0x00, 0x00, 0x10, 0x01, 0x00, 0x00, 0x58, 0x00,
    0x00, 0x00, 0x01, 0x00, 0x00, 0x00, 0x0f, 0x00, 0x00, 0x00, 0x01, 0x00, 0x00,
    0x00, 0x00, 0x00, 0x00, 0x00, 0x10, 0x00, 0x00, 0x00, 0xb4, 0x31, 0x00, 0x00,
    0x70, 0x31, 0x00, 0x00, 0x98, 0x30, 0x00, 0x00, 0x5c, 0x20, 0x00, 0x00, 0x20,
    0x1f, 0x00, 0x00, 0xe4, 0x0e, 0x00, 0x00, 0x28, 0x0e, 0x00, 0x00, 0xec, 0x06,
    0x00, 0x00, 0x60, 0x06, 0x00, 0x00, 0xf4, 0x04, 0x00, 0x00, 0xf4, 0x03, 0x00,
    0x00, 0x74, 0x03, 0x00, 0x00, 0x68, 0x02, 0x00, 0x00, 0xcc, 0x01, 0x00, 0x00,
    0xf0, 0x00, 0x00, 0x00, 0x34, 0x00, 0x00, 0x00, 0x56, 0xff, 0xff, 0xff, 0x03,
    0x00, 0x00, 0x00, 0x10, 0x00, 0x00, 0x00, 0x04, 0x00, 0x00, 0x00, 0x01, 0x00,
    0x00, 0x00, 0x0f, 0x00, 0x00, 0x00, 0x01, 0x00, 0x00, 0x00, 0x0e, 0x00, 0x00,
    0x00, 0x7c, 0xfe, 0xff, 0xff, 0x0e, 0x00, 0x00, 0x00, 0x00, 0x00, 0x00, 0x0e,
    0x02, 0x00, 0x00, 0x00, 0xd0, 0xce, 0xff, 0xff, 0x00, 0x00, 0x00, 0x09, 0x40,
    0x00, 0x00, 0x00, 0x10, 0x00, 0x00, 0x00, 0x18, 0x00, 0x00, 0x00, 0x40, 0x00,
    0x00, 0x00, 0x04, 0x00, 0x00, 0x00, 0x02, 0x00, 0x00, 0x00, 0xff, 0xff, 0xff,
    0xff, 0x01, 0x00, 0x00, 0x00, 0x19, 0x00, 0x00, 0x00, 0x53, 0x74, 0x61, 0x74,
    0x65, 0x66, 0x75, 0x6c, 0x50, 0x61, 0x72, 0x74, 0x69, 0x74, 0x69, 0x6f, 0x6e,
    0x65, 0x64, 0x43, 0x61, 0x6c, 0x6c, 0x3a, 0x30, 0x00, 0x00, 0x00, 0x02, 0x00,
    0x00, 0x00, 0x01, 0x00, 0x00, 0x00, 0x01, 0x00, 0x00, 0x00, 0xac, 0xce, 0xff,
    0xff, 0x18, 0x00, 0x00, 0x00, 0x04, 0x00, 0x00, 0x00, 0x01, 0x00, 0x00, 0x00,
    0x80, 0xff, 0xff, 0xff, 0xff, 0xff, 0xff, 0xff, 0x00, 0x00, 0x00, 0x00, 0x01,
    0x00, 0x00, 0x00, 0x00, 0x00, 0x80, 0x3b, 0x00, 0x00, 0x0a, 0x00, 0x10, 0x00,
    0x04, 0x00, 0x08, 0x00, 0x0c, 0x00, 0x0a, 0x00, 0x00, 0x00, 0x02, 0x00, 0x00,
    0x00, 0x10, 0x00, 0x00, 0x00, 0x04, 0x00, 0x00, 0x00, 0x01, 0x00, 0x00, 0x00,
    0x0e, 0x00, 0x00, 0x00, 0x02, 0x00, 0x00, 0x00, 0x0d, 0x00, 0x00, 0x00, 0x07,
    0x00, 0x00, 0x00, 0x34, 0xff, 0xff, 0xff, 0x16, 0x00, 0x00, 0x00, 0x00, 0x00,
    0x00, 0x16, 0x01, 0x00, 0x00, 0x00, 0x88, 0xcf, 0xff, 0xff, 0x00, 0x00, 0x00,
    0x09, 0x28, 0x00, 0x00, 0x00, 0x0f, 0x00, 0x00, 0x00, 0x18, 0x00, 0x00, 0x00,
    0x28, 0x00, 0x00, 0x00, 0x04, 0x00, 0x00, 0x00, 0x02, 0x00, 0x00, 0x00, 0xff,
    0xff, 0xff, 0xff, 0x01, 0x00, 0x00, 0x00, 0x01, 0x00, 0x00, 0x00, 0x44, 0x00,
    0x00, 0x00, 0x02, 0x00, 0x00, 0x00, 0x01, 0x00, 0x00, 0x00, 0x01, 0x00, 0x00,
    0x00, 0x4c, 0xcf, 0xff, 0xff, 0x18, 0x00, 0x00, 0x00, 0x04, 0x00, 0x00, 0x00,
    0x01, 0x00, 0x00, 0x00, 0xe1, 0xff, 0xff, 0xff, 0xff, 0xff, 0xff, 0xff, 0x00,
    0x00, 0x00, 0x00, 0x01, 0x00, 0x00, 0x00, 0x02, 0xc4, 0x94, 0x3d, 0x00, 0x00,
    0x0e, 0x00, 0x1a, 0x00, 0x08, 0x00, 0x0c, 0x00, 0x10, 0x00, 0x07, 0x00, 0x14,
    0x00, 0x0e, 0x00, 0x00, 0x00, 0x00, 0x00, 0x00, 0x01, 0x01, 0x00, 0x00, 0x00,
    0x30, 0x00, 0x00, 0x00, 0x24, 0x00, 0x00, 0x00, 0x10, 0x00, 0x00, 0x00, 0x00,
    0x00, 0x0a, 0x00, 0x10, 0x00, 0x0f, 0x00, 0x04, 0x00, 0x08, 0x00, 0x0a, 0x00,
    0x00, 0x00, 0x01, 0x00, 0x00, 0x00, 0x01, 0x00, 0x00, 0x00, 0x00, 0x00, 0x00,
    0x01, 0x01, 0x00, 0x00, 0x00, 0x0d, 0x00, 0x00, 0x00, 0x03, 0x00, 0x00, 0x00,
    0x0b, 0x00, 0x00, 0x00, 0x0c, 0x00, 0x00, 0x00, 0x0a, 0x00, 0x00, 0x00, 0x0c,
    0x00, 0x10, 0x00, 0x0b, 0x00, 0x00, 0x00, 0x0c, 0x00, 0x04, 0x00, 0x0c, 0x00,
    0x00, 0x00, 0x03, 0x00, 0x00, 0x00, 0x00, 0x00, 0x00, 0x03, 0x03, 0x00, 0x00,
    0x00, 0x60, 0xd0, 0xff, 0xff, 0x00, 0x00, 0x00, 0x09, 0x30, 0x00, 0x00, 0x00,
    0x0e, 0x00, 0x00, 0x00, 0x20, 0x00, 0x00, 0x00, 0x38, 0x00, 0x00, 0x00, 0x04,
    0x00, 0x00, 0x00, 0x04, 0x00, 0x00, 0x00, 0xff, 0xff, 0xff, 0xff, 0x01, 0x00,
    0x00, 0x00, 0x01, 0x00, 0x00, 0x00, 0x01, 0x00, 0x00, 0x00, 0x01, 0x00, 0x00,
    0x00, 0x43, 0x00, 0x00, 0x00, 0x04, 0x00, 0x00, 0x00, 0x01, 0x00, 0x00, 0x00,
    0x01, 0x00, 0x00, 0x00, 0x01, 0x00, 0x00, 0x00, 0x01, 0x00, 0x00, 0x00, 0x34,
    0xd0, 0xff, 0xff, 0x14, 0x00, 0x00, 0x00, 0x04, 0x00, 0x00, 0x00, 0x01, 0x00,
    0x00, 0x00, 0xe1, 0xff, 0xff, 0xff, 0xff, 0xff, 0xff, 0xff, 0x01, 0x00, 0x00,
    0x00, 0x02, 0xc4, 0x94, 0x3d, 0x9a, 0xd1, 0xff, 0xff, 0x04, 0x00, 0x00, 0x00,
    0x20, 0x00, 0x00, 0x00, 0xbb, 0xcc, 0x28, 0xb5, 0xb0, 0x26, 0xd3, 0xba, 0xa6,
    0xa1, 0x85, 0xbb, 0xa8, 0xd4, 0x20, 0x0c, 0x2e, 0x36, 0xb1, 0xa4, 0x0b, 0x2e,
    0x0b, 0xb6, 0x1e, 0x45, 0x23, 0x3f, 0xae, 0x9a, 0x81, 0xc5, 0x32, 0xd1, 0xff,
    0xff, 0x00, 0x00, 0x00, 0x09, 0x18, 0x00, 0x00, 0x00, 0x0d, 0x00, 0x00, 0x00,
    0x08, 0x00, 0x00, 0x00, 0x20, 0x00, 0x00, 0x00, 0x01, 0x00, 0x00, 0x00, 0x42,
    0x00, 0x00, 0x00, 0x04, 0x00, 0x00, 0x00, 0x01, 0x00, 0x00, 0x00, 0x01, 0x00,
    0x00, 0x00, 0x01, 0x00, 0x00, 0x00, 0x20, 0x00, 0x00, 0x00, 0xb4, 0xd0, 0xff,
    0xff, 0x14, 0x00, 0x00, 0x00, 0x04, 0x00, 0x00, 0x00, 0x01, 0x00, 0x00, 0x00,
    0x00, 0x00, 0x00, 0x00, 0x00, 0x00, 0x00, 0x00, 0x01, 0x00, 0x00, 0x00, 0x66,
    0x9f, 0xd0, 0x39, 0x68, 0xfd, 0xff, 0xff, 0xa0, 0x00, 0x00, 0x00, 0x94, 0x00,
    0x00, 0x00, 0x04, 0x00, 0x00, 0x00, 0x87, 0x00, 0x00, 0x00, 0x6b, 0x74, 0x00,
    0x6d, 0x70, 0x00, 0x08, 0x80, 0x00, 0x00, 0x00, 0x80, 0x00, 0x00, 0x00, 0x00,
    0x61, 0x67, 0x67, 0x70, 0x00, 0x18, 0x00, 0x08, 0x00, 0x00, 0x00, 0x00, 0x00,
    0x00, 0x00, 0x00, 0x00, 0x00, 0x03, 0x00, 0x00, 0x00, 0x00, 0x00, 0x00, 0x00,
    0x00, 0x00, 0x00, 0x00, 0x00, 0x6f, 0x74, 0x70, 0x00, 0x08, 0x20, 0x00, 0x00,
    0x00, 0x02, 0x00, 0xfb, 0xff, 0x00, 0x73, 0x63, 0x72, 0x61, 0x74, 0x63, 0x68,
    0x00, 0x61, 0x6b, 0x70, 0x00, 0x20, 0x00, 0x00, 0x00, 0x00, 0x01, 0x00, 0x00,
    0x00, 0x00, 0x00, 0x00, 0x00, 0x01, 0x00, 0x00, 0x00, 0x02, 0x00, 0x00, 0x00,
    0x00, 0x00, 0x00, 0x00, 0x00, 0x00, 0x00, 0x00, 0x20, 0x00, 0x00, 0x00, 0x00,
    0x01, 0x22, 0x14, 0x06, 0x5f, 0x2b, 0x71, 0x6f, 0x44, 0x37, 0x06, 0x01, 0x06,
    0x62, 0x0d, 0x00, 0x74, 0x48, 0x00, 0x14, 0x28, 0x04, 0x14, 0x14, 0x04, 0x0c,
    0x24, 0x01, 0x00, 0x01, 0x00, 0x00, 0x00, 0x0b, 0x00, 0x00, 0x00, 0x03, 0x00,
    0x00, 0x00, 0x09, 0x00, 0x00, 0x00, 0x02, 0x00, 0x00, 0x00, 0x01, 0x00, 0x00,
    0x00, 0x00, 0xd2, 0xff, 0xff, 0x00, 0x00, 0x00, 0x09, 0x30, 0x00, 0x00, 0x00,
    0x0c, 0x00, 0x00, 0x00, 0x20, 0x00, 0x00, 0x00, 0x38, 0x00, 0x00, 0x00, 0x04,
    0x00, 0x00, 0x00, 0x04, 0x00, 0x00, 0x00, 0xff, 0xff, 0xff, 0xff, 0x01, 0x00,
    0x00, 0x00, 0x01, 0x00, 0x00, 0x00, 0x20, 0x00, 0x00, 0x00, 0x01, 0x00, 0x00,
    0x00, 0x41, 0x00, 0x00, 0x00, 0x04, 0x00, 0x00, 0x00, 0x01, 0x00, 0x00, 0x00,
    0x01, 0x00, 0x00, 0x00, 0x01, 0x00, 0x00, 0x00, 0x20, 0x00, 0x00, 0x00, 0xd4,
    0xd1, 0xff, 0xff, 0x14, 0x00, 0x00, 0x00, 0x04, 0x00, 0x00, 0x00, 0x01, 0x00,
    0x00, 0x00, 0x80, 0xff, 0xff, 0xff, 0xff, 0xff, 0xff, 0xff, 0x01, 0x00, 0x00,
    0x00, 0x53, 0x05, 0xae, 0x3e, 0x3a, 0xd3, 0xff, 0xff, 0x04, 0x00, 0x00, 0x00,
    0x04, 0x00, 0x00, 0x00, 0xe7, 0x08, 0x00, 0x00, 0xb6, 0xd2, 0xff, 0xff, 0x00,
    0x00, 0x00, 0x02, 0x18, 0x00, 0x00, 0x00, 0x0b, 0x00, 0x00, 0x00, 0x08, 0x00,
    0x00, 0x00, 0x14, 0x00, 0x00, 0x00, 0x01, 0x00, 0x00, 0x00, 0x39, 0x00, 0x00,
    0x00, 0x01, 0x00, 0x00, 0x00, 0x01, 0x00, 0x00, 0x00, 0x2c, 0xd2, 0xff, 0xff,
    0x14, 0x00, 0x00, 0x00, 0x04, 0x00, 0x00, 0x00, 0x01, 0x00, 0x00, 0x00, 0x00,
    0x00, 0x00, 0x00, 0x00, 0x00, 0x00, 0x00, 0x01, 0x00, 0x00, 0x00, 0xae, 0xd0,
    0x0d, 0x39, 0xe0, 0xfe, 0xff, 0xff, 0xa0, 0x00, 0x00, 0x00, 0x94, 0x00, 0x00,
    0x00, 0x04, 0x00, 0x00, 0x00, 0x87, 0x00, 0x00, 0x00, 0x6b, 0x74, 0x00, 0x6d,
    0x70, 0x00, 0x08, 0x60, 0x00, 0x00, 0x00, 0x20, 0x00, 0x00, 0x00, 0x00, 0x61,
    0x67, 0x67, 0x70, 0x00, 0x18, 0x00, 0x04, 0x00, 0x00, 0x00, 0x00, 0x00, 0x00,
    0x01, 0x00, 0x00, 0x00, 0x00, 0x00, 0x00, 0x00, 0x00, 0x00, 0x00, 0x00, 0x20,
    0x00, 0x00, 0x00, 0x00, 0x6f, 0x74, 0x70, 0x00, 0x08, 0x40, 0x00, 0x00, 0x00,
    0x04, 0x00, 0xf9, 0xff, 0x00, 0x73, 0x63, 0x72, 0x61, 0x74, 0x63, 0x68, 0x00,
    0x61, 0x6b, 0x70, 0x00, 0x20, 0x00, 0x00, 0x00, 0x00, 0x01, 0x00, 0x00, 0x00,
    0x00, 0x00, 0x00, 0x00, 0x02, 0x00, 0x00, 0x00, 0x04, 0x00, 0x00, 0x00, 0x00,
    0x00, 0x00, 0x00, 0x00, 0x00, 0x00, 0x00, 0x40, 0x00, 0x00, 0x00, 0x00, 0x01,
    0x22, 0x14, 0x06, 0x5f, 0x2b, 0x71, 0x6f, 0x44, 0x37, 0x06, 0x01, 0x06, 0x62,
    0x0d, 0x00, 0x74, 0x48, 0x00, 0x14, 0x28, 0x04, 0x14, 0x14, 0x04, 0x0c, 0x24,
    0x01, 0x00, 0x01, 0x00, 0x00, 0x00, 0x09, 0x00, 0x00, 0x00, 0x03, 0x00, 0x00,
    0x00, 0x08, 0x00, 0x00, 0x00, 0x04, 0x00, 0x00, 0x00, 0x03, 0x00, 0x00, 0x00,
    0x78, 0xd3, 0xff, 0xff, 0x00, 0x00, 0x00, 0x09, 0x30, 0x00, 0x00, 0x00, 0x0a,
    0x00, 0x00, 0x00, 0x20, 0x00, 0x00, 0x00, 0x38, 0x00, 0x00, 0x00, 0x04, 0x00,
    0x00, 0x00, 0x04, 0x00, 0x00, 0x00, 0xff, 0xff, 0xff, 0xff, 0x01, 0x00, 0x00,
    0x00, 0x02, 0x00, 0x00, 0x00, 0x40, 0x00, 0x00, 0x00, 0x01, 0x00, 0x00, 0x00,
    0x38, 0x00, 0x00, 0x00, 0x04, 0x00, 0x00, 0x00, 0x01, 0x00, 0x00, 0x00, 0x01,
    0x00, 0x00, 0x00, 0x02, 0x00, 0x00, 0x00, 0x40, 0x00, 0x00, 0x00, 0x4c, 0xd3,
    0xff, 0xff, 0x14, 0x00, 0x00, 0x00, 0x04, 0x00, 0x00, 0x00, 0x01, 0x00, 0x00,
    0x00, 0x80, 0xff, 0xff, 0xff, 0xff, 0xff, 0xff, 0xff, 0x01, 0x00, 0x00, 0x00,
    0x2c, 0x62, 0x4a, 0x3e, 0x10, 0x00, 0x10, 0x00, 0x00, 0x00, 0x04, 0x00, 0x08,
    0x00, 0x00, 0x00, 0x00, 0x00, 0x0c, 0x00, 0x10, 0x00, 0x00, 0x00, 0xa8, 0x00,
    0x00, 0x00, 0x9c, 0x00, 0x00, 0x00, 0x04, 0x00, 0x00, 0x00, 0x8f, 0x00, 0x00,
    0x00, 0x6b, 0x74, 0x00, 0x6d, 0x70, 0x00, 0x20, 0x60, 0x00, 0x00, 0x00, 0x18,
    0x00, 0x00, 0x00, 0x00, 0x00, 0x00, 0x00, 0x01, 0x00, 0x00, 0x00, 0x00, 0x00,
    0x00, 0x00, 0x08, 0x00, 0x00, 0x00, 0xf8, 0xff, 0xff, 0xff, 0x30, 0x00, 0x00,
    0x00, 0x00, 0x61, 0x67, 0x67, 0x70, 0x00, 0x08, 0x20, 0x00, 0x00, 0x00, 0x30,
    0x00, 0x00, 0x00, 0x00, 0x6f, 0x74, 0x70, 0x00, 0x08, 0x20, 0x00, 0x00, 0x00,
    0x04, 0x00, 0xfa, 0xff, 0x00, 0x73, 0x63, 0x72, 0x61, 0x74, 0x63, 0x68, 0x00,
    0x61, 0x6b, 0x70, 0x00, 0x20, 0x00, 0x00, 0x00, 0x00, 0x01, 0x00, 0x00, 0x00,
    0x00, 0x00, 0x00, 0x00, 0x03, 0x00, 0x00, 0x00, 0x02, 0x00, 0x00, 0x00, 0x00,
    0x00, 0x00, 0x00, 0x00, 0x00, 0x00, 0x00, 0x20, 0x00, 0x00, 0x00, 0x00, 0x01,
    0x22, 0x14, 0x06, 0x4f, 0x2b, 0x79, 0x77, 0x44, 0x37, 0x06, 0x01, 0x06, 0x52,
    0x0d, 0x01, 0x7c, 0x48, 0x60, 0x14, 0x28, 0x04, 0x14, 0x14, 0x04, 0x0c, 0x24,
    0x01, 0x00, 0x01, 0x00, 0x00, 0x00, 0x08, 0x00, 0x00, 0x00, 0x03, 0x00, 0x00,
    0x00, 0x00, 0x00, 0x00, 0x00, 0x06, 0x00, 0x00, 0x00, 0x05, 0x00, 0x00, 0x00,
    0x0c, 0x00, 0x10, 0x00, 0x0f, 0x00, 0x08, 0x00, 0x00, 0x00, 0x04, 0x00, 0x0c,
    0x00, 0x00, 0x00, 0x20, 0x00, 0x00, 0x00, 0x08, 0x00, 0x00, 0x00, 0x00, 0x00,
    0x00, 0x20, 0x0c, 0x00, 0x00, 0x00, 0x58, 0x43, 0x5f, 0x63, 0x6f, 0x6e, 0x76,
    0x32, 0x64, 0x5f, 0x76, 0x32, 0x00, 0x00, 0x00, 0x00, 0xe0, 0xd4, 0xff, 0xff,
    0x00, 0x00, 0x00, 0x09, 0x30, 0x00, 0x00, 0x00, 0x09, 0x00, 0x00, 0x00, 0x20,
    0x00, 0x00, 0x00, 0x38, 0x00, 0x00, 0x00, 0x04, 0x00, 0x00, 0x00, 0x04, 0x00,
    0x00, 0x00, 0xff, 0xff, 0xff, 0xff, 0x01, 0x00, 0x00, 0x00, 0x03, 0x00, 0x00,
    0x00, 0x20, 0x00, 0x00, 0x00, 0x01, 0x00, 0x00, 0x00, 0x37, 0x00, 0x00, 0x00,
    0x04, 0x00, 0x00, 0x00, 0x01, 0x00, 0x00, 0x00, 0x01, 0x00, 0x00, 0x00, 0x03,
    0x00, 0x00, 0x00, 0x20, 0x00, 0x00, 0x00, 0xb4, 0xd4, 0xff, 0xff, 0x14, 0x00,
    0x00, 0x00, 0x04, 0x00, 0x00, 0x00, 0x01, 0x00, 0x00, 0x00, 0x80, 0xff, 0xff,
    0xff, 0xff, 0xff, 0xff, 0xff, 0x01, 0x00, 0x00, 0x00, 0xa0, 0xdb, 0x4b, 0x3e,
    0x1a, 0xd6, 0xff, 0xff, 0x04, 0x00, 0x00, 0x00, 0x10, 0x00, 0x00, 0x00, 0xff,
    0xff, 0xff, 0xff, 0xff, 0xff, 0xff, 0xff, 0x01, 0x00, 0x00, 0x00, 0x00, 0x00,
    0x00, 0x00, 0xa2, 0xd5, 0xff, 0xff, 0x00, 0x00, 0x00, 0x04, 0x18, 0x00, 0x00,
    0x00, 0x08, 0x00, 0x00, 0x00, 0x08, 0x00, 0x00, 0x00, 0x14, 0x00, 0x00, 0x00,
    0x01, 0x00, 0x00, 0x00, 0x36, 0x00, 0x00, 0x00, 0x01, 0x00, 0x00, 0x00, 0x02,
    0x00, 0x00, 0x00, 0xec, 0xd4, 0xff, 0xff, 0x62, 0xd6, 0xff, 0xff, 0x04, 0x00,
    0x00, 0x00, 0x00, 0x07, 0x00, 0x00, 0x29, 0x81, 0x6f, 0x8f, 0xd0, 0x64, 0x68,
    0x55, 0x35, 0x94, 0x49, 0x2d, 0x6b, 0x7d, 0x9b, 0x4b, 0x36, 0x26, 0x1a, 0x4b,
    0x4a, 0x64, 0x7e, 0xed, 0xcb, 0xe3, 0x3d, 0xd4, 0xff, 0x2e, 0x96, 0x3b, 0x24,
    0xef, 0x22, 0xce, 0x19, 0x4a, 0xef, 0xda, 0x8a, 0x94, 0xe6, 0x61, 0x24, 0xc9,
    0x12, 0x21, 0xd6, 0x14, 0xd7, 0x38, 0x10, 0x15, 0x28, 0xd5, 0x29, 0xec, 0x23,
    0xd2, 0x12, 0x6a, 0x1b, 0x07, 0x81, 0xd6, 0x43, 0xe6, 0x13, 0x57, 0x04, 0xbe,
    0xbf, 0x02, 0xc0, 0x01, 0x11, 0x54, 0x1e, 0x14, 0x4d, 0xbc, 0x2d, 0x1a, 0x38,
    0xfc, 0xce, 0x3a, 0x95, 0xc9, 0xc4, 0x07, 0xcc, 0xf6, 0x35, 0xe7, 0x7c, 0xd5,
    0x2a, 0x69, 0x3e, 0xb7, 0xb7, 0x7f, 0x75, 0x2c, 0x04, 0x4a, 0x7e, 0xcf, 0xc9,
    0xcb, 0xcd, 0xcd, 0x63, 0x08, 0x4c, 0x55, 0x00, 0xed, 0x64, 0x60, 0x2e, 0x57,
    0xb5, 0xf4, 0xff, 0x12, 0x19, 0x40, 0xbc, 0x35, 0x56, 0x4c, 0x0c, 0x64, 0x4d,
    0x16, 0x62, 0xed, 0x45, 0x4d, 0x1f, 0x21, 0xb9, 0xca, 0x5f, 0x4a, 0x3e, 0x53,
    0x79, 0x9b, 0xfd, 0x20, 0xfa, 0x62, 0x08, 0x3e, 0x1a, 0xbd, 0x13, 0x0b, 0x05,
    0xfc, 0x06, 0x28, 0xf2, 0x1c, 0x23, 0x19, 0xea, 0xac, 0x81, 0xc0, 0x4f, 0x50,
    0xfe, 0x06, 0xf8, 0xfa, 0xe9, 0xf6, 0x42, 0xfb, 0x17, 0x17, 0x0c, 0x03, 0x09,
    0x34, 0xf3, 0x22, 0x12, 0xf4, 0x12, 0xf3, 0x03, 0x11, 0x10, 0x0e, 0x15, 0xdc,
    0x81, 0xbc, 0x52, 0x7d, 0xf9, 0xd6, 0x32, 0xc4, 0x08, 0x02, 0x02, 0x03, 0xfb,
    0xff, 0x05, 0xfe, 0x21, 0xf5, 0x01, 0x09, 0xf9, 0x06, 0xe3, 0xe1, 0x25, 0xc4,
    0x1e, 0x2c, 0x0f, 0x02, 0x0f, 0x7f, 0x4c, 0xd9, 0xbc, 0x00, 0x8b, 0x93, 0x48,
    0xf2, 0xfb, 0xf0, 0x35, 0x3b, 0x00, 0xdc, 0xe4, 0xec, 0x27, 0xd2, 0x2b, 0x5e,
    0x1a, 0x02, 0xec, 0x7f, 0xfe, 0x36, 0x2b, 0xee, 0xdb, 0x67, 0xc0, 0x1e, 0x23,
    0x6a, 0x5a, 0x0f, 0xe4, 0xd6, 0xb4, 0xa8, 0x5c, 0xe3, 0x26, 0x4d, 0xe7, 0xfe,
    0x71, 0xfa, 0x68, 0x6d, 0xdb, 0xd7, 0x29, 0xaf, 0x0b, 0x07, 0xf6, 0x01, 0xfb,
    0x1c, 0x06, 0x05, 0xe8, 0xf2, 0x30, 0x16, 0xd7, 0xff, 0x7a, 0xc5, 0xbf, 0x53,
    0xd8, 0xf9, 0x05, 0xee, 0x2d, 0xd6, 0x0f, 0x0b, 0x03, 0x03, 0x02, 0x06, 0xff,
    0x02, 0xc6, 0x10, 0x45, 0x70, 0x19, 0xb0, 0xd4, 0xf8, 0xc0, 0x4b, 0x34, 0x5c,
    0x45, 0x38, 0x9b, 0x6b, 0x5c, 0xda, 0x20, 0x57, 0x03, 0x15, 0x0b, 0x68, 0x51,
    0x4a, 0x81, 0x1e, 0x6a, 0x91, 0x3f, 0x31, 0xfb, 0xd6, 0x11, 0xec, 0x0a, 0x24,
    0xdd, 0xe4, 0xe8, 0x0c, 0x0d, 0xf3, 0x39, 0xde, 0x2d, 0xee, 0x01, 0xbc, 0xea,
    0xd8, 0x19, 0x22, 0x3c, 0x7f, 0x04, 0xf0, 0xd4, 0xd8, 0xf6, 0x16, 0xe9, 0xfa,
    0x30, 0x67, 0x44, 0x02, 0x6d, 0xda, 0xe1, 0xba, 0x2a, 0xed, 0x2b, 0xe6, 0xd8,
    0x17, 0x0b, 0xe0, 0xe5, 0x1d, 0x27, 0x1c, 0x06, 0x44, 0xf1, 0xf5, 0x74, 0x4c,
    0xd4, 0x10, 0x48, 0xb4, 0x45, 0xc5, 0x0d, 0xfd, 0xe2, 0x13, 0x0d, 0x0e, 0x0d,
    0x1b, 0x14, 0x13, 0x20, 0x12, 0x16, 0x40, 0x37, 0x1f, 0x5a, 0x7f, 0x2e, 0x20,
    0xea, 0x1b, 0xf4, 0xd7, 0x09, 0xf6, 0xf4, 0x09, 0xff, 0x02, 0xe7, 0xf9, 0x56,
    0xcc, 0xfc, 0xb6, 0xd6, 0x56, 0xe7, 0x0b, 0x42, 0x17, 0x27, 0xa6, 0x6d, 0x3b,
    0x7f, 0x53, 0x74, 0x1c, 0xe9, 0x6f, 0x33, 0xf7, 0x64, 0xe2, 0x36, 0xb1, 0xe6,
    0x59, 0x26, 0xd5, 0x02, 0x6f, 0xcc, 0xd7, 0xc3, 0xd6, 0x87, 0x81, 0xc2, 0xd8,
    0xea, 0xe4, 0xf6, 0xb8, 0xc1, 0xef, 0x27, 0x14, 0x2a, 0x28, 0x14, 0x43, 0x10,
    0x28, 0xe1, 0xdf, 0xe1, 0xec, 0xd2, 0xf3, 0xd5, 0xac, 0xc0, 0xbd, 0x3f, 0xef,
    0x67, 0x3c, 0x42, 0x1c, 0x3f, 0x52, 0x8a, 0x77, 0x7e, 0xa2, 0x39, 0x84, 0x96,
    0x79, 0xb4, 0xb5, 0x16, 0x7f, 0x2d, 0xb1, 0x00, 0x0b, 0xe1, 0x12, 0xca, 0x2d,
    0xe9, 0xe1, 0x3a, 0xd3, 0xee, 0x14, 0xc6, 0xfe, 0xc7, 0x2a, 0x24, 0xed, 0x1a,
    0xb8, 0x18, 0x20, 0x1f, 0xf4, 0xd0, 0x27, 0x1a, 0x59, 0x17, 0xc2, 0x41, 0x61,
    0xe5, 0xf8, 0xa7, 0x50, 0x27, 0xec, 0xd1, 0x69, 0x5d, 0x04, 0xdc, 0x1b, 0xb5,
    0x25, 0x70, 0xfc, 0xed, 0x9f, 0x6a, 0x02, 0x7f, 0x49, 0xe8, 0x11, 0xf8, 0x9e,
    0x3a, 0x21, 0xf7, 0xa8, 0x83, 0xba, 0x42, 0x58, 0xf9, 0x03, 0xfb, 0xf2, 0xe3,
    0xd7, 0x51, 0xf2, 0x15, 0xe6, 0x93, 0xcc, 0x59, 0x77, 0x01, 0xf2, 0x1f, 0xb1,
    0x05, 0xf9, 0xf9, 0xfb, 0x01, 0x01, 0xf6, 0x6b, 0x45, 0xed, 0xd5, 0x12, 0x96,
    0x8a, 0x4b, 0xf2, 0xd2, 0xe4, 0x3f, 0x06, 0xea, 0xff, 0x5c, 0xa5, 0xf3, 0xeb,
    0x33, 0xea, 0xcf, 0x60, 0x11, 0x6b, 0x14, 0x5f, 0xaa, 0x47, 0x0f, 0xeb, 0xe8,
    0xe3, 0x15, 0x06, 0xe2, 0xfa, 0x7f, 0xbf, 0x92, 0x3c, 0xdd, 0x0a, 0x15, 0xf7,
    0x25, 0xe4, 0x59, 0xbe, 0x54, 0xe0, 0x1d, 0xab, 0x01, 0x46, 0x00, 0xd4, 0x0e,
    0x91, 0x62, 0xfd, 0xea, 0xbf, 0xfc, 0x19, 0xef, 0xdd, 0x20, 0x05, 0x2f, 0xc5,
    0x09, 0xd5, 0x05, 0x30, 0xf1, 0x41, 0x68, 0x67, 0xe3, 0xf7, 0xc7, 0x55, 0x56,
    0x4c, 0x73, 0x67, 0x75, 0x7f, 0x30, 0x3c, 0x78, 0x6d, 0x52, 0xfc, 0xe7, 0xde,
    0xde, 0xe1, 0xda, 0xe6, 0xdf, 0xb1, 0xac, 0xc0, 0xbc, 0xf8, 0xc0, 0xf6, 0x24,
    0xf7, 0xf1, 0x56, 0x44, 0x15, 0xb8, 0x04, 0xf1, 0x57, 0xe4, 0x2c, 0xee, 0xdc,
    0x25, 0x35, 0x21, 0x48, 0xed, 0xd4, 0x12, 0xee, 0xe5, 0xcf, 0x16, 0x18, 0x2d,
    0x51, 0x1b, 0x2c, 0x2c, 0xf5, 0xdd, 0xfc, 0x7f, 0xdd, 0x05, 0x25, 0x11, 0x01,
    0x07, 0x04, 0xf9, 0x03, 0xfc, 0x02, 0xf9, 0xf5, 0x02, 0x06, 0x08, 0xfb, 0x02,
    0xf1, 0x11, 0xed, 0x0b, 0x14, 0xee, 0xac, 0xd1, 0xf3, 0xf7, 0xeb, 0xf8, 0xff,
    0xf3, 0x18, 0x55, 0x37, 0x28, 0xd1, 0x81, 0xb9, 0x07, 0xef, 0x09, 0xef, 0xfc,
    0xf6, 0x2d, 0x0e, 0xe3, 0xf3, 0x10, 0xf9, 0x01, 0x03, 0x19, 0x16, 0x01, 0xf5,
    0x19, 0x3b, 0x43, 0xed, 0xa6, 0xdd, 0xf5, 0xed, 0x19, 0xf5, 0xda, 0xf5, 0x0e,
    0x01, 0x01, 0xfc, 0xf0, 0x02, 0x12, 0xf3, 0x09, 0x25, 0x16, 0x0d, 0xef, 0x97,
    0x41, 0x03, 0xf1, 0x20, 0x05, 0xf1, 0x2b, 0xfc, 0xe9, 0x07, 0x10, 0x09, 0x0e,
    0x92, 0xa0, 0x92, 0xd3, 0xc6, 0xb4, 0xcb, 0xd2, 0xfa, 0x1b, 0x0d, 0x15, 0x0a,
    0x3f, 0x54, 0x47, 0x13, 0x2c, 0x2f, 0x2d, 0x27, 0xff, 0x02, 0x7f, 0x33, 0x33,
    0x03, 0xdb, 0xd4, 0xfb, 0x1e, 0x1c, 0xee, 0x86, 0x73, 0xec, 0x7b, 0x41, 0x5f,
    0x26, 0xe3, 0x44, 0x12, 0xb0, 0x7d, 0x44, 0x46, 0xd6, 0xf7, 0x33, 0xca, 0xda,
    0xe5, 0x13, 0xa1, 0x34, 0x47, 0x49, 0xfa, 0x1c, 0xf7, 0xad, 0x3b, 0x01, 0xe8,
    0xff, 0x00, 0xfb, 0x07, 0xef, 0xe0, 0xf5, 0x1d, 0x50, 0x55, 0x4a, 0xdb, 0xc8,
    0x00, 0xfd, 0xda, 0x51, 0xf2, 0x81, 0x9b, 0x30, 0x57, 0x04, 0xf2, 0xf2, 0xf7,
    0xf6, 0xfd, 0xe2, 0xce, 0xfa, 0x1b, 0x1f, 0x13, 0x26, 0x18, 0x10, 0x0a, 0x03,
    0xf2, 0xef, 0xea, 0xf9, 0x0a, 0xe3, 0xee, 0xf9, 0xfb, 0x13, 0xf2, 0xb3, 0xa1,
    0x13, 0x5a, 0xe7, 0xf5, 0x04, 0xe9, 0x08, 0x12, 0xee, 0x00, 0x6d, 0x73, 0xd4,
    0xeb, 0x0d, 0x2b, 0x31, 0xba, 0x5d, 0xfa, 0x2a, 0xe5, 0xe2, 0xf6, 0x7f, 0x3c,
    0x31, 0x5d, 0x30, 0x7a, 0x56, 0x12, 0x2d, 0x2f, 0x7e, 0xd6, 0x79, 0x1f, 0xc1,
    0xe7, 0x0b, 0xc8, 0x5e, 0xbc, 0x3f, 0xac, 0x27, 0x63, 0x2d, 0xcb, 0xb6, 0xb6,
    0xe0, 0x03, 0x7f, 0x12, 0x7f, 0xf6, 0xe4, 0x50, 0x48, 0x64, 0x00, 0x39, 0x33,
    0xac, 0x0d, 0x38, 0x9d, 0x3d, 0x3f, 0x45, 0x24, 0x30, 0xfc, 0xe3, 0x37, 0xb4,
    0xcb, 0x4e, 0x51, 0x52, 0x02, 0x08, 0x1d, 0x17, 0x20, 0x1a, 0x19, 0x18, 0x2e,
    0xa9, 0x5b, 0x00, 0xe0, 0xd1, 0xf2, 0x14, 0xd2, 0xae, 0xf9, 0x81, 0xa5, 0xe5,
    0x63, 0x3d, 0xf2, 0x04, 0x2d, 0x0c, 0x46, 0x50, 0x54, 0x39, 0x68, 0x67, 0x59,
    0x60, 0x44, 0xe3, 0xfd, 0x62, 0x32, 0xed, 0x28, 0x1c, 0xf9, 0xcf, 0xf4, 0xf9,
    0xf1, 0xec, 0x2f, 0xbf, 0xb9, 0xa3, 0xa0, 0xab, 0x40, 0x01, 0xd5, 0xa7, 0xe6,
    0x16, 0xe9, 0xd6, 0xf9, 0x3b, 0xdc, 0xf8, 0x0b, 0x40, 0xcf, 0x07, 0xcb, 0xbf,
    0xf0, 0xfa, 0x0a, 0x59, 0xfe, 0x18, 0x40, 0xe6, 0xb9, 0x81, 0xc2, 0xfd, 0xf1,
    0xf4, 0x0e, 0xef, 0xf0, 0xdf, 0xe6, 0x16, 0xdd, 0xc5, 0xcc, 0xe4, 0x01, 0x17,
    0x29, 0xe8, 0xc5, 0xe9, 0x11, 0x1a, 0x56, 0x0b, 0xfa, 0x3c, 0x0c, 0x57, 0x02,
    0xc1, 0xd5, 0xfb, 0xe5, 0x0c, 0xd7, 0xbf, 0x7f, 0x45, 0x05, 0x4f, 0x76, 0xe6,
    0x00, 0xe7, 0x6b, 0x25, 0x2f, 0x2a, 0x45, 0x75, 0xb0, 0x63, 0xe2, 0x2b, 0xc3,
    0xfe, 0x46, 0xfa, 0x06, 0x47, 0x54, 0x31, 0x61, 0x53, 0x63, 0x21, 0x21, 0x3d,
    0xac, 0x7f, 0xbc, 0x25, 0xce, 0x03, 0x07, 0x03, 0x07, 0xf9, 0xf5, 0x0a, 0x16,
    0xf2, 0xf4, 0x35, 0xe3, 0xd9, 0x1d, 0xff, 0x17, 0x12, 0x01, 0xf7, 0xab, 0x7c,
    0xb6, 0x34, 0xe9, 0x11, 0x0c, 0xf6, 0xab, 0x10, 0x35, 0x71, 0x4b, 0xd0, 0xe9,
    0xfd, 0x30, 0xd2, 0x36, 0xab, 0x32, 0x53, 0x7f, 0xe0, 0x3e, 0x39, 0xd7, 0x06,
    0x39, 0x06, 0x09, 0xdb, 0xfa, 0x02, 0xb0, 0x14, 0xfb, 0x04, 0x08, 0x7d, 0x01,
    0x05, 0xfc, 0x07, 0x0c, 0xfb, 0xfe, 0x06, 0x04, 0xfb, 0x01, 0xf4, 0x18, 0xed,
    0x00, 0x13, 0x0e, 0x0a, 0x19, 0xf4, 0x03, 0xfe, 0x1e, 0x0a, 0xe9, 0xf4, 0x11,
    0x02, 0xfa, 0x00, 0x0c, 0x0a, 0x18, 0x04, 0xf6, 0x15, 0x0b, 0xe3, 0xf4, 0x13,
    0x0e, 0x06, 0xd7, 0x81, 0x28, 0xfc, 0x06, 0x34, 0x13, 0x0c, 0x20, 0x08, 0x09,
    0xde, 0xf5, 0x05, 0xf9, 0xc3, 0xdb, 0xf5, 0xf8, 0xf3, 0xe9, 0xf6, 0x72, 0x66,
    0x09, 0x27, 0x48, 0x35, 0xfa, 0x64, 0xdd, 0xf5, 0xc2, 0xce, 0x21, 0x7f, 0x50,
    0xe6, 0xd4, 0x04, 0x48, 0x4f, 0x58, 0xdc, 0xdb, 0x00, 0xf5, 0xd5, 0x46, 0x01,
    0xa1, 0x8b, 0x49, 0x38, 0x01, 0xfb, 0xf6, 0xf7, 0x08, 0x14, 0xf5, 0xe9, 0xf1,
    0xdf, 0x32, 0xf1, 0xd5, 0xb3, 0x45, 0x7f, 0xbb, 0x19, 0x58, 0xe1, 0x0e, 0xeb,
    0x1a, 0x7a, 0x17, 0x27, 0x3a, 0x06, 0xed, 0xab, 0x67, 0x6f, 0xc2, 0x1f, 0x31,
    0x5f, 0xee, 0x1b, 0x3d, 0xfa, 0x7c, 0x3e, 0x2d, 0xb7, 0x1c, 0xff, 0x4f, 0xf6,
    0x27, 0x36, 0x28, 0x12, 0x35, 0x15, 0x20, 0x3b, 0x0f, 0xb2, 0x61, 0xc9, 0xa3,
    0xbf, 0xf1, 0xfe, 0xab, 0x97, 0x8e, 0xc3, 0xe2, 0x9a, 0xe6, 0x34, 0xb4, 0x81,
    0xeb, 0x2f, 0x11, 0x17, 0x1a, 0x23, 0xf7, 0x41, 0xf5, 0xf1, 0x1a, 0x2b, 0xef,
    0x09, 0xbf, 0xb3, 0xe3, 0x12, 0xf5, 0x41, 0x03, 0x13, 0xc2, 0xd2, 0xe1, 0x09,
    0x1f, 0xdd, 0xcc, 0xfc, 0x0c, 0xe4, 0x4e, 0x28, 0x01, 0x61, 0x32, 0x7f, 0x75,
    0x66, 0x1f, 0x67, 0x1e, 0x4e, 0x55, 0xc1, 0xfb, 0xc6, 0x77, 0xb6, 0x00, 0x01,
    0xb9, 0x24, 0x04, 0xfc, 0xfc, 0x22, 0x0a, 0xe4, 0xee, 0x28, 0xea, 0xd6, 0x0f,
    0xe5, 0x15, 0x02, 0x09, 0xfd, 0xf3, 0x5c, 0x58, 0xbf, 0x68, 0x6f, 0x72, 0x4c,
    0xb2, 0xa1, 0x0d, 0x4b, 0x62, 0xd0, 0xf6, 0x56, 0x00, 0x00, 0x00, 0x00, 0x00,
    0x00, 0x00, 0x00, 0x00, 0x00, 0x00, 0x00, 0x00, 0x00, 0x00, 0x00, 0x00, 0x00,
    0x00, 0x00, 0x00, 0x00, 0x00, 0x00, 0x00, 0x00, 0x00, 0x00, 0x00, 0x00, 0x00,
    0x00, 0x00, 0x00, 0x00, 0x00, 0x00, 0x00, 0x00, 0x00, 0x00, 0x00, 0x00, 0x00,
    0x00, 0x00, 0x00, 0x00, 0x00, 0x00, 0x00, 0x00, 0x00, 0x00, 0x00, 0x00, 0x00,
    0x00, 0x00, 0x00, 0x00, 0x00, 0x00, 0x00, 0x00, 0x00, 0x00, 0x00, 0x00, 0x00,
    0x00, 0x00, 0x00, 0x00, 0x00, 0x00, 0x00, 0x00, 0x00, 0x00, 0x00, 0x00, 0x00,
    0x00, 0x00, 0x00, 0x00, 0x00, 0x00, 0x00, 0x00, 0x00, 0x00, 0x00, 0x00, 0x00,
    0x00, 0x00, 0x00, 0x00, 0x00, 0x00, 0x00, 0x00, 0x00, 0x00, 0x00, 0x00, 0x00,
    0x00, 0x00, 0x00, 0x00, 0x00, 0x00, 0x00, 0x00, 0x00, 0x00, 0x00, 0x00, 0x00,
    0x00, 0x00, 0x00, 0x00, 0x00, 0x00, 0x00, 0x00, 0x00, 0x00, 0x00, 0x00, 0x00,
    0x00, 0x00, 0x00, 0x00, 0x00, 0x00, 0x00, 0x00, 0x00, 0x00, 0x00, 0x00, 0x00,
    0x00, 0x00, 0x00, 0x00, 0x00, 0x00, 0x00, 0x00, 0x00, 0x00, 0x00, 0x00, 0x00,
    0x00, 0x00, 0x00, 0x00, 0x00, 0x00, 0x00, 0x00, 0x00, 0x00, 0x00, 0x00, 0x00,
    0x00, 0x00, 0x00, 0x00, 0x00, 0x00, 0x00, 0x00, 0x00, 0x00, 0x00, 0x00, 0x00,
    0x00, 0x00, 0x00, 0x00, 0x00, 0x00, 0x00, 0x00, 0x00, 0x00, 0x00, 0x00, 0x00,
    0x00, 0x00, 0x00, 0x00, 0x00, 0x00, 0x00, 0x00, 0x00, 0x00, 0x00, 0x00, 0x00,
    0x00, 0x00, 0x00, 0x00, 0x00, 0x00, 0x00, 0x00, 0x00, 0x00, 0x00, 0x00, 0x00,
    0x00, 0x00, 0x00, 0x00, 0x00, 0x00, 0x00, 0x00, 0x00, 0x00, 0x00, 0x00, 0x00,
    0x00, 0x00, 0x00, 0x00, 0x00, 0x00, 0x00, 0x00, 0x00, 0x00, 0x00, 0x00, 0x00,
    0x00, 0x00, 0x00, 0x00, 0xda, 0xdc, 0xff, 0xff, 0x00, 0x00, 0x00, 0x09, 0x18,
    0x00, 0x00, 0x00, 0x07, 0x00, 0x00, 0x00, 0x08, 0x00, 0x00, 0x00, 0x14, 0x00,
    0x00, 0x00, 0x01, 0x00, 0x00, 0x00, 0x35, 0x00, 0x00, 0x00, 0x01, 0x00, 0x00,
    0x00, 0x00, 0x07, 0x00, 0x00, 0x24, 0xdc, 0xff, 0xff, 0x9a, 0xdd, 0xff, 0xff,
    0x04, 0x00, 0x00, 0x00, 0x80, 0x00, 0x00, 0x00, 0xc7, 0x0b, 0x9c, 0x04, 0xa8,
    0x1a, 0x68, 0x05, 0x0b, 0x07, 0x00, 0x04, 0x62, 0x21, 0x05, 0x05, 0x02, 0x16,
    0xda, 0x1c, 0x69, 0x1a, 0x11, 0x04, 0xc6, 0x04, 0x92, 0x15, 0xe5, 0x19, 0x01,
    0x04, 0x49, 0x02, 0x4a, 0xfb, 0xb9, 0xfe, 0x0a, 0xfa, 0x32, 0xfe, 0x8b, 0xfc,
    0x21, 0xfd, 0xf3, 0xfb, 0x32, 0xfd, 0xb8, 0xfd, 0x9c, 0xfc, 0x91, 0xfb, 0x19,
    0xfb, 0x06, 0x00, 0x55, 0xfd, 0x8f, 0xfb, 0x66, 0x04, 0x4b, 0x29, 0xbd, 0x04,
    0xad, 0x14, 0x6f, 0x13, 0xe8, 0x15, 0xe5, 0x16, 0x26, 0x05, 0xcc, 0x04, 0x20,
    0x1e, 0x3a, 0x17, 0x21, 0x04, 0x43, 0x1b, 0x36, 0x28, 0x20, 0x29, 0xec, 0x46,
    0xcc, 0xfb, 0x83, 0xfd, 0xc4, 0xf9, 0x5d, 0xfe, 0x03, 0x01, 0x7b, 0xfe, 0xff,
    0xfb, 0x23, 0xfb, 0xa3, 0xfa, 0xf6, 0xfd, 0x7f, 0xfe, 0xdb, 0xfb, 0x05, 0xff,
    0xeb, 0xfd, 0x91, 0xfc, 0x3b, 0xfe, 0x92, 0xdd, 0xff, 0xff, 0x00, 0x00, 0x00,
    0x07, 0x18, 0x00, 0x00, 0x00, 0x06, 0x00, 0x00, 0x00, 0x08, 0x00, 0x00, 0x00,
    0x14, 0x00, 0x00, 0x00, 0x01, 0x00, 0x00, 0x00, 0x34, 0x00, 0x00, 0x00, 0x01,
    0x00, 0x00, 0x00, 0x40, 0x00, 0x00, 0x00, 0xdc, 0xdc, 0xff, 0xff, 0x52, 0xde,
    0xff, 0xff, 0x04, 0x00, 0x00, 0x00, 0x00, 0x10, 0x00, 0x00, 0x06, 0x00, 0x08,
    0x00, 0x95, 0x04, 0x91, 0x01, 0xf7, 0xd6, 0xdd, 0xfe, 0x01, 0xfe, 0xce, 0x02,
    0x02, 0xe6, 0x02, 0x14, 0xf0, 0xfd, 0xe0, 0xfd, 0x01, 0xed, 0xec, 0x02, 0x00,
    0x00, 0x0a, 0x0d, 0x00, 0x0b, 0x11, 0xfa, 0x00, 0xfd, 0x07, 0xfa, 0xf9, 0x00,
    0x04, 0xf8, 0xf3, 0x1b, 0xf8, 0xf0, 0xfd, 0xe8, 0xfe, 0xbd, 0xf4, 0xd9, 0x09,
    0x02, 0x0b, 0x00, 0x00, 0xfe, 0x04, 0x0c, 0xf2, 0xf4, 0xd3, 0x02, 0xe2, 0xfb,
    0x90, 0xfb, 0x1a, 0x04, 0x23, 0x07, 0x2e, 0xfa, 0xf8, 0xdf, 0x0e, 0x09, 0x0a,
    0x1b, 0x02, 0xd3, 0xda, 0x0b, 0x0a, 0xfc, 0xf3, 0xb4, 0x0f, 0x01, 0xce, 0x08,
    0xe8, 0x11, 0x17, 0x08, 0x95, 0x07, 0x2c, 0xfc, 0xd3, 0xf5, 0xec, 0x3c, 0xed,
    0xf3, 0x06, 0x2e, 0xea, 0xf9, 0x06, 0x8d, 0xfe, 0x18, 0x01, 0xf8, 0x02, 0xfa,
    0xf9, 0xa9, 0x36, 0xf7, 0x3d, 0x15, 0x0b, 0xd5, 0xfc, 0x05, 0xfc, 0x04, 0x17,
    0x02, 0xfe, 0xfe, 0x01, 0x06, 0x00, 0xfb, 0xfc, 0x04, 0x03, 0xfe, 0xff, 0x02,
    0x07, 0xfe, 0xfe, 0x07, 0x04, 0xfe, 0x04, 0xff, 0x03, 0xfd, 0x02, 0xfc, 0x08,
    0x03, 0x78, 0xfa, 0xe4, 0x14, 0x2b, 0xf5, 0xe8, 0xf3, 0xe8, 0x95, 0xc5, 0xf9,
    0xef, 0xd7, 0x16, 0x05, 0x0f, 0xfb, 0xf4, 0x26, 0x19, 0x0c, 0x47, 0xf2, 0x06,
    0xd8, 0x72, 0x0d, 0x20, 0x16, 0xfe, 0xa7, 0x04, 0xfd, 0xea, 0xfc, 0xc3, 0xf9,
    0x13, 0x01, 0x00, 0xf9, 0xfe, 0x00, 0x02, 0x0a, 0x04, 0xfb, 0x00, 0x03, 0x05,
    0x0a, 0xf9, 0x0c, 0xdf, 0x01, 0xf9, 0xac, 0x03, 0x07, 0x0b, 0x0b, 0xf5, 0xf7,
    0xdc, 0x1f, 0x24, 0xeb, 0xd3, 0x11, 0x0a, 0x21, 0xf0, 0xe9, 0xda, 0x07, 0x26,
    0x25, 0xcd, 0x22, 0x03, 0x06, 0xed, 0xd4, 0x29, 0xfa, 0x23, 0x10, 0xf2, 0xee,
    0x17, 0xed, 0x22, 0x24, 0x08, 0x01, 0x0e, 0x02, 0x9f, 0xfe, 0x3b, 0x07, 0xfb,
    0xf8, 0x26, 0x00, 0xf5, 0xf7, 0x01, 0xcd, 0xfc, 0x02, 0x04, 0xed, 0x0c, 0xfe,
    0xef, 0x00, 0xd1, 0x03, 0xf4, 0x81, 0x24, 0x00, 0xee, 0xe2, 0xde, 0x04, 0x02,
    0x0b, 0xca, 0xf0, 0x34, 0xf9, 0x1c, 0x01, 0xea, 0xf4, 0xca, 0xfd, 0x0b, 0x0a,
    0x34, 0xfc, 0x08, 0xf7, 0x0b, 0xeb, 0x1c, 0x4f, 0x21, 0x09, 0x05, 0xf5, 0x31,
    0xf8, 0x17, 0x97, 0x06, 0x1c, 0x05, 0xfb, 0x18, 0x08, 0x11, 0x05, 0x18, 0xf6,
    0x0f, 0x06, 0xf1, 0xf7, 0xfd, 0xf1, 0x11, 0xfd, 0x03, 0x06, 0x08, 0xb9, 0xfa,
    0xfe, 0x13, 0x06, 0xf7, 0xff, 0xfc, 0x06, 0xe9, 0x23, 0xf8, 0x1c, 0x08, 0xfd,
    0x81, 0xfe, 0xda, 0x08, 0x2e, 0xfd, 0x37, 0x30, 0x34, 0x09, 0xf8, 0x09, 0x03,
    0x09, 0xfd, 0x0e, 0xfa, 0xed, 0xf1, 0xec, 0xf5, 0x04, 0x01, 0x05, 0x34, 0x05,
    0xdb, 0x1f, 0x1a, 0x2c, 0x6c, 0x06, 0xf3, 0xf4, 0x34, 0xf9, 0xb1, 0xf4, 0xa8,
    0xc1, 0xcb, 0x0f, 0x02, 0x1a, 0xc8, 0xf5, 0xff, 0xd8, 0xe7, 0x38, 0x3d, 0x01,
    0xbf, 0xfb, 0x04, 0x16, 0xb1, 0xfc, 0xe6, 0xd9, 0xeb, 0x0d, 0x1e, 0xfd, 0x01,
    0x0a, 0xbb, 0x0e, 0xcb, 0xfa, 0xeb, 0xcd, 0xf3, 0x02, 0x00, 0x09, 0xfa, 0xf4,
    0x00, 0xdd, 0x0d, 0xde, 0x44, 0xfd, 0xf5, 0xf4, 0x0b, 0x01, 0xf2, 0xf5, 0xc4,
    0xf5, 0xc9, 0xbf, 0xd3, 0x00, 0x01, 0x02, 0x0a, 0x01, 0x00, 0xfb, 0x01, 0xf6,
    0xf8, 0xff, 0x01, 0x0b, 0xde, 0xfc, 0x03, 0xfc, 0x02, 0xf9, 0xfd, 0xf7, 0x01,
    0xff, 0x03, 0xfa, 0x03, 0xfd, 0xfb, 0xf9, 0x81, 0x0b, 0x81, 0x0c, 0x0b, 0x08,
    0xd0, 0x04, 0x23, 0x0c, 0x5f, 0x2e, 0x1f, 0x0d, 0xf6, 0x03, 0x04, 0x03, 0x0e,
    0x14, 0x0c, 0xc3, 0x02, 0xfe, 0x25, 0xf9, 0x0a, 0xed, 0x46, 0x11, 0x0c, 0x3e,
    0xf2, 0x0e, 0x04, 0x01, 0xfe, 0xfd, 0x81, 0x01, 0xc0, 0x03, 0xe2, 0xd1, 0xcc,
    0x03, 0xfe, 0xf1, 0xd1, 0x00, 0xfd, 0xdb, 0xfe, 0x14, 0xea, 0xf2, 0xeb, 0x03,
    0x00, 0x1a, 0xe7, 0xfe, 0x11, 0xf8, 0x03, 0x19, 0x0a, 0x02, 0x03, 0x01, 0x72,
    0x00, 0xf4, 0x0c, 0xe1, 0xff, 0xf7, 0x07, 0xf6, 0xa5, 0xee, 0xf1, 0xf8, 0xd3,
    0x06, 0x17, 0xea, 0x81, 0xe0, 0x11, 0xf4, 0xc8, 0xfb, 0xff, 0xc7, 0xae, 0xef,
    0xe8, 0x44, 0xf1, 0xc9, 0x0f, 0x15, 0x00, 0x36, 0x07, 0x23, 0x18, 0x81, 0xf4,
    0xef, 0xce, 0x44, 0x0a, 0xf6, 0x15, 0xf6, 0x15, 0x11, 0x2a, 0x23, 0xfd, 0x08,
    0xf7, 0x8f, 0x10, 0x36, 0x26, 0x20, 0x2b, 0xcc, 0x0d, 0xd2, 0xf1, 0xe3, 0x05,
    0x81, 0xf0, 0xd3, 0xc1, 0xb4, 0x0b, 0xfb, 0xac, 0xc5, 0x0a, 0x03, 0xb6, 0x08,
    0xfb, 0x18, 0x26, 0x2a, 0x08, 0x0c, 0x08, 0x09, 0x01, 0x07, 0x26, 0x12, 0x4d,
    0xf7, 0x03, 0x07, 0xff, 0xee, 0x00, 0xf1, 0x03, 0xef, 0xe8, 0xed, 0x02, 0xfd,
    0x06, 0xf1, 0xfe, 0x01, 0xf3, 0xfe, 0x81, 0x13, 0xfb, 0xf1, 0x04, 0x03, 0xfa,
    0xf1, 0x04, 0xf6, 0xef, 0xe9, 0xfa, 0x81, 0xff, 0xef, 0xf1, 0x85, 0x0a, 0x26,
    0xf6, 0x31, 0x72, 0x58, 0xf5, 0x15, 0x16, 0xf6, 0x11, 0xf8, 0x0f, 0x0a, 0xc5,
    0xd0, 0x0d, 0xc4, 0x00, 0xed, 0x3f, 0x9a, 0x00, 0xf4, 0xfa, 0x1b, 0x71, 0x05,
    0xfc, 0xe9, 0x00, 0xf6, 0x01, 0x11, 0x05, 0x0b, 0x0c, 0x0f, 0x04, 0x06, 0x02,
    0x02, 0xfe, 0x03, 0xfe, 0xfe, 0xf7, 0x0a, 0x0e, 0xe8, 0x03, 0x01, 0x81, 0x22,
    0xfb, 0xff, 0xfe, 0xfd, 0xfc, 0x21, 0xf4, 0x20, 0x12, 0xca, 0x0d, 0x1c, 0xed,
    0x53, 0x3c, 0x41, 0xe9, 0xf0, 0xca, 0x4b, 0x24, 0xf1, 0x2e, 0x1b, 0x7f, 0xe8,
    0x46, 0x07, 0xf9, 0xde, 0x35, 0xed, 0x1f, 0xf0, 0x1e, 0x18, 0x13, 0x26, 0xf8,
    0x21, 0xf7, 0xe0, 0xfb, 0x11, 0x01, 0xf0, 0x1d, 0x29, 0xf6, 0xef, 0x09, 0x24,
    0xff, 0x0c, 0xe9, 0xfb, 0xed, 0xf1, 0xe8, 0xd4, 0x08, 0xf4, 0x1b, 0x12, 0x03,
    0x15, 0xf6, 0x08, 0x11, 0xfa, 0x0b, 0x47, 0xed, 0x99, 0x0a, 0xf2, 0xf9, 0x30,
    0x1b, 0x4e, 0x12, 0xeb, 0x0e, 0xda, 0x08, 0xfa, 0x09, 0x05, 0x18, 0xd4, 0x81,
    0xfa, 0xfc, 0x05, 0x24, 0xdf, 0x04, 0x27, 0x56, 0x0a, 0xf6, 0xca, 0x00, 0xb9,
    0x00, 0xfa, 0x03, 0x17, 0x09, 0x04, 0x10, 0xfe, 0xff, 0x00, 0x0e, 0xfb, 0x04,
    0x05, 0x03, 0xf9, 0x81, 0xfe, 0x1d, 0xe7, 0xf7, 0x05, 0xf1, 0xff, 0xf9, 0xbe,
    0x13, 0x03, 0x24, 0x00, 0x06, 0xee, 0x02, 0xdb, 0x07, 0x00, 0x02, 0xe8, 0xf5,
    0xe2, 0xfc, 0xf9, 0x07, 0x17, 0xff, 0x01, 0xfd, 0x00, 0xa8, 0xf3, 0xfa, 0x1f,
    0xfd, 0x01, 0x0c, 0xe7, 0x06, 0x9e, 0x22, 0xed, 0x38, 0x92, 0x04, 0xd7, 0x08,
    0x81, 0x11, 0x4e, 0x10, 0x5f, 0x5a, 0x3f, 0xfa, 0xec, 0xe2, 0x3a, 0xfb, 0x0e,
    0x29, 0x15, 0xbf, 0xb8, 0xe0, 0x44, 0xfd, 0xee, 0xf1, 0x50, 0xf5, 0x37, 0x1d,
    0x21, 0x09, 0xdd, 0x0b, 0xf5, 0x09, 0x81, 0xfd, 0xba, 0x08, 0x07, 0xd4, 0xf7,
    0x0d, 0xff, 0xe8, 0x1f, 0xfd, 0x01, 0x05, 0x06, 0x3f, 0x2c, 0x21, 0x01, 0x02,
    0x0d, 0x18, 0xbe, 0xf4, 0xf7, 0x24, 0xf1, 0x9b, 0xd6, 0x04, 0xfe, 0xfd, 0x01,
    0x00, 0xf5, 0xfe, 0xfd, 0xf3, 0xf8, 0x02, 0x03, 0x15, 0xed, 0x03, 0x01, 0xfa,
    0x00, 0xed, 0xf7, 0x04, 0x08, 0x03, 0xfa, 0x03, 0xfe, 0x02, 0x0a, 0xfa, 0xc7,
    0x0e, 0x5a, 0xeb, 0x1c, 0x05, 0xfd, 0xff, 0xe4, 0x06, 0xa7, 0xe6, 0xf9, 0xf1,
    0xf5, 0x06, 0x0f, 0xef, 0xfd, 0x03, 0xf9, 0x60, 0xfa, 0x26, 0xba, 0xfd, 0xff,
    0x07, 0xca, 0xf4, 0xf7, 0xea, 0x25, 0x28, 0xf9, 0x07, 0xef, 0x04, 0x5b, 0xfc,
    0x0c, 0xfd, 0x03, 0x36, 0x2e, 0x0b, 0x02, 0xf2, 0x29, 0x05, 0x06, 0x0a, 0xfb,
    0x4d, 0xd1, 0x2e, 0x0a, 0xfc, 0x0b, 0xed, 0x23, 0xfc, 0x0a, 0x07, 0x29, 0xfb,
    0xe7, 0xec, 0x1b, 0x10, 0xe7, 0x1b, 0xc4, 0xf9, 0xb4, 0xb7, 0xb9, 0x0b, 0xe9,
    0xfa, 0xb3, 0x15, 0xf5, 0x9b, 0x28, 0xb2, 0x48, 0xb0, 0xc0, 0xfd, 0x1c, 0xc8,
    0xc9, 0xf7, 0xc9, 0x9b, 0x81, 0xc0, 0xe6, 0xfe, 0xe1, 0xfe, 0x17, 0x08, 0x03,
    0x00, 0x17, 0x08, 0xde, 0xff, 0x01, 0x00, 0x00, 0xf6, 0x06, 0x08, 0x00, 0xd5,
    0xee, 0x0d, 0x09, 0x06, 0x09, 0xcd, 0xf4, 0xfe, 0x09, 0x08, 0x11, 0x0c, 0xac,
    0xf9, 0xfe, 0xfe, 0xc2, 0x05, 0x0c, 0x00, 0x41, 0x9a, 0x2d, 0xf6, 0xfe, 0xce,
    0xf0, 0x0b, 0x08, 0x1b, 0xf4, 0xd5, 0xfc, 0x06, 0x3f, 0xf8, 0xf8, 0x12, 0x17,
    0x02, 0xe0, 0x10, 0x05, 0xa4, 0x0f, 0xf8, 0xc2, 0x04, 0xe9, 0xf6, 0x15, 0x0c,
    0xef, 0x12, 0xc0, 0xfd, 0x0c, 0x16, 0xe3, 0xf8, 0x07, 0x0f, 0xfd, 0x9b, 0xda,
    0x06, 0x01, 0x05, 0xf8, 0xdf, 0x1a, 0x00, 0xe8, 0x37, 0x94, 0x4a, 0x02, 0xfd,
    0x04, 0xfe, 0x02, 0xff, 0xfb, 0x03, 0xfa, 0xfa, 0xfc, 0xff, 0xff, 0xfb, 0xf9,
    0x03, 0x02, 0xfc, 0x02, 0x97, 0x04, 0xf8, 0xfc, 0x01, 0x01, 0xfb, 0xfe, 0x01,
    0xef, 0xf8, 0x81, 0xec, 0xec, 0x03, 0x02, 0x0f, 0xf4, 0x02, 0x26, 0x0f, 0x0b,
    0xfb, 0xcb, 0x00, 0xf8, 0x1c, 0xe8, 0xf1, 0x0e, 0xf5, 0x0b, 0x81, 0x05, 0xf9,
    0x04, 0xef, 0x07, 0x1b, 0xfa, 0xf8, 0xbc, 0xed, 0xef, 0xf4, 0x47, 0xf1, 0x46,
    0x04, 0x12, 0x00, 0x20, 0xea, 0xc9, 0x65, 0x10, 0xfe, 0xf1, 0x3c, 0x46, 0x08,
    0x08, 0x17, 0x00, 0xe0, 0xd2, 0xd2, 0x1d, 0xf4, 0xf0, 0x14, 0x07, 0xeb, 0x2f,
    0x14, 0x1d, 0x4a, 0x84, 0xf8, 0x16, 0x09, 0xcd, 0xf2, 0x34, 0x01, 0x37, 0xbb,
    0xa7, 0x14, 0x0b, 0xf5, 0x9b, 0xee, 0xf3, 0xf9, 0xf3, 0x92, 0x0d, 0xcc, 0x1b,
    0x10, 0xf6, 0xde, 0x35, 0xf4, 0xf9, 0x47, 0x12, 0x12, 0x4b, 0x09, 0xfa, 0x04,
    0xb8, 0xff, 0xe9, 0xfd, 0x18, 0x2b, 0x30, 0xf5, 0xf7, 0x14, 0x47, 0x09, 0xfd,
    0x16, 0x05, 0x35, 0xf9, 0x81, 0xf1, 0x08, 0x05, 0x0a, 0xf4, 0x0d, 0x33, 0x03,
    0x33, 0xec, 0xfb, 0x05, 0xf6, 0x01, 0x1b, 0xfb, 0xf5, 0x03, 0xfc, 0xfe, 0x06,
    0xfe, 0x00, 0xfe, 0x05, 0xfd, 0x00, 0x02, 0x03, 0x04, 0xf3, 0x09, 0x01, 0x03,
    0x04, 0xec, 0xf0, 0x02, 0x08, 0xfa, 0xff, 0xdf, 0x0d, 0xf8, 0x26, 0x06, 0xdc,
    0x0b, 0xdf, 0x0c, 0x89, 0x96, 0xee, 0xf4, 0x00, 0x29, 0xa2, 0xfc, 0x06, 0xfc,
    0xf3, 0xb2, 0x59, 0xf6, 0xe7, 0xfc, 0xfe, 0x81, 0xcc, 0x04, 0xd4, 0xd2, 0xbe,
    0xc1, 0x10, 0xf9, 0xcf, 0x08, 0xfa, 0xfd, 0xe9, 0x03, 0xea, 0x17, 0x16, 0x02,
    0xfb, 0x12, 0x24, 0xfe, 0xf6, 0x0b, 0xfb, 0x2c, 0xe8, 0x81, 0xe3, 0x00, 0xfb,
    0xfd, 0xee, 0xfe, 0x21, 0xf0, 0x25, 0x0a, 0xd6, 0xb4, 0xb0, 0x46, 0x00, 0x0e,
    0x00, 0xe0, 0xb5, 0xc3, 0xe4, 0x11, 0xbe, 0x0b, 0x81, 0x05, 0xc7, 0x29, 0xe7,
    0xd3, 0xdc, 0x11, 0xca, 0x39, 0x2a, 0xb9, 0x11, 0xc9, 0xaa, 0xfd, 0xd6, 0xc0,
    0x87, 0xfb, 0xf6, 0x08, 0xb9, 0x0d, 0x1a, 0x01, 0x81, 0x1c, 0xad, 0xf0, 0xf0,
    0xf8, 0x3b, 0xfa, 0xf6, 0x13, 0x0a, 0xe3, 0xca, 0xf3, 0x18, 0x0e, 0x05, 0xf6,
    0xfe, 0xfe, 0xf0, 0x4a, 0x1c, 0xf3, 0xfa, 0xfd, 0xf3, 0xf7, 0x08, 0xfc, 0xe5,
    0xf9, 0xf4, 0xe6, 0xf2, 0x00, 0x03, 0xfa, 0xba, 0x02, 0xfb, 0xf9, 0x05, 0x0a,
    0x0e, 0xe8, 0xb3, 0xfa, 0xff, 0x16, 0x0e, 0xfd, 0xec, 0x0c, 0xf7, 0xfe, 0xef,
    0xff, 0x27, 0x00, 0x81, 0xfc, 0xcc, 0xf5, 0xc5, 0xbf, 0xca, 0xfd, 0x03, 0x12,
    0xbf, 0x09, 0xfe, 0xd0, 0xf9, 0xb2, 0x48, 0xf1, 0xb9, 0xf4, 0x0c, 0xd4, 0xde,
    0x08, 0xe8, 0xe1, 0xa2, 0xf9, 0xfa, 0xfb, 0xe0, 0xf6, 0x32, 0xf0, 0xfc, 0x08,
    0x21, 0x1d, 0x20, 0x15, 0xe9, 0xfd, 0x38, 0xfc, 0xfc, 0x33, 0xfa, 0x36, 0xd8,
    0x17, 0x3d, 0x0e, 0xf3, 0x2a, 0x16, 0xe6, 0x0b, 0x25, 0x43, 0x06, 0x0b, 0xfb,
    0x26, 0xfb, 0x86, 0x06, 0x01, 0x03, 0xed, 0x03, 0x29, 0x02, 0xfa, 0x11, 0x0f,
    0x02, 0xfc, 0x03, 0x00, 0x51, 0xc0, 0xf9, 0x09, 0x01, 0xfe, 0x27, 0x11, 0xf9,
    0xf6, 0x07, 0xfc, 0x81, 0x4c, 0xf6, 0xe8, 0x0a, 0xdb, 0x06, 0x2f, 0xff, 0x81,
    0x4a, 0xb8, 0x05, 0x08, 0x1a, 0x3a, 0xfc, 0x08, 0xfb, 0x08, 0x15, 0x03, 0x32,
    0xfc, 0x0b, 0xfa, 0xfd, 0xf4, 0xf9, 0xdf, 0xf1, 0x25, 0xd7, 0xfb, 0x0a, 0x10,
    0x01, 0xc4, 0xf8, 0xf7, 0xfd, 0x10, 0x0f, 0xb7, 0x09, 0xfd, 0xfe, 0xd6, 0x05,
    0x03, 0x10, 0xfc, 0x81, 0xd7, 0x28, 0x03, 0x06, 0xf5, 0x29, 0x0b, 0xf6, 0xa0,
    0x43, 0xa2, 0x1e, 0xff, 0x01, 0xfe, 0x03, 0x0e, 0xff, 0xfe, 0x00, 0x01, 0xfd,
    0xff, 0xfd, 0x04, 0x00, 0x03, 0xff, 0xff, 0xfc, 0xff, 0xe6, 0xf9, 0xf6, 0xff,
    0xfe, 0xfd, 0xfb, 0x02, 0xfd, 0xff, 0x01, 0xdd, 0xd7, 0xd3, 0xff, 0x0a, 0xfa,
    0xe1, 0x05, 0xfe, 0xf9, 0x1d, 0xfe, 0xee, 0x0c, 0x05, 0x12, 0xda, 0x06, 0x07,
    0x01, 0xf3, 0x0d, 0x0f, 0xdf, 0xec, 0xf4, 0xfa, 0x0c, 0xec, 0xf1, 0xb0, 0xfc,
    0x04, 0xf6, 0xa5, 0xfe, 0xe6, 0xf6, 0xcf, 0x07, 0xf4, 0x18, 0x34, 0x81, 0xf6,
    0xf3, 0xfb, 0xbd, 0xc7, 0xfc, 0xeb, 0x00, 0x06, 0x11, 0x1a, 0x39, 0xde, 0xf3,
    0xf7, 0xda, 0x15, 0x03, 0xf7, 0x0c, 0xfa, 0xec, 0x63, 0xf2, 0xfd, 0xf1, 0x0a,
    0x05, 0xed, 0xfa, 0xdc, 0x54, 0x6c, 0xea, 0xfa, 0x21, 0x7f, 0x05, 0x08, 0x0f,
    0x0c, 0x2b, 0xe9, 0x4d, 0xf0, 0x15, 0x10, 0x2f, 0xd6, 0xeb, 0xb6, 0xdb, 0xfc,
    0xf7, 0xaa, 0x0e, 0xf9, 0xfa, 0xd6, 0xfc, 0x33, 0xfe, 0xfa, 0xe7, 0xe7, 0x08,
    0xfc, 0xf7, 0xce, 0xfe, 0xfc, 0xf6, 0xfa, 0xdd, 0x0e, 0xfa, 0x0c, 0x06, 0xff,
    0x02, 0x15, 0xfd, 0xd8, 0x20, 0xe9, 0x28, 0x00, 0x06, 0x1b, 0xfc, 0xd7, 0x05,
    0x14, 0x03, 0x0c, 0x09, 0xfe, 0xfe, 0x04, 0xff, 0xfe, 0x00, 0x00, 0x0a, 0x02,
    0xdc, 0x04, 0x03, 0x05, 0x04, 0xfd, 0x11, 0x0d, 0xfc, 0xb4, 0x14, 0x07, 0x81,
    0xc9, 0xf2, 0xdf, 0xfa, 0x0e, 0xf5, 0x1f, 0x09, 0xd3, 0xed, 0xdd, 0xf4, 0xf2,
    0x24, 0xe1, 0xfa, 0x02, 0x0f, 0x03, 0xfd, 0x13, 0x21, 0x16, 0x0b, 0xf9, 0x16,
    0xef, 0x08, 0x16, 0x0d, 0xe2, 0xc5, 0xdc, 0xfc, 0x04, 0xf8, 0xd4, 0xfe, 0x1d,
    0xf4, 0x24, 0xfe, 0x07, 0x01, 0xfb, 0xfd, 0xf6, 0xf8, 0x07, 0x0e, 0xff, 0xd9,
    0x0d, 0xec, 0x1f, 0x09, 0x03, 0x12, 0x21, 0x02, 0x17, 0x20, 0xfa, 0x18, 0x93,
    0x05, 0xb6, 0xee, 0xed, 0xd6, 0xff, 0x01, 0xdc, 0xdc, 0xed, 0x47, 0x42, 0xc3,
    0x17, 0x0d, 0xe0, 0xa0, 0xf8, 0xfa, 0x0b, 0xb6, 0x0b, 0x2b, 0x1e, 0xbf, 0xb5,
    0xd2, 0xf1, 0xcb, 0xf9, 0xeb, 0x7d, 0x12, 0xf6, 0xfb, 0x22, 0x0b, 0xf4, 0x03,
    0x6c, 0x02, 0x57, 0x10, 0x0e, 0xf8, 0xcb, 0xef, 0x0c, 0x00, 0x00, 0x3b, 0x27,
    0x0c, 0x03, 0xfd, 0xf8, 0x0d, 0x0c, 0xf8, 0x18, 0xbf, 0xfc, 0x0c, 0xff, 0x07,
    0x00, 0x07, 0xbf, 0x01, 0x81, 0xf8, 0xc7, 0xe4, 0xe8, 0x07, 0xfb, 0x0f, 0xc4,
    0x07, 0x06, 0xf9, 0xfb, 0xef, 0x04, 0xea, 0xf9, 0xfd, 0xfe, 0x45, 0xfd, 0xfd,
    0xf4, 0x1a, 0xfb, 0xf7, 0x28, 0x00, 0xe9, 0xf7, 0xa1, 0x07, 0xae, 0x05, 0xf1,
    0xb5, 0xfc, 0xf5, 0xf8, 0x18, 0x19, 0xff, 0x03, 0xf8, 0xff, 0xdd, 0x26, 0xfd,
    0x12, 0x06, 0x07, 0x2f, 0x99, 0xf7, 0xac, 0x15, 0xdd, 0x16, 0x0d, 0xff, 0xf9,
    0xfc, 0xc3, 0xfa, 0xf9, 0x00, 0x81, 0x1a, 0xfe, 0xff, 0xf7, 0x13, 0x23, 0x07,
    0x00, 0xf8, 0x04, 0x18, 0x02, 0x16, 0xe0, 0xfb, 0xfa, 0x25, 0xd7, 0xfc, 0x09,
    0xe7, 0x0d, 0x2b, 0xef, 0x07, 0x09, 0xf7, 0xb0, 0xfd, 0x26, 0xfe, 0xf9, 0x14,
    0x11, 0x00, 0x03, 0xef, 0xe0, 0xfc, 0x02, 0x10, 0x02, 0xe6, 0xe7, 0x0a, 0x03,
    0x03, 0x06, 0x2e, 0x07, 0x00, 0x81, 0x25, 0x08, 0xde, 0x1f, 0xff, 0xc2, 0x08,
    0x81, 0xfb, 0xa5, 0x04, 0xd7, 0xf2, 0xca, 0xf9, 0x0f, 0xe2, 0xf2, 0xfe, 0x05,
    0xc3, 0xfa, 0xdc, 0x35, 0xc7, 0xb7, 0x05, 0x05, 0xe0, 0xe6, 0x08, 0xbc, 0xd9,
    0xa3, 0x97, 0xd7, 0xf8, 0xe1, 0xf0, 0x8e, 0x0a, 0x61, 0xf8, 0x1a, 0x30, 0x19,
    0x06, 0xfb, 0x15, 0x29, 0x09, 0xfe, 0x16, 0xfc, 0xd4, 0xe1, 0x24, 0x15, 0xf9,
    0x09, 0xf4, 0x6c, 0xef, 0xf7, 0x40, 0x33, 0x47, 0x0e, 0x12, 0x0a, 0xf7, 0x81,
    0x10, 0xfc, 0xf6, 0xf8, 0xf5, 0x40, 0xf7, 0x0e, 0x4b, 0x16, 0x12, 0xfa, 0xf9,
    0x04, 0xe2, 0x0e, 0x15, 0x11, 0x0e, 0xf8, 0x48, 0x42, 0x07, 0xea, 0xf7, 0xa9,
    0x11, 0x03, 0x02, 0x06, 0xff, 0x04, 0x00, 0xbd, 0x02, 0xbc, 0xd0, 0xe2, 0x01,
    0x03, 0xff, 0xbb, 0x04, 0xfd, 0xbe, 0x00, 0xfc, 0x03, 0xfa, 0x81, 0x03, 0x03,
    0x11, 0x01, 0x01, 0xfa, 0x05, 0x02, 0x08, 0xb6, 0x04, 0x01, 0x03, 0x81, 0x01,
    0x3c, 0x04, 0x1e, 0x3c, 0x4b, 0xfe, 0x10, 0x32, 0x13, 0x06, 0x0f, 0x1f, 0x0d,
    0x87, 0xac, 0x0f, 0x11, 0xfa, 0x07, 0x26, 0x20, 0xfe, 0xbd, 0x04, 0x25, 0x00,
    0x00, 0x06, 0xff, 0xf6, 0xa3, 0xfd, 0x1d, 0x07, 0xdb, 0xf9, 0x0d, 0xf9, 0x06,
    0x1b, 0xe9, 0x02, 0x04, 0xfb, 0x06, 0x81, 0xf3, 0x01, 0x11, 0xf9, 0xfd, 0x20,
    0x35, 0xfc, 0x03, 0x06, 0x00, 0xc9, 0x02, 0x01, 0x07, 0x01, 0x81, 0x02, 0x00,
    0x06, 0x01, 0x04, 0x01, 0x05, 0xfd, 0xfd, 0x08, 0xfd, 0x03, 0x08, 0x02, 0x36,
    0xbb, 0xf2, 0x02, 0xfe, 0xfc, 0x11, 0x06, 0x05, 0x09, 0x06, 0xfe, 0xd3, 0x28,
    0x01, 0xfa, 0x09, 0xb3, 0x03, 0xde, 0x03, 0xcd, 0xdd, 0xc9, 0x04, 0x03, 0x0c,
    0xeb, 0x01, 0xfe, 0xde, 0x04, 0xda, 0x1a, 0x00, 0xc1, 0x03, 0x08, 0xdb, 0xf0,
    0xf9, 0xeb, 0x09, 0xac, 0xf3, 0xec, 0xff, 0xf8, 0x03, 0x14, 0x05, 0x04, 0x05,
    0xb2, 0xee, 0x01, 0xfd, 0x04, 0x03, 0xef, 0x05, 0x01, 0x00, 0x02, 0x03, 0xf2,
    0xfa, 0x0b, 0x05, 0xfb, 0xb2, 0xa3, 0x04, 0x1e, 0xea, 0x00, 0xfc, 0xdc, 0xfe,
    0x05, 0x04, 0xf4, 0x05, 0x04, 0x00, 0x02, 0x0d, 0x12, 0xfc, 0xf9, 0xb2, 0x14,
    0xfc, 0xfe, 0xf4, 0xff, 0xed, 0xf8, 0xfa, 0xf2, 0x00, 0xfa, 0x0d, 0xeb, 0xfa,
    0xe9, 0x08, 0x0a, 0xd7, 0xef, 0x0c, 0x81, 0x04, 0xc2, 0xfc, 0x20, 0x0a, 0x4a,
    0x46, 0x52, 0xfd, 0x00, 0xfb, 0x2c, 0x09, 0x04, 0x1a, 0xfd, 0x06, 0xe3, 0x12,
    0x16, 0x0b, 0x00, 0x22, 0x14, 0x06, 0x0b, 0xe6, 0x25, 0x2b, 0x0b, 0xf7, 0x13,
    0x09, 0x4b, 0x09, 0xb4, 0xf9, 0xe1, 0xf5, 0xf1, 0x0c, 0xf7, 0xfd, 0xf0, 0x10,
    0xfa, 0xcb, 0xf1, 0x07, 0x31, 0xfc, 0xf0, 0x09, 0xf7, 0x09, 0xd4, 0xef, 0xeb,
    0xbd, 0xe8, 0xe5, 0x07, 0x0c, 0xc5, 0x0a, 0xfc, 0x07, 0x3e, 0x03, 0x0a, 0x13,
    0x0c, 0x0b, 0xf8, 0x81, 0x06, 0xfb, 0xf6, 0xde, 0x06, 0xd3, 0x08, 0xde, 0x30,
    0xfa, 0xf7, 0xeb, 0x1a, 0x0b, 0x38, 0xd7, 0xa1, 0xb4, 0xce, 0x04, 0x11, 0x03,
    0x06, 0x09, 0x97, 0x06, 0x04, 0xcf, 0xe7, 0xfd, 0x01, 0x08, 0x06, 0x01, 0x0b,
    0x04, 0x0d, 0x1e, 0x08, 0x14, 0x12, 0xfe, 0xf7, 0xdb, 0x81, 0x02, 0x0d, 0x12,
    0xf9, 0xde, 0xe4, 0x0a, 0xe2, 0xf6, 0xf0, 0x07, 0x11, 0xf5, 0x24, 0xf2, 0x06,
    0x07, 0xf6, 0xf0, 0x05, 0xfe, 0x08, 0x1e, 0xff, 0x0f, 0x04, 0xce, 0x37, 0xfc,
    0xf8, 0xe8, 0x11, 0xfd, 0x17, 0x31, 0x10, 0xe6, 0x19, 0x07, 0xaf, 0x01, 0xfc,
    0xfa, 0xfc, 0xf7, 0x1f, 0x05, 0x07, 0xfc, 0xff, 0x10, 0x18, 0x07, 0xff, 0xfd,
    0xf8, 0x10, 0xf4, 0x07, 0x05, 0x00, 0xfa, 0xdf, 0x14, 0xfc, 0xf5, 0xf4, 0x04,
    0x18, 0xe0, 0x01, 0xda, 0x0b, 0x1a, 0x0f, 0x3d, 0x0b, 0x14, 0x4d, 0x4c, 0xf4,
    0xf1, 0xed, 0x11, 0x02, 0xf8, 0x03, 0xf5, 0x4e, 0x04, 0x22, 0x0c, 0x06, 0x0b,
    0x0a, 0x50, 0xfd, 0x2a, 0x1b, 0x1a, 0xbb, 0x3a, 0x11, 0x05, 0xef, 0x2e, 0xfb,
    0xa5, 0x0e, 0x12, 0x03, 0xf3, 0xf6, 0x00, 0xc5, 0xe8, 0x0f, 0x00, 0xfc, 0xfa,
    0x7d, 0x12, 0x03, 0xf3, 0x00, 0xf9, 0x07, 0x81, 0xf2, 0x09, 0xdb, 0xf2, 0xeb,
    0xe2, 0xff, 0xe7, 0xf7, 0xa8, 0xfe, 0x35, 0xfb, 0x10, 0x0f, 0xdb, 0x10, 0x0d,
    0x01, 0xfe, 0x09, 0xf2, 0xee, 0x04, 0xd2, 0x8d, 0x37, 0xe0, 0x06, 0xf1, 0x09,
    0xe5, 0xf1, 0xfa, 0xed, 0x1e, 0xb4, 0x00, 0xff, 0x0b, 0xfe, 0xef, 0x02, 0xc3,
    0x04, 0xbd, 0xd6, 0xe3, 0x02, 0x03, 0x0b, 0xca, 0xfe, 0x03, 0xcd, 0x04, 0xff,
    0xf1, 0xf9, 0xd4, 0x00, 0xfe, 0x06, 0xfe, 0xfd, 0x00, 0x09, 0x03, 0x0d, 0x48,
    0xf3, 0xfc, 0x06, 0x45, 0xf2, 0xc1, 0x0a, 0xe8, 0xc8, 0xa3, 0x0b, 0xf4, 0xd4,
    0xe9, 0xff, 0xfd, 0xfe, 0x01, 0x27, 0x40, 0x0c, 0xd5, 0xf4, 0x00, 0xdc, 0xf7,
    0x10, 0x11, 0x07, 0xe4, 0x01, 0xfe, 0xfe, 0xe2, 0x03, 0xe7, 0x05, 0xe1, 0x04,
    0x28, 0x05, 0x10, 0xfb, 0x05, 0x04, 0xeb, 0x02, 0xfa, 0x09, 0xf8, 0xfb, 0x03,
    0x1c, 0x12, 0x03, 0xfb, 0x0e, 0xd4, 0xfe, 0x03, 0xb8, 0x0c, 0xa9, 0x0f, 0x00,
    0x01, 0x05, 0x97, 0xfc, 0x00, 0xfc, 0xfb, 0x04, 0xfd, 0xfc, 0x06, 0xfb, 0xff,
    0x03, 0x05, 0xfa, 0x00, 0x01, 0xcd, 0xee, 0x08, 0xfd, 0xfc, 0xff, 0x03, 0xfd,
    0x0b, 0xf9, 0xff, 0xe4, 0xdb, 0x01, 0xdf, 0x05, 0x7f, 0x04, 0x01, 0x02, 0x03,
    0x04, 0x07, 0xf9, 0xf8, 0xf5, 0xfc, 0x00, 0x05, 0x04, 0x01, 0x16, 0xe0, 0xf8,
    0x02, 0x00, 0xfa, 0x0a, 0x02, 0x07, 0x05, 0xf0, 0x0b, 0xf2, 0xeb, 0x02, 0xf2,
    0x03, 0x26, 0x00, 0xf4, 0x05, 0xae, 0xe2, 0xee, 0xfb, 0xfe, 0x04, 0xeb, 0x00,
    0x01, 0xfb, 0xfb, 0x0f, 0xf4, 0xfd, 0x04, 0x06, 0x03, 0x98, 0x81, 0xfc, 0x09,
    0xe1, 0x03, 0xfd, 0x18, 0xff, 0x01, 0xfd, 0xdf, 0xfe, 0x0c, 0xff, 0x09, 0x01,
    0xf6, 0x03, 0xf9, 0x81, 0xf9, 0x04, 0x02, 0xef, 0xff, 0x14, 0x0d, 0x06, 0x02,
    0x01, 0x03, 0xf6, 0x14, 0x02, 0xee, 0x11, 0x10, 0xe6, 0x38, 0x0a, 0x07, 0x08,
    0xe5, 0xf9, 0x0e, 0xf6, 0xde, 0xda, 0xb5, 0x0c, 0xff, 0x0b, 0xf6, 0xf6, 0xfd,
    0x11, 0xfa, 0xf8, 0x1a, 0xc4, 0x0c, 0x06, 0x08, 0x08, 0x03, 0xfc, 0x0a, 0x23,
    0xec, 0xe6, 0xfd, 0x0b, 0xdc, 0xfc, 0x81, 0x08, 0x65, 0x10, 0x41, 0x2f, 0x26,
    0x0a, 0x0e, 0xff, 0x2b, 0xfc, 0xf3, 0x3c, 0x0b, 0x0f, 0xc7, 0x37, 0x2f, 0xfd,
    0x11, 0x04, 0x37, 0x07, 0x40, 0x4d, 0x2c, 0x45, 0xdb, 0xf8, 0xf9, 0x09, 0xe1,
    0x09, 0x11, 0xfb, 0x04, 0xe6, 0xf9, 0xfd, 0x04, 0x9b, 0x07, 0x0d, 0x03, 0x3a,
    0x00, 0x08, 0x11, 0x07, 0xea, 0xf4, 0xf9, 0xfb, 0xa4, 0xf4, 0xea, 0x2c, 0x9c,
    0x48, 0xf2, 0x0b, 0xc9, 0x0c, 0xfd, 0x01, 0x03, 0x00, 0xfd, 0x04, 0x12, 0xff,
    0x04, 0x07, 0x11, 0x06, 0xf9, 0x04, 0x05, 0xed, 0xaa, 0xf8, 0xe4, 0x02, 0xfd,
    0xe5, 0xe1, 0xf9, 0x13, 0x88, 0x01, 0x05, 0xc8, 0x04, 0xe6, 0xff, 0xc3, 0xfe,
    0x25, 0x0c, 0x34, 0x21, 0x1b, 0x09, 0xfa, 0x11, 0x0a, 0x03, 0x06, 0x23, 0xff,
    0xed, 0xe4, 0x2c, 0x1c, 0xfc, 0x05, 0x05, 0x18, 0xfc, 0x81, 0x2f, 0x2a, 0x1e,
    0x1d, 0x07, 0xd6, 0x02, 0xbb, 0xff, 0xfc, 0xff, 0x07, 0x0d, 0x11, 0x04, 0xfe,
    0x2c, 0x0c, 0x05, 0xf9, 0xfb, 0x05, 0xf7, 0xb7, 0x18, 0xf4, 0xf9, 0x02, 0x01,
    0x02, 0xfc, 0xe3, 0x02, 0xfc, 0x25, 0xdc, 0xf5, 0xda, 0xf8, 0xce, 0x03, 0x55,
    0xfa, 0x02, 0x51, 0x06, 0x01, 0x04, 0x0c, 0x24, 0x05, 0xfc, 0x25, 0xf7, 0x2a,
    0xe4, 0x0f, 0x09, 0x03, 0x09, 0x01, 0xee, 0x0d, 0xec, 0x1b, 0xec, 0xfa, 0x0f,
    0xfe, 0xf6, 0x00, 0xcd, 0x00, 0xdc, 0x0f, 0x3c, 0x20, 0x3e, 0xf7, 0xfd, 0x16,
    0xa7, 0x0b, 0x00, 0xff, 0xfa, 0x3f, 0x1a, 0x12, 0x18, 0xf2, 0x0b, 0x10, 0xf4,
    0x0c, 0x03, 0xe6, 0x04, 0xe9, 0x51, 0x08, 0xde, 0x06, 0xdf, 0x03, 0x56, 0x10,
    0x25, 0x2a, 0xee, 0x0d, 0xff, 0xef, 0x24, 0xf6, 0x0f, 0x0a, 0xfc, 0x23, 0x1d,
    0x30, 0x00, 0xf8, 0x04, 0xef, 0xcf, 0xfb, 0x2f, 0xfe, 0x22, 0x4e, 0x5c, 0xf9,
    0x03, 0x0b, 0x16, 0x04, 0xc1, 0x0c, 0x27, 0x19, 0x41, 0xfb, 0xff, 0x0c, 0xec,
    0x02, 0xf5, 0xfd, 0xf8, 0x38, 0x04, 0x0d, 0x0a, 0x0a, 0x06, 0x00, 0x81, 0x03,
    0xfe, 0xfa, 0x05, 0x04, 0xfd, 0xfe, 0xf6, 0xfe, 0x04, 0xfe, 0x0a, 0x03, 0xa5,
    0x0d, 0x0e, 0xfc, 0x04, 0x03, 0xeb, 0xfe, 0x00, 0xf0, 0x02, 0x01, 0xfc, 0xf4,
    0xf9, 0x04, 0xfd, 0xf2, 0x08, 0x04, 0x07, 0xe5, 0xf8, 0xd7, 0xe3, 0x02, 0xf4,
    0x06, 0xe3, 0x00, 0xff, 0x05, 0x08, 0x0c, 0x11, 0xfe, 0x04, 0x12, 0x0f, 0x07,
    0x01, 0x00, 0x02, 0xfe, 0xf0, 0x13, 0x11, 0x04, 0xfd, 0x0c, 0x2f, 0xfd, 0xf4,
    0x0f, 0xf1, 0x00, 0x74, 0x0f, 0x01, 0x04, 0x4b, 0xf9, 0xee, 0xf5, 0xb8, 0xe4,
    0xa8, 0x11, 0xe6, 0x2c, 0xce, 0xfc, 0xee, 0xf2, 0x06, 0xf6, 0x64, 0x0d, 0x27,
    0xee, 0xec, 0x12, 0x16, 0x11, 0xf9, 0xbb, 0xe1, 0x52, 0xfd, 0x06, 0xd7, 0xfe,
    0x0a, 0x13, 0x28, 0xf7, 0x39, 0x2f, 0x26, 0xed, 0xfd, 0x2d, 0x2a, 0x12, 0x18,
    0x3c, 0xfd, 0x1c, 0xbb, 0x2d, 0x3d, 0xe5, 0xf7, 0x0e, 0x23, 0x0e, 0x38, 0x61,
    0x30, 0x42, 0x12, 0x14, 0x7f, 0xf8, 0xa5, 0x01, 0xe3, 0xee, 0x20, 0xf5, 0x10,
    0xf8, 0xf1, 0x1c, 0x28, 0xe6, 0xf0, 0x2c, 0xf8, 0x12, 0xe8, 0x0c, 0x24, 0xfb,
    0x07, 0x27, 0x05, 0xf9, 0x22, 0x4d, 0x10, 0xf0, 0xad, 0xf2, 0xff, 0x03, 0x58,
    0xea, 0xf6, 0xf8, 0xcf, 0xd5, 0xd9, 0x08, 0xfa, 0x18, 0x0f, 0xfc, 0x0b, 0x01,
    0x08, 0x81, 0xf6, 0xf8, 0x03, 0xe9, 0xf2, 0xdb, 0xf8, 0x16, 0x10, 0x11, 0xe7,
    0x1e, 0xf7, 0xfb, 0xf8, 0xfb, 0x15, 0x01, 0xcf, 0x00, 0xee, 0x05, 0x12, 0x04,
    0xfd, 0x05, 0x04, 0xff, 0xf9, 0xe4, 0xf8, 0x0c, 0xdd, 0xfa, 0xf4, 0x07, 0xfc,
    0x8f, 0xe7, 0x05, 0x14, 0xdb, 0x03, 0x08, 0xfa, 0xff, 0xee, 0x00, 0xf1, 0xfe,
    0x19, 0xfd, 0x8e, 0x09, 0x10, 0x00, 0x03, 0x00, 0xf8, 0x02, 0x03, 0x07, 0x00,
    0xe2, 0xf9, 0x0d, 0x03, 0xfe, 0x01, 0xe9, 0xe4, 0xfe, 0x0f, 0x0a, 0x02, 0x01,
    0x97, 0x0f, 0xa9, 0x0f, 0xc0, 0xff, 0xed, 0xf9, 0x26, 0xbf, 0x07, 0x0a, 0x05,
    0xbf, 0xb1, 0x02, 0x12, 0x22, 0xf5, 0x45, 0xdd, 0x24, 0x2f, 0x09, 0x11, 0x15,
    0xd4, 0x04, 0xd1, 0xba, 0x1a, 0x27, 0x0d, 0xf9, 0x11, 0x02, 0xea, 0x00, 0xf4,
    0x08, 0x0a, 0x12, 0x08, 0x01, 0x00, 0x14, 0x19, 0xf9, 0xfe, 0xfb, 0x09, 0x1a,
    0xef, 0xf8, 0x1b, 0xf7, 0x02, 0x26, 0x13, 0xfa, 0x36, 0x81, 0xf3, 0x12, 0x37,
    0x09, 0x17, 0x00, 0x2a, 0xff, 0xe3, 0xf8, 0xdb, 0xf8, 0xf4, 0xfd, 0x04, 0xf5,
    0xfa, 0xf7, 0x09, 0xf0, 0xfc, 0x1d, 0x0e, 0xd1, 0xf1, 0xf3, 0xfc, 0xfa, 0xf4,
    0xf6, 0x1c, 0xe5, 0xe0, 0xe1, 0xec, 0x04, 0xfa, 0xfd, 0x81, 0x02, 0x16, 0x07,
    0x01, 0xfb, 0xf9, 0x00, 0xff, 0x09, 0xf4, 0xf9, 0xff, 0xfc, 0xfc, 0xf1, 0x8a,
    0x08, 0x03, 0x07, 0x06, 0x2a, 0x28, 0x00, 0xc4, 0x0d, 0xea, 0x34, 0x00, 0xfd,
    0xec, 0x06, 0xd8, 0x06, 0x2a, 0x09, 0x31, 0x81, 0x38, 0x0b, 0x00, 0xff, 0x10,
    0x05, 0x01, 0x0d, 0x08, 0x4f, 0x16, 0x10, 0x4c, 0xf1, 0x12, 0xca, 0x01, 0x0a,
    0xfb, 0x11, 0x8a, 0xed, 0xda, 0x01, 0x11, 0x07, 0x0c, 0xf3, 0x29, 0x05, 0xc8,
    0xe7, 0xe0, 0xfb, 0xf1, 0x0e, 0x49, 0x08, 0xf1, 0x11, 0xf7, 0x81, 0xd8, 0xee,
    0xff, 0xfe, 0x08, 0x0f, 0x2f, 0xf2, 0xe2, 0x11, 0x0a, 0x12, 0xac, 0x08, 0xf8,
    0xf4, 0x87, 0x0a, 0xc6, 0x01, 0xfa, 0xf5, 0x39, 0x0d, 0x04, 0x18, 0xf8, 0x09,
    0xfb, 0x16, 0x00, 0x81, 0xc5, 0x16, 0x1c, 0xf9, 0x03, 0x37, 0x47, 0xf2, 0xb3,
    0x19, 0xff, 0xde, 0xa4, 0x0a, 0xfc, 0xfa, 0xb3, 0x04, 0x4c, 0x07, 0xf2, 0x0d,
    0xc4, 0x02, 0xfd, 0xf0, 0x26, 0xf1, 0x05, 0x15, 0x03, 0xed, 0xed, 0x05, 0x18,
    0xfd, 0xf9, 0xf6, 0x6c, 0xf4, 0x11, 0x24, 0x08, 0x2a, 0xf8, 0x00, 0xf5, 0x01,
    0x05, 0x00, 0x19, 0xfe, 0x81, 0x0c, 0x0a, 0x01, 0x01, 0xfe, 0xef, 0xfe, 0x02,
    0xf1, 0xff, 0x0e, 0x0b, 0xf3, 0xe2, 0xfe, 0x00, 0xee, 0x10, 0x00, 0xfe, 0xe5,
    0xff, 0xda, 0x0e, 0x06, 0x05, 0xf6, 0xf5, 0x06, 0xf2, 0xfa, 0x0b, 0x10, 0xfc,
    0x01, 0xfa, 0xfd, 0xda, 0x04, 0x01, 0xfe, 0xfa, 0x32, 0xfb, 0x03, 0x07, 0x01,
    0x05, 0x0a, 0x81, 0x05, 0x05, 0xf8, 0x0a, 0x02, 0x8c, 0x11, 0xe4, 0x05, 0x81,
    0xfa, 0x2b, 0x09, 0x38, 0x24, 0x48, 0x04, 0x07, 0x9d, 0x0a, 0xef, 0xf9, 0x19,
    0x02, 0x29, 0x8d, 0xf8, 0x85, 0xf6, 0xf5, 0xf7, 0xee, 0xf4, 0x25, 0x39, 0x29,
    0xc9, 0x06, 0xee, 0x1b, 0x0e, 0x1d, 0xf8, 0x9d, 0x19, 0x98, 0x9f, 0xbd, 0x02,
    0x0f, 0xce, 0xb0, 0xe9, 0xfb, 0xa7, 0x19, 0xad, 0x46, 0xbc, 0xab, 0x15, 0xe6,
    0x97, 0xcd, 0xf9, 0x9d, 0x87, 0x9f, 0x81, 0xee, 0xf2, 0x86, 0x09, 0xd4, 0x0f,
    0x3b, 0xe9, 0x05, 0x2d, 0x1f, 0x11, 0xe1, 0x01, 0xf9, 0x10, 0x10, 0x03, 0xff,
    0x43, 0xfe, 0xec, 0xf8, 0xf4, 0x15, 0xe9, 0x11, 0x12, 0x04, 0xf6, 0xf8, 0x14,
    0x28, 0xfd, 0x40, 0x0d, 0x9b, 0xed, 0x18, 0xec, 0x43, 0x3b, 0x35, 0xf4, 0x07,
    0x14, 0xf4, 0x07, 0x06, 0x14, 0xe9, 0x6b, 0xfd, 0xfe, 0xf3, 0x14, 0x15, 0x23,
    0x1f, 0x02, 0xb8, 0x30, 0x2d, 0x01, 0x09, 0x04, 0xd2, 0x01, 0xf4, 0x00, 0x01,
    0xfa, 0xe1, 0x18, 0x05, 0x08, 0x03, 0x0b, 0x0f, 0xff, 0xff, 0xf5, 0x04, 0x0d,
    0xf9, 0xef, 0x28, 0x04, 0x00, 0x81, 0x04, 0xfc, 0x14, 0xe5, 0xf5, 0xfb, 0xf9,
    0xfe, 0xf2, 0x03, 0xf4, 0x02, 0x1a, 0x02, 0x81, 0xfe, 0x05, 0x01, 0xff, 0x05,
    0xf9, 0x03, 0x00, 0xfe, 0x01, 0xd0, 0x02, 0x0b, 0x00, 0x00, 0x01, 0xdf, 0xe8,
    0xff, 0x0b, 0x01, 0xf9, 0xfd, 0x7f, 0x09, 0xb0, 0x0b, 0x6b, 0xf6, 0xfa, 0x09,
    0xc4, 0x25, 0xa2, 0xef, 0x08, 0x00, 0x15, 0x09, 0x05, 0xdb, 0xf0, 0xe6, 0x26,
    0x0b, 0xfe, 0x08, 0xfb, 0xda, 0x48, 0xf2, 0xf6, 0xf6, 0xd7, 0x00, 0xca, 0xed,
    0xff, 0xff, 0x00, 0x00, 0x00, 0x09, 0x18, 0x00, 0x00, 0x00, 0x05, 0x00, 0x00,
    0x00, 0x08, 0x00, 0x00, 0x00, 0x14, 0x00, 0x00, 0x00, 0x01, 0x00, 0x00, 0x00,
    0x33, 0x00, 0x00, 0x00, 0x01, 0x00, 0x00, 0x00, 0x00, 0x10, 0x00, 0x00, 0x14,
    0xed, 0xff, 0xff, 0x8a, 0xee, 0xff, 0xff, 0x04, 0x00, 0x00, 0x00, 0x00, 0x01,
    0x00, 0x00, 0xcf, 0x11, 0x64, 0x40, 0xc7, 0x18, 0x2d, 0x12, 0x3a, 0x22, 0x11,
    0x26, 0x07, 0x13, 0x20, 0x1b, 0xb8, 0x09, 0xfc, 0x30, 0xfa, 0x11, 0x8c, 0x46,
    0xf6, 0x19, 0xed, 0x16, 0x0e, 0x17, 0xcb, 0x5f, 0xbc, 0x00, 0xf4, 0xf3, 0x67,
    0xf7, 0x09, 0xfe, 0xea, 0xfd, 0x78, 0xfb, 0x75, 0x00, 0x96, 0xfb, 0xe7, 0x01,
    0x0d, 0xf9, 0x29, 0xff, 0x47, 0xf6, 0x65, 0xf8, 0x57, 0xfe, 0x49, 0xf8, 0x56,
    0xd8, 0xfc, 0x2c, 0x0f, 0x15, 0x96, 0x04, 0xa6, 0x29, 0xee, 0x14, 0x48, 0x30,
    0xa2, 0x1a, 0xac, 0x0f, 0xe0, 0x10, 0x28, 0x18, 0x57, 0x62, 0x61, 0x1f, 0xf6,
    0x16, 0x36, 0x23, 0x0b, 0x0d, 0x46, 0x1d, 0x0f, 0xf2, 0xfa, 0xff, 0xb2, 0xfb,
    0xc7, 0xfe, 0x04, 0xf6, 0x8a, 0xfa, 0x18, 0xff, 0xd1, 0xfe, 0xfc, 0xfe, 0x26,
    0xf9, 0x12, 0xea, 0x92, 0xf6, 0xc9, 0xfc, 0x1b, 0xfc, 0x6f, 0xfb, 0x99, 0xf9,
    0x05, 0x1b, 0xf1, 0x13, 0x0b, 0x19, 0xfe, 0x33, 0x65, 0x41, 0x29, 0x2e, 0xae,
    0x42, 0x55, 0x2a, 0x3b, 0x16, 0x25, 0x5f, 0x81, 0x14, 0x9f, 0x15, 0xbb, 0x14,
    0x39, 0x2f, 0x6a, 0x29, 0x2d, 0x1d, 0x82, 0xf8, 0x79, 0x02, 0x5e, 0x01, 0x04,
    0xf7, 0xd3, 0xe9, 0x89, 0xf5, 0xb5, 0xf4, 0x8a, 0xf7, 0xcd, 0xfd, 0x8b, 0xdb,
    0x95, 0xfc, 0xe1, 0x00, 0xf0, 0xf9, 0x74, 0xfb, 0x0a, 0xfe, 0x76, 0xf6, 0x1f,
    0x12, 0xfc, 0x73, 0x29, 0x2d, 0x91, 0x0f, 0x9f, 0x0c, 0x0c, 0x0d, 0x12, 0x11,
    0x6a, 0x31, 0x5f, 0x5c, 0x89, 0x16, 0x56, 0x16, 0x2c, 0x18, 0xc9, 0x18, 0xfc,
    0x2d, 0x87, 0x1d, 0xcf, 0x26, 0x80, 0xfc, 0x40, 0xea, 0x0c, 0xf6, 0xaa, 0xff,
    0xa0, 0x00, 0x6e, 0xfb, 0x0c, 0xfd, 0x0c, 0xff, 0x66, 0xec, 0x1e, 0x01, 0x79,
    0x00, 0x85, 0xfe, 0x26, 0x01, 0x33, 0xf9, 0xfe, 0xfe, 0xdb, 0xfa, 0x02, 0xef,
    0xff, 0xff, 0x00, 0x00, 0x00, 0x07, 0x18, 0x00, 0x00, 0x00, 0x04, 0x00, 0x00,
    0x00, 0x08, 0x00, 0x00, 0x00, 0x14, 0x00, 0x00, 0x00, 0x01, 0x00, 0x00, 0x00,
    0x32, 0x00, 0x00, 0x00, 0x01, 0x00, 0x00, 0x00, 0x80, 0x00, 0x00, 0x00, 0x4c,
    0xee, 0xff, 0xff, 0xc2, 0xef, 0xff, 0xff, 0x04, 0x00, 0x00, 0x00, 0x00, 0x10,
    0x00, 0x00, 0x01, 0x00, 0xe5, 0x00, 0x02, 0x05, 0xff, 0xff, 0x01, 0x00, 0x00,
    0xfd, 0xfd, 0x00, 0xfd, 0xfe, 0xfb, 0x02, 0x02, 0x01, 0xfb, 0x07, 0x04, 0x02,
    0x03, 0x03, 0xfd, 0x04, 0x03, 0xff, 0xfd, 0xf9, 0xff, 0xff, 0xfe, 0x01, 0x03,
    0x08, 0x01, 0xff, 0x01, 0xfe, 0x03, 0x01, 0xff, 0x08, 0xfa, 0xf3, 0xff, 0x02,
    0xfe, 0x00, 0xfc, 0x00, 0x04, 0x01, 0x01, 0x07, 0xf7, 0x07, 0x02, 0x04, 0xfc,
    0xff, 0xfe, 0x03, 0x03, 0xe8, 0x00, 0xfe, 0xfc, 0xfb, 0xff, 0xf9, 0xfa, 0x02,
    0x00, 0xf6, 0x01, 0x01, 0x04, 0xff, 0xfe, 0xfc, 0x05, 0x03, 0xfe, 0xfe, 0x00,
    0xfd, 0xff, 0xff, 0xfc, 0x01, 0x07, 0x02, 0xfd, 0x01, 0xfe, 0x01, 0xff, 0xfe,
    0x00, 0xfe, 0xfd, 0xfa, 0xfe, 0xfe, 0xfe, 0xff, 0x01, 0xff, 0xfc, 0xfd, 0x02,
    0xfe, 0x03, 0xfe, 0xff, 0x00, 0xfc, 0xfb, 0x00, 0xff, 0xfe, 0xfd, 0x01, 0x04,
    0xfc, 0x04, 0x00, 0xfd, 0xfe, 0xfe, 0xfd, 0xff, 0xfe, 0x12, 0xfb, 0x01, 0xfe,
    0xff, 0x00, 0x02, 0x05, 0xfe, 0xff, 0xfe, 0x01, 0x00, 0xff, 0xfe, 0xfb, 0xfb,
    0xff, 0x00, 0xfe, 0xff, 0x01, 0x01, 0xf0, 0x02, 0xff, 0xf5, 0xf7, 0x01, 0xf7,
    0x01, 0x00, 0xfd, 0xf4, 0x02, 0xfe, 0xf9, 0x00, 0xfd, 0xfe, 0xf2, 0x00, 0xda,
    0xff, 0x0a, 0xf1, 0xfd, 0xf1, 0xfb, 0xfe, 0x03, 0xf9, 0x06, 0x01, 0x00, 0xfa,
    0x02, 0x00, 0xfe, 0xff, 0xff, 0xff, 0x01, 0xff, 0xff, 0xfe, 0x01, 0xff, 0x01,
    0x02, 0x01, 0x02, 0xfc, 0xff, 0xff, 0x02, 0xff, 0xfd, 0xfe, 0xfb, 0xfd, 0xfe,
    0xfd, 0xff, 0xf7, 0x03, 0xfb, 0xfc, 0x05, 0x00, 0x00, 0xbd, 0x01, 0xfa, 0xf6,
    0xf7, 0xf8, 0xfd, 0x00, 0x00, 0xfe, 0x02, 0xfd, 0xff, 0xfb, 0xfd, 0xf7, 0x04,
    0xfe, 0xf5, 0xfe, 0xfa, 0x04, 0x02, 0xfd, 0xfe, 0xfe, 0x00, 0xe3, 0x00, 0x03,
    0x00, 0xff, 0xf6, 0x04, 0xfa, 0xfa, 0xf3, 0xf7, 0xfe, 0x03, 0x05, 0x00, 0x01,
    0x02, 0x01, 0xfe, 0x02, 0xfa, 0xff, 0xf8, 0x00, 0xff, 0xfe, 0x01, 0x00, 0xfe,
    0xff, 0xfb, 0xff, 0xfb, 0xff, 0x02, 0x03, 0x00, 0xfa, 0xff, 0x01, 0xff, 0x00,
    0x0d, 0xff, 0xff, 0xf9, 0xfd, 0x02, 0xfd, 0x05, 0x00, 0xfe, 0xff, 0x04, 0xfa,
    0xfd, 0xfe, 0xfe, 0xfd, 0x05, 0xff, 0xfd, 0xf5, 0x02, 0x04, 0x00, 0x01, 0xfb,
    0xff, 0x01, 0x00, 0x01, 0x01, 0x00, 0xfb, 0x04, 0xff, 0x07, 0x05, 0xfa, 0xf6,
    0xfe, 0xfe, 0xfe, 0x01, 0xfd, 0xfe, 0x01, 0x02, 0x02, 0x04, 0xf3, 0xfe, 0x02,
    0x01, 0xf9, 0xf9, 0xfb, 0xff, 0x02, 0x00, 0xff, 0x01, 0x02, 0x00, 0x01, 0xf3,
    0xf9, 0x00, 0xfa, 0xfd, 0xff, 0x05, 0xfe, 0xfa, 0x01, 0xfe, 0x01, 0xff, 0xfb,
    0x02, 0xfd, 0xf8, 0x02, 0xff, 0xfc, 0xf1, 0x01, 0x03, 0x02, 0x03, 0x04, 0x03,
    0xff, 0xff, 0x01, 0xfd, 0xff, 0xff, 0x04, 0x01, 0xff, 0x03, 0x00, 0x02, 0x0c,
    0x00, 0xfe, 0xff, 0x02, 0xfe, 0x03, 0xfd, 0x02, 0xfa, 0x00, 0x00, 0xff, 0xff,
    0x03, 0xff, 0x01, 0xfb, 0xfc, 0x01, 0x03, 0x04, 0x02, 0xff, 0x02, 0xfa, 0x02,
    0xfb, 0x04, 0x02, 0xfa, 0xf8, 0xfc, 0x04, 0x02, 0x02, 0xfd, 0x02, 0x01, 0x00,
    0x01, 0x07, 0xf7, 0x06, 0x00, 0x01, 0xfc, 0xfd, 0xfc, 0x06, 0x02, 0xfe, 0x02,
    0xfb, 0x05, 0x02, 0x09, 0x04, 0xfc, 0x04, 0xf9, 0x00, 0x00, 0x0c, 0x08, 0xf9,
    0x00, 0xff, 0x01, 0xfa, 0xfe, 0xfe, 0xff, 0xee, 0x01, 0xfd, 0xfa, 0xfc, 0xff,
    0xfe, 0xfa, 0x06, 0x03, 0xfa, 0x02, 0xf7, 0x04, 0x03, 0x01, 0x0a, 0xf8, 0x03,
    0xf4, 0xf0, 0x01, 0x04, 0xff, 0xf1, 0x02, 0xfd, 0x03, 0x01, 0xfe, 0xf7, 0xf9,
    0xe0, 0x00, 0xf4, 0xee, 0x01, 0x01, 0xfa, 0x09, 0x00, 0x02, 0x02, 0xf8, 0xf6,
    0x01, 0x02, 0xfd, 0xf6, 0x01, 0xfe, 0xf9, 0x01, 0x01, 0xf7, 0x03, 0xfe, 0x01,
    0x02, 0x04, 0xff, 0x02, 0xff, 0xfa, 0x01, 0x02, 0xfe, 0xfc, 0x00, 0x06, 0x02,
    0x08, 0x01, 0x02, 0x03, 0xfb, 0xf3, 0x00, 0x01, 0x03, 0xf9, 0x03, 0x00, 0xf6,
    0x03, 0x02, 0xfc, 0x02, 0xfa, 0x04, 0x02, 0x02, 0x00, 0xfd, 0x00, 0xfe, 0x01,
    0x00, 0xfe, 0x02, 0x02, 0x00, 0x02, 0x00, 0x02, 0xfe, 0xfd, 0x0c, 0xe0, 0xf4,
    0x02, 0x00, 0x0a, 0xfd, 0x00, 0x06, 0x01, 0xfe, 0x06, 0x00, 0xfd, 0x05, 0xfc,
    0x00, 0x02, 0xe7, 0xfd, 0x04, 0xfc, 0xfb, 0xfd, 0x01, 0xfb, 0x00, 0xf4, 0xff,
    0x02, 0x00, 0xff, 0xfe, 0x02, 0x03, 0x00, 0xfe, 0x01, 0xfe, 0xff, 0xfd, 0x01,
    0xff, 0x04, 0xfe, 0x06, 0xfe, 0xfe, 0xfc, 0xfe, 0xfe, 0xff, 0xfc, 0xfd, 0xff,
    0xff, 0x00, 0xfc, 0xff, 0xff, 0xfd, 0xff, 0xff, 0x01, 0x01, 0xfe, 0x03, 0x00,
    0xfd, 0xff, 0xfe, 0xfd, 0xfb, 0x00, 0xff, 0x03, 0xfe, 0xf0, 0x02, 0x01, 0xfd,
    0xff, 0xfc, 0xfe, 0x06, 0x00, 0xff, 0xfa, 0xfe, 0xfe, 0xff, 0xff, 0x07, 0xfb,
    0x03, 0xfb, 0x01, 0xfe, 0x06, 0x02, 0xf1, 0x00, 0xf9, 0xe5, 0x03, 0xe2, 0xf9,
    0xff, 0xc8, 0x00, 0x00, 0x01, 0x03, 0xff, 0xf7, 0xe4, 0x01, 0xf2, 0xe9, 0xf8,
    0xf6, 0xfd, 0xf8, 0xf7, 0xff, 0x01, 0xff, 0xff, 0x04, 0xff, 0x03, 0x00, 0xfa,
    0xff, 0xfc, 0xfb, 0xfa, 0x00, 0xfd, 0x08, 0xff, 0x09, 0xf8, 0xff, 0xfe, 0x00,
    0xfb, 0xfa, 0xf7, 0xfe, 0xfe, 0xfd, 0xf7, 0xfb, 0xfd, 0xfe, 0x00, 0x02, 0xc1,
    0xfd, 0x02, 0x02, 0x03, 0xfe, 0xfe, 0xff, 0x00, 0xfb, 0xf9, 0xf3, 0xfd, 0xfa,
    0xff, 0x02, 0x03, 0xff, 0xf0, 0xfe, 0x01, 0xfe, 0x03, 0xfe, 0xfe, 0x00, 0x00,
    0x00, 0xfb, 0xfd, 0x02, 0x01, 0xf5, 0xff, 0x01, 0xfc, 0x08, 0xfb, 0x01, 0x02,
    0x01, 0xfe, 0xfc, 0xe8, 0xfb, 0xf5, 0xff, 0x00, 0x06, 0xfe, 0xdd, 0x00, 0x00,
    0x00, 0xfe, 0xfc, 0xf7, 0xfe, 0xfd, 0xfe, 0xff, 0xff, 0xfc, 0xff, 0xfe, 0xff,
    0xf6, 0x04, 0x01, 0xfb, 0xfd, 0x01, 0xfd, 0xfe, 0x01, 0xfb, 0xfe, 0x03, 0xfd,
    0x04, 0xfd, 0xfe, 0xfc, 0xff, 0xff, 0x00, 0x05, 0x00, 0xfc, 0xfd, 0xff, 0xfe,
    0xff, 0xfd, 0x08, 0x01, 0x02, 0x01, 0xf6, 0xf7, 0x01, 0x02, 0x02, 0xfd, 0x02,
    0x01, 0xe7, 0x03, 0x01, 0xff, 0x01, 0xfe, 0x05, 0x03, 0x03, 0x02, 0xfd, 0x01,
    0x00, 0x00, 0x02, 0x05, 0x04, 0x06, 0x02, 0xff, 0xfc, 0x02, 0x01, 0xfc, 0xf5,
    0xfa, 0x03, 0xff, 0xf9, 0xfb, 0xf8, 0xff, 0x02, 0x01, 0x01, 0x03, 0x00, 0x0e,
    0xf8, 0xfc, 0x01, 0x01, 0xf7, 0xfa, 0x06, 0x00, 0xfa, 0xfd, 0xff, 0xf5, 0xfd,
    0xfd, 0x00, 0xfa, 0xfd, 0xfe, 0x14, 0x03, 0xf1, 0x00, 0x02, 0x05, 0x00, 0x01,
    0x01, 0xfd, 0x00, 0x02, 0xff, 0x04, 0x05, 0xff, 0x02, 0x02, 0x04, 0x00, 0x00,
    0x02, 0x02, 0xff, 0xfd, 0xfe, 0x01, 0x00, 0x03, 0x00, 0x00, 0x01, 0xf7, 0xf7,
    0x00, 0x03, 0x00, 0xf6, 0x03, 0xfd, 0xfd, 0x02, 0x01, 0xfa, 0x02, 0xfb, 0x05,
    0x02, 0x02, 0x01, 0x01, 0x02, 0xfe, 0x01, 0x01, 0xfd, 0x02, 0x02, 0x03, 0x01,
    0xfd, 0x01, 0x02, 0xfc, 0x08, 0xe7, 0x06, 0x02, 0xfb, 0x07, 0xf3, 0xfe, 0x05,
    0xff, 0x00, 0x01, 0xf5, 0xf7, 0xf6, 0xf0, 0x01, 0x01, 0xfa, 0xf9, 0x06, 0xff,
    0xff, 0xfe, 0xff, 0xef, 0xfe, 0xfe, 0xff, 0x00, 0x05, 0xce, 0x11, 0xfc, 0xe5,
    0x00, 0xe4, 0x0b, 0xf0, 0xf5, 0xfe, 0xfb, 0x00, 0x07, 0xf7, 0x08, 0xfa, 0xf9,
    0x0b, 0x01, 0x00, 0xf1, 0x03, 0xfc, 0x01, 0xe2, 0xed, 0xeb, 0xf7, 0xf7, 0xfe,
    0xff, 0xe4, 0xfc, 0x03, 0x07, 0x04, 0x02, 0x00, 0xfe, 0xff, 0xfe, 0x06, 0x07,
    0xf8, 0xfd, 0xfa, 0x01, 0x03, 0x01, 0xfc, 0x07, 0x06, 0x08, 0x00, 0x02, 0xf7,
    0x00, 0xfc, 0x03, 0xfc, 0xfb, 0x00, 0xfd, 0xf8, 0xfe, 0x04, 0x05, 0xff, 0x01,
    0xff, 0xff, 0x04, 0xf2, 0x03, 0xfd, 0xfa, 0xf5, 0xff, 0xfe, 0x03, 0xff, 0x02,
    0x04, 0xfe, 0x02, 0x02, 0x06, 0xfb, 0xfc, 0xfc, 0x05, 0x05, 0xed, 0xfa, 0x00,
    0x02, 0xf0, 0xff, 0xf9, 0xfe, 0xf6, 0xff, 0xf8, 0xf3, 0xff, 0x01, 0xf3, 0x01,
    0xfb, 0x01, 0xfc, 0xfe, 0xf5, 0x00, 0xff, 0x01, 0xff, 0xfb, 0xff, 0x00, 0xff,
    0xf6, 0xf9, 0x02, 0x02, 0xfd, 0x02, 0x00, 0xfd, 0xfc, 0xfe, 0xfe, 0x02, 0xf9,
    0xfd, 0xff, 0x01, 0x01, 0x01, 0x03, 0x04, 0x06, 0xfd, 0x00, 0xfe, 0x00, 0xfc,
    0xff, 0xfc, 0x00, 0xf7, 0x01, 0xfd, 0xfd, 0xff, 0xff, 0xfa, 0xfc, 0xff, 0x01,
    0xfc, 0xfe, 0xff, 0xff, 0xfd, 0xfe, 0xe9, 0xfc, 0x00, 0xfe, 0xff, 0x03, 0x02,
    0xf8, 0xfd, 0xff, 0xff, 0x02, 0xfd, 0x01, 0xfd, 0xfd, 0xfb, 0x02, 0xfd, 0xff,
    0xff, 0xfe, 0xfd, 0xed, 0x00, 0x02, 0xff, 0xf9, 0x03, 0xf8, 0xfd, 0xfd, 0x0a,
    0xff, 0x00, 0xff, 0xff, 0xfe, 0x06, 0x04, 0xfd, 0x03, 0xeb, 0x02, 0x00, 0xfe,
    0x03, 0xf6, 0xfb, 0xff, 0xfd, 0xff, 0xfc, 0x02, 0x00, 0xfd, 0x04, 0x03, 0xff,
    0xfd, 0xfe, 0x01, 0x02, 0xfe, 0x06, 0xfe, 0x01, 0x00, 0xff, 0x01, 0xff, 0x01,
    0xfc, 0x01, 0x00, 0x02, 0x00, 0x01, 0xfc, 0xfc, 0xfb, 0x02, 0xfb, 0xfd, 0xfb,
    0x01, 0x03, 0xff, 0xfb, 0xfe, 0x01, 0xff, 0x01, 0x00, 0xff, 0xf6, 0x05, 0x01,
    0x01, 0x01, 0x03, 0x02, 0x05, 0x01, 0x02, 0x00, 0xff, 0xfe, 0xf9, 0x02, 0xff,
    0xfd, 0x04, 0x00, 0x00, 0x02, 0xff, 0x02, 0xe9, 0xfe, 0x00, 0xff, 0x00, 0xeb,
    0x02, 0xfd, 0xfa, 0xee, 0x06, 0x02, 0x01, 0xff, 0x01, 0x00, 0x02, 0xf8, 0xfc,
    0xfe, 0xfe, 0xfe, 0xef, 0xff, 0xfd, 0xf9, 0xfd, 0x01, 0xfc, 0x00, 0x00, 0x01,
    0xfd, 0xff, 0x05, 0x02, 0xff, 0xfc, 0xfe, 0xfe, 0xff, 0xfc, 0xfc, 0x00, 0x04,
    0xfa, 0xfb, 0x03, 0x02, 0xfb, 0x00, 0x03, 0x00, 0x00, 0xf8, 0xff, 0x00, 0x00,
    0xfc, 0x04, 0xfe, 0xff, 0xf8, 0xff, 0x02, 0xff, 0xfd, 0xfe, 0x00, 0x00, 0x06,
    0x00, 0xff, 0x01, 0xfb, 0x00, 0xfa, 0xfa, 0x03, 0xf5, 0xfa, 0xfe, 0x01, 0x01,
    0x00, 0xfe, 0x04, 0xff, 0x03, 0x01, 0x03, 0xf5, 0x04, 0x02, 0x01, 0x00, 0xf9,
    0xfa, 0x03, 0x04, 0xfc, 0xff, 0x02, 0x01, 0xff, 0x01, 0x10, 0xfc, 0x02, 0xfa,
    0xfe, 0x03, 0xff, 0x07, 0xfe, 0x03, 0xff, 0x01, 0x01, 0xfe, 0xfe, 0xff, 0xf7,
    0x02, 0xfc, 0xfe, 0xfb, 0x00, 0x01, 0xfe, 0x08, 0x00, 0xcb, 0xfd, 0xfb, 0xe8,
    0xfe, 0xf5, 0xfd, 0xe4, 0x01, 0x00, 0xfd, 0xff, 0xfa, 0xfc, 0xfc, 0xff, 0xe6,
    0x01, 0xf8, 0xf4, 0xe1, 0xff, 0xf6, 0x02, 0xfd, 0xf9, 0xda, 0x02, 0x00, 0x00,
    0xfb, 0xfa, 0x04, 0x02, 0x03, 0xfe, 0x00, 0x01, 0xfd, 0xfe, 0xe7, 0xfe, 0x01,
    0xf9, 0xfa, 0xfd, 0xfe, 0x02, 0xff, 0xfd, 0x02, 0xfe, 0x01, 0x00, 0x05, 0xfd,
    0xf5, 0x01, 0x05, 0xfd, 0xf0, 0xf8, 0x00, 0x00, 0xf6, 0xff, 0xf4, 0xff, 0xff,
    0x05, 0x09, 0xf9, 0x02, 0xf4, 0xfc, 0x04, 0x0c, 0xfd, 0xf8, 0x00, 0xfd, 0x02,
    0x02, 0x01, 0xf0, 0x01, 0xed, 0x02, 0xfd, 0xf5, 0xfb, 0xfe, 0x01, 0x01, 0x07,
    0x01, 0xde, 0xf9, 0xfb, 0xfa, 0xfd, 0x06, 0x0e, 0xe8, 0x02, 0xf4, 0xef, 0x01,
    0x15, 0x03, 0xf8, 0xff, 0xfb, 0x03, 0x08, 0xfa, 0x04, 0x00, 0xe2, 0x01, 0xf0,
    0x01, 0x08, 0x02, 0x01, 0xff, 0x02, 0x00, 0xfd, 0xf8, 0xee, 0x03, 0x03, 0xfd,
    0xf1, 0x01, 0x03, 0xf7, 0x00, 0x02, 0xf8, 0x01, 0xfc, 0x00, 0x08, 0x03, 0xfc,
    0x08, 0x00, 0xfd, 0x02, 0xfe, 0x04, 0x02, 0x03, 0xff, 0xf9, 0x05, 0x03, 0x01,
    0x00, 0xfb, 0xfc, 0x02, 0x03, 0xf7, 0xf6, 0x00, 0x00, 0xfb, 0x00, 0x03, 0xfa,
    0xfd, 0xfc, 0xfd, 0x06, 0x01, 0xf8, 0x00, 0x03, 0xfe, 0x03, 0x01, 0x04, 0x02,
    0xff, 0x01, 0x00, 0x06, 0xf8, 0xfa, 0xfa, 0x03, 0xeb, 0x0a, 0x00, 0xfd, 0xfc,
    0xfd, 0xfc, 0xfd, 0xf9, 0x04, 0x02, 0xfc, 0x0c, 0x05, 0xfe, 0x01, 0x00, 0xf4,
    0xfe, 0xfe, 0xfc, 0xfd, 0xfb, 0xff, 0xff, 0x02, 0xf5, 0xff, 0xfd, 0xfe, 0x00,
    0xfc, 0x02, 0x03, 0x00, 0xfe, 0xfb, 0xff, 0xff, 0xfc, 0x01, 0xfb, 0x01, 0xfd,
    0xff, 0xfb, 0xfd, 0xfe, 0x01, 0xfc, 0x01, 0x04, 0xfc, 0xff, 0xfe, 0x00, 0xfe,
    0x01, 0xff, 0xff, 0xfc, 0x00, 0x01, 0x09, 0xff, 0x05, 0xff, 0xfe, 0xf9, 0x00,
    0xff, 0xfe, 0x00, 0xff, 0x00, 0xff, 0x0c, 0xff, 0xfc, 0x01, 0x02, 0xfb, 0x00,
    0xfc, 0xfe, 0xff, 0xfd, 0xfe, 0xff, 0x00, 0xfe, 0x02, 0xfe, 0x06, 0xfe, 0x01,
    0xff, 0xee, 0x01, 0xf5, 0x07, 0x00, 0xef, 0xfc, 0x02, 0xfa, 0x03, 0xed, 0xfc,
    0xfa, 0xf4, 0x05, 0x00, 0x01, 0xee, 0x00, 0xff, 0xf3, 0x03, 0xf8, 0xfe, 0xf6,
    0xfc, 0xfd, 0xfd, 0x00, 0xff, 0xfa, 0xfc, 0x05, 0x00, 0xfd, 0xfc, 0xfd, 0x00,
    0x05, 0xff, 0xfd, 0x04, 0x00, 0xff, 0xfe, 0xfd, 0x02, 0x01, 0xfc, 0xfa, 0x06,
    0xfb, 0xfe, 0xf9, 0xfe, 0xfc, 0xff, 0x00, 0xff, 0x00, 0xfa, 0x00, 0x09, 0x00,
    0x05, 0x00, 0xfe, 0x00, 0x04, 0xff, 0x06, 0xff, 0xff, 0x05, 0x03, 0x06, 0x01,
    0xff, 0xf4, 0x02, 0x00, 0x03, 0xfd, 0x00, 0x01, 0x00, 0x03, 0x01, 0x01, 0xff,
    0xff, 0x00, 0xf5, 0xfe, 0x03, 0x01, 0x00, 0xf5, 0xff, 0x03, 0xfd, 0xff, 0xfc,
    0xda, 0xfb, 0xf7, 0x01, 0x05, 0xfd, 0xfa, 0xe6, 0x01, 0xff, 0x01, 0x02, 0xfc,
    0x00, 0xfe, 0xf8, 0x03, 0x01, 0xfc, 0xf7, 0xfd, 0xfe, 0x00, 0x0e, 0x07, 0x00,
    0xfa, 0xfd, 0x01, 0xf9, 0xff, 0x08, 0xfc, 0xff, 0xff, 0x00, 0x07, 0xff, 0xf9,
    0xfe, 0x03, 0x00, 0x00, 0x00, 0x00, 0xff, 0xfe, 0xfe, 0x00, 0x02, 0xfc, 0x06,
    0x00, 0xff, 0x01, 0xfa, 0xf6, 0x02, 0x03, 0x01, 0xfd, 0x04, 0x00, 0xf2, 0x03,
    0x00, 0x00, 0x00, 0xfd, 0x01, 0x05, 0x03, 0xfd, 0x04, 0x02, 0xff, 0x02, 0x00,
    0x03, 0x00, 0x05, 0x00, 0x02, 0xf9, 0xfd, 0x01, 0xfc, 0x06, 0xf5, 0xfc, 0xff,
    0xfd, 0x05, 0xf7, 0xff, 0x01, 0xfc, 0xfe, 0x02, 0xfc, 0xfe, 0xe9, 0x00, 0x02,
    0x04, 0xfb, 0xfb, 0xf8, 0xff, 0xf8, 0xfc, 0xfe, 0xf5, 0x01, 0xfb, 0x04, 0xbf,
    0xfe, 0xfb, 0xf3, 0xfe, 0x05, 0x01, 0xff, 0xfe, 0xfa, 0xff, 0xf2, 0xfa, 0xfa,
    0xfd, 0xfd, 0xfb, 0xff, 0xf3, 0xff, 0x01, 0xd9, 0xfb, 0xfe, 0xf6, 0xe4, 0xfc,
    0xff, 0xf7, 0xfd, 0xfb, 0xfe, 0x01, 0x02, 0x01, 0xf7, 0xfb, 0x00, 0x04, 0x00,
    0xf6, 0x03, 0xff, 0xfd, 0x00, 0x00, 0xfe, 0x04, 0xfc, 0x01, 0x06, 0x02, 0xf7,
    0xff, 0x02, 0xfe, 0xfe, 0x01, 0x04, 0x01, 0x00, 0x00, 0x01, 0xf6, 0xfd, 0x05,
    0xf9, 0xe1, 0xe2, 0xfc, 0xfe, 0xf9, 0x06, 0xf4, 0x00, 0x05, 0xfd, 0xfb, 0x07,
    0xef, 0x10, 0xe8, 0xee, 0x06, 0xfe, 0xf0, 0xfa, 0x05, 0xfd, 0xfc, 0xf5, 0xfc,
    0xf4, 0xff, 0xfa, 0x00, 0xfe, 0x09, 0xf3, 0xd8, 0xf8, 0xed, 0x00, 0xfd, 0x0c,
    0xfa, 0xfd, 0xff, 0xf8, 0xf6, 0x07, 0xfb, 0xff, 0xf2, 0x08, 0x09, 0x02, 0xd6,
    0xf3, 0x08, 0xfa, 0xf5, 0xef, 0xf1, 0xe9, 0xfa, 0xf2, 0xfe, 0x04, 0x08, 0xff,
    0xfd, 0xfc, 0xfd, 0xfe, 0xfd, 0x03, 0xff, 0x01, 0xff, 0xfc, 0x00, 0x00, 0xf9,
    0xff, 0x00, 0x00, 0x00, 0xfe, 0xfd, 0xfd, 0xfd, 0x00, 0x03, 0x00, 0xfe, 0x00,
    0x01, 0x03, 0xee, 0x02, 0x00, 0xfc, 0x02, 0x01, 0x04, 0x01, 0x00, 0x06, 0xf5,
    0x02, 0xfd, 0xf8, 0x00, 0x09, 0x02, 0xe2, 0xfe, 0xfe, 0x00, 0x01, 0xf9, 0xea,
    0xf2, 0xfa, 0x00, 0xff, 0xf7, 0xce, 0xff, 0xfd, 0x01, 0xe1, 0x06, 0xf8, 0x02,
    0xf9, 0x02, 0x05, 0x05, 0x06, 0xf8, 0xed, 0xf7, 0xfa, 0xfc, 0x0a, 0xfc, 0xfd,
    0x01, 0x02, 0x05, 0x04, 0x05, 0x02, 0x01, 0xeb, 0xec, 0xea, 0x04, 0x01, 0xd5,
    0xf9, 0xf4, 0x01, 0xfe, 0x00, 0xf2, 0x02, 0xfb, 0xff, 0xfb, 0xf8, 0x00, 0x03,
    0xfd, 0xf8, 0x00, 0xfc, 0xfe, 0xfa, 0xff, 0xe7, 0x00, 0x08, 0xef, 0x03, 0xfa,
    0xed, 0x00, 0xfd, 0xfa, 0xfa, 0x00, 0xfd, 0x00, 0xfc, 0xfa, 0x00, 0x02, 0x02,
    0x01, 0xff, 0x03, 0xfa, 0xfb, 0x00, 0xfd, 0x03, 0xff, 0xf8, 0xfe, 0x02, 0xff,
    0xfe, 0xff, 0x03, 0x05, 0x04, 0xff, 0x08, 0xf8, 0x03, 0x03, 0x01, 0xf8, 0xf9,
    0xff, 0xfa, 0xfd, 0x01, 0x03, 0x07, 0x02, 0x02, 0x00, 0xfa, 0x00, 0xfd, 0x03,
    0x04, 0xfa, 0xfd, 0xfe, 0x01, 0xfe, 0xfe, 0xfa, 0x00, 0x00, 0x00, 0x01, 0x09,
    0xfa, 0x02, 0x01, 0x01, 0xfb, 0xfb, 0x00, 0xfd, 0xe2, 0xfe, 0x06, 0xff, 0x01,
    0xfd, 0x03, 0xfd, 0x03, 0xff, 0xff, 0xfa, 0x00, 0xfc, 0xf8, 0x00, 0x01, 0x02,
    0xfd, 0x03, 0x00, 0x03, 0x02, 0xfb, 0xed, 0xec, 0x00, 0x05, 0xe2, 0xfe, 0x01,
    0x01, 0xda, 0xfe, 0x02, 0x01, 0x02, 0xfc, 0x03, 0xf9, 0x02, 0xd7, 0xfe, 0x01,
    0xff, 0xfa, 0xf9, 0x02, 0xff, 0x01, 0xe9, 0x01, 0x03, 0x03, 0x00, 0xfb, 0xfb,
    0x03, 0x02, 0x04, 0xfb, 0xdb, 0xfe, 0x01, 0x01, 0x00, 0xfe, 0xfe, 0x01, 0xfe,
    0xfd, 0xf8, 0xff, 0xff, 0xfe, 0xfe, 0x00, 0x00, 0x05, 0xff, 0x01, 0xff, 0x04,
    0xfc, 0xfd, 0xff, 0xfe, 0xfc, 0x02, 0xfe, 0xfd, 0xfd, 0x03, 0x02, 0x00, 0xfc,
    0xfd, 0x02, 0x04, 0x04, 0x01, 0x00, 0x00, 0xfc, 0x02, 0xfd, 0x02, 0x00, 0xf6,
    0xf7, 0xfd, 0x00, 0x01, 0x00, 0xfb, 0x03, 0x02, 0x01, 0x01, 0x0a, 0xf7, 0x00,
    0x02, 0x02, 0xfb, 0xff, 0x03, 0x02, 0x02, 0xfa, 0x02, 0x0c, 0x01, 0x01, 0xf9,
    0xff, 0x04, 0xfb, 0xff, 0xfe, 0xf9, 0xf2, 0xfc, 0x06, 0x03, 0x06, 0x00, 0xff,
    0xfb, 0x05, 0x04, 0x08, 0xf8, 0x08, 0x04, 0x06, 0xf6, 0xff, 0x02, 0xfd, 0xfb,
    0xf6, 0x06, 0x03, 0x07, 0x00, 0x00, 0xfc, 0x00, 0xff, 0x08, 0xff, 0xfc, 0x01,
    0xf9, 0xfd, 0x03, 0xfb, 0xfe, 0x01, 0x0a, 0x00, 0xfe, 0x04, 0xf9, 0x00, 0xff,
    0x00, 0xf2, 0xfc, 0xff, 0xfe, 0xf8, 0xff, 0xfe, 0xfd, 0xfd, 0xf6, 0xef, 0xf7,
    0x02, 0x01, 0x01, 0xfe, 0x02, 0x00, 0xf9, 0x00, 0xfe, 0x00, 0x04, 0xef, 0x02,
    0xfb, 0xfd, 0x05, 0x02, 0x00, 0xff, 0xfb, 0x00, 0x00, 0xf9, 0x08, 0x03, 0xf5,
    0xfc, 0xfd, 0xfa, 0xff, 0x05, 0x0b, 0xf8, 0x00, 0xfb, 0x01, 0x03, 0x05, 0x01,
    0xfa, 0x01, 0xfb, 0x03, 0xfd, 0xfe, 0xfd, 0xfd, 0xf5, 0xff, 0xfe, 0xfb, 0xea,
    0x05, 0xfa, 0x02, 0xff, 0xed, 0xff, 0x01, 0x06, 0x03, 0xfa, 0x04, 0xf3, 0x02,
    0xf2, 0x01, 0x00, 0xff, 0xfa, 0xf4, 0x01, 0xfe, 0x02, 0x00, 0x00, 0x02, 0x01,
    0x02, 0x07, 0xfc, 0x02, 0x02, 0x00, 0xfc, 0xc8, 0x00, 0xfc, 0xfd, 0x00, 0xfe,
    0x03, 0x04, 0xfc, 0x01, 0xfc, 0xfd, 0xfe, 0xfe, 0x05, 0xf6, 0xf9, 0xfe, 0x02,
    0x01, 0x03, 0xfc, 0x00, 0x01, 0x02, 0x02, 0x0a, 0xea, 0x02, 0xfd, 0x03, 0xea,
    0xfb, 0xfb, 0x00, 0xfc, 0x00, 0x09, 0x02, 0x02, 0xfd, 0xfe, 0x00, 0x01, 0xff,
    0x02, 0xff, 0x00, 0xfc, 0xff, 0xff, 0x03, 0xff, 0xfa, 0xff, 0x02, 0x00, 0x01,
    0xfe, 0xfe, 0xff, 0x02, 0xfd, 0xfe, 0xff, 0x04, 0x05, 0x01, 0xf1, 0x03, 0x00,
    0x00, 0x03, 0xfa, 0x0a, 0xf3, 0xf9, 0xf9, 0x03, 0xff, 0x03, 0xf9, 0xff, 0xff,
    0xfa, 0x04, 0x01, 0xfc, 0xf3, 0x04, 0xef, 0xf8, 0xfb, 0xe6, 0xf7, 0xff, 0xfd,
    0xf8, 0x02, 0x07, 0xeb, 0x00, 0xdd, 0xf1, 0xfc, 0xf7, 0x0a, 0xfb, 0x00, 0x00,
    0xfe, 0x00, 0x07, 0xf8, 0x03, 0xf3, 0x02, 0x0a, 0xf0, 0xf9, 0xf4, 0x01, 0xfe,
    0x01, 0xf5, 0xf8, 0xeb, 0xfa, 0xf0, 0xfc, 0xfe, 0xff, 0xf8, 0xf8, 0xff, 0x08,
    0xfe, 0xcd, 0xff, 0xfd, 0xdd, 0x00, 0xfc, 0xfb, 0x03, 0xfe, 0x02, 0xf8, 0x03,
    0xff, 0xfc, 0xff, 0xf2, 0xf6, 0xfe, 0xf9, 0xfe, 0x00, 0xf4, 0xdc, 0xfa, 0x03,
    0xfd, 0x02, 0xff, 0xf9, 0xf7, 0x03, 0x02, 0x01, 0xf9, 0x01, 0xff, 0xee, 0x02,
    0x01, 0xfe, 0x03, 0xff, 0xff, 0xfe, 0x03, 0x05, 0x01, 0x03, 0xff, 0xff, 0x02,
    0x03, 0xff, 0x06, 0xff, 0x03, 0x08, 0xff, 0x00, 0x02, 0xf7, 0xf8, 0x02, 0x04,
    0x00, 0xf9, 0x01, 0x00, 0xfa, 0x02, 0x01, 0xfd, 0x01, 0xfb, 0x04, 0xff, 0xff,
    0x01, 0xff, 0x01, 0xfb, 0x00, 0x02, 0xff, 0x00, 0x06, 0x01, 0x01, 0xfe, 0x02,
    0x03, 0x03, 0xf9, 0xad, 0x03, 0xfd, 0xfe, 0xf7, 0x03, 0x05, 0xed, 0x02, 0x02,
    0xf4, 0xfd, 0xfc, 0xff, 0x01, 0x02, 0xff, 0x02, 0x00, 0xfd, 0x01, 0x00, 0x03,
    0x03, 0xf8, 0xfd, 0xfd, 0x02, 0x01, 0x04, 0x00, 0xfd, 0xda, 0x02, 0x01, 0x03,
    0xf7, 0x02, 0x01, 0xfb, 0xfd, 0xfd, 0xf8, 0x02, 0xf9, 0xff, 0x06, 0x05, 0x02,
    0x02, 0x02, 0xfa, 0x00, 0xff, 0x02, 0x02, 0x06, 0x03, 0x02, 0xfa, 0x01, 0xfe,
    0x00, 0x04, 0x03, 0x02, 0xff, 0xfe, 0xfb, 0xff, 0xff, 0x00, 0xfe, 0x01, 0xff,
    0xfe, 0x0a, 0x00, 0xfb, 0xfd, 0x00, 0xfe, 0xfe, 0xff, 0x00, 0xff, 0xfd, 0xff,
    0xfb, 0xff, 0xfe, 0x07, 0x00, 0x00, 0x04, 0xf6, 0xf9, 0x01, 0x04, 0x00, 0x03,
    0x03, 0x01, 0xfb, 0x03, 0x00, 0xfd, 0xfe, 0xfc, 0x01, 0xff, 0x01, 0x02, 0x00,
    0x01, 0xfe, 0x00, 0x02, 0x03, 0x02, 0x06, 0x00, 0x01, 0x08, 0xf7, 0x05, 0x02,
    0x00, 0xf2, 0xfe, 0x08, 0x00, 0xf8, 0x08, 0x02, 0xf1, 0x00, 0x02, 0x02, 0x01,
    0xfd, 0xff, 0x07, 0xfd, 0x00, 0xfe, 0xff, 0xfe, 0x02, 0x07, 0x0d, 0xff, 0x0b,
    0x03, 0x06, 0x0a, 0xfe, 0xfc, 0xff, 0xf4, 0xe1, 0x04, 0x04, 0x00, 0xfc, 0xf4,
    0x03, 0xf7, 0xf8, 0x02, 0xfc, 0xf5, 0x00, 0xf9, 0xff, 0x01, 0x01, 0xf7, 0x03,
    0xfb, 0xfe, 0xf8, 0x0c, 0x02, 0x04, 0x01, 0xff, 0x02, 0xff, 0xfe, 0xff, 0x08,
    0x06, 0x03, 0xfe, 0x00, 0x00, 0x02, 0xfe, 0x04, 0xfd, 0x00, 0x09, 0xfa, 0x03,
    0x07, 0x02, 0xf3, 0x02, 0x03, 0xff, 0x03, 0xfd, 0x02, 0xff, 0xfd, 0x01, 0xff,
    0xf4, 0xfa, 0x03, 0x02, 0xfe, 0xde, 0xfa, 0x01, 0x01, 0xf4, 0x05, 0xf9, 0xff,
    0x05, 0xfc, 0xfe, 0xff, 0xfe, 0x0c, 0xf0, 0xfa, 0x05, 0xfe, 0xef, 0xfb, 0x04,
    0xfb, 0xfd, 0xf5, 0xfb, 0xfa, 0xfc, 0xfa, 0x01, 0xff, 0x01, 0xff, 0xff, 0xcd,
    0x01, 0x04, 0xfd, 0xee, 0x01, 0x00, 0x84, 0x01, 0x02, 0xf8, 0xfe, 0xf3, 0xfc,
    0x05, 0x06, 0xfd, 0x02, 0x01, 0xf4, 0x02, 0x01, 0x01, 0x01, 0x00, 0x04, 0xfe,
    0xfa, 0xfe, 0x03, 0x00, 0xf8, 0xc5, 0x03, 0xff, 0x02, 0xfd, 0xff, 0xff, 0xf6,
    0x02, 0x00, 0xfe, 0x03, 0xfd, 0x03, 0x01, 0x02, 0xff, 0xfe, 0x02, 0xfe, 0x01,
    0x03, 0x04, 0x02, 0xfe, 0x01, 0x01, 0xfe, 0x01, 0xf9, 0xff, 0xff, 0xfe, 0xfc,
    0xfc, 0xf9, 0x01, 0x00, 0x03, 0xfe, 0xf5, 0x01, 0x01, 0x01, 0x00, 0x01, 0x00,
    0x01, 0xf7, 0xff, 0xff, 0xff, 0xff, 0x02, 0x00, 0x00, 0xfa, 0xfd, 0x01, 0xea,
    0x01, 0x00, 0xf2, 0xfd, 0x02, 0xfb, 0xfd, 0x04, 0x0b, 0xf8, 0x03, 0x00, 0xfb,
    0xfe, 0x05, 0x01, 0xea, 0x03, 0xfa, 0x03, 0x0c, 0xfe, 0xee, 0xf8, 0xfb, 0xfe,
    0xfe, 0xdd, 0xfd, 0x02, 0x00, 0xff, 0xf0, 0x05, 0xf7, 0xfe, 0xf7, 0x04, 0x04,
    0x09, 0x04, 0xf9, 0xf0, 0xf8, 0xf8, 0xf7, 0x12, 0x00, 0xf9, 0x00, 0xff, 0x07,
    0x00, 0x04, 0x00, 0xfd, 0xeb, 0xed, 0xe9, 0x00, 0x00, 0xc3, 0xf2, 0x01, 0x01,
    0x07, 0x01, 0x01, 0xff, 0xfe, 0x04, 0xfe, 0x02, 0xfe, 0x03, 0x03, 0xff, 0x01,
    0x05, 0x06, 0x05, 0xfe, 0x01, 0x01, 0x01, 0xfe, 0x06, 0xfc, 0xf6, 0x03, 0x02,
    0xff, 0x00, 0x02, 0x05, 0x01, 0xfe, 0xfd, 0x05, 0x01, 0x06, 0x01, 0xff, 0x02,
    0xfd, 0x04, 0xfa, 0x06, 0x00, 0xf3, 0xf6, 0xfc, 0x00, 0xfc, 0xfe, 0xfe, 0x04,
    0x02, 0x02, 0x03, 0x01, 0xfb, 0xfe, 0x01, 0x01, 0xff, 0xfc, 0x01, 0xfe, 0xfc,
    0x00, 0x02, 0x07, 0x04, 0xfd, 0x04, 0xfd, 0x03, 0xfd, 0xfc, 0x05, 0xf9, 0xf9,
    0xfb, 0x02, 0x01, 0x02, 0xfe, 0x03, 0x01, 0x03, 0xfe, 0x09, 0xfd, 0x03, 0x00,
    0x03, 0x01, 0xfe, 0x00, 0xfa, 0x00, 0x06, 0xff, 0x07, 0x04, 0xfe, 0x05, 0xff,
    0xfb, 0x00, 0x06, 0x07, 0xf9, 0xf7, 0xfb, 0x02, 0x01, 0x01, 0xfd, 0x06, 0x03,
    0x02, 0x01, 0x0b, 0xfe, 0x0a, 0x01, 0x01, 0xf9, 0xfc, 0x02, 0xfc, 0xea, 0x00,
    0xff, 0x00, 0x00, 0x01, 0x03, 0xfa, 0x02, 0x91, 0x01, 0xff, 0x00, 0xf6, 0xf3,
    0x05, 0xff, 0x03, 0xfb, 0x03, 0x03, 0x02, 0x01, 0x07, 0xfe, 0x05, 0x01, 0x03,
    0x01, 0x81, 0xff, 0x03, 0x01, 0xff, 0xfe, 0x00, 0xfe, 0xfe, 0xfc, 0x05, 0xff,
    0x01, 0xff, 0xfe, 0x00, 0x03, 0xfd, 0xff, 0x03, 0xff, 0x01, 0xfa, 0xff, 0xfe,
    0xff, 0xfc, 0x02, 0xff, 0xfe, 0xff, 0x00, 0x04, 0x00, 0xfe, 0xfd, 0x03, 0x01,
    0x03, 0xfe, 0x01, 0x03, 0xfb, 0xff, 0xfc, 0xfd, 0x06, 0xf6, 0xf6, 0xfb, 0x03,
    0xfe, 0x04, 0xff, 0x06, 0x02, 0x02, 0xfe, 0x07, 0xff, 0x01, 0x04, 0x00, 0xff,
    0xfc, 0x03, 0x02, 0xfc, 0x06, 0xfc, 0x01, 0x01, 0x00, 0x06, 0xfd, 0x02, 0xe7,
    0x03, 0x06, 0xfc, 0xff, 0xfc, 0x01, 0xfc, 0xfb, 0xfe, 0x03, 0xff, 0x00, 0xf9,
    0x07, 0xf8, 0x07, 0x06, 0x06, 0x01, 0xd3, 0xfe, 0xfe, 0xfb, 0xfb, 0xfe, 0x02,
    0x05, 0xfd, 0x02, 0xfc, 0x05, 0xfb, 0x03, 0x08, 0xf9, 0xfb, 0xfb, 0x02, 0xfc,
    0x03, 0x00, 0x06, 0xfe, 0x06, 0x01, 0x0b, 0xfc, 0x07, 0x06, 0x0a, 0xfb, 0xfb,
    0xfe, 0x03, 0xff, 0xff, 0xfa, 0xf3, 0xf6, 0xf6, 0xe5, 0xf5, 0x00, 0x00, 0xff,
    0xfa, 0x00, 0x02, 0xfd, 0x01, 0x02, 0xfb, 0x00, 0xc1, 0x00, 0xf8, 0xfc, 0x03,
    0x00, 0xf9, 0xfe, 0xe1, 0xff, 0xfd, 0xfc, 0xfc, 0x03, 0xfe, 0xff, 0xfd, 0xfe,
    0x04, 0x04, 0x08, 0xf7, 0x01, 0xfb, 0x03, 0x02, 0x02, 0x05, 0xfd, 0x04, 0x02,
    0x04, 0xfb, 0xfa, 0xfe, 0xf8, 0xfa, 0x01, 0x00, 0xfe, 0xf8, 0x00, 0xfd, 0x01,
    0xfe, 0xd7, 0xfe, 0x01, 0x04, 0x05, 0xfc, 0x04, 0xf8, 0xff, 0xaa, 0x02, 0x03,
    0xfc, 0xf7, 0xf2, 0x00, 0x03, 0xff, 0xfe, 0x03, 0x00, 0x02, 0x04, 0xfd, 0xfd,
    0x02, 0x03, 0x04, 0xfe, 0x8e, 0x01, 0xfc, 0xff, 0xfd, 0x00, 0x03, 0x02, 0x00,
    0x02, 0xfc, 0x07, 0xfd, 0x04, 0x04, 0xfe, 0xfa, 0x00, 0x02, 0xfe, 0xff, 0x00,
    0x07, 0x00, 0x02, 0xff, 0x09, 0xff, 0x03, 0x02, 0x06, 0x01, 0xfe, 0xfa, 0xfc,
    0xff, 0x00, 0x06, 0x04, 0x05, 0xfd, 0x00, 0xfd, 0xfe, 0x00, 0xfe, 0xfd, 0xff,
    0x06, 0x01, 0x05, 0x01, 0xf9, 0xfe, 0x03, 0xff, 0x00, 0x01, 0x00, 0xff, 0xfe,
    0x01, 0xff, 0x02, 0xfe, 0x06, 0xfb, 0x02, 0xe8, 0x00, 0x02, 0x07, 0x03, 0xee,
    0x05, 0xf6, 0xf7, 0xfc, 0xf7, 0xf2, 0x02, 0xfb, 0x03, 0xfc, 0x02, 0x00, 0x04,
    0xf5, 0xeb, 0x03, 0xf1, 0xf9, 0xe5, 0xdf, 0xf6, 0xfc, 0xfe, 0xf3, 0x03, 0x05,
    0xde, 0xfb, 0xdf, 0xf8, 0xf9, 0xfa, 0x0d, 0xfb, 0xff, 0x02, 0xff, 0x04, 0x08,
    0xfd, 0xff, 0xe7, 0x08, 0x04, 0xf5, 0xf5, 0xf2, 0x03, 0xff, 0xff, 0xf3, 0xf8,
    0xe4, 0xf8, 0xf5, 0xf8, 0x00, 0x00, 0xfc, 0x0b, 0x02, 0xfc, 0xfe, 0xfb, 0x0c,
    0x00, 0xfb, 0x04, 0x01, 0x00, 0x06, 0x00, 0xff, 0x02, 0x03, 0xfb, 0x02, 0xff,
    0x01, 0x03, 0x00, 0xff, 0xfe, 0x01, 0xfc, 0x02, 0x00, 0xff, 0x01, 0x01, 0x03,
    0xfc, 0xfa, 0x00, 0x03, 0x02, 0xf7, 0x03, 0x02, 0xf5, 0x02, 0x02, 0xff, 0xfe,
    0xfe, 0x02, 0x03, 0x04, 0xfc, 0xf4, 0x00, 0xfd, 0xff, 0x03, 0x04, 0x03, 0x03,
    0xfe, 0x01, 0x07, 0x01, 0x02, 0x01, 0xf4, 0xf9, 0x00, 0x02, 0x02, 0xf8, 0x04,
    0xff, 0xfe, 0x05, 0x02, 0xfb, 0x03, 0xfb, 0xfd, 0x03, 0x01, 0xfc, 0x04, 0x01,
    0xfd, 0xff, 0x02, 0x00, 0x02, 0xf9, 0xfe, 0xff, 0x0a, 0xff, 0xfe, 0x00, 0xfb,
    0xf5, 0x01, 0x01, 0x02, 0xf2, 0x02, 0x00, 0xf7, 0x02, 0x01, 0xfc, 0x03, 0xfc,
    0x03, 0x06, 0x00, 0x00, 0x04, 0x02, 0xfe, 0xfb, 0x02, 0x04, 0xfd, 0x07, 0x00,
    0x05, 0x05, 0x00, 0x00, 0x00, 0xff, 0xf8, 0x00, 0x02, 0xff, 0xf1, 0x00, 0x01,
    0xfb, 0x03, 0x00, 0xee, 0xfd, 0xfb, 0x00, 0x06, 0x04, 0xf7, 0xff, 0xfe, 0xf9,
    0x00, 0x02, 0x01, 0xfd, 0xf9, 0x00, 0x01, 0xfd, 0xfe, 0x00, 0xfe, 0x06, 0x04,
    0x04, 0xfd, 0xfe, 0xff, 0xfd, 0x00, 0x02, 0xfd, 0xff, 0x01, 0xff, 0xf4, 0xff,
    0xfc, 0xfe, 0x02, 0xfd, 0xff, 0x05, 0xfe, 0xfe, 0xff, 0x00, 0xfe, 0x02, 0xfe,
    0x09, 0x00, 0x01, 0xfe, 0xf5, 0xf5, 0x01, 0x02, 0x00, 0x00, 0x03, 0x00, 0xfb,
    0x03, 0x00, 0xfe, 0x04, 0xfd, 0x04, 0x04, 0x01, 0xfb, 0x04, 0x01, 0xfe, 0x00,
    0x01, 0x02, 0x00, 0x01, 0xff, 0x01, 0x06, 0x01, 0x00, 0x00, 0x02, 0xfc, 0x02,
    0x00, 0xea, 0xfe, 0xfd, 0xf3, 0xfd, 0xf9, 0x00, 0xfe, 0xf4, 0xfc, 0x00, 0x03,
    0xfe, 0xe9, 0xfe, 0x01, 0xfe, 0x01, 0x03, 0x01, 0x08, 0x02, 0xfa, 0x00, 0xfc,
    0x04, 0x03, 0x04, 0xf8, 0xf6, 0x00, 0x04, 0x00, 0xf8, 0x09, 0x00, 0xf7, 0x05,
    0xfe, 0xfa, 0x05, 0xfe, 0x0a, 0x02, 0x00, 0xff, 0x00, 0x00, 0xf9, 0x04, 0x03,
    0x02, 0x03, 0x07, 0x02, 0xff, 0xfc, 0xfa, 0xfe, 0xfc, 0x04, 0x03, 0x04, 0xfd,
    0x01, 0xfd, 0x02, 0xfc, 0xf5, 0xf9, 0xfd, 0xfc, 0xfe, 0xff, 0x05, 0xe9, 0xf5,
    0x02, 0x01, 0x02, 0x01, 0xfd, 0xfd, 0x01, 0xff, 0xfb, 0x04, 0xec, 0xf9, 0x02,
    0x04, 0xff, 0x0b, 0x01, 0x09, 0x01, 0xfc, 0x00, 0xfc, 0x00, 0x01, 0x01, 0xfc,
    0xf8, 0xfe, 0x00, 0xf8, 0xfa, 0x03, 0x01, 0xf9, 0xfc, 0x09, 0xfd, 0xfa, 0xf2,
    0xf7, 0xfa, 0x00, 0xfe, 0x08, 0x03, 0x04, 0x00, 0xff, 0xf5, 0x01, 0x01, 0x01,
    0xea, 0x02, 0xff, 0xcc, 0xff, 0x02, 0xf0, 0xff, 0xf8, 0xfd, 0x02, 0x03, 0xf8,
    0xfd, 0x01, 0xfb, 0x01, 0xff, 0x02, 0x00, 0xfe, 0xff, 0x01, 0x09, 0x02, 0x01,
    0x05, 0xf8, 0x00, 0x00, 0x05, 0x00, 0xfe, 0x06, 0x03, 0xfe, 0x02, 0x03, 0xff,
    0xfe, 0xff, 0x01, 0x03, 0x01, 0xfc, 0x03, 0x02, 0xfe, 0x01, 0xfd, 0x03, 0x02,
    0x08, 0x01, 0x04, 0x3a, 0xff, 0xff, 0xff, 0x00, 0x00, 0x00, 0x09, 0x18, 0x00,
    0x00, 0x00, 0x03, 0x00, 0x00, 0x00, 0x08, 0x00, 0x00, 0x00, 0x18, 0x00, 0x00,
    0x00, 0x01, 0x00, 0x00, 0x00, 0x31, 0x00, 0x00, 0x00, 0x01, 0x00, 0x00, 0x00,
    0x00, 0x10, 0x00, 0x00, 0x04, 0x00, 0x06, 0x00, 0x04, 0x00, 0x00, 0x00, 0x00,
    0x00, 0x06, 0x00, 0x08, 0x00, 0x04, 0x00, 0x06, 0x00, 0x00, 0x00, 0x04, 0x00,
    0x00, 0x00, 0x80, 0x00, 0x00, 0x00, 0x71, 0x47, 0x71, 0x47, 0x71, 0x47, 0x71,
    0x47, 0x71, 0x47, 0x71, 0x47, 0x71, 0x47, 0x71, 0x47, 0x71, 0x47, 0x71, 0x47,
    0x71, 0x47, 0x71, 0x47, 0x71, 0x47, 0x71, 0x47, 0x71, 0x47, 0x71, 0x47, 0xca,
    0xa2, 0x00, 0xc6, 0xe0, 0xeb, 0xe1, 0xb9, 0xfc, 0xda, 0xac, 0xf3, 0xbf, 0xec,
    0xe1, 0xc7, 0x80, 0xd3, 0xb3, 0xe5, 0xc1, 0xab, 0x9f, 0xe7, 0xef, 0xe7, 0xbf,
    0xd2, 0x82, 0xf2, 0x59, 0xec, 0x71, 0x47, 0x71, 0x47, 0x71, 0x47, 0x71, 0x47,
    0x71, 0x47, 0x71, 0x47, 0x71, 0x47, 0x71, 0x47, 0x71, 0x47, 0x71, 0x47, 0x71,
    0x47, 0x71, 0x47, 0x71, 0x47, 0x71, 0x47, 0x71, 0x47, 0x71, 0x47, 0xd3, 0xf2,
    0x68, 0x9e, 0x12, 0xd6, 0x4d, 0xc9, 0x1f, 0xef, 0xac, 0xed, 0x75, 0xf9, 0xa1,
    0xee, 0x3b, 0xb5, 0xbd, 0xdc, 0x11, 0xf6, 0x86, 0xf1, 0x12, 0xd1, 0x3d, 0x99,
    0x57, 0xab, 0x51, 0xef, 0x00, 0x00, 0x0e, 0x00, 0x18, 0x00, 0x08, 0x00, 0x07,
    0x00, 0x0c, 0x00, 0x10, 0x00, 0x14, 0x00, 0x0e, 0x00, 0x00, 0x00, 0x00, 0x00,
    0x00, 0x07, 0x18, 0x00, 0x00, 0x00, 0x02, 0x00, 0x00, 0x00, 0x08, 0x00, 0x00,
    0x00, 0x14, 0x00, 0x00, 0x00, 0x01, 0x00, 0x00, 0x00, 0x30, 0x00, 0x00, 0x00,
    0x01, 0x00, 0x00, 0x00, 0x40, 0x00, 0x00, 0x00, 0x58, 0xff, 0xff, 0xff, 0x14,
    0x00, 0x1c, 0x00, 0x08, 0x00, 0x07, 0x00, 0x0c, 0x00, 0x10, 0x00, 0x14, 0x00,
    0x00, 0x00, 0x00, 0x00, 0x18, 0x00, 0x14, 0x00, 0x00, 0x00, 0x00, 0x00, 0x00,
    0x09, 0x48, 0x00, 0x00, 0x00, 0x01, 0x00, 0x00, 0x00, 0x20, 0x00, 0x00, 0x00,
    0x5c, 0x00, 0x00, 0x00, 0x04, 0x00, 0x00, 0x00, 0x04, 0x00, 0x00, 0x00, 0xff,
    0xff, 0xff, 0xff, 0x01, 0x00, 0x00, 0x00, 0x04, 0x00, 0x00, 0x00, 0x18, 0x00,
    0x00, 0x00, 0x19, 0x00, 0x00, 0x00, 0x73, 0x65, 0x72, 0x76, 0x69, 0x6e, 0x67,
    0x5f, 0x64, 0x65, 0x66, 0x61, 0x75, 0x6c, 0x74, 0x5f, 0x69, 0x6e, 0x70, 0x75,
    0x74, 0x5f, 0x33, 0x3a, 0x30, 0x00, 0x00, 0x00, 0x04, 0x00, 0x00, 0x00, 0x01,
    0x00, 0x00, 0x00, 0x01, 0x00, 0x00, 0x00, 0x04, 0x00, 0x00, 0x00, 0x18, 0x00,
    0x00, 0x00, 0x0c, 0x00, 0x0c, 0x00, 0x00, 0x00, 0x00, 0x00, 0x04, 0x00, 0x08,
    0x00, 0x0c, 0x00, 0x00, 0x00, 0x14, 0x00, 0x00, 0x00, 0x04, 0x00, 0x00, 0x00,
    0x01, 0x00, 0x00, 0x00, 0x7f, 0x00, 0x00, 0x00, 0x00, 0x00, 0x00, 0x00, 0x01,
    0x00, 0x00, 0x00, 0x88, 0x5d, 0xde, 0x3d, 0x04, 0x00, 0x04, 0x00, 0x04, 0x00,
    0x00, 0x00,
};

const int vnr_model_data_len = 13392;