// This is a TensorFlow Lite model file that has been converted into a C data
// array using the convert_tflite_to_c_source() tool.

#if( USE_SWMEM == 1)
__attribute__((section(".SwMem_data")))
#elif( USE_EXTMEM == 1)
__attribute__((section(".ExtMem_data")))
#endif
const unsigned char vnr_model_data[] __attribute__((aligned(4))) = {
    0x20, 0x00, 0x00, 0x00, 0x54, 0x46, 0x4c, 0x33, 0x00, 0x00, 0x00, 0x00, 0x14,
    0x00, 0x20, 0x00, 0x04, 0x00, 0x08, 0x00, 0x0c, 0x00, 0x10, 0x00, 0x14, 0x00,
    0x00, 0x00, 0x18, 0x00, 0x1c, 0x00, 0x14, 0x00, 0x00, 0x00, 0x03, 0x00, 0x00,
    0x00, 0x7c, 0x00, 0x00, 0x00, 0x70, 0x00, 0x00, 0x00, 0x78, 0x01, 0x00, 0x00,
    0x0c, 0x00, 0x00, 0x00, 0x20, 0x01, 0x00, 0x00, 0x88, 0x00, 0x00, 0x00, 0x16,
    0x00, 0x00, 0x00, 0x30, 0x37, 0x00, 0x00, 0x2c, 0x37, 0x00, 0x00, 0x24, 0x36,
    0x00, 0x00, 0xdc, 0x21, 0x00, 0x00, 0x20, 0x21, 0x00, 0x00, 0xe4, 0x0d, 0x00,
    0x00, 0x98, 0x0d, 0x00, 0x00, 0x14, 0x37, 0x00, 0x00, 0x44, 0x0b, 0x00, 0x00,
    0xf4, 0x09, 0x00, 0x00, 0x08, 0x37, 0x00, 0x00, 0x04, 0x37, 0x00, 0x00, 0x00,
    0x37, 0x00, 0x00, 0xfc, 0x36, 0x00, 0x00, 0xfc, 0x05, 0x00, 0x00, 0xf4, 0x36,
    0x00, 0x00, 0x5c, 0x04, 0x00, 0x00, 0xec, 0x36, 0x00, 0x00, 0xe8, 0x36, 0x00,
    0x00, 0xe4, 0x36, 0x00, 0x00, 0xe0, 0x36, 0x00, 0x00, 0xf4, 0x00, 0x00, 0x00,
    0x01, 0x00, 0x00, 0x00, 0x2c, 0x01, 0x00, 0x00, 0x07, 0x00, 0x00, 0x00, 0xac,
    0x0c, 0x00, 0x00, 0x30, 0x09, 0x00, 0x00, 0x54, 0x08, 0x00, 0x00, 0x94, 0x07,
    0x00, 0x00, 0xfc, 0x02, 0x00, 0x00, 0x68, 0x02, 0x00, 0x00, 0xe0, 0x01, 0x00,
    0x00, 0x01, 0x00, 0x00, 0x00, 0x10, 0x00, 0x00, 0x00, 0x0c, 0x00, 0x14, 0x00,
    0x10, 0x00, 0x0c, 0x00, 0x08, 0x00, 0x04, 0x00, 0x0c, 0x00, 0x00, 0x00, 0x10,
    0x00, 0x00, 0x00, 0x14, 0x00, 0x00, 0x00, 0x24, 0x00, 0x00, 0x00, 0x28, 0x00,
    0x00, 0x00, 0x00, 0x00, 0x00, 0x00, 0x00, 0x00, 0x00, 0x00, 0x0f, 0x00, 0x00,
    0x00, 0x73, 0x65, 0x72, 0x76, 0x69, 0x6e, 0x67, 0x5f, 0x64, 0x65, 0x66, 0x61,
    0x75, 0x6c, 0x74, 0x00, 0x01, 0x00, 0x00, 0x00, 0x14, 0x00, 0x00, 0x00, 0x01,
    0x00, 0x00, 0x00, 0x30, 0x00, 0x00, 0x00, 0x08, 0x00, 0x0c, 0x00, 0x08, 0x00,
    0x04, 0x00, 0x08, 0x00, 0x00, 0x00, 0x13, 0x00, 0x00, 0x00, 0x04, 0x00, 0x00,
    0x00, 0x12, 0x00, 0x00, 0x00, 0x71, 0x75, 0x61, 0x6e, 0x74, 0x5f, 0x61, 0x63,
    0x74, 0x69, 0x76, 0x61, 0x74, 0x69, 0x6f, 0x6e, 0x5f, 0x34, 0x00, 0x00, 0xda,
    0xca, 0xff, 0xff, 0x04, 0x00, 0x00, 0x00, 0x07, 0x00, 0x00, 0x00, 0x69, 0x6e,
    0x70, 0x75, 0x74, 0x5f, 0x32, 0x00, 0x01, 0x00, 0x00, 0x00, 0x0c, 0x00, 0x00,
    0x00, 0x08, 0x00, 0x0c, 0x00, 0x04, 0x00, 0x08, 0x00, 0x08, 0x00, 0x00, 0x00,
    0x08, 0x00, 0x00, 0x00, 0x15, 0x00, 0x00, 0x00, 0x13, 0x00, 0x00, 0x00, 0x6d,
    0x69, 0x6e, 0x5f, 0x72, 0x75, 0x6e, 0x74, 0x69, 0x6d, 0x65, 0x5f, 0x76, 0x65,
    0x72, 0x73, 0x69, 0x6f, 0x6e, 0x00, 0x22, 0xcb, 0xff, 0xff, 0x04, 0x00, 0x00,
    0x00, 0x10, 0x00, 0x00, 0x00, 0x32, 0x2e, 0x31, 0x2e, 0x30, 0x00, 0x00, 0x00,
    0x00, 0x00, 0x00, 0x00, 0x00, 0x00, 0x00, 0x00, 0x0f, 0x00, 0x00, 0x00, 0x4d,
    0x4c, 0x49, 0x52, 0x20, 0x43, 0x6f, 0x6e, 0x76, 0x65, 0x72, 0x74, 0x65, 0x64,
    0x2e, 0x00, 0x00, 0x00, 0x0e, 0x00, 0x18, 0x00, 0x04, 0x00, 0x08, 0x00, 0x0c,
    0x00, 0x10, 0x00, 0x14, 0x00, 0x0e, 0x00, 0x00, 0x00, 0x5c, 0x00, 0x00, 0x00,
    0x50, 0x00, 0x00, 0x00, 0x44, 0x00, 0x00, 0x00, 0x14, 0x00, 0x00, 0x00, 0x04,
    0x00, 0x00, 0x00, 0x04, 0x00, 0x00, 0x00, 0x6d, 0x61, 0x69, 0x6e, 0x00, 0x00,
    0x00, 0x00, 0x0a, 0x00, 0x00, 0x00, 0x38, 0x0b, 0x00, 0x00, 0x98, 0x07, 0x00,
    0x00, 0xe8, 0x06, 0x00, 0x00, 0x70, 0x05, 0x00, 0x00, 0xd0, 0x04, 0x00, 0x00,
    0x4c, 0x03, 0x00, 0x00, 0x28, 0x02, 0x00, 0x00, 0x80, 0x01, 0x00, 0x00, 0xf0,
    0x00, 0x00, 0x00, 0x68, 0x00, 0x00, 0x00, 0x01, 0x00, 0x00, 0x00, 0x13, 0x00,
    0x00, 0x00, 0x01, 0x00, 0x00, 0x00, 0x00, 0x00, 0x00, 0x00, 0x14, 0x00, 0x00,
    0x00, 0xdc, 0x34, 0x00, 0x00, 0x98, 0x34, 0x00, 0x00, 0x00, 0x34, 0x00, 0x00,
    0xc4, 0x1f, 0x00, 0x00, 0x08, 0x1f, 0x00, 0x00, 0xcc, 0x0b, 0x00, 0x00, 0x30,
    0x0b, 0x00, 0x00, 0xc8, 0x09, 0x00, 0x00, 0x58, 0x08, 0x00, 0x00, 0x98, 0x07,
    0x00, 0x00, 0xbc, 0x06, 0x00, 0x00, 0x10, 0x06, 0x00, 0x00, 0x94, 0x04, 0x00,
    0x00, 0x24, 0x04, 0x00, 0x00, 0xa4, 0x03, 0x00, 0x00, 0x90, 0x02, 0x00, 0x00,
    0x04, 0x02, 0x00, 0x00, 0x50, 0x01, 0x00, 0x00, 0xbc, 0x00, 0x00, 0x00, 0x34,
    0x00, 0x00, 0x00, 0xa6, 0xf9, 0xff, 0xff, 0x06, 0x00, 0x00, 0x00, 0x10, 0x00,
    0x00, 0x00, 0x04, 0x00, 0x00, 0x00, 0x01, 0x00, 0x00, 0x00, 0x13, 0x00, 0x00,
    0x00, 0x01, 0x00, 0x00, 0x00, 0x12, 0x00, 0x00, 0x00, 0x58, 0xf5, 0xff, 0xff,
    0x06, 0x00, 0x00, 0x00, 0x00, 0x00, 0x00, 0x06, 0x02, 0x00, 0x00, 0x00, 0xb8,
    0xcb, 0xff, 0xff, 0x40, 0x00, 0x00, 0x00, 0x14, 0x00, 0x00, 0x00, 0x18, 0x00,
    0x00, 0x00, 0x40, 0x00, 0x00, 0x00, 0x04, 0x00, 0x00, 0x00, 0x02, 0x00, 0x00,
    0x00, 0xff, 0xff, 0xff, 0xff, 0x01, 0x00, 0x00, 0x00, 0x19, 0x00, 0x00, 0x00,
    0x53, 0x74, 0x61, 0x74, 0x65, 0x66, 0x75, 0x6c, 0x50, 0x61, 0x72, 0x74, 0x69,
    0x74, 0x69, 0x6f, 0x6e, 0x65, 0x64, 0x43, 0x61, 0x6c, 0x6c, 0x3a, 0x30, 0x00,
    0x00, 0x00, 0x02, 0x00, 0x00, 0x00, 0x01, 0x00, 0x00, 0x00, 0x01, 0x00, 0x00,
    0x00, 0x90, 0xcb, 0xff, 0xff, 0x2a, 0xfa, 0xff, 0xff, 0x05, 0x00, 0x00, 0x00,
    0x10, 0x00, 0x00, 0x00, 0x04, 0x00, 0x00, 0x00, 0x01, 0x00, 0x00, 0x00, 0x12,
    0x00, 0x00, 0x00, 0x01, 0x00, 0x00, 0x00, 0x11, 0x00, 0x00, 0x00, 0xdc, 0xf5,
    0xff, 0xff, 0x0e, 0x00, 0x00, 0x00, 0x00, 0x00, 0x00, 0x0e, 0x02, 0x00, 0x00,
    0x00, 0xd0, 0xf5, 0xff, 0xff, 0x00, 0x00, 0x00, 0x09, 0x28, 0x00, 0x00, 0x00,
    0x13, 0x00, 0x00, 0x00, 0x18, 0x00, 0x00, 0x00, 0x28, 0x00, 0x00, 0x00, 0x04,
    0x00, 0x00, 0x00, 0x02, 0x00, 0x00, 0x00, 0xff, 0xff, 0xff, 0xff, 0x01, 0x00,
    0x00, 0x00, 0x01, 0x00, 0x00, 0x00, 0x48, 0x00, 0x00, 0x00, 0x02, 0x00, 0x00,
    0x00, 0x01, 0x00, 0x00, 0x00, 0x01, 0x00, 0x00, 0x00, 0xac, 0xf5, 0xff, 0xff,
    0x14, 0x00, 0x00, 0x00, 0x04, 0x00, 0x00, 0x00, 0x01, 0x00, 0x00, 0x00, 0x80,
    0xff, 0xff, 0xff, 0xff, 0xff, 0xff, 0xff, 0x01, 0x00, 0x00, 0x00, 0x00, 0x00,
    0x80, 0x3b, 0xb6, 0xfa, 0xff, 0xff, 0x04, 0x00, 0x00, 0x00, 0x10, 0x00, 0x00,
    0x00, 0x04, 0x00, 0x00, 0x00, 0x01, 0x00, 0x00, 0x00, 0x11, 0x00, 0x00, 0x00,
    0x02, 0x00, 0x00, 0x00, 0x10, 0x00, 0x00, 0x00, 0x05, 0x00, 0x00, 0x00, 0x6c,
    0xf6, 0xff, 0xff, 0x16, 0x00, 0x00, 0x00, 0x00, 0x00, 0x00, 0x16, 0x01, 0x00,
    0x00, 0x00, 0x60, 0xf6, 0xff, 0xff, 0x00, 0x00, 0x00, 0x09, 0x28, 0x00, 0x00,
    0x00, 0x12, 0x00, 0x00, 0x00, 0x18, 0x00, 0x00, 0x00, 0x28, 0x00, 0x00, 0x00,
    0x04, 0x00, 0x00, 0x00, 0x02, 0x00, 0x00, 0x00, 0xff, 0xff, 0xff, 0xff, 0x01,
    0x00, 0x00, 0x00, 0x01, 0x00, 0x00, 0x00, 0x47, 0x00, 0x00, 0x00, 0x02, 0x00,
    0x00, 0x00, 0x01, 0x00, 0x00, 0x00, 0x01, 0x00, 0x00, 0x00, 0x3c, 0xf6, 0xff,
    0xff, 0x18, 0x00, 0x00, 0x00, 0x04, 0x00, 0x00, 0x00, 0x01, 0x00, 0x00, 0x00,
    0xf5, 0xff, 0xff, 0xff, 0xff, 0xff, 0xff, 0xff, 0x00, 0x00, 0x00, 0x00, 0x01,
    0x00, 0x00, 0x00, 0xa7, 0xe1, 0x92, 0x3d, 0x00, 0x00, 0x0e, 0x00, 0x18, 0x00,
    0x08, 0x00, 0x0c, 0x00, 0x10, 0x00, 0x07, 0x00, 0x14, 0x00, 0x0e, 0x00, 0x00,
    0x00, 0x00, 0x00, 0x00, 0x01, 0x01, 0x00, 0x00, 0x00, 0x24, 0x00, 0x00, 0x00,
    0x18, 0x00, 0x00, 0x00, 0x04, 0x00, 0x00, 0x00, 0xa2, 0xfa, 0xff, 0xff, 0x01,
    0x00, 0x00, 0x00, 0x01, 0x00, 0x00, 0x00, 0x00, 0x00, 0x00, 0x01, 0x01, 0x00,
    0x00, 0x00, 0x10, 0x00, 0x00, 0x00, 0x03, 0x00, 0x00, 0x00, 0x0e, 0x00, 0x00,
    0x00, 0x0f, 0x00, 0x00, 0x00, 0x0d, 0x00, 0x00, 0x00, 0x10, 0xf7, 0xff, 0xff,
    0x00, 0x00, 0x00, 0x09, 0x30, 0x00, 0x00, 0x00, 0x11, 0x00, 0x00, 0x00, 0x20,
    0x00, 0x00, 0x00, 0x38, 0x00, 0x00, 0x00, 0x04, 0x00, 0x00, 0x00, 0x04, 0x00,
    0x00, 0x00, 0xff, 0xff, 0xff, 0xff, 0x01, 0x00, 0x00, 0x00, 0x01, 0x00, 0x00,
    0x00, 0x01, 0x00, 0x00, 0x00, 0x01, 0x00, 0x00, 0x00, 0x46, 0x00, 0x00, 0x00,
    0x04, 0x00, 0x00, 0x00, 0x01, 0x00, 0x00, 0x00, 0x01, 0x00, 0x00, 0x00, 0x01,
    0x00, 0x00, 0x00, 0x01, 0x00, 0x00, 0x00, 0xfc, 0xf6, 0xff, 0xff, 0x14, 0x00,
    0x00, 0x00, 0x04, 0x00, 0x00, 0x00, 0x01, 0x00, 0x00, 0x00, 0xf5, 0xff, 0xff,
    0xff, 0xff, 0xff, 0xff, 0xff, 0x01, 0x00, 0x00, 0x00, 0xa7, 0xe1, 0x92, 0x3d,
    0x76, 0xce, 0xff, 0xff, 0x04, 0x00, 0x00, 0x00, 0x10, 0x00, 0x00, 0x00, 0x3b,
    0x35, 0x2d, 0xc9, 0xb3, 0xa8, 0x81, 0xb7, 0x43, 0xc6, 0x53, 0xba, 0xaf, 0x37,
    0xbb, 0x8c, 0x3e, 0xce, 0xff, 0xff, 0x00, 0x00, 0x00, 0x09, 0x18, 0x00, 0x00,
    0x00, 0x10, 0x00, 0x00, 0x00, 0x08, 0x00, 0x00, 0x00, 0x20, 0x00, 0x00, 0x00,
    0x01, 0x00, 0x00, 0x00, 0x45, 0x00, 0x00, 0x00, 0x04, 0x00, 0x00, 0x00, 0x01,
    0x00, 0x00, 0x00, 0x01, 0x00, 0x00, 0x00, 0x01, 0x00, 0x00, 0x00, 0x10, 0x00,
    0x00, 0x00, 0x6c, 0xf7, 0xff, 0xff, 0x18, 0x00, 0x00, 0x00, 0x04, 0x00, 0x00,
    0x00, 0x01, 0x00, 0x00, 0x00, 0x00, 0x00, 0x00, 0x00, 0x00, 0x00, 0x00, 0x00,
    0x00, 0x00, 0x00, 0x00, 0x01, 0x00, 0x00, 0x00, 0xfd, 0x39, 0x6e, 0x3a, 0xf4,
    0xfd, 0xff, 0xff, 0x03, 0x00, 0x00, 0x00, 0xa0, 0x00, 0x00, 0x00, 0x94, 0x00,
    0x00, 0x00, 0x04, 0x00, 0x00, 0x00, 0x87, 0x00, 0x00, 0x00, 0x6b, 0x74, 0x00,
    0x6d, 0x70, 0x00, 0x08, 0x40, 0x01, 0x00, 0x00, 0x40, 0x01, 0x00, 0x00, 0x00,
    0x61, 0x67, 0x67, 0x70, 0x00, 0x18, 0x00, 0x14, 0x00, 0x00, 0x00, 0x00, 0x00,
    0x00, 0x00, 0x00, 0x00, 0x00, 0x09, 0x00, 0x00, 0x00, 0x00, 0x00, 0x00, 0x00,
    0x00, 0x00, 0x00, 0x00, 0x00, 0x6f, 0x74, 0x70, 0x00, 0x08, 0x10, 0x00, 0x00,
    0x00, 0x03, 0x00, 0xfb, 0xff, 0x00, 0x73, 0x63, 0x72, 0x61, 0x74, 0x63, 0x68,
    0x00, 0x61, 0x6b, 0x70, 0x00, 0x20, 0x00, 0x00, 0x00, 0x00, 0x01, 0x00, 0x00,
    0x00, 0x00, 0x00, 0x00, 0x00, 0x01, 0x00, 0x00, 0x00, 0x01, 0x00, 0x00, 0x00,
    0x00, 0x00, 0x00, 0x00, 0x00, 0x00, 0x00, 0x00, 0x10, 0x00, 0x00, 0x00, 0x00,
    0x01, 0x22, 0x14, 0x06, 0x5f, 0x2b, 0x71, 0x6f, 0x44, 0x37, 0x06, 0x01, 0x06,
    0x62, 0x0d, 0x00, 0x74, 0x48, 0x00, 0x14, 0x28, 0x04, 0x14, 0x14, 0x04, 0x0c,
    0x24, 0x01, 0x00, 0x01, 0x00, 0x00, 0x00, 0x0e, 0x00, 0x00, 0x00, 0x03, 0x00,
    0x00, 0x00, 0x0c, 0x00, 0x00, 0x00, 0x02, 0x00, 0x00, 0x00, 0x01, 0x00, 0x00,
    0x00, 0xa8, 0xf8, 0xff, 0xff, 0x00, 0x00, 0x00, 0x09, 0x30, 0x00, 0x00, 0x00,
    0x0f, 0x00, 0x00, 0x00, 0x20, 0x00, 0x00, 0x00, 0x38, 0x00, 0x00, 0x00, 0x04,
    0x00, 0x00, 0x00, 0x04, 0x00, 0x00, 0x00, 0xff, 0xff, 0xff, 0xff, 0x01, 0x00,
    0x00, 0x00, 0x01, 0x00, 0x00, 0x00, 0x10, 0x00, 0x00, 0x00, 0x01, 0x00, 0x00,
    0x00, 0x44, 0x00, 0x00, 0x00, 0x04, 0x00, 0x00, 0x00, 0x01, 0x00, 0x00, 0x00,
    0x01, 0x00, 0x00, 0x00, 0x01, 0x00, 0x00, 0x00, 0x10, 0x00, 0x00, 0x00, 0x94,
    0xf8, 0xff, 0xff, 0x14, 0x00, 0x00, 0x00, 0x04, 0x00, 0x00, 0x00, 0x01, 0x00,
    0x00, 0x00, 0x80, 0xff, 0xff, 0xff, 0xff, 0xff, 0xff, 0xff, 0x01, 0x00, 0x00,
    0x00, 0x78, 0xef, 0x18, 0x3e, 0x0e, 0xd0, 0xff, 0xff, 0x04, 0x00, 0x00, 0x00,
    0x04, 0x00, 0x00, 0x00, 0x07, 0x0c, 0x00, 0x00, 0xca, 0xcf, 0xff, 0xff, 0x00,
    0x00, 0x00, 0x02, 0x18, 0x00, 0x00, 0x00, 0x0e, 0x00, 0x00, 0x00, 0x08, 0x00,
    0x00, 0x00, 0x14, 0x00, 0x00, 0x00, 0x01, 0x00, 0x00, 0x00, 0x43, 0x00, 0x00,
    0x00, 0x01, 0x00, 0x00, 0x00, 0x01, 0x00, 0x00, 0x00, 0xec, 0xf8, 0xff, 0xff,
    0x18, 0x00, 0x00, 0x00, 0x04, 0x00, 0x00, 0x00, 0x01, 0x00, 0x00, 0x00, 0x00,
    0x00, 0x00, 0x00, 0x00, 0x00, 0x00, 0x00, 0x00, 0x00, 0x00, 0x00, 0x01, 0x00,
    0x00, 0x00, 0x46, 0x51, 0x0e, 0x39, 0xfa, 0xfd, 0xff, 0xff, 0x02, 0x00, 0x00,
    0x00, 0x10, 0x00, 0x00, 0x00, 0x04, 0x00, 0x00, 0x00, 0x01, 0x00, 0x00, 0x00,
    0x0c, 0x00, 0x00, 0x00, 0x01, 0x00, 0x00, 0x00, 0x0b, 0x00, 0x00, 0x00, 0x90,
    0xf9, 0xff, 0xff, 0x00, 0x00, 0x00, 0x09, 0x30, 0x00, 0x00, 0x00, 0x0d, 0x00,
    0x00, 0x00, 0x20, 0x00, 0x00, 0x00, 0x38, 0x00, 0x00, 0x00, 0x04, 0x00, 0x00,
    0x00, 0x04, 0x00, 0x00, 0x00, 0xff, 0xff, 0xff, 0xff, 0x01, 0x00, 0x00, 0x00,
    0x0a, 0x00, 0x00, 0x00, 0x20, 0x00, 0x00, 0x00, 0x01, 0x00, 0x00, 0x00, 0x42,
    0x00, 0x00, 0x00, 0x04, 0x00, 0x00, 0x00, 0x01, 0x00, 0x00, 0x00, 0x01, 0x00,
    0x00, 0x00, 0x0a, 0x00, 0x00, 0x00, 0x20, 0x00, 0x00, 0x00, 0x7c, 0xf9, 0xff,
    0xff, 0x14, 0x00, 0x00, 0x00, 0x04, 0x00, 0x00, 0x00, 0x01, 0x00, 0x00, 0x00,
    0x80, 0xff, 0xff, 0xff, 0xff, 0xff, 0xff, 0xff, 0x01, 0x00, 0x00, 0x00, 0x71,
    0x6f, 0x8e, 0x3d, 0x10, 0x00, 0x14, 0x00, 0x04, 0x00, 0x08, 0x00, 0x0c, 0x00,
    0x00, 0x00, 0x00, 0x00, 0x10, 0x00, 0x10, 0x00, 0x00, 0x00, 0x03, 0x00, 0x00,
    0x00, 0xb4, 0x00, 0x00, 0x00, 0xa8, 0x00, 0x00, 0x00, 0x04, 0x00, 0x00, 0x00,
    0x99, 0x00, 0x00, 0x00, 0x6b, 0x74, 0x00, 0x6d, 0x70, 0x00, 0x20, 0x60, 0x01,
    0x00, 0x00, 0x20, 0x00, 0x00, 0x00, 0x02, 0x00, 0x00, 0x00, 0x02, 0x00, 0x00,
    0x00, 0x00, 0x00, 0x00, 0x00, 0x10, 0x00, 0x00, 0x00, 0xf0, 0xff, 0xff, 0xff,
    0x30, 0x01, 0x00, 0x00, 0x00, 0x61, 0x67, 0x67, 0x70, 0x00, 0x08, 0x20, 0x00,
    0x00, 0x00, 0x90, 0x00, 0x00, 0x00, 0x00, 0x6f, 0x74, 0x70, 0x00, 0x08, 0x20,
    0x00, 0x00, 0x00, 0x05, 0x00, 0xfd, 0xff, 0x00, 0x73, 0x63, 0x72, 0x61, 0x74,
    0x63, 0x68, 0x00, 0x61, 0x6b, 0x70, 0x00, 0x20, 0x00, 0x00, 0x00, 0x00, 0x01,
    0x00, 0x00, 0x00, 0x00, 0x00, 0x00, 0x00, 0x0a, 0x00, 0x00, 0x00, 0x02, 0x00,
    0x00, 0x00, 0x00, 0x00, 0x00, 0x00, 0x00, 0x00, 0x00, 0x00, 0x20, 0x00, 0x00,
    0x00, 0x00, 0x01, 0x22, 0x14, 0x06, 0x4f, 0x2b, 0x79, 0x77, 0x44, 0x37, 0x00,
    0x07, 0x00, 0x01, 0x00, 0x06, 0x00, 0x56, 0x00, 0x12, 0x00, 0x01, 0x00, 0x83,
    0x00, 0x50, 0x00, 0xc0, 0x00, 0x14, 0x28, 0x05, 0x14, 0x14, 0x05, 0x12, 0x25,
    0x01, 0x00, 0x00, 0x00, 0x01, 0x00, 0x00, 0x00, 0x0b, 0x00, 0x00, 0x00, 0x03,
    0x00, 0x00, 0x00, 0x0a, 0x00, 0x00, 0x00, 0x04, 0x00, 0x00, 0x00, 0x03, 0x00,
    0x00, 0x00, 0x0c, 0x00, 0x10, 0x00, 0x0f, 0x00, 0x08, 0x00, 0x00, 0x00, 0x04,
    0x00, 0x0c, 0x00, 0x00, 0x00, 0x20, 0x00, 0x00, 0x00, 0x08, 0x00, 0x00, 0x00,
    0x00, 0x00, 0x00, 0x20, 0x0c, 0x00, 0x00, 0x00, 0x58, 0x43, 0x5f, 0x63, 0x6f,
    0x6e, 0x76, 0x32, 0x64, 0x5f, 0x76, 0x32, 0x00, 0x00, 0x00, 0x00, 0x08, 0xfb,
    0xff, 0xff, 0x00, 0x00, 0x00, 0x09, 0x30, 0x00, 0x00, 0x00, 0x0c, 0x00, 0x00,
    0x00, 0x20, 0x00, 0x00, 0x00, 0x38, 0x00, 0x00, 0x00, 0x04, 0x00, 0x00, 0x00,
    0x04, 0x00, 0x00, 0x00, 0xff, 0xff, 0xff, 0xff, 0x01, 0x00, 0x00, 0x00, 0x0a,
    0x00, 0x00, 0x00, 0x20, 0x00, 0x00, 0x00, 0x01, 0x00, 0x00, 0x00, 0x41, 0x00,
    0x00, 0x00, 0x04, 0x00, 0x00, 0x00, 0x01, 0x00, 0x00, 0x00, 0x01, 0x00, 0x00,
    0x00, 0x0a, 0x00, 0x00, 0x00, 0x20, 0x00, 0x00, 0x00, 0xf4, 0xfa, 0xff, 0xff,
    0x14, 0x00, 0x00, 0x00, 0x04, 0x00, 0x00, 0x00, 0x01, 0x00, 0x00, 0x00, 0x54,
    0x00, 0x00, 0x00, 0x00, 0x00, 0x00, 0x00, 0x01, 0x00, 0x00, 0x00, 0x69, 0x69,
    0xce, 0x3e, 0x00, 0x00, 0x0a, 0x00, 0x10, 0x00, 0x04, 0x00, 0x08, 0x00, 0x0c,
    0x00, 0x0a, 0x00, 0x00, 0x00, 0x02, 0x00, 0x00, 0x00, 0x10, 0x00, 0x00, 0x00,
    0x04, 0x00, 0x00, 0x00, 0x01, 0x00, 0x00, 0x00, 0x0a, 0x00, 0x00, 0x00, 0x01,
    0x00, 0x00, 0x00, 0x09, 0x00, 0x00, 0x00, 0xbc, 0xfb, 0xff, 0xff, 0x13, 0x00,
    0x00, 0x00, 0x00, 0x00, 0x00, 0x13, 0x02, 0x00, 0x00, 0x00, 0xb0, 0xfb, 0xff,
    0xff, 0x00, 0x00, 0x00, 0x09, 0x30, 0x00, 0x00, 0x00, 0x0b, 0x00, 0x00, 0x00,
    0x20, 0x00, 0x00, 0x00, 0x38, 0x00, 0x00, 0x00, 0x04, 0x00, 0x00, 0x00, 0x04,
    0x00, 0x00, 0x00, 0xff, 0xff, 0xff, 0xff, 0x03, 0x00, 0x00, 0x00, 0x16, 0x00,
    0x00, 0x00, 0x10, 0x00, 0x00, 0x00, 0x01, 0x00, 0x00, 0x00, 0x39, 0x00, 0x00,
    0x00, 0x04, 0x00, 0x00, 0x00, 0x01, 0x00, 0x00, 0x00, 0x03, 0x00, 0x00, 0x00,
    0x16, 0x00, 0x00, 0x00, 0x10, 0x00, 0x00, 0x00, 0x9c, 0xfb, 0xff, 0xff, 0x14,
    0x00, 0x00, 0x00, 0x04, 0x00, 0x00, 0x00, 0x01, 0x00, 0x00, 0x00, 0x80, 0xff,
    0xff, 0xff, 0xff, 0xff, 0xff, 0xff, 0x01, 0x00, 0x00, 0x00, 0xbf, 0x1e, 0xe8,
    0x3c, 0x00, 0x00, 0x0e, 0x00, 0x1a, 0x00, 0x08, 0x00, 0x0c, 0x00, 0x10, 0x00,
    0x07, 0x00, 0x14, 0x00, 0x0e, 0x00, 0x00, 0x00, 0x00, 0x00, 0x00, 0x01, 0x01,
    0x00, 0x00, 0x00, 0x30, 0x00, 0x00, 0x00, 0x24, 0x00, 0x00, 0x00, 0x10, 0x00,
    0x00, 0x00, 0x00, 0x00, 0x0a, 0x00, 0x10, 0x00, 0x0f, 0x00, 0x04, 0x00, 0x08,
    0x00, 0x0a, 0x00, 0x00, 0x00, 0x01, 0x00, 0x00, 0x00, 0x01, 0x00, 0x00, 0x00,
    0x00, 0x00, 0x00, 0x01, 0x01, 0x00, 0x00, 0x00, 0x09, 0x00, 0x00, 0x00, 0x03,
    0x00, 0x00, 0x00, 0x06, 0x00, 0x00, 0x00, 0x07, 0x00, 0x00, 0x00, 0x08, 0x00,
    0x00, 0x00, 0x94, 0xfc, 0xff, 0xff, 0x03, 0x00, 0x00, 0x00, 0x00, 0x00, 0x00,
    0x03, 0x03, 0x00, 0x00, 0x00, 0x88, 0xfc, 0xff, 0xff, 0x00, 0x00, 0x00, 0x09,
    0x30, 0x00, 0x00, 0x00, 0x0a, 0x00, 0x00, 0x00, 0x20, 0x00, 0x00, 0x00, 0x38,
    0x00, 0x00, 0x00, 0x04, 0x00, 0x00, 0x00, 0x04, 0x00, 0x00, 0x00, 0xff, 0xff,
    0xff, 0xff, 0x03, 0x00, 0x00, 0x00, 0x16, 0x00, 0x00, 0x00, 0x10, 0x00, 0x00,
    0x00, 0x01, 0x00, 0x00, 0x00, 0x38, 0x00, 0x00, 0x00, 0x04, 0x00, 0x00, 0x00,
    0x01, 0x00, 0x00, 0x00, 0x03, 0x00, 0x00, 0x00, 0x16, 0x00, 0x00, 0x00, 0x10,
    0x00, 0x00, 0x00, 0x74, 0xfc, 0xff, 0xff, 0x18, 0x00, 0x00, 0x00, 0x04, 0x00,
    0x00, 0x00, 0x01, 0x00, 0x00, 0x00, 0x34, 0x00, 0x00, 0x00, 0x00, 0x00, 0x00,
    0x00, 0x00, 0x00, 0x00, 0x00, 0x01, 0x00, 0x00, 0x00, 0x6c, 0x41, 0xbc, 0x3d,
    0xf2, 0xd3, 0xff, 0xff, 0x04, 0x00, 0x00, 0x00, 0x40, 0x00, 0x00, 0x00, 0x08,
    0xf3, 0xff, 0xff, 0xa5, 0x02, 0x00, 0x00, 0x44, 0x03, 0x00, 0x00, 0x39, 0xff,
    0xff, 0xff, 0xc9, 0xfe, 0xff, 0xff, 0xa2, 0xf6, 0xff, 0xff, 0x96, 0x00, 0x00,
    0x00, 0xf9, 0x0c, 0x00, 0x00, 0x8c, 0xf5, 0xff, 0xff, 0x45, 0xf5, 0xff, 0xff,
    0x1f, 0xfe, 0xff, 0xff, 0x21, 0xfa, 0xff, 0xff, 0x57, 0xea, 0xff, 0xff, 0x22,
    0xfb, 0xff, 0xff, 0x12, 0xf4, 0xff, 0xff, 0x15, 0xf4, 0xff, 0xff, 0xea, 0xd3,
    0xff, 0xff, 0x00, 0x00, 0x00, 0x02, 0x18, 0x00, 0x00, 0x00, 0x09, 0x00, 0x00,
    0x00, 0x08, 0x00, 0x00, 0x00, 0x14, 0x00, 0x00, 0x00, 0x01, 0x00, 0x00, 0x00,
    0x37, 0x00, 0x00, 0x00, 0x01, 0x00, 0x00, 0x00, 0x10, 0x00, 0x00, 0x00, 0x0c,
    0xfd, 0xff, 0xff, 0x90, 0x00, 0x00, 0x00, 0x04, 0x00, 0x00, 0x00, 0x10, 0x00,
    0x00, 0x00, 0x00, 0x00, 0x00, 0x00, 0x00, 0x00, 0x00, 0x00, 0x00, 0x00, 0x00,
    0x00, 0x00, 0x00, 0x00, 0x00, 0x00, 0x00, 0x00, 0x00, 0x00, 0x00, 0x00, 0x00,
    0x00, 0x00, 0x00, 0x00, 0x00, 0x00, 0x00, 0x00, 0x00, 0x00, 0x00, 0x00, 0x00,
    0x00, 0x00, 0x00, 0x00, 0x00, 0x00, 0x00, 0x00, 0x00, 0x00, 0x00, 0x00, 0x00,
    0x00, 0x00, 0x00, 0x00, 0x00, 0x00, 0x00, 0x00, 0x00, 0x00, 0x00, 0x00, 0x00,
    0x00, 0x00, 0x00, 0x00, 0x00, 0x00, 0x00, 0x00, 0x00, 0x00, 0x00, 0x00, 0x00,
    0x00, 0x00, 0x00, 0x00, 0x00, 0x00, 0x00, 0x00, 0x00, 0x00, 0x00, 0x00, 0x00,
    0x00, 0x00, 0x00, 0x00, 0x00, 0x00, 0x00, 0x00, 0x00, 0x00, 0x00, 0x00, 0x00,
    0x00, 0x00, 0x00, 0x00, 0x00, 0x00, 0x00, 0x00, 0x00, 0x00, 0x00, 0x00, 0x00,
    0x00, 0x00, 0x00, 0x00, 0x00, 0x00, 0x00, 0x00, 0x00, 0x00, 0x00, 0x00, 0x00,
    0x00, 0x00, 0x00, 0x00, 0x10, 0x00, 0x00, 0x00, 0xd1, 0x38, 0xa2, 0x39, 0x7a,
    0xcc, 0xd2, 0x39, 0x00, 0x40, 0x3f, 0x3a, 0x5d, 0xd5, 0x0d, 0x3a, 0x6a, 0xb1,
    0xa1, 0x39, 0xe0, 0x88, 0x10, 0x3a, 0xbf, 0x39, 0xdd, 0x39, 0xd6, 0x26, 0xa6,
    0x39, 0x15, 0x33, 0xfa, 0x39, 0x46, 0x4e, 0xb3, 0x39, 0x5a, 0xb8, 0xd0, 0x39,
    0x7d, 0xd2, 0xbf, 0x39, 0xb8, 0x15, 0xb2, 0x39, 0x81, 0x9b, 0xfe, 0x39, 0x48,
    0x20, 0xb3, 0x39, 0x1f, 0xf2, 0x98, 0x39, 0x3e, 0xd5, 0xff, 0xff, 0x04, 0x00,
    0x00, 0x00, 0x60, 0x00, 0x00, 0x00, 0x81, 0x11, 0x47, 0xbf, 0x19, 0x0e, 0xe3,
    0xe1, 0xcf, 0x7f, 0x6d, 0xc8, 0x7f, 0xd5, 0x12, 0x51, 0xd3, 0xf6, 0x7f, 0xce,
    0xc5, 0x87, 0x37, 0x36, 0x69, 0x7f, 0xde, 0x8a, 0x9e, 0x07, 0x39, 0x81, 0x3d,
    0x11, 0xc5, 0x25, 0xbd, 0x6b, 0xfa, 0xa1, 0x7f, 0xfd, 0x18, 0xb1, 0x54, 0xe2,
    0xa8, 0x7f, 0x21, 0x42, 0xff, 0xbb, 0x81, 0x52, 0x7f, 0xff, 0x97, 0x5e, 0xe3,
    0xb9, 0x81, 0xa0, 0x49, 0x34, 0x78, 0xf7, 0xb5, 0x2e, 0x4c, 0x81, 0xe4, 0x77,
    0xf2, 0x64, 0x8d, 0x1b, 0x48, 0x81, 0x7f, 0x38, 0xe5, 0x01, 0xa2, 0xe5, 0xcd,
    0xaa, 0x81, 0x62, 0x54, 0x3c, 0x7f, 0x44, 0x7f, 0xa0, 0x90, 0x83, 0x56, 0xd5,
    0xff, 0xff, 0x00, 0x00, 0x00, 0x09, 0x18, 0x00, 0x00, 0x00, 0x08, 0x00, 0x00,
    0x00, 0x08, 0x00, 0x00, 0x00, 0x20, 0x00, 0x00, 0x00, 0x01, 0x00, 0x00, 0x00,
    0x36, 0x00, 0x00, 0x00, 0x04, 0x00, 0x00, 0x00, 0x10, 0x00, 0x00, 0x00, 0x02,
    0x00, 0x00, 0x00, 0x03, 0x00, 0x00, 0x00, 0x01, 0x00, 0x00, 0x00, 0x84, 0xfe,
    0xff, 0xff, 0x90, 0x00, 0x00, 0x00, 0x04, 0x00, 0x00, 0x00, 0x10, 0x00, 0x00,
    0x00, 0x00, 0x00, 0x00, 0x00, 0x00, 0x00, 0x00, 0x00, 0x00, 0x00, 0x00, 0x00,
    0x00, 0x00, 0x00, 0x00, 0x00, 0x00, 0x00, 0x00, 0x00, 0x00, 0x00, 0x00, 0x00,
    0x00, 0x00, 0x00, 0x00, 0x00, 0x00, 0x00, 0x00, 0x00, 0x00, 0x00, 0x00, 0x00,
    0x00, 0x00, 0x00, 0x00, 0x00, 0x00, 0x00, 0x00, 0x00, 0x00, 0x00, 0x00, 0x00,
    0x00, 0x00, 0x00, 0x00, 0x00, 0x00, 0x00, 0x00, 0x00, 0x00, 0x00, 0x00, 0x00,
    0x00, 0x00, 0x00, 0x00, 0x00, 0x00, 0x00, 0x00, 0x00, 0x00, 0x00, 0x00, 0x00,
    0x00, 0x00, 0x00, 0x00, 0x00, 0x00, 0x00, 0x00, 0x00, 0x00, 0x00, 0x00, 0x00,
    0x00, 0x00, 0x00, 0x00, 0x00, 0x00, 0x00, 0x00, 0x00, 0x00, 0x00, 0x00, 0x00,
    0x00, 0x00, 0x00, 0x00, 0x00, 0x00, 0x00, 0x00, 0x00, 0x00, 0x00, 0x00, 0x00,
    0x00, 0x00, 0x00, 0x00, 0x00, 0x00, 0x00, 0x00, 0x00, 0x00, 0x00, 0x00, 0x00,
    0x00, 0x00, 0x00, 0x10, 0x00, 0x00, 0x00, 0xbc, 0x3f, 0x4b, 0x3b, 0x3a, 0x0e,
    0x84, 0x3b, 0x51, 0x9e, 0xef, 0x3b, 0x3e, 0xb4, 0xb1, 0x3b, 0x16, 0x96, 0x4a,
    0x3b, 0xa5, 0x16, 0xb5, 0x3b, 0x67, 0x96, 0x8a, 0x3b, 0x2e, 0x2c, 0x50, 0x3b,
    0x04, 0xbd, 0x9c, 0x3b, 0x45, 0xa7, 0x60, 0x3b, 0xe1, 0xc0, 0x82, 0x3b, 0xda,
    0x55, 0x70, 0x3b, 0xaa, 0x1f, 0x5f, 0x3b, 0xec, 0x7f, 0x9f, 0x3b, 0xa5, 0x6d,
    0x60, 0x3b, 0x77, 0xa0, 0x3f, 0x3b, 0x00, 0x00, 0x0a, 0x00, 0x0c, 0x00, 0x00,
    0x00, 0x04, 0x00, 0x08, 0x00, 0x0a, 0x00, 0x00, 0x00, 0x10, 0x00, 0x00, 0x00,
    0x04, 0x00, 0x00, 0x00, 0x01, 0x00, 0x00, 0x00, 0x06, 0x00, 0x00, 0x00, 0x01,
    0x00, 0x00, 0x00, 0x00, 0x00, 0x00, 0x00, 0x0c, 0x00, 0x10, 0x00, 0x0b, 0x00,
    0x00, 0x00, 0x0c, 0x00, 0x04, 0x00, 0x0c, 0x00, 0x00, 0x00, 0x72, 0x00, 0x00,
    0x00, 0x00, 0x00, 0x00, 0x72, 0x01, 0x00, 0x00, 0x00, 0x14, 0x00, 0x1c, 0x00,
    0x08, 0x00, 0x07, 0x00, 0x0c, 0x00, 0x10, 0x00, 0x14, 0x00, 0x00, 0x00, 0x00,
    0x00, 0x18, 0x00, 0x14, 0x00, 0x00, 0x00, 0x00, 0x00, 0x00, 0x09, 0x30, 0x00,
    0x00, 0x00, 0x07, 0x00, 0x00, 0x00, 0x20, 0x00, 0x00, 0x00, 0x44, 0x00, 0x00,
    0x00, 0x04, 0x00, 0x00, 0x00, 0x04, 0x00, 0x00, 0x00, 0xff, 0xff, 0xff, 0xff,
    0x04, 0x00, 0x00, 0x00, 0x18, 0x00, 0x00, 0x00, 0x01, 0x00, 0x00, 0x00, 0x01,
    0x00, 0x00, 0x00, 0x35, 0x00, 0x00, 0x00, 0x04, 0x00, 0x00, 0x00, 0x01, 0x00,
    0x00, 0x00, 0x04, 0x00, 0x00, 0x00, 0x18, 0x00, 0x00, 0x00, 0x01, 0x00, 0x00,
    0x00, 0x0c, 0x00, 0x0c, 0x00, 0x00, 0x00, 0x00, 0x00, 0x04, 0x00, 0x08, 0x00,
    0x0c, 0x00, 0x00, 0x00, 0x18, 0x00, 0x00, 0x00, 0x04, 0x00, 0x00, 0x00, 0x01,
    0x00, 0x00, 0x00, 0x7f, 0x00, 0x00, 0x00, 0x00, 0x00, 0x00, 0x00, 0x00, 0x00,
    0x00, 0x00, 0x01, 0x00, 0x00, 0x00, 0x2a, 0x53, 0xcc, 0x3d, 0x8a, 0xd7, 0xff,
    0xff, 0x04, 0x00, 0x00, 0x00, 0x10, 0x00, 0x00, 0x00, 0xff, 0xff, 0xff, 0xff,
    0xff, 0xff, 0xff, 0xff, 0x01, 0x00, 0x00, 0x00, 0x00, 0x00, 0x00, 0x00, 0x52,
    0xd7, 0xff, 0xff, 0x00, 0x00, 0x00, 0x04, 0x18, 0x00, 0x00, 0x00, 0x06, 0x00,
    0x00, 0x00, 0x08, 0x00, 0x00, 0x00, 0x14, 0x00, 0x00, 0x00, 0x01, 0x00, 0x00,
    0x00, 0x34, 0x00, 0x00, 0x00, 0x01, 0x00, 0x00, 0x00, 0x02, 0x00, 0x00, 0x00,
    0xc8, 0xd6, 0xff, 0xff, 0xd2, 0xd7, 0xff, 0xff, 0x04, 0x00, 0x00, 0x00, 0x00,
    0x13, 0x00, 0x00, 0x06, 0x01, 0xdd, 0x0f, 0x07, 0xf5, 0xbb, 0x0b, 0xe0, 0x05,
    0xf6, 0xfb, 0xf0, 0x02, 0x0a, 0xf5, 0xfe, 0xe8, 0xe3, 0x0e, 0xff, 0xff, 0xd8,
    0x16, 0xee, 0x09, 0xc0, 0x16, 0xd6, 0x07, 0xbc, 0xe3, 0xfb, 0x01, 0x07, 0x0c,
    0x10, 0x03, 0xf1, 0xac, 0xed, 0x08, 0xf8, 0xbd, 0x05, 0x14, 0xf7, 0xf6, 0xff,
    0x05, 0x0d, 0xf9, 0x00, 0xdd, 0xe0, 0xbe, 0xff, 0x06, 0xfb, 0xcc, 0x09, 0x0d,
    0x06, 0x00, 0x15, 0xe4, 0x03, 0x12, 0x19, 0x1e, 0xdf, 0x0b, 0x15, 0x0e, 0x16,
    0x08, 0xfa, 0x22, 0xf0, 0x17, 0x1d, 0xc7, 0x06, 0x0f, 0x05, 0x07, 0xfb, 0xff,
    0xfd, 0x18, 0xf2, 0xf9, 0xde, 0x28, 0xef, 0xfc, 0xf6, 0xf8, 0xff, 0x05, 0xf1,
    0x1f, 0xec, 0x16, 0x10, 0xff, 0xfa, 0xe7, 0xdf, 0x0b, 0xfa, 0xec, 0x0a, 0xfd,
    0xed, 0xed, 0x0f, 0xae, 0x13, 0xdd, 0xd4, 0xfb, 0xe6, 0x06, 0x2b, 0xf6, 0x0c,
    0xfd, 0xf6, 0x00, 0xd2, 0xe9, 0x0e, 0x09, 0xdd, 0xf2, 0xee, 0xf5, 0xf7, 0xc5,
    0x0d, 0xe0, 0xd5, 0xd5, 0xf9, 0xea, 0x14, 0x1d, 0xf6, 0x13, 0xe6, 0x05, 0xe2,
    0xff, 0xf0, 0xf6, 0xf5, 0x04, 0xf2, 0xe2, 0x20, 0xea, 0x12, 0xb3, 0xbf, 0xfa,
    0x02, 0x13, 0xcb, 0xf3, 0x2c, 0xf5, 0xde, 0x18, 0xed, 0xe1, 0x10, 0xe8, 0x1a,
    0xca, 0xdd, 0xd7, 0xe3, 0x25, 0xbc, 0xf1, 0x25, 0xf9, 0xe7, 0x18, 0xdb, 0xdb,
    0xee, 0xff, 0x06, 0x31, 0x32, 0xdf, 0x22, 0xee, 0xe0, 0x14, 0xe4, 0x16, 0x16,
    0x17, 0x48, 0x2f, 0xfd, 0xdf, 0xf8, 0x08, 0x2b, 0x1d, 0xe5, 0xde, 0x23, 0xe3,
    0x31, 0xee, 0x28, 0xfd, 0x2c, 0x25, 0x0e, 0xdc, 0xea, 0xad, 0x05, 0xa4, 0x05,
    0xef, 0x8f, 0xcf, 0xec, 0xfb, 0x1d, 0xa7, 0xd5, 0xe2, 0xb3, 0x09, 0x31, 0xa9,
    0xf1, 0x0f, 0xfe, 0x20, 0x02, 0xf5, 0x9b, 0x03, 0xc7, 0xfd, 0xf3, 0xf2, 0xa2,
    0xfd, 0xca, 0xd6, 0xfa, 0x26, 0xc2, 0xee, 0xa7, 0x33, 0xc2, 0xe5, 0x16, 0x15,
    0xda, 0xe0, 0xc6, 0x0b, 0xbd, 0x05, 0x0c, 0xb0, 0xf9, 0xb3, 0xc6, 0x18, 0xd6,
    0xef, 0x2a, 0x04, 0x11, 0xfb, 0xff, 0x0d, 0xfe, 0x1e, 0x01, 0xe4, 0xea, 0x05,
    0xd6, 0x03, 0xfb, 0x07, 0x0e, 0x04, 0xd6, 0xda, 0xeb, 0xff, 0xf6, 0x18, 0x10,
    0xdf, 0x2e, 0x02, 0xd1, 0x05, 0xba, 0x09, 0x0b, 0xf9, 0x04, 0xfe, 0x04, 0xe2,
    0xeb, 0x09, 0x09, 0xe4, 0xf9, 0xf9, 0x02, 0xda, 0xed, 0x05, 0x0a, 0xda, 0x03,
    0x03, 0x04, 0x03, 0xf8, 0x2b, 0x05, 0x11, 0xf3, 0xfc, 0x20, 0x3c, 0x1e, 0x19,
    0xf9, 0xc6, 0xf4, 0x06, 0xfc, 0x23, 0xd6, 0x03, 0xef, 0xd7, 0xf8, 0x0e, 0xe0,
    0xd0, 0x06, 0x01, 0xf0, 0xb7, 0xfa, 0xbe, 0xed, 0x0d, 0x12, 0x2d, 0xf6, 0xf1,
    0xd8, 0x0d, 0x23, 0xe6, 0x18, 0xe8, 0xbc, 0xfb, 0xe2, 0xb4, 0xf6, 0x28, 0x14,
    0x2b, 0xf8, 0xc3, 0x04, 0xfd, 0x0d, 0x04, 0x0d, 0x02, 0xf7, 0xf3, 0xb8, 0xeb,
    0xfc, 0x1b, 0x02, 0x41, 0xed, 0xd2, 0x1a, 0x0d, 0xd1, 0xfe, 0x2f, 0x0e, 0x8e,
    0xe3, 0xa1, 0xbe, 0x08, 0xfc, 0x21, 0xef, 0xf7, 0xe9, 0x03, 0x04, 0x06, 0xf0,
    0x0b, 0x07, 0x89, 0x19, 0x1c, 0x09, 0x05, 0xe0, 0xdf, 0xc6, 0xf9, 0xe8, 0x02,
    0x13, 0xf3, 0xc6, 0x02, 0x0d, 0xcf, 0xd3, 0x02, 0xe3, 0xf8, 0x09, 0xe8, 0x25,
    0xe8, 0x0a, 0xf4, 0x01, 0x0c, 0x10, 0x12, 0xe6, 0xdc, 0x10, 0x0e, 0x00, 0x20,
    0xd5, 0xba, 0xb5, 0x01, 0x2a, 0x0e, 0x1f, 0x17, 0xc6, 0xfc, 0xee, 0xf5, 0xce,
    0xe9, 0xfc, 0xfe, 0x00, 0xbc, 0x0a, 0xff, 0xc8, 0xf8, 0xf2, 0xd9, 0x01, 0x15,
    0xf6, 0xdf, 0x02, 0x29, 0x34, 0x10, 0x32, 0xf8, 0xea, 0xe9, 0xc7, 0xe1, 0xf2,
    0xfa, 0xf7, 0x1e, 0xfc, 0xf8, 0x1b, 0x47, 0x0e, 0xf2, 0xe3, 0x94, 0xf6, 0x02,
    0xe7, 0x81, 0xf4, 0xed, 0x09, 0xc8, 0xfa, 0xe9, 0xeb, 0xaa, 0xd6, 0xff, 0x14,
    0xe4, 0x15, 0x00, 0xf9, 0xd8, 0xff, 0xed, 0x08, 0x14, 0xf9, 0xf4, 0xf0, 0xfb,
    0xf6, 0x02, 0x0c, 0x12, 0xe5, 0xf6, 0xbd, 0x15, 0xd1, 0xf2, 0x09, 0xf9, 0xc8,
    0x17, 0x01, 0x11, 0x01, 0x00, 0x05, 0x04, 0x0d, 0x00, 0x12, 0x09, 0xcc, 0x01,
    0x07, 0xe9, 0x04, 0x08, 0xfc, 0xfe, 0xfc, 0x09, 0xdd, 0xd6, 0x15, 0xff, 0x13,
    0xc5, 0x02, 0x03, 0x07, 0xcb, 0xf9, 0x04, 0x1b, 0xd1, 0xf0, 0x1b, 0xda, 0xec,
    0x0e, 0x11, 0x0f, 0xde, 0x07, 0x1d, 0xec, 0x08, 0x01, 0xfc, 0xfd, 0xfc, 0x21,
    0xe7, 0x05, 0xe2, 0x22, 0x09, 0x26, 0xc4, 0x08, 0x08, 0x08, 0x01, 0x0b, 0xf0,
    0xfb, 0x02, 0x15, 0xf5, 0x01, 0x05, 0x05, 0xfa, 0x05, 0xf3, 0x0a, 0x09, 0x06,
    0xfe, 0xe8, 0xe0, 0x06, 0xf3, 0xfb, 0xfc, 0x0b, 0xc3, 0xfa, 0x0a, 0xfc, 0x10,
    0xfd, 0xf6, 0xf0, 0xf8, 0xfe, 0x07, 0x81, 0x08, 0xcc, 0xf9, 0xf8, 0x01, 0xfd,
    0x09, 0xe8, 0xd9, 0xfb, 0xf5, 0xf5, 0x1b, 0xf3, 0x07, 0x1a, 0xfc, 0xde, 0x0e,
    0xf3, 0x05, 0xf7, 0x19, 0xe6, 0xf2, 0x19, 0x10, 0xe5, 0xf2, 0xf8, 0xe5, 0x11,
    0xd6, 0x1e, 0x06, 0xe9, 0xff, 0xa0, 0xea, 0x06, 0xf0, 0x04, 0xd6, 0x04, 0x27,
    0xf8, 0xfb, 0x0b, 0xdd, 0xe6, 0x1d, 0xe0, 0x01, 0x03, 0xfb, 0x37, 0x03, 0x0d,
    0x24, 0xf7, 0x25, 0x07, 0xe4, 0x00, 0xdf, 0xf3, 0xf7, 0x04, 0xfc, 0x34, 0x0d,
    0xcf, 0xe7, 0xc9, 0x96, 0x21, 0xe6, 0xee, 0x0e, 0x11, 0x15, 0x0d, 0xdf, 0x13,
    0x34, 0xfd, 0x14, 0xba, 0xeb, 0x05, 0xdc, 0xf8, 0x07, 0x02, 0x1e, 0xf5, 0x1d,
    0x0f, 0x1c, 0xe0, 0x84, 0xb3, 0x08, 0x91, 0x09, 0xf9, 0x81, 0xeb, 0xf0, 0x01,
    0x18, 0xee, 0xee, 0xdf, 0xe1, 0x08, 0xfc, 0x1d, 0x2a, 0x92, 0x5d, 0x84, 0xc0,
    0x1b, 0xfe, 0x12, 0x1f, 0x25, 0x47, 0x1d, 0xdb, 0xf4, 0xe4, 0xf8, 0xd4, 0xf6,
    0xd8, 0xf7, 0xae, 0x16, 0xc4, 0xed, 0x0e, 0xfe, 0xf6, 0xe0, 0xff, 0xfd, 0xe1,
    0x06, 0x06, 0xf8, 0x2c, 0xec, 0xf8, 0x0c, 0xd8, 0xe0, 0x08, 0xe7, 0x1b, 0x14,
    0xe3, 0x05, 0x08, 0x28, 0xff, 0xf3, 0xfd, 0xe4, 0xb0, 0x08, 0xea, 0xda, 0x11,
    0x00, 0xe0, 0xd7, 0xfd, 0xfe, 0xc8, 0x23, 0xf4, 0xe7, 0xf7, 0x03, 0x01, 0x15,
    0xfd, 0x19, 0xec, 0xec, 0x03, 0xf5, 0x09, 0xdb, 0xe2, 0xfe, 0x0a, 0xf4, 0xff,
    0xfe, 0xf6, 0xb0, 0xfb, 0x09, 0xfe, 0xed, 0x0d, 0x0d, 0x02, 0x00, 0xf9, 0x4b,
    0xf6, 0x24, 0xf3, 0x29, 0x05, 0xeb, 0x24, 0x06, 0xe9, 0x05, 0xf0, 0xe4, 0x04,
    0x3d, 0x07, 0x13, 0xf5, 0xdc, 0xf7, 0x0e, 0xba, 0xfc, 0x18, 0xf0, 0x00, 0xb9,
    0xc0, 0xfd, 0xf0, 0xf3, 0xf1, 0x15, 0xe3, 0xcd, 0x0d, 0x08, 0x94, 0x0a, 0x10,
    0x0e, 0xde, 0xff, 0xc6, 0xfc, 0xf0, 0x27, 0x10, 0x24, 0xfd, 0xd5, 0x03, 0xfc,
    0x12, 0x01, 0x0e, 0xfd, 0xf5, 0xf6, 0xb8, 0xe2, 0x01, 0x04, 0x23, 0xff, 0x22,
    0xe3, 0xfe, 0xe3, 0xed, 0xfd, 0xee, 0xf9, 0xf1, 0xe1, 0xf6, 0xdc, 0x02, 0xfc,
    0x09, 0xf2, 0x03, 0xe5, 0xf4, 0x08, 0x0a, 0xef, 0x01, 0x02, 0x8a, 0xf6, 0x0c,
    0x07, 0xfa, 0xe6, 0x1d, 0x11, 0x1c, 0x94, 0x0d, 0xb1, 0xd3, 0x1f, 0x9e, 0xd3,
    0x1f, 0x00, 0x0a, 0xfe, 0xf4, 0x26, 0xf7, 0x30, 0xe0, 0xec, 0xc5, 0xf7, 0x07,
    0x0b, 0xe8, 0xee, 0xe9, 0xf0, 0x04, 0xf6, 0x17, 0x0d, 0x32, 0xb6, 0xd1, 0xd0,
    0xf3, 0xf3, 0xe2, 0xe2, 0x2d, 0xd9, 0xeb, 0xe8, 0x0f, 0xeb, 0xfb, 0xf9, 0xea,
    0x23, 0xeb, 0xf7, 0xff, 0xfb, 0xfb, 0x06, 0x09, 0xfb, 0xde, 0x07, 0x2b, 0x12,
    0xf8, 0x04, 0xda, 0x1c, 0xfc, 0xf3, 0xed, 0x05, 0xf3, 0x08, 0xf7, 0x05, 0xda,
    0xed, 0xe9, 0xd4, 0xf6, 0xf6, 0xe8, 0xfa, 0xf9, 0xdb, 0xa9, 0xfb, 0xfc, 0x12,
    0xc1, 0xf7, 0xe3, 0xb3, 0xda, 0xc6, 0x06, 0x02, 0x19, 0xf7, 0xff, 0xe9, 0xdd,
    0xd5, 0x03, 0x03, 0x00, 0xe5, 0x07, 0x01, 0xfb, 0x00, 0x05, 0x0d, 0x1a, 0xd9,
    0x03, 0xd8, 0x0b, 0xef, 0xf9, 0xf6, 0xfd, 0xae, 0x0f, 0xfe, 0x0d, 0x07, 0x16,
    0xb2, 0xce, 0x05, 0x05, 0x17, 0xfc, 0xfd, 0x0b, 0x07, 0xf0, 0xf6, 0xeb, 0x1c,
    0xe3, 0xf6, 0x08, 0xf9, 0x04, 0x0d, 0xec, 0x06, 0xb9, 0x09, 0xe9, 0x0f, 0xde,
    0xf7, 0x05, 0x0c, 0xd6, 0xd0, 0x02, 0xfb, 0xf8, 0xfe, 0xf7, 0xa8, 0x04, 0xe9,
    0xd7, 0xfc, 0xf3, 0x03, 0x19, 0xe8, 0xff, 0x0b, 0xf3, 0xfc, 0xe6, 0x0c, 0xfe,
    0x10, 0xbb, 0x01, 0x0b, 0xf8, 0x04, 0xf5, 0xf3, 0xf0, 0x0a, 0x0e, 0xfd, 0xf9,
    0xfd, 0x2b, 0xec, 0x02, 0xff, 0x08, 0xea, 0x00, 0x05, 0xfe, 0xf5, 0x02, 0x05,
    0xdb, 0x00, 0x05, 0xdb, 0x05, 0xf2, 0x03, 0x0b, 0x03, 0xec, 0xff, 0xfe, 0x01,
    0x07, 0xe0, 0x0a, 0xe8, 0xf7, 0xef, 0xf4, 0xcb, 0xfe, 0xd1, 0xf5, 0xf5, 0xb2,
    0x0e, 0x26, 0xf5, 0x02, 0x32, 0xce, 0xfd, 0xe8, 0x15, 0xe0, 0x04, 0x0d, 0xff,
    0xed, 0xff, 0x13, 0x02, 0xf6, 0xf8, 0xfb, 0x18, 0xee, 0x1c, 0x19, 0x0c, 0x93,
    0x0c, 0x1e, 0x02, 0x9f, 0xc9, 0x25, 0xcc, 0x20, 0xd3, 0x13, 0xe0, 0x1d, 0x21,
    0x18, 0x0f, 0xe3, 0xdf, 0xfb, 0x0f, 0xdf, 0xf8, 0x2b, 0x1c, 0xf9, 0x01, 0xe7,
    0x17, 0x02, 0x0c, 0xd5, 0xfe, 0x13, 0x9e, 0xd8, 0x06, 0x08, 0x14, 0xfa, 0xf7,
    0xbd, 0x12, 0xc8, 0x06, 0xeb, 0xed, 0xe3, 0x15, 0x05, 0xf2, 0x0d, 0xcc, 0xf3,
    0x01, 0xe1, 0xf9, 0x04, 0xfe, 0x14, 0x06, 0x2b, 0x27, 0xc8, 0x0d, 0xd8, 0x10,
    0xf7, 0xd8, 0xe1, 0xd3, 0xd4, 0x0d, 0xe0, 0x81, 0x11, 0xea, 0x15, 0xfb, 0x05,
    0x11, 0x10, 0x08, 0x0e, 0xb5, 0x13, 0xcf, 0xdd, 0x05, 0x06, 0xcc, 0x09, 0x21,
    0x27, 0x4d, 0xee, 0xf3, 0xf1, 0x28, 0x04, 0xd5, 0xfa, 0x02, 0xd3, 0x03, 0xae,
    0xf5, 0x0e, 0xf5, 0xf8, 0xf7, 0x06, 0xf9, 0xe1, 0x08, 0x08, 0xfc, 0x0f, 0xf5,
    0xf0, 0xff, 0xd2, 0xf6, 0x05, 0xeb, 0x11, 0x24, 0x08, 0xd8, 0xc6, 0x0e, 0x0a,
    0xfe, 0x12, 0x00, 0x0c, 0xeb, 0x22, 0x0d, 0xc9, 0xb8, 0xfe, 0x01, 0x02, 0xfe,
    0xcf, 0x10, 0xeb, 0xfa, 0xef, 0x0d, 0x03, 0xfe, 0x06, 0x03, 0xe7, 0xd6, 0xf6,
    0xe7, 0x01, 0x11, 0x08, 0x2e, 0x0e, 0x1d, 0xe5, 0x00, 0x14, 0x16, 0x17, 0x07,
    0xc0, 0xfe, 0xc8, 0xfe, 0x04, 0xee, 0x14, 0x4d, 0x0b, 0x26, 0x03, 0x12, 0x17,
    0x13, 0x00, 0x0b, 0xf5, 0x2c, 0xf0, 0x12, 0xe8, 0x2c, 0x04, 0x55, 0x18, 0xd6,
    0x0b, 0x0d, 0xe3, 0xe9, 0x19, 0x09, 0x9d, 0xfd, 0xa3, 0xf2, 0xe3, 0xf6, 0xfc,
    0x34, 0x01, 0xde, 0x0d, 0x16, 0xc8, 0x0b, 0x0d, 0x09, 0xd1, 0x0a, 0xb4, 0xf7,
    0x04, 0xe7, 0xee, 0xc1, 0x01, 0xee, 0xfe, 0x10, 0xf7, 0xc4, 0x02, 0x05, 0xd0,
    0xe8, 0x06, 0xfb, 0xf9, 0xff, 0xf5, 0xe2, 0x01, 0xec, 0xfa, 0xed, 0xf4, 0xee,
    0xf8, 0xf4, 0xf3, 0x10, 0xf6, 0xe9, 0x18, 0xde, 0x8d, 0x15, 0xf8, 0x17, 0x15,
    0x01, 0x22, 0xd6, 0xf8, 0xe6, 0xfa, 0xdd, 0xef, 0xfd, 0x03, 0xfe, 0xfd, 0xfa,
    0x03, 0xd1, 0xff, 0xc4, 0xce, 0x16, 0xea, 0xe3, 0x02, 0x03, 0xf7, 0x02, 0x02,
    0x0b, 0x0e, 0xe0, 0x90, 0xf0, 0xed, 0x02, 0xfe, 0x0a, 0x26, 0x17, 0xea, 0xc3,
    0x34, 0xda, 0xf3, 0xfd, 0x1b, 0xb7, 0xa6, 0xdf, 0x0c, 0xfe, 0xc8, 0x09, 0x26,
    0x06, 0xfe, 0xc2, 0x10, 0xba, 0x05, 0x12, 0xce, 0x21, 0xfc, 0x00, 0xcb, 0xfc,
    0xf5, 0x12, 0xe0, 0xf4, 0xf8, 0xec, 0xfa, 0x01, 0xf7, 0xeb, 0xfa, 0x1a, 0xfc,
    0xff, 0xfe, 0x06, 0xdd, 0x13, 0xe5, 0x01, 0xd8, 0x07, 0xed, 0xda, 0x00, 0x02,
    0xfe, 0x04, 0xfa, 0x05, 0x09, 0xd5, 0x02, 0x03, 0xfa, 0xfa, 0x0c, 0x07, 0x0b,
    0xf7, 0x06, 0x07, 0x1b, 0xf3, 0xfd, 0xe9, 0x30, 0xa3, 0x0c, 0xff, 0xf2, 0xf8,
    0x07, 0x04, 0x06, 0xfc, 0x16, 0xcc, 0x0d, 0x15, 0x19, 0x13, 0xcf, 0xff, 0x16,
    0xea, 0x0f, 0x03, 0x09, 0x02, 0xeb, 0x0b, 0x15, 0x81, 0xb2, 0xf8, 0xf6, 0x2f,
    0xf4, 0x03, 0x02, 0xe6, 0xe7, 0xe2, 0xc9, 0xf6, 0xe9, 0xe8, 0xf5, 0xed, 0xfa,
    0x03, 0x00, 0x19, 0xdd, 0x1d, 0x19, 0xf9, 0xfb, 0xe4, 0xca, 0x23, 0xf6, 0xf8,
    0x0f, 0xfb, 0xed, 0xfa, 0xf9, 0x81, 0x10, 0xe3, 0xc5, 0x00, 0x06, 0x0e, 0x28,
    0x07, 0x0b, 0x12, 0xf3, 0xf9, 0xf0, 0x07, 0xfa, 0xef, 0xea, 0xfd, 0xf2, 0xf2,
    0x20, 0xf9, 0x15, 0xf9, 0xfd, 0xe0, 0xfe, 0x05, 0x09, 0x1b, 0xe1, 0x12, 0xf1,
    0x04, 0x05, 0x0a, 0x06, 0x00, 0xfa, 0x14, 0x02, 0xe1, 0xf2, 0xf0, 0xd1, 0xca,
    0xe1, 0xea, 0xe1, 0xf9, 0xb3, 0x1c, 0x33, 0xe5, 0x1f, 0x25, 0xf9, 0xd4, 0xd9,
    0xfc, 0xcf, 0xf2, 0xf4, 0xe6, 0xfd, 0xae, 0x81, 0x1d, 0xfd, 0xe8, 0x28, 0x36,
    0xfe, 0xf4, 0xf3, 0xff, 0x0a, 0x40, 0xfe, 0x38, 0x15, 0xcf, 0x81, 0x29, 0xf6,
    0xdd, 0x0f, 0x4b, 0x29, 0x1a, 0x2a, 0x0a, 0x92, 0x17, 0x1c, 0x24, 0x12, 0xcf,
    0x18, 0xe6, 0x19, 0xd8, 0x17, 0xe7, 0x15, 0x1d, 0x30, 0xd8, 0x84, 0xe1, 0x16,
    0x85, 0x07, 0x07, 0xba, 0xd7, 0xef, 0x10, 0x17, 0xee, 0xe3, 0x02, 0xd1, 0xf3,
    0x07, 0xab, 0xe2, 0x07, 0x01, 0x1b, 0xd4, 0x03, 0xcf, 0xec, 0xd6, 0x0d, 0xf3,
    0xf4, 0xf5, 0x0a, 0xd2, 0xf5, 0xdd, 0xfd, 0xd0, 0x26, 0x1e, 0xff, 0xb4, 0xdb,
    0xf2, 0xeb, 0x05, 0xff, 0xc0, 0x2b, 0xe5, 0x33, 0xec, 0xbb, 0xde, 0xf9, 0xba,
    0x10, 0xd7, 0xf4, 0x21, 0xe2, 0x25, 0xfd, 0xc1, 0x1b, 0x08, 0x2b, 0xdf, 0xcc,
    0xc0, 0xb5, 0x81, 0x13, 0xfb, 0xc2, 0x16, 0x07, 0xff, 0xb4, 0xe6, 0xf0, 0xed,
    0x29, 0x02, 0xc4, 0xe2, 0xe8, 0xad, 0x07, 0xd0, 0xd3, 0x12, 0x00, 0x0b, 0xfa,
    0x0e, 0xdd, 0xc6, 0x08, 0x0c, 0xe6, 0x1a, 0x07, 0xf1, 0xc5, 0x0b, 0x14, 0xf6,
    0xe8, 0xf6, 0x09, 0x03, 0xf5, 0xa0, 0x3c, 0xf9, 0x14, 0x15, 0x0a, 0x27, 0xbb,
    0x1f, 0x19, 0x81, 0xd7, 0xf0, 0xf9, 0x01, 0xe7, 0xcd, 0x1a, 0xf7, 0xe4, 0xdb,
    0x0c, 0xaa, 0xc7, 0x02, 0xf1, 0xe1, 0xe1, 0xb1, 0xc3, 0xdb, 0xf5, 0xcc, 0x3e,
    0x0a, 0xe9, 0xc4, 0xe9, 0x81, 0xf2, 0xef, 0xa0, 0xc2, 0xc6, 0xc4, 0xcf, 0xf2,
    0x44, 0x03, 0x1c, 0x00, 0xdf, 0x0b, 0xfd, 0x04, 0x09, 0x0a, 0xfd, 0xf6, 0xf2,
    0x81, 0xde, 0xf1, 0x42, 0x02, 0x4d, 0x11, 0xd0, 0x0e, 0x0c, 0xd7, 0x05, 0x23,
    0x0b, 0xca, 0xf0, 0x91, 0xfa, 0x04, 0xfd, 0x08, 0xef, 0x0d, 0xe2, 0xeb, 0x0a,
    0x04, 0xe5, 0x00, 0x03, 0x81, 0xfa, 0xfc, 0x0a, 0x05, 0xf1, 0xfb, 0xbe, 0xfa,
    0xe6, 0xf9, 0x16, 0xea, 0xfa, 0x08, 0xff, 0xeb, 0xe7, 0x08, 0xd6, 0xe8, 0x00,
    0xeb, 0x08, 0xff, 0xf7, 0x95, 0x15, 0xe6, 0x1d, 0xec, 0xf9, 0xe8, 0x0e, 0xe7,
    0x08, 0x19, 0xc0, 0x9d, 0x42, 0x2e, 0x13, 0x25, 0x24, 0x20, 0xd3, 0x13, 0xf9,
    0xd1, 0xef, 0xf9, 0x09, 0x0b, 0x2e, 0xf2, 0x1e, 0xdd, 0x0c, 0xf9, 0x16, 0x27,
    0x14, 0xfe, 0x01, 0xdd, 0x0a, 0x28, 0x28, 0xe5, 0x15, 0xec, 0x1f, 0xae, 0xc7,
    0xea, 0x11, 0xa3, 0xee, 0x20, 0xf7, 0xfc, 0xb2, 0x2a, 0xca, 0xf7, 0xdc, 0xea,
    0x0f, 0xf9, 0xce, 0xc7, 0xf2, 0xe4, 0x09, 0xcf, 0xe3, 0xf1, 0xb0, 0xd8, 0xef,
    0x08, 0x03, 0x01, 0xdb, 0x08, 0xcc, 0xf6, 0xc0, 0xf1, 0x01, 0xf9, 0x81, 0x10,
    0xf4, 0xff, 0x0f, 0x05, 0xdc, 0x32, 0x08, 0xd7, 0x1a, 0xca, 0x07, 0xf6, 0x02,
    0xd7, 0xf2, 0xe7, 0x1a, 0xe3, 0xbc, 0xec, 0xff, 0xe4, 0xe7, 0xff, 0x0e, 0xd8,
    0x05, 0x12, 0x00, 0xeb, 0xf8, 0xf4, 0xee, 0x04, 0x05, 0x0b, 0xfc, 0x07, 0x12,
    0x0f, 0x1b, 0x16, 0x0a, 0xff, 0x06, 0x10, 0x0c, 0xf9, 0x1b, 0x06, 0xf8, 0xe3,
    0x24, 0xce, 0xf7, 0x38, 0x18, 0x0f, 0xf6, 0x18, 0x17, 0xce, 0x03, 0x29, 0x20,
    0x08, 0x3c, 0x09, 0xfa, 0xbe, 0x03, 0xfe, 0xf7, 0xf9, 0xdb, 0x43, 0x02, 0x1b,
    0xe5, 0xc8, 0x05, 0xfe, 0x04, 0xdf, 0x14, 0xfd, 0x03, 0x09, 0xb3, 0xfb, 0xf9,
    0xc2, 0xf4, 0x05, 0x1b, 0x27, 0xfc, 0x23, 0x08, 0xf1, 0x0d, 0x04, 0x2d, 0xea,
    0x90, 0x51, 0xa4, 0xf1, 0xff, 0xdd, 0x07, 0x27, 0xf8, 0x04, 0x58, 0xf4, 0xf5,
    0xd6, 0xf3, 0x16, 0x0e, 0x02, 0xf1, 0x08, 0x10, 0xd6, 0xf4, 0x19, 0xf0, 0x09,
    0x2b, 0x00, 0x0d, 0x0b, 0x40, 0xdb, 0xe9, 0xfd, 0x0b, 0x11, 0xe6, 0x20, 0x10,
    0xfb, 0xc0, 0xfb, 0xda, 0xeb, 0xd7, 0xed, 0x51, 0x04, 0x1a, 0xba, 0x19, 0x21,
    0xdf, 0xfd, 0x02, 0xf1, 0xc4, 0xc3, 0xc8, 0xe2, 0x0f, 0xf2, 0x1d, 0x1e, 0xa2,
    0x0d, 0x03, 0xea, 0x0d, 0x0d, 0x03, 0xc9, 0xec, 0xa3, 0x0a, 0xf4, 0x06, 0xf9,
    0xd9, 0xf3, 0xbf, 0xf7, 0xde, 0x06, 0x05, 0x09, 0xe3, 0xf5, 0x25, 0xff, 0xc6,
    0xfc, 0x0c, 0x1f, 0x02, 0xdd, 0x81, 0x0b, 0xbc, 0xa0, 0x18, 0xf8, 0xdc, 0x20,
    0xe8, 0x0d, 0x01, 0xc9, 0x26, 0xe4, 0xcd, 0xd4, 0xe5, 0xef, 0xf7, 0x81, 0xfb,
    0x2a, 0x10, 0x1c, 0xcd, 0xf5, 0xad, 0x1d, 0x17, 0x2a, 0x06, 0xef, 0x18, 0x18,
    0xf6, 0x0b, 0x3e, 0x35, 0x19, 0x8a, 0x0a, 0x0f, 0xf6, 0x09, 0xfb, 0x10, 0xbd,
    0xeb, 0x3b, 0xf5, 0xe5, 0x1f, 0xf8, 0xf6, 0x11, 0x2d, 0x4e, 0xed, 0xdc, 0x13,
    0xf5, 0x7f, 0x1a, 0xfc, 0x2b, 0x35, 0xe0, 0x1b, 0x3c, 0x1d, 0x14, 0x03, 0x06,
    0x05, 0x0d, 0xe7, 0x0c, 0x1d, 0x13, 0x01, 0x6a, 0x34, 0xe7, 0x16, 0x08, 0xf1,
    0x0e, 0x04, 0x22, 0x0f, 0x0a, 0x11, 0x0f, 0xe1, 0xfa, 0x02, 0x26, 0x0c, 0x0d,
    0xe4, 0x10, 0xed, 0x21, 0x11, 0xf2, 0x8c, 0x8e, 0xe3, 0x0f, 0xf4, 0xf2, 0x32,
    0x0e, 0x08, 0xf5, 0xcd, 0x1c, 0xb7, 0xfd, 0x00, 0x16, 0xb8, 0xc8, 0xee, 0xfe,
    0xf3, 0x0c, 0x1b, 0x03, 0xe7, 0xf7, 0xf1, 0x16, 0xcc, 0xee, 0x14, 0xf3, 0xdf,
    0xef, 0xdd, 0x1a, 0xcf, 0x27, 0x18, 0xaf, 0x10, 0xe2, 0xfe, 0x1a, 0xcb, 0x09,
    0x16, 0xe9, 0x13, 0xf6, 0xfa, 0xf1, 0x03, 0xaf, 0xd4, 0xf4, 0xf2, 0x13, 0xdb,
    0x18, 0xf7, 0xf2, 0xf1, 0x33, 0xe9, 0xed, 0x1a, 0x31, 0x1d, 0xf8, 0xfe, 0xc9,
    0x00, 0xf6, 0x2e, 0x24, 0x31, 0x25, 0xf0, 0x60, 0xfb, 0x05, 0x06, 0xe3, 0x0f,
    0xf8, 0x10, 0xee, 0x02, 0xff, 0x10, 0x15, 0x06, 0x0d, 0x0a, 0x0f, 0xa2, 0x0d,
    0xbb, 0xe4, 0xf5, 0x1b, 0x1e, 0x0b, 0xf3, 0x04, 0xf0, 0x09, 0xbe, 0x1b, 0x0e,
    0x17, 0xe9, 0x17, 0x0d, 0xe0, 0x01, 0x11, 0xfe, 0xff, 0x5a, 0x0f, 0x0b, 0xf3,
    0xd3, 0xe7, 0xf0, 0x0b, 0x09, 0x12, 0xf9, 0xcd, 0x02, 0xfd, 0x04, 0xf0, 0xf5,
    0x08, 0x0c, 0xed, 0xa0, 0xd5, 0x01, 0x02, 0xcd, 0xfe, 0xf6, 0x04, 0xfe, 0x18,
    0xee, 0xf3, 0xdd, 0xe0, 0xdd, 0x0c, 0xe3, 0x00, 0x0e, 0x05, 0xfc, 0xf6, 0xe9,
    0x01, 0x00, 0xfb, 0x10, 0x01, 0xbf, 0xfd, 0x15, 0x05, 0x09, 0x12, 0x06, 0xf3,
    0x07, 0x14, 0xee, 0xec, 0xae, 0x30, 0x26, 0xd7, 0x03, 0xdc, 0x02, 0x14, 0xf5,
    0xe6, 0x0d, 0x0b, 0xef, 0x09, 0xd2, 0x0c, 0xf1, 0x45, 0x05, 0xf9, 0x81, 0xe4,
    0xe5, 0x11, 0xcd, 0xc3, 0x24, 0x0b, 0x06, 0x02, 0xeb, 0x10, 0x33, 0x92, 0xc4,
    0xe7, 0xef, 0x0f, 0xe9, 0x08, 0xdf, 0xfc, 0xea, 0xf7, 0x10, 0xa8, 0xeb, 0x11,
    0x28, 0xcc, 0xea, 0xd0, 0x04, 0x07, 0xf7, 0x11, 0xef, 0xfe, 0xfa, 0x0a, 0x0d,
    0xab, 0x1b, 0xd0, 0x02, 0xb0, 0xfa, 0x25, 0x3c, 0x02, 0x07, 0x8f, 0x1f, 0x1d,
    0x84, 0x0e, 0xde, 0x16, 0xfc, 0x1b, 0x53, 0xe9, 0xe1, 0xc5, 0x06, 0x03, 0xeb,
    0xfd, 0xfe, 0xfc, 0xc5, 0xb5, 0xf6, 0x06, 0xfc, 0xfd, 0x1a, 0xf0, 0xff, 0x0b,
    0x07, 0xfe, 0x07, 0xdf, 0xe7, 0x08, 0x0d, 0x11, 0x0a, 0x11, 0x0e, 0xb1, 0xe5,
    0xb1, 0xfb, 0xe8, 0x0c, 0x03, 0xfc, 0xcf, 0xf6, 0xff, 0xfb, 0xec, 0x04, 0x03,
    0x29, 0x12, 0xd5, 0xf0, 0xab, 0xd9, 0xd5, 0xc3, 0x2f, 0xfb, 0xf0, 0xd3, 0x20,
    0xaa, 0xc2, 0xd3, 0x10, 0xc9, 0xf4, 0x9a, 0xd7, 0xae, 0xb9, 0xb3, 0xef, 0x23,
    0xf9, 0xd1, 0x05, 0xe0, 0xc3, 0xda, 0x18, 0xf8, 0xa6, 0x0e, 0xff, 0x05, 0x06,
    0xf8, 0xf3, 0x0c, 0x11, 0x20, 0x15, 0xfd, 0xfe, 0xfe, 0x00, 0xff, 0xa8, 0x24,
    0x06, 0x12, 0x0d, 0xf2, 0xfc, 0xff, 0xf3, 0x12, 0x1d, 0xdd, 0x01, 0xfb, 0xde,
    0x05, 0x09, 0x01, 0xe9, 0x10, 0xce, 0x03, 0xa6, 0x02, 0xe4, 0xc0, 0x05, 0x00,
    0xfe, 0xf2, 0x0d, 0x1e, 0xea, 0x0c, 0xef, 0x38, 0xc6, 0x25, 0x0e, 0x02, 0x0c,
    0xf5, 0xd9, 0x06, 0xf1, 0x0d, 0x04, 0x05, 0xd4, 0xdd, 0x01, 0xf5, 0xa8, 0xfc,
    0x05, 0xd8, 0x08, 0xd8, 0x05, 0xe2, 0x09, 0x0b, 0x01, 0x02, 0xdb, 0xd6, 0xfb,
    0xe9, 0xc5, 0xf6, 0x05, 0xbc, 0xf5, 0x81, 0x04, 0xfa, 0x04, 0x01, 0x11, 0xfa,
    0x0e, 0x13, 0xec, 0x2b, 0x0c, 0x23, 0x6a, 0xff, 0x25, 0x2d, 0x1e, 0x1e, 0xed,
    0xff, 0x14, 0x86, 0xf5, 0x26, 0xf5, 0x0e, 0x1c, 0xf2, 0x00, 0x00, 0x15, 0x10,
    0x82, 0xfc, 0xf6, 0xe5, 0x09, 0x16, 0x2c, 0x3e, 0xfe, 0x45, 0x56, 0xcc, 0x29,
    0x0c, 0x0a, 0x2f, 0x0f, 0x05, 0x00, 0x03, 0x09, 0xef, 0x15, 0xef, 0xee, 0x21,
    0x29, 0xe5, 0x11, 0xfd, 0x03, 0x05, 0xe1, 0xed, 0xea, 0x08, 0xdc, 0xe8, 0xfa,
    0xfc, 0xf5, 0xe4, 0x01, 0x13, 0xbf, 0x12, 0xb0, 0xd0, 0xf0, 0x00, 0xe0, 0xbb,
    0xfc, 0x0a, 0xd2, 0x02, 0xf6, 0x16, 0x09, 0x0b, 0xe5, 0x0a, 0xd8, 0x11, 0x0e,
    0xf2, 0xd6, 0xb5, 0xbc, 0x35, 0xcc, 0x35, 0xea, 0xf7, 0x0a, 0xe2, 0x03, 0x14,
    0xd6, 0xf0, 0x31, 0xdc, 0x3c, 0x10, 0xfd, 0x00, 0xfe, 0xfc, 0x1c, 0xf0, 0xfd,
    0x00, 0xe1, 0x13, 0xb4, 0x19, 0x04, 0x11, 0xd5, 0xf4, 0xdc, 0x14, 0x39, 0x0c,
    0x2d, 0xb5, 0x4a, 0x81, 0x0d, 0x0c, 0xb5, 0xd4, 0xed, 0x04, 0xf2, 0xe8, 0x08,
    0x0b, 0x17, 0xac, 0xdf, 0xc8, 0xf1, 0x0a, 0xe8, 0x20, 0xdb, 0xfe, 0xdf, 0x19,
    0xed, 0xee, 0xc8, 0x1c, 0xf4, 0x2a, 0x02, 0x05, 0x1f, 0x05, 0xed, 0x1b, 0xc2,
    0x19, 0x05, 0x0e, 0xe0, 0xf9, 0xff, 0xef, 0xf6, 0xe3, 0x0f, 0xf2, 0x0a, 0xfe,
    0x0f, 0x06, 0xf9, 0x17, 0x03, 0x0c, 0x81, 0x15, 0xfb, 0xae, 0xcf, 0xe6, 0xf5,
    0xdf, 0x21, 0xfc, 0xd9, 0xea, 0x81, 0xdd, 0x03, 0xdd, 0xdb, 0xec, 0x07, 0xec,
    0xf6, 0x0d, 0x0a, 0xf9, 0x11, 0x07, 0xe2, 0x01, 0xc9, 0xd2, 0xf4, 0x08, 0xfe,
    0x07, 0x0a, 0xe7, 0xea, 0x15, 0x04, 0x12, 0xec, 0x12, 0x12, 0xe2, 0x24, 0x02,
    0xcd, 0xf4, 0xf6, 0x05, 0xeb, 0x08, 0x03, 0x0a, 0xed, 0x0a, 0xe6, 0xcf, 0xe0,
    0x04, 0xf6, 0x81, 0x05, 0x00, 0x01, 0xfd, 0xeb, 0x0c, 0xf1, 0x0b, 0xec, 0x24,
    0xd5, 0x06, 0xf7, 0x0f, 0x0a, 0xb9, 0xff, 0xee, 0x11, 0xfd, 0x03, 0xff, 0xec,
    0x27, 0x0a, 0xf7, 0x03, 0xf6, 0xf3, 0x11, 0xe5, 0xfa, 0x09, 0x03, 0x00, 0x00,
    0xf0, 0x0c, 0x03, 0xe0, 0xea, 0xdc, 0x0a, 0x0b, 0xe2, 0x0d, 0x01, 0x10, 0xf3,
    0x00, 0xff, 0x07, 0xf5, 0xfd, 0x0a, 0x81, 0xc9, 0xc9, 0xf3, 0x0e, 0xfc, 0x10,
    0xdb, 0x0a, 0xd7, 0xdb, 0xf7, 0xa1, 0xf2, 0x0b, 0x17, 0xde, 0xe6, 0xd9, 0x0b,
    0x15, 0xd0, 0xf2, 0xf6, 0x04, 0xa7, 0xce, 0xf9, 0x19, 0x12, 0xb0, 0x0d, 0xa4,
    0x0a, 0x08, 0x24, 0x05, 0x07, 0xaa, 0x25, 0x1c, 0x85, 0x06, 0x03, 0x0f, 0x0a,
    0xd7, 0xce, 0xe4, 0x03, 0xfd, 0x0c, 0x18, 0xf9, 0x3f, 0x02, 0xfc, 0xcf, 0xd9,
    0xee, 0xfb, 0xfc, 0x07, 0xfe, 0xed, 0x03, 0xfb, 0x05, 0xfd, 0x06, 0xe6, 0xf5,
    0x00, 0xff, 0x17, 0x03, 0x01, 0xa2, 0xcc, 0x02, 0xec, 0xa3, 0xe9, 0xd0, 0xd1,
    0x1e, 0x33, 0xe7, 0xd9, 0x10, 0xe4, 0xc1, 0xbb, 0xe9, 0xc4, 0x20, 0xe9, 0xd4,
    0xc7, 0xcb, 0x1b, 0xbb, 0xf7, 0xd1, 0xdb, 0x22, 0x12, 0xc3, 0x12, 0x09, 0xd3,
    0x01, 0x04, 0x07, 0x0e, 0x0c, 0x0e, 0x05, 0xe0, 0x14, 0xf5, 0xb9, 0xf5, 0xf2,
    0xf9, 0x0a, 0xf4, 0xbf, 0x02, 0x03, 0x00, 0xfb, 0xfb, 0xfe, 0x03, 0x04, 0x0c,
    0x0a, 0xec, 0xfb, 0x02, 0x08, 0x0c, 0x82, 0x19, 0xfd, 0xf1, 0xb9, 0xe3, 0x28,
    0x24, 0xe3, 0x00, 0x0d, 0xf5, 0x06, 0x03, 0xcb, 0x01, 0xfd, 0xed, 0xec, 0x00,
    0xe9, 0xfd, 0xbf, 0x06, 0xf1, 0xb8, 0x0f, 0xfe, 0xfe, 0xfb, 0x03, 0x06, 0xeb,
    0xea, 0xfb, 0xf0, 0xda, 0xf5, 0x02, 0x86, 0xef, 0xbb, 0x03, 0xf5, 0x07, 0xfe,
    0x04, 0x02, 0xe4, 0xf2, 0x09, 0x06, 0xa0, 0x02, 0x0f, 0xf3, 0x09, 0xda, 0x0a,
    0xf3, 0x09, 0x07, 0x09, 0xfa, 0x15, 0xae, 0xc0, 0xf8, 0xf3, 0xeb, 0x36, 0xf9,
    0xe1, 0x0f, 0xf6, 0x1b, 0xe3, 0xd3, 0x02, 0xff, 0x14, 0x18, 0xca, 0xdc, 0xf4,
    0x04, 0x4d, 0x05, 0xe9, 0x17, 0x1f, 0xfa, 0x0d, 0xe1, 0xfa, 0xec, 0x0a, 0xf9,
    0xee, 0x1b, 0x24, 0xe9, 0x21, 0x01, 0xe1, 0xf6, 0x0f, 0xf2, 0x05, 0x1c, 0xf3,
    0x11, 0x21, 0x29, 0xef, 0x4a, 0x27, 0xdd, 0x07, 0xfc, 0x17, 0x0d, 0x15, 0xf7,
    0x0d, 0x15, 0xee, 0x12, 0xe9, 0xf4, 0x2d, 0xf2, 0x06, 0xf0, 0x16, 0x04, 0xbb,
    0xf7, 0xfe, 0xfd, 0xbf, 0xc6, 0xeb, 0xec, 0xe7, 0xf7, 0xf7, 0xe8, 0xeb, 0x14,
    0x83, 0x11, 0xea, 0xde, 0xf0, 0x10, 0xdb, 0xcc, 0x08, 0x18, 0xec, 0x1a, 0x06,
    0xdf, 0xf4, 0xfa, 0x1c, 0x0d, 0x81, 0x11, 0x09, 0xdd, 0x1a, 0xeb, 0xe9, 0x23,
    0xea, 0x13, 0xff, 0x17, 0x0e, 0xe8, 0xf7, 0xff, 0xdb, 0xff, 0x0c, 0xda, 0x16,
    0xf1, 0x17, 0x31, 0xf2, 0xe2, 0x08, 0xca, 0x08, 0x00, 0xfd, 0x2b, 0xf9, 0x20,
    0xf3, 0x24, 0xf6, 0x06, 0xe9, 0x1a, 0x25, 0xcb, 0x11, 0xdc, 0x11, 0xba, 0x14,
    0x0e, 0xfa, 0xf9, 0x01, 0x25, 0xfb, 0xf4, 0xe4, 0xde, 0x06, 0xf7, 0x16, 0xeb,
    0xf1, 0x04, 0xf2, 0x04, 0xa2, 0x12, 0x06, 0x0c, 0x8e, 0x17, 0xe2, 0xec, 0xf2,
    0x05, 0xff, 0xe1, 0xfd, 0x06, 0xfa, 0xfc, 0xb7, 0x01, 0x04, 0xfd, 0xb2, 0x0e,
    0xfa, 0xbf, 0xe2, 0xde, 0x0a, 0xed, 0xee, 0x00, 0xe6, 0xfe, 0xd3, 0xec, 0xff,
    0xec, 0xd2, 0xe2, 0xfa, 0xbc, 0xeb, 0xe6, 0xf2, 0x00, 0x16, 0xf9, 0xbc, 0xe7,
    0x9f, 0xdb, 0x03, 0xef, 0xd3, 0xcf, 0xf3, 0x03, 0x08, 0xfc, 0x0b, 0x06, 0xdf,
    0x03, 0x16, 0x03, 0x03, 0xd9, 0x05, 0xfa, 0x0b, 0x0c, 0x07, 0xe6, 0xf5, 0x17,
    0x08, 0x10, 0xfb, 0x09, 0x0d, 0xfa, 0x0f, 0xf8, 0xdf, 0xe0, 0xfd, 0x03, 0xfe,
    0x07, 0xee, 0x18, 0xfe, 0xe6, 0xe2, 0xef, 0xfd, 0x08, 0xde, 0xf8, 0x0b, 0xf8,
    0x05, 0xfe, 0x04, 0xf6, 0xfe, 0xf6, 0xfd, 0xf6, 0xae, 0x07, 0x09, 0x06, 0x07,
    0xf5, 0xf7, 0xf8, 0x09, 0x07, 0xed, 0x0b, 0x06, 0xbb, 0xee, 0xcc, 0x03, 0x09,
    0xea, 0x04, 0xee, 0x01, 0xee, 0x06, 0xfd, 0xe6, 0xf1, 0x08, 0x06, 0xe3, 0x00,
    0xe6, 0x07, 0x0f, 0xd4, 0x05, 0x06, 0x10, 0xef, 0x14, 0x00, 0xea, 0xfe, 0x07,
    0x39, 0xb9, 0xb9, 0xe1, 0x06, 0x0a, 0xdd, 0xc9, 0xff, 0x0b, 0xc1, 0x9f, 0xdd,
    0xed, 0xfc, 0x0a, 0x16, 0xd5, 0xc2, 0xe1, 0x0c, 0x20, 0xf9, 0xee, 0xf3, 0x12,
    0xaf, 0x04, 0xdc, 0xff, 0x05, 0xa5, 0xda, 0xe6, 0x00, 0xed, 0x01, 0x01, 0xfb,
    0x9d, 0x05, 0xfd, 0xfa, 0xe4, 0x05, 0x07, 0x02, 0xc4, 0xd7, 0xd6, 0xfc, 0xfc,
    0x02, 0x0e, 0x06, 0x9b, 0x05, 0xfc, 0xd9, 0xcc, 0xf7, 0xf7, 0xa3, 0xb0, 0x26,
    0xf0, 0xf0, 0xb7, 0x22, 0xb3, 0x2a, 0xf8, 0x09, 0xd3, 0xc9, 0xc2, 0xe7, 0x9f,
    0xe8, 0x04, 0xc9, 0xb6, 0xf2, 0xec, 0x11, 0xc6, 0xa6, 0xe4, 0xe3, 0xed, 0xf7,
    0xe5, 0xbc, 0xbb, 0x03, 0xfa, 0xbe, 0x17, 0xfe, 0xf6, 0xf8, 0xf3, 0xfd, 0xfa,
    0xf8, 0x05, 0x12, 0xec, 0x03, 0xfd, 0x05, 0xdd, 0x06, 0x07, 0x05, 0xf3, 0x09,
    0xf8, 0x05, 0xe3, 0x07, 0xf2, 0xc6, 0x01, 0xf2, 0xf4, 0xfa, 0x0c, 0x12, 0x07,
    0xff, 0x07, 0xe8, 0x1b, 0x29, 0x0e, 0xfe, 0xda, 0xe6, 0x10, 0xfa, 0x10, 0x02,
    0x06, 0xcf, 0x28, 0x05, 0x43, 0xb1, 0xdf, 0x22, 0x22, 0xff, 0xf9, 0x12, 0xe6,
    0x07, 0x02, 0x02, 0x01, 0xef, 0x05, 0xff, 0x08, 0xe1, 0x03, 0x02, 0xca, 0xf9,
    0xd5, 0x0f, 0xf1, 0x04, 0x05, 0x06, 0xf8, 0x0a, 0x05, 0xfb, 0x09, 0x07, 0x01,
    0xf7, 0xd1, 0xfb, 0xe7, 0x09, 0xfb, 0x02, 0x05, 0x08, 0xd0, 0xfc, 0x09, 0x1d,
    0x31, 0x16, 0xf2, 0x2a, 0xe1, 0x20, 0x13, 0x81, 0xe0, 0xfc, 0xf0, 0x01, 0x03,
    0xfa, 0x92, 0xc9, 0x0c, 0xf9, 0xf3, 0x63, 0xf0, 0xf5, 0x1a, 0x30, 0xd5, 0x02,
    0xd8, 0x22, 0xf2, 0x8a, 0x31, 0x06, 0x07, 0x2c, 0xe4, 0x3b, 0xf4, 0x05, 0x1f,
    0x0f, 0xb1, 0xec, 0x0d, 0xfa, 0x0f, 0x3a, 0xe1, 0xc9, 0x33, 0x3f, 0x07, 0x1c,
    0xff, 0xfc, 0xfb, 0x19, 0x0d, 0xf8, 0x17, 0xfe, 0x0a, 0xd6, 0x14, 0xdf, 0x13,
    0x1d, 0x19, 0xe2, 0x04, 0xde, 0x12, 0x14, 0xcb, 0xd7, 0x89, 0xde, 0x18, 0xf4,
    0xd5, 0xf0, 0x09, 0x06, 0xef, 0xc7, 0x02, 0xe8, 0xcd, 0x01, 0xe7, 0xbd, 0xaf,
    0x1f, 0xd2, 0x07, 0x01, 0x20, 0xfb, 0x22, 0x1e, 0x00, 0xfe, 0xd0, 0x1b, 0x07,
    0xf8, 0xb6, 0x07, 0x1b, 0xf3, 0x13, 0x14, 0x06, 0x00, 0xf0, 0x15, 0x1e, 0xf6,
    0x8b, 0xf9, 0xe4, 0xf3, 0x00, 0xf5, 0x18, 0x2a, 0x25, 0xf3, 0x10, 0xec, 0xdc,
    0x16, 0x05, 0x16, 0xda, 0x0f, 0xee, 0x18, 0xf4, 0x04, 0x20, 0x51, 0xf6, 0xff,
    0x07, 0xd3, 0x1a, 0xdf, 0x24, 0x35, 0x0f, 0x43, 0xf6, 0x3e, 0x0b, 0x00, 0x01,
    0xe9, 0xdd, 0xf3, 0x18, 0x02, 0x09, 0xea, 0x00, 0x03, 0x11, 0x00, 0x01, 0x18,
    0x15, 0x0e, 0x14, 0xdc, 0xf5, 0xfa, 0x28, 0xd8, 0xea, 0x00, 0xe8, 0xfc, 0x03,
    0x15, 0xdd, 0x2f, 0x0d, 0x2d, 0x0e, 0x16, 0x29, 0x0b, 0x09, 0x0a, 0x39, 0x0a,
    0xe3, 0x10, 0xf8, 0xc8, 0xfb, 0x13, 0xfc, 0xec, 0xff, 0x1a, 0xdd, 0xda, 0x0f,
    0xe4, 0xc2, 0x0a, 0x1c, 0xd9, 0x0a, 0xca, 0x0a, 0xec, 0xf8, 0xc8, 0xe9, 0xff,
    0x06, 0x0b, 0xe4, 0xf0, 0xe9, 0xbd, 0xad, 0x04, 0xe5, 0xc7, 0x01, 0x03, 0x0a,
    0xe9, 0xf1, 0xef, 0xfb, 0xf2, 0x0d, 0xfe, 0xae, 0xfe, 0xfe, 0xf7, 0xf9, 0xc4,
    0xfd, 0x03, 0x13, 0x0c, 0x01, 0x0c, 0xea, 0x21, 0x0a, 0xec, 0x04, 0x12, 0x12,
    0x12, 0xfd, 0x0c, 0x03, 0xf7, 0x0d, 0xf6, 0x0e, 0x1e, 0x0a, 0x14, 0xfd, 0xd6,
    0xeb, 0xec, 0xfa, 0x23, 0xea, 0x51, 0x13, 0x05, 0x02, 0xf7, 0xfe, 0xea, 0xe9,
    0x86, 0xeb, 0xc6, 0xf3, 0x0d, 0xd2, 0xfd, 0xd2, 0x06, 0xd8, 0xe1, 0x95, 0x0a,
    0xf6, 0x0b, 0x0f, 0xb8, 0xfc, 0xd5, 0x0c, 0x08, 0xc6, 0x05, 0xee, 0x0f, 0xea,
    0xf9, 0xed, 0x22, 0x13, 0xbd, 0x0c, 0xda, 0x13, 0x02, 0x2b, 0xff, 0x32, 0x81,
    0x1d, 0x13, 0x15, 0xf6, 0xfa, 0x02, 0xfe, 0x00, 0x4f, 0xba, 0xd2, 0xe5, 0x0f,
    0x10, 0xd9, 0xe2, 0x10, 0x16, 0xeb, 0xdd, 0xfb, 0xe6, 0x03, 0xf3, 0x11, 0xe6,
    0x0a, 0x15, 0x20, 0xff, 0xfe, 0xe2, 0xf3, 0x06, 0x08, 0xff, 0x05, 0x09, 0x07,
    0x8c, 0xc8, 0xe5, 0x0c, 0xe9, 0x0a, 0x05, 0xef, 0x81, 0xfb, 0x09, 0xf1, 0xce,
    0x04, 0x04, 0xbc, 0x22, 0xdc, 0xb9, 0xa7, 0xcb, 0xe1, 0x81, 0x10, 0x09, 0x0a,
    0xd8, 0x83, 0x24, 0xaf, 0x3b, 0x37, 0xfc, 0x21, 0x9d, 0x9b, 0x01, 0x1b, 0xe2,
    0xba, 0xde, 0x22, 0xef, 0xa5, 0xd6, 0xf9, 0x12, 0x0e, 0xf1, 0xdc, 0x15, 0x02,
    0xfd, 0x04, 0x00, 0xf9, 0xfb, 0x0b, 0x1c, 0x1c, 0x0d, 0xfa, 0xfa, 0x05, 0x11,
    0x81, 0x0e, 0xf4, 0xf8, 0xff, 0xf3, 0xf2, 0xfb, 0x04, 0x03, 0x1d, 0x07, 0x00,
    0x02, 0xbf, 0xf3, 0xf3, 0x08, 0xf1, 0x01, 0xa9, 0xfb, 0xc2, 0x03, 0xef, 0xa9,
    0x04, 0xfa, 0x03, 0xe9, 0x0e, 0x13, 0xe2, 0x1b, 0x09, 0x2c, 0xb2, 0x1d, 0x27,
    0x09, 0xf4, 0xc9, 0xe3, 0x0a, 0xfe, 0x01, 0x07, 0xd5, 0xf7, 0xfb, 0x11, 0xfc,
    0xbd, 0xfe, 0x03, 0xdc, 0xf4, 0xdb, 0x02, 0xec, 0x03, 0x06, 0x01, 0xd4, 0xf5,
    0xef, 0x00, 0x04, 0xd2, 0xfb, 0xf8, 0xc3, 0xfb, 0xa6, 0x0a, 0x03, 0x05, 0x00,
    0xfc, 0x07, 0x1c, 0xc4, 0xc3, 0xdb, 0x11, 0x01, 0x72, 0x13, 0x1b, 0x22, 0x17,
    0x16, 0x2d, 0xc9, 0xfe, 0x38, 0x24, 0xf2, 0xd6, 0x4a, 0x26, 0xfd, 0x35, 0x10,
    0x3a, 0x0b, 0x3e, 0x0c, 0xeb, 0xd3, 0xd6, 0xe4, 0xed, 0x05, 0xe8, 0xe2, 0xda,
    0x0e, 0x81, 0x11, 0xa5, 0x98, 0xef, 0xfa, 0xe6, 0x9d, 0x15, 0xf7, 0x01, 0x29,
    0xef, 0xf6, 0xf1, 0x14, 0x1c, 0xee, 0xd9, 0x21, 0xcc, 0xcb, 0x1f, 0xe6, 0xc9,
    0x17, 0x22, 0xdf, 0x0d, 0xcf, 0x1d, 0xba, 0xca, 0x11, 0xe5, 0xd0, 0x03, 0x2b,
    0xea, 0xe4, 0xfb, 0xfc, 0xf3, 0x18, 0x04, 0xf1, 0xf1, 0xfe, 0xd5, 0xe1, 0xeb,
    0xfc, 0xf6, 0x13, 0xf1, 0x02, 0xff, 0xff, 0xbf, 0xcd, 0xf2, 0xed, 0x22, 0xe0,
    0xbc, 0xba, 0x0e, 0x84, 0x0c, 0x9a, 0xef, 0xbf, 0xfe, 0xde, 0xf0, 0x24, 0x14,
    0x0e, 0xd8, 0x0c, 0x26, 0xc3, 0xff, 0xf6, 0xcd, 0xf2, 0x01, 0xf7, 0x05, 0xef,
    0xf2, 0x02, 0xfb, 0xfb, 0xa0, 0x07, 0x05, 0xfb, 0xf4, 0xfa, 0xf0, 0xfc, 0xfd,
    0x14, 0xef, 0x12, 0x03, 0xd2, 0xf8, 0xf0, 0x10, 0x10, 0xb2, 0x08, 0x12, 0x13,
    0xf7, 0xff, 0xed, 0x05, 0xf7, 0x0b, 0x1e, 0xa0, 0xea, 0xc7, 0x10, 0x0c, 0xe4,
    0xeb, 0x2d, 0x04, 0xc1, 0x19, 0xdd, 0x00, 0x05, 0xee, 0xcb, 0xe0, 0xfc, 0x01,
    0x07, 0x1a, 0x0d, 0xb2, 0x0f, 0xfd, 0xd0, 0xc2, 0xf7, 0xf1, 0xe1, 0xcd, 0x0b,
    0xc2, 0x1a, 0xe2, 0xbf, 0x13, 0x18, 0x1d, 0xf2, 0xf5, 0x96, 0xf1, 0xd7, 0xe7,
    0x06, 0xef, 0xf0, 0x1a, 0x03, 0xff, 0x06, 0x13, 0x24, 0xf5, 0x06, 0xf4, 0xc0,
    0xf5, 0xfa, 0xf8, 0x10, 0x0b, 0xb6, 0x28, 0x21, 0x1e, 0x81, 0xdf, 0x00, 0x40,
    0xf3, 0xf6, 0x23, 0x17, 0xfd, 0x03, 0x04, 0xd9, 0x0d, 0xe4, 0xfe, 0xf7, 0x15,
    0xf0, 0xf6, 0xbb, 0xfb, 0xd8, 0x02, 0x09, 0xfe, 0x00, 0x00, 0x00, 0x00, 0x00,
    0x00, 0x00, 0x00, 0x00, 0x00, 0x00, 0x00, 0x00, 0x00, 0x00, 0x00, 0x00, 0x00,
    0x00, 0x00, 0x00, 0x00, 0x00, 0x00, 0x00, 0x00, 0x00, 0x00, 0x00, 0x00, 0x00,
    0x00, 0x00, 0x00, 0x00, 0x00, 0x00, 0x00, 0x00, 0x00, 0x00, 0x00, 0x00, 0x00,
    0x00, 0x00, 0x00, 0x00, 0x00, 0x00, 0x00, 0x00, 0x00, 0x00, 0x00, 0x00, 0x00,
    0x00, 0x00, 0x00, 0x00, 0x00, 0x00, 0x00, 0x00, 0x00, 0x00, 0x00, 0x00, 0x00,
    0x00, 0x00, 0x00, 0x00, 0x00, 0x00, 0x00, 0x00, 0x00, 0x00, 0x00, 0x00, 0x00,
    0x00, 0x00, 0x00, 0x00, 0x00, 0x00, 0x00, 0x00, 0x00, 0x00, 0x00, 0x00, 0x00,
    0x00, 0x00, 0x00, 0x00, 0x00, 0x00, 0x00, 0x00, 0x00, 0x00, 0x00, 0x00, 0x00,
    0x00, 0x00, 0x00, 0x00, 0x00, 0x00, 0x00, 0x00, 0x00, 0x00, 0x00, 0x00, 0x00,
    0x00, 0x00, 0x00, 0x00, 0x00, 0x00, 0x00, 0x00, 0x00, 0x00, 0x00, 0x00, 0x00,
    0x00, 0x00, 0x00, 0x00, 0x00, 0x00, 0x00, 0x00, 0x00, 0x00, 0x00, 0x00, 0x00,
    0x00, 0x00, 0x00, 0x00, 0x00, 0x00, 0x00, 0x00, 0x00, 0x00, 0x00, 0x00, 0x00,
    0x00, 0x00, 0x00, 0x00, 0x00, 0x00, 0x00, 0x00, 0x00, 0x00, 0x00, 0x00, 0x00,
    0x00, 0x00, 0x00, 0x00, 0x00, 0x00, 0x00, 0x00, 0x00, 0x00, 0x00, 0x00, 0x00,
    0x00, 0x00, 0x00, 0x00, 0x00, 0x00, 0x00, 0x00, 0x00, 0x00, 0x00, 0x00, 0x00,
    0x00, 0x00, 0x00, 0x00, 0x00, 0x00, 0x00, 0x00, 0x00, 0x00, 0x00, 0x00, 0x00,
    0x00, 0x00, 0x00, 0x00, 0x00, 0x00, 0x00, 0x00, 0x00, 0x00, 0x00, 0x00, 0x00,
    0x00, 0x00, 0x00, 0x00, 0x00, 0x00, 0x00, 0x00, 0x00, 0x00, 0x00, 0x00, 0x00,
    0x00, 0x00, 0x00, 0x00, 0x00, 0x00, 0x00, 0x00, 0x00, 0x00, 0x00, 0x00, 0x00,
    0x00, 0x00, 0x00, 0x00, 0x00, 0x8a, 0xea, 0xff, 0xff, 0x00, 0x00, 0x00, 0x09,
    0x18, 0x00, 0x00, 0x00, 0x05, 0x00, 0x00, 0x00, 0x08, 0x00, 0x00, 0x00, 0x14,
    0x00, 0x00, 0x00, 0x01, 0x00, 0x00, 0x00, 0x33, 0x00, 0x00, 0x00, 0x01, 0x00,
    0x00, 0x00, 0x00, 0x13, 0x00, 0x00, 0x00, 0xea, 0xff, 0xff, 0x0a, 0xeb, 0xff,
    0xff, 0x04, 0x00, 0x00, 0x00, 0x80, 0x00, 0x00, 0x00, 0xfd, 0x2c, 0x3e, 0x32,
    0x81, 0x5a, 0x9c, 0x43, 0x17, 0x2c, 0x09, 0x51, 0x19, 0x4c, 0x11, 0x30, 0xd3,
    0x3a, 0x56, 0x26, 0xa4, 0x40, 0x6c, 0x61, 0x49, 0x53, 0x1f, 0x41, 0xba, 0x6e,
    0xad, 0x32, 0xa0, 0xfc, 0x71, 0xf9, 0x89, 0xe6, 0xad, 0xf6, 0x49, 0xfa, 0x02,
    0xf9, 0x59, 0xf0, 0x7b, 0xf5, 0x2c, 0xe9, 0x04, 0x0c, 0x3c, 0xf7, 0x00, 0xf8,
    0x92, 0xf9, 0x12, 0xfd, 0x4b, 0xf0, 0x14, 0xee, 0x99, 0x74, 0x3d, 0x3c, 0x8a,
    0x59, 0xb5, 0x07, 0xdf, 0x5f, 0x9d, 0x39, 0x48, 0x59, 0x92, 0x4a, 0x5b, 0x62,
    0xcf, 0x3f, 0x25, 0x48, 0x97, 0x27, 0x3d, 0x3a, 0x9a, 0x39, 0x09, 0x24, 0x50,
    0x2a, 0xdb, 0xd5, 0x6c, 0xfc, 0x7c, 0xfe, 0xa1, 0x02, 0x5a, 0xe4, 0xce, 0xf1,
    0x3d, 0xdf, 0xe6, 0xff, 0x2c, 0xf1, 0x4e, 0xe6, 0x3a, 0xfd, 0xf3, 0x08, 0xf4,
    0x00, 0x7a, 0xe5, 0x88, 0x18, 0x4f, 0x0b, 0x42, 0xeb, 0xff, 0xff, 0x00, 0x00,
    0x00, 0x07, 0x18, 0x00, 0x00, 0x00, 0x04, 0x00, 0x00, 0x00, 0x08, 0x00, 0x00,
    0x00, 0x14, 0x00, 0x00, 0x00, 0x01, 0x00, 0x00, 0x00, 0x32, 0x00, 0x00, 0x00,
    0x01, 0x00, 0x00, 0x00, 0x40, 0x00, 0x00, 0x00, 0xb8, 0xea, 0xff, 0xff, 0xc2,
    0xeb, 0xff, 0xff, 0x04, 0x00, 0x00, 0x00, 0x00, 0x14, 0x00, 0x00, 0xf2, 0xfe,
    0x06, 0x0c, 0x09, 0x06, 0xb0, 0xdc, 0x07, 0x9a, 0xfc, 0x18, 0xee, 0xeb, 0xfc,
    0xd7, 0xdf, 0xd9, 0xfe, 0xfe, 0xf6, 0x04, 0xe9, 0x0b, 0x06, 0xfc, 0xf3, 0xfe,
    0xf9, 0x08, 0x04, 0xf5, 0xf5, 0x01, 0x15, 0x07, 0x0a, 0x07, 0xce, 0xeb, 0xf4,
    0xd9, 0x10, 0x09, 0xe4, 0xe0, 0xed, 0xfc, 0x0b, 0xfc, 0x06, 0x01, 0xfa, 0xfa,
    0x07, 0xfc, 0x09, 0xee, 0xe3, 0xfc, 0x0a, 0x00, 0xe4, 0xbe, 0x01, 0x01, 0xfe,
    0xf5, 0xf1, 0xed, 0xef, 0x0a, 0x16, 0x12, 0x0a, 0xe6, 0x01, 0xfd, 0x00, 0xea,
    0xf5, 0xf6, 0x07, 0xfc, 0x05, 0x0a, 0x2a, 0xf1, 0xfc, 0xfb, 0x04, 0xf9, 0x07,
    0x0a, 0x01, 0xfc, 0xdd, 0xfd, 0xfa, 0x05, 0xf3, 0xf1, 0x0c, 0x00, 0xf6, 0xe8,
    0xfa, 0x08, 0xe8, 0xed, 0xff, 0xf9, 0x14, 0x07, 0xf1, 0x02, 0xd1, 0xf8, 0xf3,
    0x0a, 0xf5, 0xfe, 0xf3, 0x04, 0x08, 0x00, 0xfc, 0xe1, 0xcd, 0xf7, 0x05, 0x03,
    0x06, 0x00, 0x07, 0x08, 0xe2, 0xf6, 0xf6, 0xfa, 0xf3, 0x01, 0x03, 0x16, 0x1d,
    0x0c, 0x02, 0x02, 0xf4, 0xf5, 0xf0, 0x04, 0xf4, 0xf5, 0x05, 0xfb, 0x09, 0xfb,
    0xdd, 0xcc, 0xed, 0x06, 0x01, 0xf9, 0x04, 0x06, 0xbc, 0xdd, 0x10, 0xce, 0xf2,
    0xe7, 0x03, 0x0e, 0xec, 0x00, 0xd2, 0xdf, 0x03, 0xff, 0x0a, 0x06, 0x25, 0xe2,
    0xe3, 0x03, 0xf4, 0x0f, 0x02, 0x0e, 0x0c, 0x14, 0xe0, 0x02, 0xf7, 0x05, 0x0d,
    0x05, 0x1a, 0xf7, 0xeb, 0xeb, 0xfa, 0x00, 0x03, 0xf1, 0x12, 0x06, 0x25, 0x11,
    0xfe, 0x03, 0x05, 0xf0, 0x01, 0x0f, 0x0f, 0xf6, 0xf7, 0x05, 0xfd, 0xfc, 0x02,
    0x0c, 0x0c, 0x14, 0xff, 0xe4, 0xe2, 0x06, 0x0f, 0xf8, 0xef, 0x15, 0x05, 0xff,
    0x07, 0xfd, 0xff, 0x01, 0x09, 0xf6, 0x03, 0x02, 0x0a, 0x0e, 0xb4, 0x0a, 0x19,
    0x06, 0x08, 0x04, 0x04, 0xf7, 0x0a, 0x08, 0xe3, 0x06, 0x04, 0x0e, 0x06, 0x04,
    0xe0, 0xee, 0x01, 0xc5, 0xfe, 0x0c, 0xf8, 0xfd, 0x08, 0xef, 0xef, 0xf9, 0x01,
    0x03, 0xff, 0xfe, 0xeb, 0x05, 0x0a, 0xf2, 0xff, 0xfb, 0xff, 0x01, 0x01, 0xf5,
    0xf7, 0x02, 0xf8, 0xfe, 0xfe, 0xff, 0x13, 0xf8, 0xea, 0xf4, 0xf9, 0xfc, 0xf7,
    0xea, 0x0b, 0x06, 0x0d, 0x0b, 0xf5, 0x02, 0x0c, 0xf0, 0xf7, 0x0e, 0x0a, 0xf5,
    0xfc, 0x08, 0x06, 0x03, 0x05, 0x11, 0xfd, 0xfc, 0xfe, 0x0a, 0xe4, 0x00, 0x0b,
    0x02, 0xf9, 0xf2, 0xf9, 0x0f, 0xf5, 0xf3, 0x09, 0xfa, 0xfd, 0x0a, 0xfc, 0xfe,
    0xec, 0x00, 0xd1, 0x09, 0xfe, 0x0c, 0xfc, 0x00, 0xfd, 0x01, 0xf9, 0xec, 0x04,
    0xed, 0x07, 0x00, 0x04, 0x0d, 0x00, 0xf7, 0xf8, 0xef, 0x02, 0x06, 0xf8, 0xf6,
    0x09, 0x0c, 0x08, 0x0d, 0x05, 0xfd, 0x0a, 0xfb, 0x02, 0x01, 0xf4, 0xf2, 0xe4,
    0x05, 0xfd, 0xfc, 0xf7, 0xe5, 0x07, 0xf3, 0x0a, 0xff, 0x0f, 0x08, 0x0f, 0xfa,
    0xe4, 0xf7, 0xfe, 0x10, 0xf1, 0x04, 0x11, 0x15, 0x2c, 0x0b, 0x03, 0xfc, 0x10,
    0xf8, 0xf9, 0x01, 0x04, 0xf2, 0xf8, 0x01, 0xfe, 0xf9, 0xe6, 0xef, 0x06, 0xfd,
    0x04, 0xfa, 0xfc, 0xf8, 0xc2, 0x09, 0x16, 0xc4, 0xff, 0xee, 0x00, 0x11, 0xfa,
    0xee, 0xb6, 0xf6, 0x01, 0xfd, 0x0a, 0x07, 0x28, 0xf1, 0xe0, 0xfd, 0xf1, 0x0d,
    0x11, 0x0c, 0x08, 0x0f, 0x09, 0x14, 0xf8, 0xf6, 0xf1, 0x05, 0xf7, 0x01, 0x0d,
    0x16, 0x08, 0xef, 0x10, 0x0e, 0xfe, 0xe4, 0xf8, 0xed, 0x05, 0x01, 0x07, 0x07,
    0x1f, 0x03, 0x0b, 0x0d, 0x05, 0xfe, 0x0b, 0x00, 0x0b, 0x0d, 0xd9, 0x01, 0x0b,
    0xed, 0xfc, 0x08, 0xc4, 0x0d, 0x18, 0xdd, 0x07, 0xda, 0x06, 0x0c, 0xf9, 0xd3,
    0xba, 0xfe, 0x05, 0x05, 0x0b, 0x02, 0x1e, 0xde, 0xd0, 0x01, 0x0a, 0x05, 0x07,
    0x01, 0x07, 0x02, 0xf3, 0x04, 0xf3, 0x0a, 0x11, 0xf8, 0x0b, 0xfa, 0xff, 0xf9,
    0x02, 0x05, 0x06, 0xcf, 0xfe, 0xf1, 0xc8, 0xfd, 0xfa, 0x04, 0xdb, 0x0a, 0xf6,
    0x03, 0x04, 0xee, 0xf2, 0x02, 0xff, 0x12, 0xfe, 0x03, 0xf8, 0x08, 0xfe, 0x0a,
    0x0c, 0x08, 0xf7, 0xe3, 0x04, 0xe4, 0xf5, 0x03, 0x09, 0xd0, 0xf5, 0xf9, 0xfc,
    0xf5, 0x03, 0x00, 0xfd, 0x01, 0xfa, 0xf0, 0x11, 0x00, 0xcd, 0x01, 0xf8, 0x0a,
    0x01, 0x05, 0x01, 0xf8, 0x06, 0x04, 0xe0, 0xf8, 0x08, 0x04, 0xfc, 0x05, 0x09,
    0xf8, 0x02, 0xf4, 0x06, 0xeb, 0x29, 0x01, 0xec, 0x00, 0xfc, 0x05, 0x17, 0x03,
    0xeb, 0x07, 0xfb, 0x08, 0x15, 0xed, 0xf6, 0xed, 0xde, 0xfd, 0xec, 0x02, 0x0a,
    0xf5, 0x06, 0xf9, 0xf9, 0xf1, 0xf7, 0xfe, 0x01, 0xef, 0xf5, 0x15, 0x0a, 0x02,
    0x13, 0x02, 0xf4, 0xf9, 0xe9, 0x02, 0x05, 0xfe, 0xe6, 0xf0, 0xea, 0x08, 0xee,
    0x02, 0xe4, 0x02, 0xff, 0x05, 0xfd, 0xfe, 0x04, 0xf2, 0xf0, 0x00, 0xec, 0xff,
    0x03, 0x0e, 0xdf, 0x17, 0x00, 0x00, 0x09, 0x04, 0xf6, 0xe9, 0xeb, 0xfd, 0x05,
    0x03, 0x05, 0xe0, 0xf7, 0x09, 0xf3, 0x06, 0xf1, 0x04, 0x0e, 0x02, 0xf4, 0x05,
    0xf8, 0x21, 0x0a, 0xf0, 0x0d, 0x02, 0xf8, 0xfb, 0xf6, 0xf8, 0xc5, 0x05, 0x10,
    0x03, 0x16, 0x02, 0x11, 0xf8, 0xf8, 0x07, 0xf5, 0xfc, 0x0c, 0xf5, 0x06, 0xff,
    0xe8, 0x0d, 0x09, 0x08, 0x07, 0x08, 0x00, 0xf4, 0x0c, 0xf9, 0xf9, 0xf5, 0xff,
    0x04, 0x0b, 0x04, 0xd3, 0xf7, 0xf8, 0x04, 0x03, 0x02, 0x03, 0x04, 0x13, 0x08,
    0xf8, 0xfb, 0xf7, 0x09, 0x0a, 0x0c, 0x04, 0xff, 0xf7, 0xf2, 0xfb, 0xf6, 0xfa,
    0x0f, 0xf7, 0x08, 0xfd, 0xff, 0xfc, 0x02, 0x06, 0x08, 0x0b, 0xfa, 0x0d, 0x03,
    0x11, 0x0a, 0xfb, 0x03, 0x0a, 0x09, 0x07, 0xf3, 0xfa, 0xf6, 0x0c, 0x00, 0xd3,
    0x0c, 0xf8, 0x03, 0x14, 0x01, 0x03, 0xf1, 0xfe, 0x00, 0xf2, 0x03, 0xfb, 0xf6,
    0xf9, 0x0a, 0xfb, 0xf8, 0xf9, 0x00, 0xe1, 0x00, 0xee, 0x06, 0x0d, 0x03, 0xfd,
    0x01, 0xfd, 0x17, 0x00, 0x06, 0xee, 0x05, 0xf3, 0xfe, 0x0c, 0x03, 0xfc, 0xf4,
    0xfe, 0xf6, 0x04, 0xf8, 0xe6, 0x09, 0x0b, 0x15, 0xe3, 0xf3, 0xff, 0x04, 0x19,
    0x00, 0x09, 0x05, 0x15, 0x11, 0xe2, 0x04, 0xf2, 0x01, 0x0d, 0x11, 0xf9, 0x00,
    0xe8, 0xfe, 0x14, 0x04, 0x02, 0xfb, 0xf0, 0xf7, 0xfd, 0x08, 0xfc, 0xf9, 0xf5,
    0x11, 0xec, 0xfe, 0x00, 0xfe, 0xfe, 0xfd, 0xeb, 0x04, 0x0b, 0x07, 0xed, 0x01,
    0xf7, 0x11, 0xfc, 0x16, 0xff, 0x03, 0x03, 0x09, 0x00, 0x03, 0x04, 0xe8, 0xf4,
    0x01, 0x07, 0x02, 0xfc, 0xec, 0xe8, 0x04, 0xf4, 0x02, 0x11, 0xfc, 0xfd, 0x03,
    0xff, 0xea, 0x07, 0x05, 0xe0, 0xe0, 0xeb, 0xfc, 0xc8, 0xd2, 0x02, 0x01, 0x08,
    0x05, 0x00, 0x04, 0xfb, 0xea, 0xee, 0xfc, 0xf9, 0x05, 0x03, 0x0d, 0xe2, 0x0a,
    0xe1, 0xfd, 0xfb, 0x04, 0xf4, 0xff, 0xf5, 0xf6, 0x06, 0x01, 0xfc, 0xf6, 0xf0,
    0x09, 0xfe, 0x17, 0x01, 0xf9, 0x15, 0xff, 0xf2, 0xff, 0x02, 0x17, 0x0e, 0xff,
    0x0d, 0xfb, 0x03, 0xda, 0x02, 0xea, 0xe0, 0x07, 0xfb, 0xfe, 0x17, 0x0d, 0x09,
    0xf7, 0xf4, 0x04, 0xfb, 0x07, 0x0d, 0xf1, 0x01, 0xf0, 0x03, 0xf8, 0x0a, 0x06,
    0xef, 0x01, 0xfa, 0x14, 0xff, 0x08, 0x0d, 0x00, 0xf2, 0xfd, 0x0b, 0xcd, 0x2a,
    0x03, 0x14, 0xff, 0x1b, 0x04, 0x13, 0x03, 0x05, 0x00, 0x03, 0x03, 0x10, 0xd8,
    0x09, 0x07, 0xfb, 0xfd, 0x0a, 0xfd, 0xec, 0x02, 0x09, 0x17, 0x0b, 0x04, 0x0a,
    0xfc, 0x08, 0xf3, 0xfa, 0xe1, 0xba, 0x0b, 0x0d, 0x05, 0x0f, 0x10, 0x12, 0x03,
    0xf2, 0xf5, 0x08, 0x00, 0x0f, 0xf3, 0x02, 0xf8, 0xf8, 0x15, 0xf4, 0x0e, 0x01,
    0x00, 0x06, 0x06, 0xf6, 0xfb, 0xf7, 0x05, 0xff, 0xec, 0xea, 0xef, 0xe4, 0xfe,
    0xf9, 0xfd, 0xed, 0x05, 0xfd, 0xfa, 0xf6, 0x05, 0xf5, 0xfd, 0xf6, 0x0c, 0xeb,
    0xf9, 0xff, 0x10, 0x07, 0x01, 0x07, 0x0c, 0xfb, 0xfe, 0xff, 0xef, 0xf7, 0x11,
    0x04, 0xda, 0xee, 0xf5, 0xcf, 0x01, 0xf7, 0x01, 0x07, 0x00, 0x06, 0x03, 0x08,
    0xfc, 0xed, 0x04, 0xef, 0x08, 0x00, 0x02, 0x07, 0xfb, 0xec, 0xf8, 0xe8, 0xe4,
    0x04, 0x08, 0xf3, 0x04, 0x0c, 0xfb, 0xe9, 0xf8, 0x00, 0xf7, 0xff, 0xff, 0xf6,
    0xfe, 0xf6, 0x17, 0x02, 0x05, 0x0d, 0x06, 0x02, 0x03, 0x03, 0xfa, 0x03, 0xe7,
    0xe4, 0x19, 0x0a, 0x02, 0x01, 0xff, 0xe3, 0xf4, 0xf2, 0xf0, 0xf0, 0x0b, 0x0f,
    0xf2, 0xda, 0x09, 0x0a, 0xf6, 0xf7, 0x00, 0xfe, 0xe0, 0xfb, 0xf7, 0x13, 0xfb,
    0xe6, 0xfe, 0xef, 0xf3, 0x0f, 0x09, 0xe8, 0x00, 0x01, 0x04, 0x03, 0xf6, 0xf7,
    0xef, 0xfb, 0xf9, 0xe8, 0x12, 0x0f, 0x02, 0xfe, 0x08, 0x07, 0xf7, 0xf7, 0xfc,
    0xfa, 0xed, 0xf2, 0x08, 0xfe, 0xfd, 0xfc, 0xfc, 0x04, 0xf8, 0x04, 0x26, 0xfb,
    0xf7, 0x11, 0xfd, 0xf7, 0xf7, 0x04, 0x04, 0x0d, 0xfe, 0x09, 0xf3, 0x05, 0xeb,
    0x06, 0xf4, 0xce, 0x04, 0x08, 0x04, 0x0a, 0x05, 0x16, 0x00, 0xff, 0xf0, 0xfb,
    0xff, 0x10, 0x09, 0x03, 0xf9, 0xfa, 0xfb, 0xfa, 0x07, 0x09, 0xf2, 0x05, 0xfd,
    0x08, 0xfc, 0xfe, 0xfe, 0x02, 0xfd, 0x02, 0x06, 0x11, 0xfd, 0x05, 0xff, 0x02,
    0xfb, 0x07, 0xfa, 0x01, 0x08, 0xf9, 0xfb, 0xfe, 0x05, 0xf6, 0xcc, 0x06, 0x09,
    0x14, 0xf6, 0x02, 0x1d, 0xff, 0x04, 0xfd, 0x0b, 0x08, 0x08, 0x0c, 0x02, 0x09,
    0xf5, 0x08, 0xff, 0x0b, 0xfc, 0x13, 0x07, 0x07, 0xfd, 0xf9, 0xf7, 0xfe, 0x00,
    0x10, 0xf6, 0x08, 0xfc, 0xe0, 0x16, 0xf3, 0x04, 0x0b, 0xff, 0xff, 0x07, 0xf5,
    0xfd, 0xf3, 0x10, 0xf9, 0x0c, 0xf9, 0xff, 0x04, 0x00, 0xff, 0xfb, 0xfe, 0xf2,
    0xf4, 0x01, 0xfd, 0x03, 0xf2, 0xfe, 0xed, 0xfe, 0xf8, 0xfa, 0xf9, 0x01, 0x13,
    0x01, 0x15, 0x0e, 0xfe, 0xfd, 0xf7, 0xfc, 0x05, 0xf2, 0xfa, 0xfb, 0x09, 0x01,
    0x04, 0xdf, 0x02, 0x01, 0x0d, 0xf9, 0x15, 0xfd, 0xfc, 0x09, 0xee, 0x05, 0xfa,
    0xfb, 0x0d, 0x13, 0xff, 0x0b, 0xfc, 0xf8, 0x0d, 0x06, 0x05, 0x05, 0xef, 0xfc,
    0xf5, 0xfe, 0x06, 0xf9, 0xf1, 0x00, 0x05, 0xff, 0xff, 0x01, 0x0e, 0xef, 0xf3,
    0xf7, 0x06, 0xfc, 0xf6, 0x02, 0xf4, 0xff, 0x03, 0x06, 0xfd, 0x05, 0x04, 0x07,
    0x06, 0xf9, 0xf6, 0xee, 0x0a, 0xf3, 0xf9, 0x08, 0x11, 0xf4, 0xe7, 0x0a, 0x0e,
    0x0b, 0x0b, 0x03, 0x0b, 0xed, 0x06, 0xed, 0xf5, 0xff, 0xd0, 0xfb, 0xf7, 0xff,
    0xee, 0xf6, 0xfd, 0x01, 0x02, 0x06, 0x0d, 0xf0, 0xff, 0xf6, 0x03, 0xf6, 0xfd,
    0x0a, 0x03, 0x11, 0xfb, 0x04, 0x0a, 0xfe, 0x04, 0x00, 0xfd, 0xf1, 0x07, 0xfe,
    0x00, 0x0b, 0xfb, 0xfc, 0xfb, 0x07, 0xf9, 0xff, 0x03, 0xf4, 0x1c, 0xff, 0xf2,
    0x01, 0x06, 0x03, 0x0f, 0x01, 0x09, 0xf4, 0xfd, 0xd9, 0x05, 0xf4, 0xa7, 0x02,
    0x05, 0x01, 0x01, 0x0e, 0x17, 0x04, 0x09, 0xf9, 0x04, 0xfe, 0x0a, 0x0b, 0x05,
    0xed, 0xfe, 0xe6, 0x15, 0xf9, 0xe5, 0x11, 0x07, 0x07, 0x10, 0x07, 0x0b, 0x03,
    0xfb, 0xfe, 0x09, 0xd9, 0x06, 0xf7, 0x07, 0x00, 0x02, 0x05, 0x10, 0xf9, 0x03,
    0xed, 0xfd, 0x03, 0x10, 0x09, 0x0b, 0xf4, 0xff, 0xf9, 0x0b, 0x08, 0xf7, 0x00,
    0x08, 0x05, 0x12, 0x00, 0x06, 0xf9, 0x07, 0xef, 0x0a, 0xec, 0xd1, 0x02, 0x04,
    0xff, 0x06, 0x0c, 0x12, 0x07, 0x02, 0xf5, 0x01, 0x04, 0x03, 0x04, 0x04, 0x00,
    0x0a, 0xfa, 0xfa, 0x07, 0xfa, 0xd3, 0x05, 0xfa, 0x04, 0xfb, 0xff, 0x05, 0xff,
    0xf6, 0xf4, 0xf2, 0xdd, 0xfe, 0x0d, 0x01, 0xeb, 0x08, 0xfa, 0x08, 0x0b, 0xfa,
    0xee, 0xfe, 0xf7, 0x04, 0x02, 0xf7, 0x03, 0x10, 0x03, 0x02, 0xf8, 0xf2, 0x08,
    0xf4, 0x0e, 0x04, 0xf8, 0x0f, 0x05, 0xea, 0xfa, 0xfb, 0xd1, 0xfc, 0xec, 0x01,
    0xf4, 0xf8, 0xfe, 0xfe, 0xf9, 0xf5, 0x0b, 0x04, 0xf2, 0x09, 0x07, 0x00, 0x00,
    0xf1, 0x0c, 0xf8, 0xf1, 0x0c, 0x06, 0x12, 0xeb, 0x02, 0x1d, 0xfc, 0xf9, 0x03,
    0x0c, 0xec, 0x0c, 0x07, 0xff, 0x04, 0x17, 0xec, 0x05, 0x0c, 0x0a, 0xed, 0xfe,
    0x02, 0x0c, 0xe2, 0xfd, 0xf0, 0xfc, 0x0b, 0x04, 0xf9, 0x08, 0x0c, 0x03, 0xf7,
    0x07, 0x0f, 0xfd, 0x07, 0x04, 0x0c, 0x0e, 0x05, 0x08, 0x03, 0xfd, 0x02, 0x0d,
    0xf8, 0xfd, 0x00, 0xf5, 0x03, 0xf1, 0x05, 0xfb, 0xfe, 0x0a, 0x08, 0xda, 0x0d,
    0x01, 0x00, 0x0f, 0xf5, 0x04, 0xe4, 0xff, 0xfe, 0x02, 0x07, 0xf3, 0x0e, 0x0c,
    0x06, 0x05, 0xf2, 0xf6, 0xfc, 0x08, 0xfa, 0xf7, 0x00, 0xf4, 0x0a, 0xff, 0x01,
    0xf9, 0x0a, 0x07, 0x13, 0x04, 0x03, 0x02, 0x0d, 0x00, 0xec, 0x03, 0xff, 0x0e,
    0xfe, 0x0f, 0xf0, 0xff, 0xf4, 0x01, 0xef, 0xc2, 0x08, 0xed, 0x00, 0x00, 0x16,
    0x06, 0x02, 0x08, 0xeb, 0x04, 0xfe, 0x05, 0x06, 0x02, 0xfb, 0x06, 0x05, 0x07,
    0x11, 0x03, 0xb8, 0xfc, 0xd9, 0x15, 0xfe, 0xeb, 0x02, 0x04, 0x00, 0xff, 0x02,
    0x03, 0xf0, 0xee, 0xff, 0xee, 0x00, 0xfe, 0xee, 0x01, 0x04, 0x01, 0xf3, 0xe3,
    0x14, 0xda, 0xe0, 0x07, 0x01, 0x00, 0x07, 0xf1, 0x18, 0xfe, 0xfd, 0x02, 0x0e,
    0x01, 0xff, 0xfb, 0x14, 0x10, 0xf0, 0x01, 0xf4, 0x10, 0x00, 0x06, 0x0c, 0xfb,
    0xf6, 0xf9, 0xf8, 0x03, 0xfd, 0x01, 0xf6, 0xf2, 0xe4, 0xdd, 0x07, 0xfa, 0x0d,
    0xfe, 0xea, 0x01, 0xed, 0x04, 0xf9, 0xeb, 0x08, 0x0b, 0xff, 0xec, 0xfa, 0xed,
    0xfc, 0x0b, 0xfd, 0xed, 0xfc, 0xf3, 0x01, 0x13, 0x04, 0xff, 0xf9, 0xf1, 0x06,
    0xf9, 0x05, 0xff, 0x05, 0xfe, 0x05, 0x18, 0xed, 0xfe, 0xf3, 0xfb, 0x02, 0xfa,
    0xf1, 0xf5, 0x01, 0x15, 0x08, 0x03, 0xda, 0xf3, 0x02, 0xf2, 0xf8, 0x0c, 0xe6,
    0xf5, 0x04, 0x06, 0x07, 0xec, 0x0b, 0x0b, 0xf3, 0xf2, 0x05, 0x05, 0xe6, 0xfd,
    0xf4, 0x00, 0xf4, 0x02, 0xf8, 0xf7, 0x08, 0x04, 0xfb, 0xff, 0x09, 0xfd, 0xfa,
    0x09, 0xff, 0xec, 0xf6, 0xed, 0xfc, 0x13, 0xfd, 0xf3, 0x0a, 0xfe, 0x09, 0x06,
    0x09, 0xff, 0x0b, 0x00, 0x0a, 0x03, 0xfc, 0x05, 0xe0, 0x0f, 0xff, 0xe2, 0x04,
    0xf9, 0xf7, 0xed, 0x09, 0x05, 0xf8, 0xfe, 0xfe, 0x03, 0xf1, 0xfb, 0xfb, 0xf1,
    0x09, 0xf0, 0xf9, 0xf9, 0x02, 0x0f, 0x17, 0xff, 0x0b, 0xfa, 0x08, 0x05, 0xed,
    0xfb, 0xe7, 0x19, 0x02, 0xec, 0x03, 0x08, 0x0a, 0xfd, 0x06, 0x03, 0xf4, 0xe9,
    0x03, 0xf2, 0xe0, 0xfe, 0xf4, 0xfa, 0x07, 0x04, 0xf6, 0xef, 0x03, 0xf0, 0xf9,
    0x05, 0xff, 0x09, 0x08, 0xf9, 0xf0, 0x09, 0x07, 0x05, 0xfc, 0x12, 0xf1, 0xff,
    0xe1, 0xfb, 0xef, 0xf9, 0x03, 0xee, 0x02, 0x07, 0x0e, 0x12, 0x0a, 0x0b, 0xef,
    0x06, 0xf9, 0x07, 0xfa, 0xfc, 0xf5, 0x07, 0xfc, 0x13, 0xff, 0xfc, 0x09, 0xfa,
    0x10, 0x03, 0xfc, 0x0e, 0xf7, 0xfc, 0x0c, 0xf9, 0xf7, 0x02, 0xfb, 0x10, 0xff,
    0x0a, 0xfe, 0x0d, 0xfc, 0x04, 0xea, 0x05, 0xf2, 0x0b, 0xe6, 0xfb, 0xf5, 0x00,
    0x00, 0x07, 0x19, 0xfa, 0xf3, 0x03, 0x0d, 0x0a, 0x01, 0x12, 0xf1, 0xfe, 0xf5,
    0xff, 0xe0, 0xfe, 0x04, 0xec, 0xff, 0x0c, 0x14, 0x02, 0x07, 0x02, 0xf7, 0x07,
    0xfc, 0x0e, 0xfd, 0xf6, 0xe2, 0xf7, 0x0c, 0x0b, 0x04, 0xfd, 0xef, 0xf3, 0xf9,
    0x00, 0xfc, 0xf2, 0x02, 0x0e, 0x12, 0xf0, 0xfc, 0xfa, 0x0d, 0x0d, 0x02, 0xfc,
    0xf1, 0xf8, 0xf9, 0x01, 0xec, 0xe2, 0xf0, 0xea, 0x0e, 0x10, 0xf5, 0xfd, 0x06,
    0xff, 0xf6, 0x06, 0xef, 0xf4, 0xea, 0x0c, 0x04, 0xe0, 0x02, 0x18, 0xf5, 0xe8,
    0xf9, 0x0f, 0x12, 0x00, 0xff, 0xf5, 0xe6, 0xfe, 0xf5, 0x04, 0x02, 0xfa, 0xee,
    0xeb, 0x0c, 0x13, 0xe9, 0xfe, 0x09, 0x06, 0xe8, 0xe8, 0x19, 0x17, 0x22, 0xe5,
    0x02, 0x25, 0xeb, 0xf8, 0x01, 0x04, 0xf9, 0xff, 0x08, 0x13, 0x00, 0x02, 0x29,
    0xdb, 0x0b, 0xfe, 0x05, 0x02, 0x0a, 0x14, 0xf8, 0xee, 0x00, 0xfd, 0x08, 0x00,
    0xfd, 0xf6, 0x02, 0x02, 0xef, 0x09, 0xff, 0xf8, 0x07, 0x0f, 0xf6, 0xf8, 0x0e,
    0x0f, 0xfe, 0x07, 0xfc, 0xf3, 0x1d, 0xf9, 0xfb, 0x06, 0x10, 0xeb, 0x09, 0xf9,
    0x11, 0x03, 0x11, 0xe0, 0x09, 0xfb, 0xfa, 0x01, 0xfd, 0xfe, 0x01, 0x07, 0xfc,
    0xfb, 0x05, 0x05, 0xfd, 0x06, 0x09, 0x12, 0xf2, 0xfe, 0x00, 0xfe, 0x02, 0xfc,
    0x01, 0x03, 0x15, 0xf8, 0x02, 0xf6, 0xff, 0x0d, 0x17, 0x06, 0xfc, 0x09, 0x04,
    0xfc, 0xf8, 0x09, 0xff, 0x0f, 0x01, 0x05, 0xfb, 0x01, 0xe5, 0x0a, 0xe0, 0xd6,
    0x01, 0xf3, 0xfe, 0xfc, 0xf1, 0x10, 0x06, 0x0d, 0xe9, 0x01, 0x01, 0xfe, 0x0a,
    0xf7, 0x06, 0xfa, 0xf6, 0x04, 0x04, 0x12, 0xea, 0xf5, 0xe8, 0x0a, 0xff, 0xe1,
    0x06, 0x02, 0xfc, 0x12, 0x04, 0x04, 0xf4, 0xf7, 0x04, 0xf0, 0xe7, 0x01, 0xe2,
    0xff, 0x07, 0xfb, 0xb1, 0xe3, 0x06, 0x04, 0xe2, 0x01, 0xfc, 0x0b, 0x1b, 0xff,
    0x12, 0xec, 0x1f, 0xfe, 0xfa, 0x10, 0x01, 0xfb, 0x0d, 0xfc, 0xf6, 0x0d, 0xf1,
    0x00, 0x01, 0x03, 0x08, 0x00, 0xf3, 0x07, 0xee, 0x08, 0xf5, 0x1b, 0xdc, 0xe6,
    0x00, 0xcc, 0x0b, 0xfa, 0x08, 0x02, 0xf1, 0xed, 0xf0, 0x0a, 0xfa, 0xe5, 0x08,
    0x14, 0x09, 0xf6, 0x01, 0x05, 0x08, 0x14, 0x02, 0x07, 0xee, 0xfe, 0xf1, 0xfe,
    0xff, 0xf2, 0xf7, 0xdb, 0x09, 0x25, 0xf6, 0xfe, 0xf8, 0xfb, 0x09, 0x0c, 0xa7,
    0x03, 0xf8, 0x05, 0xfe, 0xdf, 0x00, 0xf3, 0xf3, 0x02, 0x07, 0xff, 0xee, 0xf4,
    0x05, 0xf6, 0xbc, 0x05, 0xfb, 0x00, 0x0c, 0x06, 0xee, 0xe1, 0xff, 0x23, 0x18,
    0xf8, 0xf9, 0x06, 0xe6, 0x00, 0xe2, 0xf9, 0xed, 0x16, 0xfd, 0xda, 0xfa, 0x06,
    0x03, 0xf9, 0x07, 0x06, 0x06, 0x06, 0x03, 0x00, 0x27, 0xde, 0xee, 0xfb, 0x0b,
    0xe6, 0xe9, 0xdf, 0x0a, 0x02, 0xf3, 0x02, 0x02, 0xfa, 0xfd, 0x0e, 0x03, 0x00,
    0xf1, 0x04, 0xfb, 0xeb, 0x06, 0x0d, 0x00, 0x03, 0x03, 0x12, 0xed, 0xf8, 0xfd,
    0xfb, 0xe0, 0xff, 0xf8, 0x09, 0x0c, 0xee, 0x02, 0xf0, 0x06, 0x0e, 0x14, 0x05,
    0x01, 0xfc, 0xfd, 0x09, 0xe6, 0xf8, 0xf1, 0x14, 0xff, 0xe5, 0x07, 0x0a, 0xf9,
    0x05, 0x06, 0x16, 0xef, 0xfc, 0x02, 0xf8, 0xdc, 0x07, 0xef, 0x00, 0x14, 0xfc,
    0xed, 0xe0, 0x06, 0x06, 0x08, 0x0a, 0x02, 0x02, 0x04, 0xf6, 0x02, 0x0c, 0x0a,
    0x03, 0xff, 0x11, 0xf5, 0xfc, 0xed, 0x04, 0xea, 0xf2, 0xfb, 0xf1, 0xfd, 0x00,
    0xf3, 0x18, 0x10, 0x05, 0xf4, 0xfe, 0x05, 0x0d, 0x00, 0xf5, 0x06, 0xfd, 0x00,
    0x19, 0x02, 0xf7, 0x0e, 0x0c, 0x10, 0x10, 0xfb, 0x1a, 0xfb, 0xf5, 0x04, 0x05,
    0xe0, 0xf2, 0xfb, 0x05, 0xfd, 0x0c, 0xfb, 0x0f, 0x0a, 0xfb, 0xde, 0x06, 0x01,
    0x1b, 0x01, 0xe5, 0xfe, 0x06, 0x05, 0x03, 0x12, 0x00, 0x08, 0x0a, 0x09, 0x05,
    0xfe, 0x12, 0xfe, 0xf7, 0xff, 0x08, 0xe0, 0xf7, 0xf7, 0xfa, 0xff, 0xff, 0xe8,
    0x1b, 0x09, 0x06, 0xe7, 0xfd, 0x0a, 0x09, 0x0c, 0xee, 0x01, 0xfb, 0x00, 0x05,
    0xfd, 0x07, 0xf6, 0xea, 0xe4, 0x0f, 0xf5, 0xe6, 0x08, 0x0b, 0x0b, 0xe6, 0x00,
    0x0b, 0x01, 0x02, 0xff, 0xfc, 0xf6, 0x08, 0xf3, 0x0c, 0xfd, 0xd9, 0xe9, 0xdf,
    0x03, 0x01, 0xf7, 0x00, 0xf9, 0x04, 0x01, 0x0b, 0xfc, 0xf1, 0x09, 0x17, 0x00,
    0xdb, 0xfe, 0x1c, 0x05, 0xf0, 0xfb, 0x00, 0xf7, 0x07, 0xfd, 0x05, 0x02, 0x01,
    0xe3, 0x00, 0xf5, 0xe7, 0xf3, 0xf9, 0x04, 0xeb, 0xf2, 0xfb, 0xfa, 0x00, 0xec,
    0xfd, 0x0d, 0x0e, 0x0d, 0xed, 0xff, 0x11, 0xfd, 0xff, 0x00, 0xf2, 0xf3, 0x07,
    0x0d, 0x0e, 0xfc, 0x07, 0x1c, 0xce, 0x09, 0x15, 0xec, 0xfa, 0xe6, 0x0b, 0xf6,
    0xe3, 0x0a, 0xfb, 0x10, 0xf0, 0xea, 0xf7, 0xfe, 0xf6, 0xf4, 0x02, 0x01, 0xe8,
    0x15, 0x10, 0xf9, 0xfb, 0x04, 0x0c, 0x07, 0xf2, 0x01, 0x06, 0xe7, 0xf9, 0x01,
    0x0a, 0x04, 0xeb, 0x05, 0xf5, 0x08, 0x04, 0x03, 0xf7, 0x0a, 0x02, 0x01, 0xf5,
    0x00, 0xf4, 0xf9, 0xf1, 0xfe, 0xf9, 0x00, 0x04, 0xff, 0x08, 0x0f, 0x02, 0x01,
    0xf2, 0x04, 0x07, 0xf7, 0x0f, 0x0c, 0x00, 0x04, 0x02, 0x0e, 0xfb, 0x0a, 0x07,
    0x0d, 0x02, 0x04, 0xfc, 0x06, 0xe0, 0x00, 0x04, 0x06, 0x05, 0x07, 0x0a, 0xf3,
    0xfb, 0xf2, 0x07, 0xed, 0xf8, 0x04, 0x07, 0x03, 0xe8, 0x0d, 0x12, 0x07, 0x10,
    0xf6, 0xff, 0xff, 0x07, 0x09, 0x03, 0x02, 0x06, 0x06, 0x09, 0xf2, 0x0d, 0xe2,
    0xf7, 0xdd, 0x0c, 0x07, 0xec, 0x04, 0x01, 0xf9, 0x0e, 0x02, 0x04, 0xe4, 0xe3,
    0xfc, 0xf0, 0xeb, 0xfa, 0xee, 0x00, 0x02, 0x05, 0xe6, 0xf5, 0x0f, 0xf3, 0xe8,
    0xff, 0xfc, 0x0a, 0x07, 0x08, 0x06, 0x07, 0x09, 0x0d, 0xf2, 0x1a, 0xf7, 0x06,
    0x00, 0xf8, 0xed, 0xf3, 0xfa, 0x07, 0x00, 0x05, 0x09, 0x03, 0x00, 0x02, 0xec,
    0xfe, 0x01, 0x1a, 0x15, 0xf2, 0x07, 0xcf, 0xfc, 0x00, 0xfe, 0xfe, 0xf1, 0xf9,
    0x03, 0x0f, 0xf9, 0xde, 0xff, 0x15, 0x0b, 0xf2, 0x0b, 0x09, 0x0a, 0xfe, 0x03,
    0x02, 0xf4, 0xfb, 0xec, 0x03, 0x04, 0xf0, 0xf2, 0xe7, 0x02, 0xfb, 0xf1, 0x01,
    0xf9, 0x03, 0x0f, 0xff, 0xd4, 0xfd, 0xf1, 0x02, 0x07, 0xdb, 0xfd, 0xec, 0xfa,
    0x02, 0xfe, 0x02, 0x01, 0xea, 0xfe, 0xf9, 0xf6, 0x07, 0xd5, 0xf9, 0x06, 0x08,
    0xde, 0xd7, 0x00, 0xfa, 0xf4, 0xf4, 0x01, 0xf9, 0xee, 0x08, 0xec, 0xec, 0xfb,
    0x0d, 0x02, 0xe3, 0x06, 0x12, 0x02, 0xfc, 0x11, 0x0e, 0x00, 0xfd, 0x04, 0xfe,
    0xf7, 0xf4, 0xd0, 0xfa, 0x04, 0xd0, 0xe1, 0xe5, 0xf8, 0xf7, 0xf5, 0xfe, 0x0a,
    0x05, 0xff, 0x06, 0xfe, 0xfc, 0xf1, 0xf9, 0x01, 0xe9, 0x09, 0x04, 0x04, 0xff,
    0xf9, 0x09, 0xf2, 0xee, 0x04, 0x02, 0xfd, 0x06, 0xfe, 0xf8, 0x05, 0xf0, 0x07,
    0xf7, 0x05, 0x0a, 0x0b, 0x00, 0xff, 0x06, 0x03, 0x0a, 0xfd, 0xf0, 0xf4, 0x04,
    0x02, 0xf2, 0x03, 0xfe, 0xfc, 0xfd, 0x04, 0x07, 0xea, 0xf7, 0xfe, 0x03, 0xf6,
    0x06, 0xf0, 0xf7, 0x08, 0xfe, 0xfb, 0xf3, 0x03, 0xef, 0xfe, 0x02, 0x02, 0x00,
    0x01, 0xe0, 0x0a, 0x08, 0x15, 0xfd, 0x05, 0x12, 0xf4, 0xf6, 0xf8, 0xfb, 0xee,
    0xfd, 0x06, 0x08, 0x02, 0xfb, 0x0d, 0x07, 0x0b, 0x0e, 0xf5, 0xfd, 0x04, 0x0e,
    0x01, 0xfd, 0x0a, 0xfc, 0x02, 0x00, 0x07, 0xfa, 0x0a, 0x0d, 0x0c, 0x0a, 0xf2,
    0x13, 0xef, 0xfb, 0xff, 0xfb, 0xf3, 0xde, 0x0b, 0x0f, 0x02, 0xf3, 0x1a, 0xe7,
    0x07, 0x12, 0xea, 0xfe, 0xfd, 0x0d, 0x0e, 0xef, 0x08, 0x03, 0x01, 0x09, 0x0d,
    0xe6, 0x08, 0x0a, 0x09, 0x00, 0x06, 0x13, 0xf2, 0xfa, 0xfd, 0xf5, 0xda, 0xf8,
    0x0d, 0x07, 0xfb, 0xfd, 0x03, 0x0d, 0x09, 0x0a, 0xe9, 0xff, 0x08, 0x0b, 0x0d,
    0xfc, 0x0a, 0x0d, 0xf6, 0x03, 0xfa, 0x0b, 0xfa, 0xf7, 0xbb, 0x03, 0x02, 0xe5,
    0xfd, 0x09, 0x0a, 0xe8, 0x07, 0x02, 0xef, 0x00, 0xfe, 0x07, 0x04, 0x00, 0xe9,
    0x01, 0xff, 0xf5, 0xfb, 0xd8, 0x03, 0xe0, 0x03, 0x07, 0x03, 0x00, 0xf1, 0x11,
    0xf0, 0xfe, 0xee, 0x12, 0xfc, 0xf5, 0x06, 0x11, 0x01, 0xed, 0xfd, 0x00, 0xf5,
    0xfd, 0x01, 0xfe, 0xf0, 0x00, 0xfc, 0x0c, 0xf7, 0x01, 0x1b, 0xf3, 0x16, 0x20,
    0xf2, 0xf5, 0x11, 0x0d, 0x10, 0x02, 0x0f, 0x01, 0x0d, 0x0f, 0xfc, 0x15, 0xf7,
    0x11, 0x09, 0xf0, 0xf7, 0x01, 0x0b, 0xfb, 0x03, 0x00, 0x0f, 0xf1, 0x0b, 0x07,
    0xf3, 0x02, 0xdf, 0x13, 0xe5, 0xf5, 0x01, 0xfa, 0x03, 0x08, 0xe8, 0x02, 0x01,
    0xfe, 0x08, 0x01, 0x06, 0xec, 0x09, 0xf9, 0x08, 0x0f, 0xfc, 0x01, 0xf3, 0x06,
    0xfd, 0x01, 0xf9, 0xf8, 0xf0, 0x02, 0xfc, 0xed, 0x00, 0xf4, 0x12, 0x0b, 0x05,
    0xff, 0xf6, 0xeb, 0xed, 0xf5, 0xfc, 0xfa, 0x01, 0xf3, 0x04, 0xff, 0xfe, 0xfb,
    0xfe, 0x03, 0x03, 0x0e, 0xf5, 0x01, 0x04, 0xfb, 0xe4, 0x04, 0x05, 0x07, 0x06,
    0xfc, 0x04, 0x00, 0x18, 0x03, 0x0d, 0x03, 0x0b, 0x04, 0x02, 0xf1, 0xf9, 0x09,
    0xff, 0xf9, 0x05, 0x04, 0xfe, 0x05, 0xf6, 0xff, 0xef, 0xfa, 0x01, 0x01, 0xff,
    0xf4, 0xe8, 0x09, 0x09, 0x0c, 0xf1, 0xfd, 0xfe, 0x06, 0x0c, 0xfd, 0x04, 0x08,
    0xf1, 0x05, 0x09, 0xff, 0xf6, 0x01, 0xef, 0x00, 0x0b, 0xfd, 0x05, 0xfe, 0x01,
    0x04, 0x0a, 0x08, 0xf8, 0xfb, 0x05, 0xf9, 0xd6, 0x1b, 0x01, 0xff, 0x04, 0x03,
    0x01, 0xf5, 0x11, 0x10, 0xf2, 0xf3, 0x16, 0x0e, 0x11, 0x00, 0x08, 0xff, 0x2c,
    0xf8, 0xf0, 0x13, 0x03, 0xef, 0x04, 0xe0, 0x14, 0xe8, 0x15, 0x0c, 0x00, 0x05,
    0x0b, 0xf2, 0xf6, 0x06, 0xf8, 0x02, 0xed, 0x16, 0xed, 0xed, 0x02, 0xe3, 0xf8,
    0xf5, 0x00, 0x0c, 0xf8, 0x05, 0xe8, 0x07, 0xff, 0xdd, 0xfe, 0x06, 0x00, 0x0e,
    0x10, 0x0e, 0x09, 0x00, 0xfd, 0x03, 0xf9, 0x03, 0xf0, 0xfa, 0xfe, 0xee, 0xee,
    0xd5, 0x09, 0xdf, 0x05, 0xff, 0xea, 0xf1, 0x0f, 0xfd, 0xe1, 0xfd, 0xe9, 0x02,
    0x03, 0xe5, 0xf4, 0xf7, 0xfd, 0xff, 0xfb, 0x05, 0xe6, 0xf6, 0x02, 0xed, 0xfe,
    0x0d, 0xea, 0xf8, 0x11, 0x07, 0x04, 0xe5, 0x03, 0x08, 0xff, 0x02, 0xef, 0xf4,
    0x0b, 0xff, 0xfc, 0x01, 0xf7, 0xf7, 0x05, 0xcb, 0xff, 0xfb, 0xfc, 0x04, 0x08,
    0x02, 0xf3, 0x05, 0x01, 0x08, 0x04, 0x04, 0xea, 0x00, 0x00, 0xe2, 0xc1, 0xe3,
    0x01, 0xe0, 0xf2, 0x01, 0xf5, 0xf5, 0xf3, 0xfa, 0xf0, 0xfe, 0xf4, 0x06, 0x07,
    0xe1, 0x06, 0x01, 0xe9, 0x01, 0xfb, 0x0e, 0xef, 0x07, 0xfc, 0xe2, 0xf3, 0x04,
    0xfe, 0x00, 0x0c, 0xf9, 0x11, 0x01, 0x1a, 0x10, 0xfa, 0x04, 0x07, 0x03, 0xf1,
    0x08, 0xfc, 0xf5, 0xf3, 0xfc, 0x02, 0xf8, 0x09, 0x06, 0x06, 0x0f, 0xf3, 0x06,
    0xf8, 0xf6, 0xfc, 0xf1, 0xf0, 0x0a, 0x07, 0xfe, 0x08, 0xf9, 0x14, 0xf6, 0x12,
    0x17, 0x0b, 0xf9, 0x0d, 0x02, 0x0d, 0xdc, 0x00, 0x06, 0x0b, 0x0a, 0xfb, 0x0b,
    0xfb, 0x0b, 0xf9, 0xfb, 0xf7, 0x03, 0x08, 0x00, 0x00, 0xef, 0x05, 0xfd, 0x0b,
    0x0d, 0x0d, 0xfd, 0xf6, 0x05, 0x04, 0xfb, 0xfd, 0xf1, 0x11, 0x0c, 0x08, 0xf0,
    0x08, 0x08, 0x1a, 0x07, 0xf3, 0x0e, 0xf9, 0x16, 0x00, 0xe6, 0xf0, 0xe9, 0x14,
    0x0a, 0x04, 0x01, 0x0f, 0xe3, 0x08, 0x06, 0xf5, 0xfe, 0xec, 0x0c, 0xeb, 0xe8,
    0xf9, 0x01, 0x0e, 0x07, 0x1a, 0xe2, 0x04, 0x06, 0x0c, 0x0f, 0xff, 0x13, 0xff,
    0x05, 0xff, 0xfd, 0xe9, 0xfc, 0x06, 0x00, 0xfe, 0xf0, 0x05, 0xf6, 0x02, 0x0a,
    0xfb, 0xfd, 0xfa, 0x11, 0x0f, 0xfd, 0x03, 0xff, 0x06, 0x12, 0xf7, 0x06, 0xff,
    0x0a, 0xf4, 0x02, 0xd5, 0xf7, 0xf6, 0x04, 0x0c, 0x0e, 0x03, 0xf1, 0xf6, 0xf0,
    0xfc, 0x08, 0x05, 0x00, 0xe8, 0xed, 0x03, 0xee, 0x03, 0xf6, 0x0f, 0xf9, 0xed,
    0x05, 0x01, 0x1f, 0xff, 0x00, 0x04, 0x00, 0xee, 0x04, 0xf0, 0xee, 0x0d, 0x04,
    0x09, 0xf8, 0x04, 0xf3, 0xe1, 0x02, 0xff, 0x09, 0x0a, 0x01, 0xed, 0x09, 0xfb,
    0x09, 0xfe, 0x00, 0x11, 0x00, 0xf3, 0xfa, 0x02, 0xf7, 0x1d, 0x0d, 0x08, 0xf6,
    0xfb, 0x00, 0x02, 0x0f, 0x08, 0xff, 0xfe, 0x03, 0xfa, 0x00, 0x0f, 0x0a, 0xff,
    0x01, 0x13, 0xf2, 0xf1, 0xff, 0xfc, 0xfe, 0x00, 0x0c, 0xeb, 0xfb, 0x0c, 0xfe,
    0x0c, 0x06, 0xe4, 0xf9, 0x03, 0x03, 0x09, 0xfd, 0x02, 0xff, 0xf9, 0xf6, 0x00,
    0xfb, 0x15, 0x03, 0xf8, 0x00, 0xfe, 0x08, 0xff, 0xe4, 0x02, 0xe6, 0x01, 0xff,
    0x13, 0x0f, 0x0d, 0x0b, 0x00, 0xec, 0xf6, 0x05, 0xf0, 0x01, 0xfe, 0xfe, 0xfc,
    0xe7, 0x05, 0xfe, 0x00, 0xfa, 0xfe, 0x03, 0x0a, 0x07, 0xf7, 0x02, 0xfe, 0x0a,
    0xde, 0xef, 0x0b, 0x01, 0x17, 0x01, 0x0e, 0xfe, 0xfc, 0x0d, 0x0b, 0xff, 0xff,
    0xee, 0xfd, 0xdc, 0xf3, 0x0b, 0x15, 0x05, 0x0a, 0x0d, 0x00, 0x00, 0x01, 0xfc,
    0xf9, 0x03, 0x0e, 0x03, 0x03, 0xf5, 0xec, 0x0f, 0x0a, 0x12, 0xeb, 0xff, 0xf8,
    0x06, 0x06, 0x03, 0x09, 0xfd, 0xfc, 0x0d, 0xfb, 0x06, 0xfb, 0xe9, 0xfa, 0xff,
    0xfe, 0xf4, 0x00, 0xff, 0x03, 0x05, 0x00, 0x04, 0xee, 0xf9, 0xff, 0x09, 0xe7,
    0x12, 0xfc, 0x09, 0xf4, 0xff, 0xf8, 0x02, 0x07, 0x02, 0xf7, 0xf8, 0xe1, 0xf3,
    0x05, 0x07, 0x06, 0x0f, 0x14, 0x09, 0xe2, 0x0a, 0xf9, 0x09, 0xf5, 0xe7, 0x03,
    0xec, 0x0c, 0xff, 0xfc, 0xfd, 0x02, 0x06, 0x00, 0xf6, 0xf5, 0xf8, 0x02, 0x09,
    0x20, 0xeb, 0xfb, 0xff, 0x0f, 0x09, 0xe9, 0x07, 0x0d, 0xf6, 0xe3, 0x0a, 0xe0,
    0xf1, 0xf5, 0x00, 0x06, 0x0d, 0x07, 0xf6, 0xe3, 0xf5, 0xfc, 0x05, 0xfa, 0xf5,
    0xd4, 0x04, 0x0b, 0xf6, 0x08, 0xf1, 0x09, 0x04, 0xf8, 0xff, 0xf4, 0x06, 0x1d,
    0x00, 0xd7, 0x07, 0xfc, 0x04, 0x05, 0xe3, 0xff, 0xec, 0x00, 0x01, 0xf7, 0x0a,
    0xe1, 0x00, 0x03, 0x00, 0xed, 0x17, 0xdd, 0x05, 0x02, 0xfd, 0xe2, 0xee, 0xfe,
    0x0d, 0xeb, 0x05, 0x0d, 0x16, 0xea, 0xf5, 0x03, 0xf6, 0xf0, 0x0a, 0xfc, 0xfc,
    0xf4, 0xfb, 0x03, 0x08, 0x09, 0x05, 0xf0, 0x02, 0xfd, 0x04, 0xfe, 0xe8, 0xda,
    0xf5, 0x10, 0xe6, 0x09, 0xf0, 0xfc, 0xf6, 0xfd, 0x02, 0xee, 0x03, 0x0d, 0x05,
    0xfc, 0x00, 0xfa, 0xed, 0x02, 0xe2, 0x13, 0xfc, 0xff, 0x0e, 0xff, 0x0d, 0xe4,
    0xf7, 0x00, 0x06, 0xe7, 0x05, 0xfd, 0x08, 0xfd, 0xda, 0x18, 0xfa, 0xf2, 0x11,
    0xfe, 0x00, 0xfe, 0x07, 0x09, 0xf2, 0xd0, 0xfd, 0xf2, 0xef, 0x05, 0xf0, 0x09,
    0x07, 0xf8, 0x04, 0x00, 0x06, 0xf4, 0xfa, 0x03, 0xf9, 0xe8, 0xfe, 0x05, 0x01,
    0x08, 0x02, 0x0a, 0xfa, 0x0a, 0x09, 0xfb, 0xf7, 0xfa, 0xeb, 0xfd, 0xe8, 0xf6,
    0xff, 0x08, 0x01, 0x05, 0x0d, 0x09, 0x00, 0x01, 0xfd, 0xf7, 0xfe, 0x0a, 0x06,
    0xff, 0xf8, 0xfb, 0x0d, 0x07, 0x0f, 0xee, 0xfe, 0xf9, 0x0b, 0x04, 0xf6, 0x05,
    0xf3, 0x0a, 0xeb, 0x12, 0x00, 0x0b, 0x11, 0x0b, 0x0b, 0xef, 0x19, 0xfb, 0xfc,
    0x00, 0xf8, 0xec, 0xf7, 0x0f, 0x0b, 0xfd, 0xfd, 0x17, 0xf8, 0xfc, 0x07, 0xf3,
    0xf8, 0xf3, 0x13, 0xfe, 0xed, 0x02, 0x06, 0xfc, 0xe1, 0x08, 0xec, 0x07, 0xfe,
    0x07, 0x01, 0xff, 0x0c, 0x0e, 0x07, 0xf9, 0xfc, 0xde, 0x01, 0x07, 0x05, 0x00,
    0x00, 0x04, 0x07, 0x05, 0x0e, 0xe2, 0xf3, 0xf4, 0x16, 0x08, 0xf4, 0xfd, 0xfc,
    0xe8, 0x14, 0x06, 0x18, 0xf3, 0x06, 0x01, 0x0d, 0xf6, 0xfb, 0x12, 0xfe, 0xe8,
    0x0e, 0x02, 0xfc, 0xfb, 0xee, 0xff, 0xff, 0xfb, 0x0c, 0x02, 0x0c, 0xfe, 0xf4,
    0x05, 0x00, 0x12, 0xed, 0xe0, 0x04, 0x00, 0x17, 0x02, 0x02, 0x04, 0x03, 0xfc,
    0x07, 0xe6, 0xf2, 0x0b, 0x03, 0x04, 0x0c, 0x00, 0xf7, 0xf8, 0xee, 0xfe, 0x00,
    0xfa, 0xf5, 0xfc, 0xfa, 0x00, 0xf8, 0x01, 0xf6, 0x0d, 0xff, 0xff, 0x00, 0xfe,
    0x09, 0x22, 0x0b, 0x08, 0xeb, 0xf3, 0x0c, 0x01, 0x0a, 0xff, 0xfb, 0xfc, 0xfe,
    0xfa, 0x01, 0x09, 0xfd, 0xfe, 0x04, 0x06, 0x05, 0xfa, 0x03, 0xfa, 0x04, 0xf1,
    0x06, 0xde, 0xfb, 0x04, 0x01, 0xf4, 0xe4, 0x98, 0xf3, 0xf6, 0x01, 0x07, 0x19,
    0x02, 0x00, 0xfc, 0x03, 0x06, 0x04, 0x09, 0x04, 0x06, 0xfe, 0x03, 0x06, 0xd5,
    0xd8, 0xf3, 0xf4, 0xff, 0xf8, 0x02, 0xfb, 0x23, 0x06, 0xf9, 0xf5, 0x0d, 0xfe,
    0xcc, 0xff, 0xf6, 0xfd, 0xf0, 0xf6, 0x02, 0xf5, 0xfc, 0xf7, 0x0d, 0xfe, 0x0d,
    0x07, 0xf1, 0xff, 0xfe, 0xff, 0xf0, 0xec, 0x04, 0x01, 0xf8, 0x02, 0x08, 0xfa,
    0x1b, 0x05, 0x03, 0xfd, 0x0b, 0xcd, 0xbc, 0x05, 0x00, 0x03, 0x00, 0xfa, 0x06,
    0x05, 0x09, 0x13, 0x0e, 0x01, 0xd8, 0x09, 0x09, 0x03, 0x01, 0x00, 0xd7, 0xf5,
    0x09, 0x0b, 0xed, 0xfe, 0x09, 0x0d, 0xfa, 0x0e, 0xfa, 0xfd, 0x05, 0xff, 0xed,
    0x06, 0x01, 0xec, 0xed, 0x0c, 0x03, 0xfa, 0x0c, 0xf5, 0x05, 0xf9, 0xfe, 0xff,
    0xf8, 0x03, 0x00, 0x02, 0xf8, 0xfe, 0xe5, 0x08, 0xfd, 0x04, 0x0d, 0xee, 0x05,
    0x13, 0x08, 0xff, 0xfb, 0xff, 0xfe, 0x05, 0x00, 0xff, 0x00, 0x04, 0xf1, 0x0b,
    0xe1, 0x0b, 0xf7, 0xe3, 0x05, 0xe3, 0x02, 0x09, 0xfe, 0x01, 0x0a, 0x04, 0xf9,
    0x17, 0xfc, 0x05, 0xf3, 0x04, 0xf4, 0xec, 0x02, 0xea, 0xf0, 0x0c, 0xec, 0x07,
    0xee, 0x0b, 0x01, 0x04, 0xf5, 0x04, 0x04, 0xf7, 0xfc, 0x15, 0x15, 0xfb, 0xf5,
    0xfd, 0xfd, 0x03, 0xef, 0x02, 0x04, 0xfe, 0x01, 0xf9, 0x05, 0xf6, 0x0f, 0xf6,
    0x03, 0xfa, 0xfd, 0x08, 0x06, 0x0b, 0xf6, 0xc3, 0xe3, 0x0f, 0x08, 0xe2, 0x02,
    0xe0, 0x08, 0x00, 0xf3, 0x02, 0xe1, 0x00, 0xff, 0x09, 0xec, 0x0a, 0xc5, 0xf2,
    0xff, 0x06, 0xe8, 0xdc, 0xef, 0x01, 0xfe, 0xf8, 0xec, 0xfe, 0xd1, 0xf6, 0x03,
    0x10, 0x08, 0x0a, 0x00, 0xf4, 0x02, 0xfc, 0x01, 0x0a, 0x08, 0x02, 0xfb, 0x01,
    0x02, 0x10, 0xfa, 0xce, 0x04, 0xf8, 0xf9, 0xf2, 0x06, 0x03, 0x28, 0xf7, 0x07,
    0x04, 0x13, 0x06, 0xfb, 0x08, 0x00, 0xcd, 0xfc, 0xf7, 0x05, 0xf3, 0x13, 0x07,
    0x01, 0xf8, 0xf9, 0x03, 0xe1, 0x01, 0x03, 0xfd, 0xfc, 0x07, 0xed, 0xeb, 0xfd,
    0xf7, 0x13, 0xf5, 0x0f, 0x0f, 0xfc, 0x00, 0x0f, 0x0b, 0xfc, 0xfa, 0xfd, 0x03,
    0xf5, 0x07, 0x08, 0xdf, 0x0f, 0xed, 0x03, 0xfa, 0xfc, 0x03, 0xee, 0xfb, 0xfc,
    0x03, 0xd5, 0x09, 0x05, 0x07, 0x13, 0xfb, 0x18, 0xfe, 0x03, 0xf8, 0xfe, 0xf2,
    0x15, 0xde, 0xbb, 0xf7, 0xfe, 0xfc, 0xff, 0xf2, 0x01, 0x16, 0xf9, 0x0c, 0x0b,
    0xf7, 0xdd, 0x04, 0x08, 0x02, 0x01, 0xf8, 0xe7, 0xf8, 0x08, 0x0c, 0x08, 0x04,
    0xfc, 0x08, 0xe6, 0x02, 0xfc, 0xfb, 0x04, 0xfa, 0x0c, 0x0c, 0x09, 0xfb, 0x00,
    0x07, 0x01, 0x10, 0xfb, 0x0d, 0x02, 0xf9, 0xe3, 0xf4, 0x05, 0x07, 0x03, 0x03,
    0x0e, 0xfc, 0x00, 0x1a, 0xed, 0x01, 0xf3, 0xff, 0xe2, 0xfa, 0xfb, 0x06, 0x0b,
    0xee, 0xd3, 0xe8, 0x10, 0xfc, 0x00, 0xf1, 0xff, 0x10, 0x03, 0x0c, 0xfc, 0xf9,
    0xc5, 0x03, 0x09, 0x0d, 0xfd, 0xf5, 0xff, 0xf8, 0x08, 0x0d, 0x01, 0xf8, 0xf9,
    0x09, 0xdf, 0x01, 0xf4, 0x0a, 0xe7, 0x2b, 0xee, 0x0b, 0xfa, 0x07, 0x0e, 0xfd,
    0x03, 0x02, 0x0a, 0xf2, 0xe7, 0x14, 0xfd, 0xfc, 0xfc, 0xe7, 0x02, 0xf0, 0xfd,
    0x0b, 0x01, 0xf8, 0xe6, 0xf9, 0xf1, 0x09, 0x16, 0xf6, 0xe3, 0x0b, 0x00, 0x17,
    0xeb, 0x09, 0x0a, 0xfc, 0x11, 0xf9, 0xe5, 0xef, 0x11, 0xfc, 0xf0, 0xfb, 0x14,
    0xf0, 0xfb, 0x03, 0x01, 0x02, 0x00, 0xe9, 0x02, 0xfb, 0x02, 0x02, 0x0a, 0x03,
    0x0c, 0xfe, 0x0b, 0x08, 0xf1, 0xf3, 0x1d, 0xff, 0x02, 0xe9, 0xf6, 0x1d, 0xfd,
    0xf5, 0x05, 0x01, 0xfd, 0xe5, 0xe1, 0xf9, 0x07, 0x0c, 0xfd, 0x14, 0x0c, 0x1c,
    0xfd, 0x04, 0xe1, 0x06, 0xff, 0x00, 0xe3, 0xe6, 0xec, 0xf7, 0x03, 0x0c, 0x9c,
    0x00, 0x04, 0x1d, 0x0a, 0xf2, 0xfa, 0x00, 0x06, 0xfe, 0xfd, 0x11, 0x04, 0x06,
    0x00, 0xf4, 0x01, 0xfd, 0xf0, 0xb9, 0x03, 0x02, 0x0d, 0xf0, 0xf7, 0x04, 0x03,
    0x0b, 0x09, 0xe5, 0x09, 0xf7, 0xb0, 0x1a, 0xe7, 0xf4, 0xf4, 0x03, 0x01, 0xee,
    0xfa, 0xf1, 0x07, 0xfb, 0x1c, 0x04, 0xfc, 0xf7, 0xfc, 0x06, 0xde, 0xc9, 0x0b,
    0xfd, 0x19, 0x02, 0x0a, 0x03, 0x24, 0xfe, 0x1d, 0xf9, 0x05, 0xf3, 0xc7, 0xe0,
    0xfc, 0x00, 0x02, 0x22, 0x06, 0x0b, 0xf4, 0x1d, 0x0d, 0x01, 0xcf, 0x02, 0x0b,
    0x1f, 0x01, 0x10, 0x01, 0xb0, 0x04, 0x0d, 0xd7, 0xf6, 0x0f, 0x08, 0xf1, 0xff,
    0x08, 0xfc, 0x0c, 0x10, 0xed, 0x05, 0xf3, 0xef, 0xc5, 0xff, 0x01, 0x06, 0xf9,
    0xf2, 0x06, 0xf4, 0x1b, 0x01, 0xdd, 0xf2, 0x04, 0xf2, 0xf4, 0xe1, 0xf5, 0x11,
    0x00, 0x09, 0xfb, 0xfc, 0xfe, 0xe7, 0xf4, 0x01, 0xfa, 0xf5, 0x06, 0x0a, 0x07,
    0x06, 0xfe, 0x02, 0xfb, 0x07, 0xfb, 0x13, 0xf4, 0xfa, 0xeb, 0xdd, 0x07, 0x01,
    0xfe, 0x19, 0x0b, 0x11, 0x04, 0xfd, 0xb2, 0xf8, 0xfb, 0x02, 0xfd, 0xe8, 0xf2,
    0xe0, 0xf8, 0x0e, 0xd2, 0x0a, 0x0c, 0x0c, 0x11, 0x03, 0xfe, 0x01, 0xfa, 0xf7,
    0xfa, 0x13, 0x11, 0xff, 0xfe, 0xec, 0xfc, 0x02, 0xe7, 0xdc, 0xff, 0xfa, 0xfe,
    0x0e, 0xfc, 0xff, 0x18, 0x06, 0x23, 0x06, 0x0d, 0x16, 0xea, 0x01, 0xf2, 0xdf,
    0xd4, 0x14, 0x05, 0x0c, 0xed, 0xdf, 0x02, 0x01, 0x01, 0x02, 0xee, 0xeb, 0x02,
    0xf2, 0x01, 0xf9, 0xd4, 0xe7, 0x03, 0xfd, 0xe0, 0xf5, 0x16, 0xf9, 0xfb, 0xfd,
    0x01, 0xf9, 0x81, 0xd1, 0xdf, 0x11, 0x15, 0xed, 0x04, 0x01, 0x04, 0xe5, 0xff,
    0x0d, 0xff, 0x03, 0x0a, 0xe4, 0x00, 0xe9, 0xce, 0xa9, 0x0a, 0xfc, 0xfb, 0xdf,
    0x07, 0x02, 0xfb, 0x09, 0x0c, 0x06, 0x0a, 0x0d, 0xe8, 0x0e, 0x08, 0xdb, 0xdc,
    0xfb, 0xf8, 0xe7, 0x11, 0x06, 0xfe, 0xff, 0x0a, 0x0a, 0xe4, 0xfe, 0x02, 0xff,
    0xf3, 0xed, 0xf8, 0x15, 0x0d, 0xf9, 0x0d, 0xed, 0x01, 0x12, 0x0b, 0xfd, 0x09,
    0x13, 0xeb, 0x05, 0x04, 0xcb, 0xc9, 0x07, 0xfa, 0xdb, 0x10, 0xdc, 0x02, 0xfa,
    0x02, 0x0a, 0xdc, 0xf8, 0xfc, 0xee, 0xf9, 0xec, 0xf1, 0xe4, 0x22, 0xf0, 0x05,
    0xe9, 0x21, 0x15, 0x02, 0xf5, 0x06, 0xe6, 0xbd, 0xee, 0xff, 0x01, 0xff, 0x0d,
    0x06, 0x0d, 0xf1, 0x17, 0x13, 0xf5, 0xec, 0x01, 0x0f, 0x1e, 0xfe, 0x16, 0xf0,
    0x99, 0x05, 0x10, 0xea, 0x08, 0x19, 0x00, 0xf3, 0xfd, 0xfc, 0x01, 0x06, 0xf9,
    0x1a, 0xfa, 0x06, 0xfa, 0xff, 0x23, 0x0a, 0x07, 0xfd, 0x15, 0xf9, 0xfc, 0xc8,
    0xf4, 0x0d, 0x0b, 0x01, 0x0c, 0x0e, 0x14, 0xff, 0x11, 0xb5, 0xff, 0xfc, 0x0b,
    0xe3, 0xe3, 0xf4, 0x06, 0xfd, 0xf5, 0xdd, 0xd7, 0x0b, 0x05, 0x02, 0x01, 0x01,
    0x0a, 0x00, 0x1a, 0x01, 0xf8, 0xbd, 0xff, 0x08, 0x11, 0xfe, 0x1a, 0x00, 0xd4,
    0x05, 0x15, 0xc9, 0xec, 0x10, 0x0d, 0xf8, 0xf4, 0xf1, 0x7a, 0xff, 0xff, 0xff,
    0x00, 0x00, 0x00, 0x09, 0x18, 0x00, 0x00, 0x00, 0x03, 0x00, 0x00, 0x00, 0x08,
    0x00, 0x00, 0x00, 0x18, 0x00, 0x00, 0x00, 0x01, 0x00, 0x00, 0x00, 0x31, 0x00,
    0x00, 0x00, 0x01, 0x00, 0x00, 0x00, 0x00, 0x14, 0x00, 0x00, 0x04, 0x00, 0x06,
    0x00, 0x04, 0x00, 0x00, 0x00, 0x00, 0x00, 0x06, 0x00, 0x08, 0x00, 0x04, 0x00,
    0x06, 0x00, 0x00, 0x00, 0x04, 0x00, 0x00, 0x00, 0x40, 0x00, 0x00, 0x00, 0xc4,
    0x38, 0xc4, 0x38, 0xc4, 0x38, 0xc4, 0x38, 0xc4, 0x38, 0xc4, 0x38, 0xc4, 0x38,
    0xc4, 0x38, 0xc4, 0x38, 0xc4, 0x38, 0xc4, 0x38, 0xc4, 0x38, 0xc4, 0x38, 0xc4,
    0x38, 0xc4, 0x38, 0xc4, 0x38, 0x56, 0xe2, 0x68, 0x06, 0x70, 0xdf, 0x58, 0xd4,
    0xf6, 0xcb, 0x38, 0xa5, 0xdf, 0xaa, 0xb5, 0xbd, 0x45, 0xfd, 0x16, 0xc3, 0xbb,
    0xd9, 0xad, 0xd8, 0x16, 0xcd, 0xe5, 0xf4, 0x4b, 0xc9, 0xd3, 0xa6, 0x00, 0x00,
    0x0e, 0x00, 0x18, 0x00, 0x08, 0x00, 0x07, 0x00, 0x0c, 0x00, 0x10, 0x00, 0x14,
    0x00, 0x0e, 0x00, 0x00, 0x00, 0x00, 0x00, 0x00, 0x07, 0x18, 0x00, 0x00, 0x00,
    0x02, 0x00, 0x00, 0x00, 0x08, 0x00, 0x00, 0x00, 0x14, 0x00, 0x00, 0x00, 0x01,
    0x00, 0x00, 0x00, 0x30, 0x00, 0x00, 0x00, 0x01, 0x00, 0x00, 0x00, 0x20, 0x00,
    0x00, 0x00, 0x84, 0xff, 0xff, 0xff, 0x14, 0x00, 0x18, 0x00, 0x04, 0x00, 0x00,
    0x00, 0x08, 0x00, 0x0c, 0x00, 0x10, 0x00, 0x00, 0x00, 0x00, 0x00, 0x14, 0x00,
    0x14, 0x00, 0x00, 0x00, 0x48, 0x00, 0x00, 0x00, 0x01, 0x00, 0x00, 0x00, 0x20,
    0x00, 0x00, 0x00, 0x50, 0x00, 0x00, 0x00, 0x04, 0x00, 0x00, 0x00, 0x04, 0x00,
    0x00, 0x00, 0xff, 0xff, 0xff, 0xff, 0x04, 0x00, 0x00, 0x00, 0x18, 0x00, 0x00,
    0x00, 0x01, 0x00, 0x00, 0x00, 0x19, 0x00, 0x00, 0x00, 0x73, 0x65, 0x72, 0x76,
    0x69, 0x6e, 0x67, 0x5f, 0x64, 0x65, 0x66, 0x61, 0x75, 0x6c, 0x74, 0x5f, 0x69,
    0x6e, 0x70, 0x75, 0x74, 0x5f, 0x32, 0x3a, 0x30, 0x00, 0x00, 0x00, 0x04, 0x00,
    0x00, 0x00, 0x01, 0x00, 0x00, 0x00, 0x04, 0x00, 0x00, 0x00, 0x18, 0x00, 0x00,
    0x00, 0x01, 0x00, 0x00, 0x00, 0xfc, 0xff, 0xff, 0xff, 0x04, 0x00, 0x04, 0x00,
    0x04, 0x00, 0x00, 0x00,
};

const int vnr_model_data_len = 14200;